#ifndef ABSENCE_H
#define ABSENCE_H

unsigned int absence_model_len = 22728;
unsigned char absence_model[] = {
    0x1c, 0x00, 0x00, 0x00, 0x54, 0x46, 0x4c, 0x33, 0x14, 0x00, 0x20, 0x00,
    0x1c, 0x00, 0x18, 0x00, 0x14, 0x00, 0x10, 0x00, 0x0c, 0x00, 0x00, 0x00,
    0x08, 0x00, 0x04, 0x00, 0x14, 0x00, 0x00, 0x00, 0x1c, 0x00, 0x00, 0x00,
    0x1c, 0x00, 0x00, 0x00, 0x9c, 0x00, 0x00, 0x00, 0x30, 0x27, 0x00, 0x00,
    0x40, 0x27, 0x00, 0x00, 0x84, 0x57, 0x00, 0x00, 0x03, 0x00, 0x00, 0x00,
    0x00, 0x00, 0x00, 0x00, 0x03, 0x00, 0x00, 0x00, 0x5c, 0x00, 0x00, 0x00,
    0x2c, 0x00, 0x00, 0x00, 0x04, 0x00, 0x00, 0x00, 0xb8, 0xff, 0xff, 0xff,
    0x4c, 0x00, 0x00, 0x00, 0x04, 0x00, 0x00, 0x00, 0x13, 0x00, 0x00, 0x00,
    0x43, 0x4f, 0x4e, 0x56, 0x45, 0x52, 0x53, 0x49, 0x4f, 0x4e, 0x5f, 0x4d,
    0x45, 0x54, 0x41, 0x44, 0x41, 0x54, 0x41, 0x00, 0xdc, 0xff, 0xff, 0xff,
    0x4b, 0x00, 0x00, 0x00, 0x04, 0x00, 0x00, 0x00, 0x13, 0x00, 0x00, 0x00,
    0x6d, 0x69, 0x6e, 0x5f, 0x72, 0x75, 0x6e, 0x74, 0x69, 0x6d, 0x65, 0x5f,
    0x76, 0x65, 0x72, 0x73, 0x69, 0x6f, 0x6e, 0x00, 0x08, 0x00, 0x0c, 0x00,
    0x08, 0x00, 0x04, 0x00, 0x08, 0x00, 0x00, 0x00, 0x4a, 0x00, 0x00, 0x00,
    0x04, 0x00, 0x00, 0x00, 0x13, 0x00, 0x00, 0x00, 0x6d, 0x69, 0x6e, 0x5f,
    0x72, 0x75, 0x6e, 0x74, 0x69, 0x6d, 0x65, 0x5f, 0x76, 0x65, 0x72, 0x73,
    0x69, 0x6f, 0x6e, 0x00, 0x4d, 0x00, 0x00, 0x00, 0x90, 0x26, 0x00, 0x00,
    0x88, 0x26, 0x00, 0x00, 0x58, 0x26, 0x00, 0x00, 0x30, 0x26, 0x00, 0x00,
    0x10, 0x26, 0x00, 0x00, 0xf0, 0x25, 0x00, 0x00, 0xd8, 0x25, 0x00, 0x00,
    0xc0, 0x25, 0x00, 0x00, 0xa8, 0x25, 0x00, 0x00, 0x98, 0x24, 0x00, 0x00,
    0x88, 0x22, 0x00, 0x00, 0x78, 0x1a, 0x00, 0x00, 0x28, 0x1a, 0x00, 0x00,
    0x18, 0x19, 0x00, 0x00, 0xc8, 0x18, 0x00, 0x00, 0x28, 0x18, 0x00, 0x00,
    0xd8, 0x17, 0x00, 0x00, 0xc8, 0x0e, 0x00, 0x00, 0x78, 0x0e, 0x00, 0x00,
    0x68, 0x0d, 0x00, 0x00, 0x18, 0x0d, 0x00, 0x00, 0x78, 0x0c, 0x00, 0x00,
    0x28, 0x0c, 0x00, 0x00, 0x18, 0x03, 0x00, 0x00, 0x04, 0x03, 0x00, 0x00,
    0xfc, 0x02, 0x00, 0x00, 0xf4, 0x02, 0x00, 0x00, 0xec, 0x02, 0x00, 0x00,
    0xe4, 0x02, 0x00, 0x00, 0x94, 0x02, 0x00, 0x00, 0xf4, 0x01, 0x00, 0x00,
    0xec, 0x01, 0x00, 0x00, 0xe4, 0x01, 0x00, 0x00, 0xdc, 0x01, 0x00, 0x00,
    0xd4, 0x01, 0x00, 0x00, 0xcc, 0x01, 0x00, 0x00, 0xc4, 0x01, 0x00, 0x00,
    0xbc, 0x01, 0x00, 0x00, 0xb4, 0x01, 0x00, 0x00, 0xac, 0x01, 0x00, 0x00,
    0xa4, 0x01, 0x00, 0x00, 0x9c, 0x01, 0x00, 0x00, 0x94, 0x01, 0x00, 0x00,
    0x8c, 0x01, 0x00, 0x00, 0x84, 0x01, 0x00, 0x00, 0x7c, 0x01, 0x00, 0x00,
    0x74, 0x01, 0x00, 0x00, 0x6c, 0x01, 0x00, 0x00, 0x64, 0x01, 0x00, 0x00,
    0x5c, 0x01, 0x00, 0x00, 0x54, 0x01, 0x00, 0x00, 0x4c, 0x01, 0x00, 0x00,
    0x44, 0x01, 0x00, 0x00, 0x3c, 0x01, 0x00, 0x00, 0x34, 0x01, 0x00, 0x00,
    0x2c, 0x01, 0x00, 0x00, 0x24, 0x01, 0x00, 0x00, 0x1c, 0x01, 0x00, 0x00,
    0x14, 0x01, 0x00, 0x00, 0x0c, 0x01, 0x00, 0x00, 0x04, 0x01, 0x00, 0x00,
    0xfc, 0x00, 0x00, 0x00, 0xf4, 0x00, 0x00, 0x00, 0xec, 0x00, 0x00, 0x00,
    0xe4, 0x00, 0x00, 0x00, 0xdc, 0x00, 0x00, 0x00, 0xd4, 0x00, 0x00, 0x00,
    0xcc, 0x00, 0x00, 0x00, 0xc4, 0x00, 0x00, 0x00, 0xbc, 0x00, 0x00, 0x00,
    0xb4, 0x00, 0x00, 0x00, 0xac, 0x00, 0x00, 0x00, 0xa4, 0x00, 0x00, 0x00,
    0x9c, 0x00, 0x00, 0x00, 0x7c, 0x00, 0x00, 0x00, 0x5c, 0x00, 0x00, 0x00,
    0x04, 0x00, 0x00, 0x00, 0xda, 0xda, 0xff, 0xff, 0x04, 0x00, 0x00, 0x00,
    0x48, 0x00, 0x00, 0x00, 0x04, 0x00, 0x00, 0x00, 0xdc, 0xff, 0xff, 0xff,
    0x10, 0x00, 0x00, 0x00, 0x24, 0x00, 0x00, 0x00, 0x00, 0x00, 0x06, 0x00,
    0x08, 0x00, 0x04, 0x00, 0x06, 0x00, 0x00, 0x00, 0x04, 0x00, 0x00, 0x00,
    0x01, 0x00, 0x00, 0x00, 0xeb, 0x03, 0x00, 0x00, 0x08, 0x00, 0x0c, 0x00,
    0x08, 0x00, 0x04, 0x00, 0x08, 0x00, 0x00, 0x00, 0x01, 0x00, 0x00, 0x00,
    0x04, 0x00, 0x00, 0x00, 0x06, 0x00, 0x00, 0x00, 0x32, 0x2e, 0x31, 0x36,
    0x2e, 0x31, 0x00, 0x00, 0x2e, 0xdb, 0xff, 0xff, 0x04, 0x00, 0x00, 0x00,
    0x10, 0x00, 0x00, 0x00, 0x00, 0x00, 0x00, 0x00, 0x00, 0x00, 0x00, 0x00,
    0x00, 0x00, 0x00, 0x00, 0x00, 0x00, 0x00, 0x00, 0x4a, 0xdb, 0xff, 0xff,
    0x04, 0x00, 0x00, 0x00, 0x10, 0x00, 0x00, 0x00, 0x32, 0x2e, 0x31, 0x2e,
    0x30, 0x00, 0x00, 0x00, 0x00, 0x00, 0x00, 0x00, 0x00, 0x00, 0x00, 0x00,
    0x88, 0xab, 0xff, 0xff, 0x8c, 0xab, 0xff, 0xff, 0x90, 0xab, 0xff, 0xff,
    0x94, 0xab, 0xff, 0xff, 0x98, 0xab, 0xff, 0xff, 0x9c, 0xab, 0xff, 0xff,
    0xa0, 0xab, 0xff, 0xff, 0xa4, 0xab, 0xff, 0xff, 0xa8, 0xab, 0xff, 0xff,
    0xac, 0xab, 0xff, 0xff, 0xb0, 0xab, 0xff, 0xff, 0xb4, 0xab, 0xff, 0xff,
    0xb8, 0xab, 0xff, 0xff, 0xbc, 0xab, 0xff, 0xff, 0xc0, 0xab, 0xff, 0xff,
    0xc4, 0xab, 0xff, 0xff, 0xc8, 0xab, 0xff, 0xff, 0xcc, 0xab, 0xff, 0xff,
    0xd0, 0xab, 0xff, 0xff, 0xd4, 0xab, 0xff, 0xff, 0xd8, 0xab, 0xff, 0xff,
    0xdc, 0xab, 0xff, 0xff, 0xe0, 0xab, 0xff, 0xff, 0xe4, 0xab, 0xff, 0xff,
    0xe8, 0xab, 0xff, 0xff, 0xec, 0xab, 0xff, 0xff, 0xf0, 0xab, 0xff, 0xff,
    0xf4, 0xab, 0xff, 0xff, 0xf8, 0xab, 0xff, 0xff, 0xfc, 0xab, 0xff, 0xff,
    0x00, 0xac, 0xff, 0xff, 0x04, 0xac, 0xff, 0xff, 0x08, 0xac, 0xff, 0xff,
    0x0c, 0xac, 0xff, 0xff, 0x10, 0xac, 0xff, 0xff, 0x14, 0xac, 0xff, 0xff,
    0x18, 0xac, 0xff, 0xff, 0x1c, 0xac, 0xff, 0xff, 0x20, 0xac, 0xff, 0xff,
    0x24, 0xac, 0xff, 0xff, 0x28, 0xac, 0xff, 0xff, 0x2c, 0xac, 0xff, 0xff,
    0x30, 0xac, 0xff, 0xff, 0x12, 0xdc, 0xff, 0xff, 0x04, 0x00, 0x00, 0x00,
    0x90, 0x00, 0x00, 0x00, 0x41, 0x3c, 0xe4, 0x48, 0x4c, 0x2a, 0xb3, 0xe1,
    0x81, 0x5b, 0x2b, 0x76, 0x59, 0x38, 0x18, 0x11, 0x8a, 0x7f, 0x38, 0x16,
    0x67, 0x81, 0xfb, 0x19, 0x56, 0x64, 0x0a, 0xee, 0xaa, 0x7f, 0x89, 0x5d,
    0x8c, 0xc7, 0xa0, 0x8f, 0x9c, 0x98, 0x7f, 0x58, 0x1f, 0x55, 0x95, 0x87,
    0x40, 0xf0, 0x40, 0x9a, 0x3f, 0x7f, 0xc9, 0xc6, 0x9c, 0x86, 0xf5, 0x07,
    0x8d, 0x4d, 0x81, 0x0e, 0x8a, 0x89, 0xbe, 0x76, 0xc3, 0x64, 0x62, 0x0b,
    0xb8, 0x7f, 0x36, 0x3f, 0xf5, 0x70, 0x0f, 0x75, 0x29, 0xe4, 0x7f, 0xa9,
    0x63, 0x7f, 0x99, 0x38, 0x9b, 0x8c, 0xfe, 0x0f, 0x8e, 0x9e, 0xcc, 0x58,
    0xad, 0x44, 0x86, 0x6b, 0x8c, 0x8f, 0x81, 0x81, 0x64, 0x62, 0x78, 0x0c,
    0x2d, 0x2a, 0xa1, 0x19, 0x96, 0x1a, 0xc0, 0x99, 0x66, 0x81, 0x41, 0xcd,
    0xfb, 0xad, 0x82, 0x1f, 0xb8, 0x41, 0x45, 0x3b, 0x9f, 0x81, 0x39, 0xbc,
    0xa7, 0x7f, 0xac, 0x70, 0x40, 0x41, 0xb7, 0x51, 0xd3, 0x81, 0x37, 0x92,
    0x0e, 0xc9, 0xa5, 0x96, 0xae, 0xdc, 0xff, 0xff, 0x04, 0x00, 0x00, 0x00,
    0x40, 0x00, 0x00, 0x00, 0xb1, 0xdd, 0xff, 0xff, 0xb1, 0xb7, 0xfe, 0xff,
    0xa8, 0x33, 0xff, 0xff, 0xd6, 0x23, 0x01, 0x00, 0x9d, 0x12, 0x00, 0x00,
    0xb0, 0x96, 0x00, 0x00, 0x83, 0x5f, 0x01, 0x00, 0xb5, 0xc2, 0xfe, 0xff,
    0x67, 0xe3, 0xfe, 0xff, 0xb3, 0x0e, 0x01, 0x00, 0xf9, 0x06, 0x01, 0x00,
    0xb9, 0x58, 0xff, 0xff, 0xcb, 0xc1, 0x00, 0x00, 0x10, 0xd1, 0x00, 0x00,
    0x61, 0xb4, 0xff, 0xff, 0x63, 0x31, 0x01, 0x00, 0x1c, 0xad, 0xff, 0xff,
    0x20, 0xad, 0xff, 0xff, 0x24, 0xad, 0xff, 0xff, 0x28, 0xad, 0xff, 0xff,
    0x0a, 0xdd, 0xff, 0xff, 0x04, 0x00, 0x00, 0x00, 0x01, 0x00, 0x00, 0x00,
    0x7f, 0x00, 0x00, 0x00, 0x1a, 0xdd, 0xff, 0xff, 0x04, 0x00, 0x00, 0x00,
    0x00, 0x09, 0x00, 0x00, 0x0b, 0xf6, 0x2a, 0xb7, 0xf0, 0x2e, 0x13, 0xa8,
    0xf2, 0xd1, 0x33, 0xec, 0xbd, 0x1c, 0x41, 0x26, 0xf9, 0x2a, 0x55, 0x50,
    0x4f, 0xb3, 0x3e, 0x44, 0x1d, 0xce, 0x24, 0x1a, 0x3a, 0xc6, 0xd8, 0x10,
    0xdc, 0x47, 0xcf, 0x02, 0x2b, 0xd8, 0x33, 0xe2, 0x39, 0xe4, 0x06, 0xd3,
    0x0d, 0xf7, 0x29, 0xbe, 0x46, 0x11, 0x22, 0x02, 0x2b, 0xf9, 0xd5, 0x19,
    0xe1, 0xbf, 0x49, 0xc6, 0x12, 0x0b, 0xbe, 0x45, 0xdb, 0x3f, 0x06, 0xb4,
    0xf2, 0xfc, 0xec, 0xd2, 0xab, 0x3a, 0xc5, 0xc0, 0x0f, 0xaa, 0xbe, 0x9f,
    0x3e, 0x96, 0x03, 0xc8, 0x16, 0x55, 0xf6, 0x06, 0x1d, 0x48, 0xdb, 0x45,
    0x08, 0x53, 0xac, 0xb7, 0x26, 0xf8, 0x06, 0x1a, 0xf7, 0xdf, 0x31, 0xb7,
    0xe9, 0xcf, 0xf3, 0x32, 0xe3, 0xb3, 0xdc, 0x38, 0x3c, 0x0e, 0x01, 0x9b,
    0xb0, 0x93, 0xf5, 0x2b, 0x50, 0x81, 0x11, 0x0b, 0xb1, 0xdd, 0xe8, 0xdf,
    0x28, 0x12, 0x1e, 0xd1, 0x27, 0xe0, 0xde, 0x41, 0xb1, 0xdb, 0x1f, 0x97,
    0x1d, 0x17, 0xf5, 0xa4, 0xb8, 0xeb, 0xc7, 0x20, 0xf8, 0x22, 0x04, 0x4a,
    0x00, 0x29, 0x12, 0x0d, 0xd6, 0x2c, 0x60, 0x25, 0x3f, 0xa6, 0x1b, 0x98,
    0x9a, 0xc5, 0x2d, 0x12, 0xdd, 0xd6, 0x16, 0xc6, 0x14, 0xec, 0xba, 0xc7,
    0xcd, 0x47, 0xfe, 0xd0, 0x4c, 0xb4, 0x06, 0x8e, 0xce, 0xc3, 0x3f, 0x97,
    0x04, 0xa3, 0x3d, 0xf6, 0xad, 0x09, 0x16, 0xb2, 0xb5, 0x9d, 0x5f, 0x30,
    0xc4, 0x73, 0x18, 0x1c, 0xb4, 0x05, 0xf5, 0x45, 0x40, 0x0a, 0xf0, 0x27,
    0x9b, 0xa7, 0x1a, 0xa4, 0xd0, 0xfd, 0x20, 0x75, 0xcd, 0x60, 0x31, 0xec,
    0x9d, 0x3c, 0xc5, 0x35, 0x97, 0xb2, 0x18, 0x25, 0x07, 0x31, 0x18, 0x35,
    0x1c, 0x7f, 0x19, 0x24, 0x40, 0x54, 0x64, 0x46, 0xd2, 0x16, 0xb3, 0x6c,
    0x38, 0x81, 0xb3, 0xdb, 0xb9, 0x48, 0x48, 0x82, 0x35, 0xde, 0x23, 0x92,
    0xe1, 0xbf, 0x93, 0x6c, 0xd7, 0xf3, 0xde, 0xca, 0x06, 0xc8, 0xae, 0xb4,
    0x5f, 0x0b, 0x3d, 0xf5, 0xf6, 0x83, 0xe0, 0x37, 0x4f, 0xa9, 0xc3, 0x69,
    0xe1, 0xde, 0x01, 0x08, 0xca, 0x26, 0x60, 0xaf, 0xe3, 0x15, 0x2d, 0x31,
    0x23, 0xfe, 0x22, 0x51, 0x9b, 0x36, 0xfe, 0xdb, 0x0d, 0xcd, 0x38, 0xdd,
    0xc8, 0xf0, 0x26, 0x77, 0xc0, 0x21, 0xc3, 0x61, 0xb1, 0xdd, 0x12, 0xbb,
    0xdd, 0x2a, 0x46, 0xa7, 0xca, 0xb0, 0x34, 0xda, 0xc5, 0xe9, 0x08, 0xcc,
    0xe8, 0xce, 0xcd, 0xf0, 0x81, 0x63, 0x13, 0x0a, 0xc5, 0x62, 0xcc, 0x6b,
    0x2d, 0xfa, 0x13, 0x07, 0x12, 0x11, 0x09, 0x1f, 0x2d, 0xbf, 0x0d, 0xc0,
    0xd0, 0x38, 0x32, 0x0d, 0x44, 0xf2, 0x6a, 0x53, 0xa7, 0x04, 0xd9, 0xd6,
    0x29, 0x02, 0x6e, 0xbd, 0x22, 0x03, 0x47, 0xb5, 0x4d, 0xf9, 0xd7, 0xa5,
    0x37, 0x67, 0xe9, 0x66, 0xab, 0xe8, 0xca, 0x0c, 0xec, 0x42, 0x61, 0xb3,
    0x1c, 0xb4, 0xa6, 0x0a, 0x42, 0x25, 0xfa, 0x07, 0x31, 0xe2, 0x16, 0xb3,
    0xbd, 0xf9, 0x0f, 0xe8, 0xf6, 0xd4, 0x19, 0xb6, 0x14, 0x1a, 0xa6, 0xfe,
    0x0b, 0xe9, 0x1b, 0xce, 0xf6, 0x2c, 0xda, 0x4c, 0x2b, 0x25, 0xa1, 0xec,
    0xe1, 0x01, 0xbc, 0xb7, 0xdf, 0xc8, 0xb8, 0xca, 0xc5, 0x3a, 0xfe, 0xab,
    0xc1, 0xf9, 0x53, 0xd2, 0x36, 0xf6, 0x58, 0xd6, 0xf1, 0xd5, 0xab, 0xe4,
    0xe8, 0xeb, 0x9f, 0xe9, 0xbc, 0x34, 0xf0, 0x73, 0xbb, 0x1b, 0xf7, 0x16,
    0x2e, 0xdf, 0x99, 0x46, 0x77, 0xc3, 0xca, 0x4c, 0xe2, 0xcc, 0x5a, 0x15,
    0x2c, 0x56, 0x16, 0xaa, 0x36, 0x25, 0xa5, 0x86, 0xb0, 0x8c, 0x2d, 0x18,
    0xb6, 0x16, 0x95, 0xb2, 0x9f, 0x15, 0x06, 0xd7, 0x3d, 0x28, 0x48, 0x39,
    0x2f, 0xe0, 0x3b, 0x24, 0x2b, 0xfa, 0xf6, 0x4a, 0xe8, 0xc0, 0x7d, 0x23,
    0xe4, 0x6a, 0xed, 0xa8, 0x09, 0x35, 0x01, 0xc6, 0x21, 0x39, 0xf0, 0x6b,
    0xd0, 0x09, 0x21, 0xa3, 0xdb, 0x2a, 0x11, 0x85, 0xac, 0xe0, 0xaf, 0x7b,
    0x52, 0x5a, 0x8f, 0x7d, 0x25, 0xb1, 0x02, 0xd4, 0xfc, 0x7f, 0x5e, 0x3c,
    0xf9, 0x35, 0x03, 0x21, 0xdf, 0xd7, 0xc3, 0xe7, 0x8e, 0xc6, 0x18, 0x95,
    0xff, 0xb6, 0x08, 0x8c, 0xc7, 0xb8, 0x1c, 0x26, 0x42, 0x90, 0x53, 0x46,
    0x54, 0xea, 0x95, 0xa9, 0x08, 0xe0, 0xcf, 0x10, 0xf4, 0xe6, 0xac, 0x9c,
    0xa7, 0x16, 0x5c, 0xe1, 0xdd, 0xf1, 0x09, 0x2f, 0x29, 0x93, 0xe2, 0xbb,
    0xcb, 0x28, 0x41, 0xaf, 0x0b, 0x4b, 0xb9, 0xfe, 0x21, 0x3d, 0x4f, 0x14,
    0x42, 0x09, 0x21, 0x42, 0xf2, 0x67, 0xbe, 0x29, 0xb4, 0x27, 0xf8, 0xe6,
    0x2c, 0xf6, 0x2b, 0xde, 0xe9, 0xe3, 0x35, 0x3a, 0x4c, 0xcb, 0x05, 0xc1,
    0x42, 0x5c, 0xac, 0xb6, 0xc9, 0xe5, 0x0b, 0x47, 0x15, 0xc1, 0xea, 0xcb,
    0x1d, 0xe4, 0x07, 0x07, 0xb2, 0x2a, 0x3b, 0x22, 0x3f, 0x00, 0x0d, 0xa9,
    0xef, 0xea, 0x8e, 0xe1, 0x9c, 0xe3, 0x48, 0x2f, 0xc2, 0xb7, 0xba, 0x9c,
    0xb4, 0xda, 0xa6, 0x60, 0x19, 0x2d, 0xbe, 0xe4, 0x97, 0x05, 0x06, 0xb2,
    0x32, 0xb5, 0x24, 0x1a, 0x01, 0x4e, 0x07, 0xaa, 0xd6, 0xa2, 0xd3, 0xd2,
    0xa6, 0x3e, 0x18, 0x44, 0xeb, 0x03, 0x2b, 0x05, 0x3b, 0xf6, 0xdc, 0xe8,
    0x13, 0xf8, 0x81, 0xd5, 0x16, 0x03, 0x04, 0xc9, 0x40, 0xd6, 0xde, 0xaf,
    0xd0, 0xe6, 0x18, 0x58, 0x9e, 0x04, 0x7f, 0x95, 0xb0, 0x3c, 0xe4, 0x4f,
    0x70, 0x3d, 0x04, 0xc7, 0xea, 0xab, 0xd0, 0x48, 0xe7, 0xa7, 0x24, 0x1b,
    0xe1, 0xde, 0xfb, 0xc3, 0x02, 0x0d, 0x18, 0xc5, 0x4d, 0x31, 0xec, 0x49,
    0xec, 0xf0, 0x27, 0xce, 0x5d, 0x18, 0x00, 0xd7, 0xa4, 0x49, 0x0d, 0x50,
    0x1d, 0x2a, 0xb7, 0x27, 0x02, 0x11, 0xec, 0x30, 0x1e, 0x17, 0xc3, 0x50,
    0x13, 0xbd, 0x06, 0x6d, 0xa0, 0xda, 0xde, 0x0f, 0x4c, 0x47, 0x06, 0x5b,
    0x58, 0x3f, 0x0a, 0xd5, 0xdc, 0xfe, 0x19, 0x24, 0xfc, 0xf5, 0xa1, 0x1c,
    0x23, 0xef, 0xc5, 0x0d, 0x17, 0x30, 0x1d, 0xe4, 0x3e, 0xc3, 0x52, 0xd9,
    0x05, 0x27, 0xe6, 0xf5, 0xf9, 0x60, 0x56, 0xda, 0xcc, 0x92, 0x3f, 0x32,
    0x31, 0x29, 0x2a, 0xf3, 0x24, 0xfc, 0xa8, 0x82, 0xd3, 0x2c, 0x9f, 0x33,
    0x09, 0x1d, 0x49, 0xdf, 0x2c, 0x73, 0xf8, 0x15, 0x15, 0x24, 0x3b, 0xa8,
    0x5c, 0xcf, 0xf7, 0xbb, 0x2e, 0x31, 0xe4, 0x4e, 0x0e, 0xe0, 0xff, 0xe2,
    0x2c, 0x26, 0xc2, 0x50, 0xa0, 0xaf, 0x4c, 0xd9, 0x42, 0xf2, 0xfb, 0x4a,
    0x0a, 0xb6, 0xf1, 0xc7, 0x14, 0xcc, 0xea, 0x9c, 0xfb, 0x3b, 0xc9, 0x38,
    0x54, 0x53, 0x25, 0xf0, 0x27, 0x54, 0x32, 0x5a, 0xb1, 0xe1, 0x33, 0x3c,
    0xbd, 0x60, 0x59, 0x02, 0x9e, 0x0f, 0xd9, 0x4b, 0x4c, 0xcb, 0xdf, 0xfd,
    0x22, 0xce, 0xdd, 0x9d, 0x66, 0x62, 0x06, 0xe7, 0xeb, 0xd3, 0xe4, 0x23,
    0xc7, 0x2b, 0x18, 0xae, 0x9d, 0xbc, 0xa2, 0x40, 0xb7, 0xbc, 0xa8, 0xf5,
    0xdd, 0x61, 0xc5, 0x18, 0x28, 0x30, 0x20, 0xbc, 0x7f, 0xa3, 0x4b, 0xe4,
    0x62, 0xeb, 0x4a, 0xfb, 0xe0, 0xe9, 0xe5, 0x0b, 0x0c, 0x43, 0x8c, 0xd3,
    0xaf, 0xfd, 0x5c, 0x02, 0x12, 0xc1, 0xad, 0x65, 0x36, 0x62, 0x21, 0x64,
    0xed, 0x3f, 0x97, 0xc8, 0xa9, 0x11, 0xca, 0x93, 0x8a, 0xef, 0x16, 0xb0,
    0x20, 0x55, 0x62, 0xe4, 0xa6, 0xc4, 0x32, 0xf8, 0x3e, 0x15, 0x9c, 0x34,
    0xb4, 0x1e, 0xc4, 0x48, 0x10, 0xee, 0x60, 0x5c, 0x65, 0xa5, 0x91, 0x9e,
    0x6c, 0x41, 0x27, 0xf1, 0x3d, 0x27, 0x47, 0x17, 0x08, 0x35, 0x14, 0x41,
    0x1c, 0x10, 0x48, 0x00, 0x48, 0x0e, 0xd7, 0xb6, 0x9f, 0x5f, 0x3a, 0xb2,
    0xe6, 0xb7, 0xa5, 0x1a, 0xdb, 0x1d, 0x29, 0x90, 0xbe, 0x48, 0xe6, 0x6b,
    0xdd, 0x48, 0x14, 0xa3, 0x21, 0x00, 0x8d, 0xae, 0xbf, 0x21, 0x32, 0x47,
    0x52, 0xc9, 0xa8, 0xe0, 0x81, 0xb8, 0x1a, 0x91, 0x0e, 0x13, 0x53, 0xdf,
    0x37, 0x57, 0x1d, 0xfd, 0xe3, 0x4e, 0x97, 0x19, 0x0a, 0xbb, 0xa2, 0xe5,
    0x89, 0xd8, 0x0b, 0x42, 0xc6, 0x69, 0x00, 0x33, 0x30, 0x99, 0x9a, 0xab,
    0xd3, 0x0f, 0x0b, 0xf5, 0x07, 0x2f, 0x3d, 0x09, 0xf0, 0xee, 0xbc, 0x4e,
    0x58, 0xff, 0x97, 0xf5, 0xf0, 0x64, 0xba, 0x23, 0xf0, 0xaf, 0xba, 0x9a,
    0x40, 0xe3, 0x06, 0xb7, 0x41, 0xab, 0xfa, 0x24, 0x1f, 0x06, 0x90, 0x4c,
    0xc4, 0x9c, 0xa6, 0xb8, 0x40, 0xbc, 0x9a, 0x91, 0x08, 0xc5, 0xd8, 0xfb,
    0x26, 0x58, 0x59, 0xe7, 0xd4, 0xb8, 0x9c, 0xd5, 0xe6, 0xb6, 0xe0, 0x87,
    0xb7, 0xd0, 0x54, 0x5e, 0x46, 0xba, 0x83, 0x29, 0x0d, 0x38, 0x57, 0xdd,
    0x89, 0xad, 0xa4, 0xde, 0x2b, 0x35, 0x67, 0x34, 0x31, 0x06, 0x10, 0x9d,
    0x03, 0x31, 0xb3, 0x49, 0xdf, 0x24, 0x28, 0xe0, 0xe2, 0x7d, 0x57, 0x29,
    0x1f, 0x2b, 0x28, 0x9f, 0x33, 0xfa, 0x33, 0x23, 0x12, 0xe7, 0x3a, 0xee,
    0x09, 0x78, 0x52, 0x2b, 0xbf, 0x52, 0x9b, 0x81, 0xfc, 0x2a, 0x16, 0x18,
    0x01, 0x26, 0x94, 0x03, 0xf2, 0x35, 0x0e, 0x23, 0x46, 0x30, 0xa8, 0xd8,
    0x13, 0xcd, 0x03, 0xe2, 0x42, 0x9c, 0xec, 0x46, 0xe4, 0xbb, 0x32, 0x8c,
    0x45, 0xf8, 0xd6, 0x1a, 0xce, 0x35, 0x1e, 0x47, 0x33, 0xc4, 0xc2, 0xc6,
    0x96, 0xbd, 0xed, 0x81, 0x39, 0x0a, 0x57, 0x2a, 0xa5, 0xb1, 0xe2, 0x14,
    0xb6, 0xc9, 0xb0, 0x32, 0x40, 0xa6, 0x3c, 0xe2, 0x18, 0xc8, 0xe5, 0xe4,
    0x39, 0x47, 0x2f, 0x10, 0x60, 0xe1, 0xf5, 0xb1, 0xd1, 0x0e, 0x0b, 0x37,
    0xe3, 0xd8, 0xf6, 0xf5, 0x0e, 0x40, 0x93, 0x2e, 0x23, 0xab, 0xdc, 0x37,
    0x3e, 0xbb, 0x17, 0x3e, 0x28, 0xdb, 0xc7, 0xce, 0xfc, 0x5b, 0xf8, 0xb7,
    0x68, 0xcc, 0x8e, 0x69, 0x1b, 0xd5, 0x69, 0xa4, 0xe8, 0xbd, 0x50, 0x96,
    0xa6, 0x42, 0x36, 0x97, 0x2e, 0xb8, 0x11, 0xad, 0x3a, 0xc7, 0x35, 0x66,
    0x1b, 0x72, 0x10, 0x09, 0x9f, 0xdc, 0xb6, 0x94, 0xc2, 0xef, 0x29, 0x21,
    0x97, 0xbb, 0x6f, 0xc8, 0xfd, 0x79, 0xc8, 0x40, 0xe6, 0xa3, 0xd8, 0x41,
    0xb1, 0xaa, 0x34, 0x00, 0x6f, 0x52, 0xc1, 0xa6, 0x31, 0xa6, 0xe2, 0xfd,
    0x48, 0x61, 0x53, 0xf2, 0x42, 0xe0, 0x26, 0xcd, 0xc3, 0x7a, 0x61, 0xbc,
    0xc1, 0x9c, 0xe3, 0x4e, 0x28, 0x59, 0xe2, 0x09, 0x6a, 0xe8, 0xf3, 0x12,
    0x2d, 0x0e, 0x03, 0xf4, 0x49, 0x38, 0xe8, 0xb6, 0x40, 0xf5, 0x33, 0x9e,
    0x1f, 0x25, 0xe8, 0xfa, 0xa2, 0x28, 0xc4, 0xea, 0x2c, 0xf8, 0xf6, 0x26,
    0xb2, 0x25, 0x1a, 0x76, 0x9c, 0x66, 0x67, 0x3a, 0xed, 0xcc, 0x1c, 0xdb,
    0xac, 0x4f, 0x7f, 0x5c, 0x45, 0x93, 0x09, 0xcb, 0xb8, 0xa7, 0x1a, 0x3f,
    0xd3, 0x90, 0x60, 0x15, 0x74, 0x23, 0x02, 0x0e, 0xbc, 0x16, 0xa7, 0x32,
    0x47, 0xec, 0xd3, 0x13, 0x2d, 0x29, 0xcf, 0xd7, 0xe5, 0x3b, 0x30, 0x71,
    0xd7, 0x10, 0x05, 0x36, 0x61, 0x4c, 0xbf, 0xe8, 0xd0, 0xe1, 0x18, 0xcd,
    0x33, 0xe8, 0xcf, 0x1b, 0x98, 0x3f, 0x48, 0x61, 0x47, 0xb3, 0x59, 0x31,
    0x17, 0x12, 0xca, 0x2f, 0x59, 0xa1, 0xf4, 0x77, 0xbc, 0x06, 0x60, 0x2f,
    0x0b, 0xf3, 0x16, 0x18, 0xd5, 0x43, 0xc3, 0xa6, 0xe4, 0xce, 0xfa, 0x49,
    0x52, 0xad, 0x7f, 0xfa, 0xe1, 0xae, 0xbd, 0xa7, 0x17, 0x7b, 0xcc, 0x03,
    0x69, 0xa0, 0xe4, 0x47, 0x5b, 0xe2, 0xe5, 0xce, 0x62, 0x54, 0xe6, 0x97,
    0xda, 0x5c, 0xd2, 0x16, 0x45, 0xa3, 0x40, 0xe7, 0x4d, 0x53, 0xce, 0xfa,
    0xf8, 0x56, 0x3a, 0xd9, 0x4d, 0x57, 0xdc, 0xea, 0xcc, 0xa1, 0x81, 0x0e,
    0xc7, 0xe7, 0x3a, 0xd4, 0xb4, 0xcd, 0x1e, 0xfc, 0xe8, 0x7d, 0x3a, 0xce,
    0x32, 0xb5, 0xf4, 0x23, 0x4e, 0x02, 0x6f, 0x99, 0xaa, 0xd6, 0xd1, 0x9c,
    0x79, 0x2a, 0xe4, 0x6f, 0xc0, 0xd1, 0x8e, 0x48, 0xce, 0x29, 0x59, 0x34,
    0x65, 0x42, 0xab, 0x05, 0xd0, 0x86, 0x2c, 0xfe, 0x39, 0x33, 0xc7, 0xe6,
    0xe7, 0x07, 0x29, 0x03, 0x51, 0x4a, 0x98, 0x81, 0xce, 0x40, 0x65, 0x48,
    0x9b, 0x1c, 0x2d, 0xf9, 0x48, 0x20, 0x39, 0x96, 0xc9, 0xd9, 0xa2, 0x13,
    0xd1, 0xd4, 0x71, 0x95, 0x68, 0xa9, 0x01, 0xef, 0x52, 0x15, 0xba, 0x06,
    0xde, 0x1c, 0xb3, 0x21, 0x45, 0xfe, 0x69, 0xfc, 0x07, 0x20, 0x94, 0xcc,
    0x16, 0x41, 0x9a, 0x60, 0x30, 0x6d, 0x83, 0x2f, 0xc8, 0x0f, 0x70, 0xc5,
    0x28, 0xc1, 0xc6, 0x2c, 0xfa, 0xb2, 0x0d, 0x93, 0xb0, 0x00, 0x1c, 0xb0,
    0xfe, 0xab, 0x97, 0xec, 0xdd, 0xff, 0xc9, 0xdd, 0x41, 0x18, 0xd9, 0x79,
    0xe5, 0x81, 0x46, 0xe1, 0xb5, 0x19, 0x37, 0x9a, 0xf7, 0x96, 0xa5, 0x8b,
    0x40, 0x98, 0x0b, 0x4f, 0xe5, 0x0f, 0x22, 0xb2, 0x38, 0xbf, 0xbe, 0x19,
    0x56, 0xd8, 0xe8, 0xed, 0xab, 0xbf, 0x6a, 0xe5, 0x00, 0xf4, 0x3e, 0xdc,
    0x46, 0xb2, 0x7e, 0x3a, 0x44, 0xe3, 0x10, 0x95, 0xc2, 0x9e, 0x24, 0xa4,
    0xb3, 0x32, 0x96, 0xcc, 0xc5, 0xa1, 0xbb, 0x92, 0x66, 0xd2, 0x34, 0xf4,
    0x14, 0xb0, 0x2d, 0xaa, 0x09, 0xd6, 0x5a, 0x8c, 0x27, 0xcf, 0x73, 0xf2,
    0xb6, 0xd9, 0x0b, 0x3a, 0xbe, 0xcb, 0xe8, 0xb8, 0x3a, 0x9b, 0x36, 0x6a,
    0xeb, 0x9d, 0xcd, 0x61, 0x65, 0xee, 0x28, 0xea, 0x1b, 0xba, 0xb2, 0xfd,
    0x9c, 0x01, 0x5f, 0xae, 0x89, 0x44, 0x29, 0x0a, 0xd3, 0x28, 0xf8, 0x9d,
    0x92, 0x0f, 0xe8, 0xa2, 0x1b, 0xc9, 0xb4, 0x8e, 0xbc, 0x50, 0xbc, 0xf1,
    0x27, 0x33, 0x02, 0xd4, 0x11, 0xdd, 0x7f, 0x01, 0xdd, 0xaf, 0xb2, 0x5d,
    0x54, 0xd7, 0x2b, 0x46, 0xcf, 0x37, 0xcd, 0xd0, 0xdc, 0xe3, 0x06, 0x09,
    0x03, 0x00, 0x8c, 0x4a, 0x2b, 0x35, 0x7b, 0x47, 0x8d, 0xa8, 0xf8, 0xf2,
    0x0c, 0xa2, 0x2b, 0x75, 0x10, 0xed, 0x07, 0xbe, 0xad, 0x91, 0x0d, 0x63,
    0x21, 0x44, 0xd7, 0x59, 0xd2, 0x13, 0xf3, 0x5e, 0x5b, 0xcf, 0x09, 0x9a,
    0x05, 0x01, 0x81, 0x30, 0x11, 0x15, 0x0a, 0x13, 0x33, 0x3a, 0xbc, 0xcb,
    0x2e, 0xbd, 0x29, 0x1f, 0x49, 0x1e, 0x23, 0xd4, 0x21, 0xb6, 0xed, 0xdb,
    0x1b, 0xe7, 0x8b, 0xbc, 0xcd, 0x02, 0x2c, 0x36, 0xa8, 0x4a, 0x96, 0x2b,
    0xb4, 0xe7, 0xe6, 0xed, 0xb6, 0x17, 0xc5, 0x20, 0xf2, 0x38, 0x2b, 0xec,
    0x87, 0x99, 0x43, 0xe8, 0xb0, 0xe1, 0x2c, 0xad, 0xf2, 0x13, 0x16, 0x28,
    0x1c, 0xa5, 0xdc, 0x25, 0xe8, 0xa9, 0x2a, 0xcc, 0x20, 0x3d, 0x41, 0xb4,
    0x1a, 0xff, 0x14, 0xdb, 0x43, 0x21, 0xcc, 0xe8, 0xda, 0xbc, 0xe4, 0x2f,
    0x60, 0xbe, 0x5c, 0x0e, 0xe1, 0xfc, 0x01, 0xb1, 0x04, 0x3a, 0xb5, 0xdd,
    0x0b, 0x03, 0x26, 0x21, 0xaa, 0xb2, 0xd3, 0x33, 0xe8, 0x49, 0x32, 0xd0,
    0xfd, 0x03, 0xc6, 0x24, 0x96, 0xa9, 0x34, 0x40, 0xce, 0x31, 0xa3, 0xbb,
    0x33, 0xaa, 0xdf, 0xee, 0xaf, 0x81, 0x1c, 0xd1, 0xb0, 0x14, 0xdc, 0x0a,
    0xbc, 0xe2, 0xd1, 0x43, 0x1e, 0xb2, 0x0a, 0x3c, 0xb0, 0xb6, 0xde, 0x9d,
    0xbf, 0xeb, 0xc8, 0x0d, 0xc5, 0x4e, 0x67, 0xd1, 0xc7, 0x99, 0x30, 0x67,
    0x6d, 0x90, 0xe8, 0x27, 0xd1, 0xf9, 0xe1, 0x32, 0x9a, 0x15, 0x02, 0x3e,
    0x1b, 0xcb, 0x93, 0x60, 0xed, 0xb5, 0xa0, 0x65, 0xa3, 0x05, 0x2b, 0x25,
    0xc2, 0xfa, 0x10, 0x07, 0x04, 0xaf, 0x0b, 0xf8, 0xde, 0x30, 0xb9, 0x09,
    0x46, 0xf0, 0x1c, 0x81, 0xd8, 0x72, 0x15, 0xd9, 0x28, 0x1e, 0xd5, 0xd2,
    0x60, 0x5c, 0xab, 0xee, 0x64, 0x3a, 0xb0, 0x25, 0xc3, 0x24, 0xe6, 0xbd,
    0x19, 0x00, 0xf9, 0x37, 0x29, 0x5c, 0xba, 0xce, 0x12, 0xb2, 0xdd, 0xee,
    0xca, 0x32, 0xe6, 0x47, 0xaf, 0xa5, 0x3e, 0xec, 0xcf, 0xa1, 0x17, 0x1a,
    0xc1, 0x24, 0x1d, 0x54, 0x1f, 0x18, 0xce, 0x23, 0x3f, 0xa2, 0x18, 0x2e,
    0xb7, 0x46, 0x29, 0x6c, 0xe3, 0xa2, 0x9f, 0x12, 0xf3, 0x3b, 0x08, 0xc4,
    0xee, 0x24, 0x14, 0xcc, 0x0e, 0x42, 0x3c, 0x3e, 0xef, 0xe1, 0xf6, 0xac,
    0x05, 0xc4, 0xea, 0x54, 0x34, 0xd3, 0xfa, 0xfa, 0x5b, 0xf7, 0xff, 0x0e,
    0x64, 0x3d, 0x2f, 0x25, 0xf9, 0xfa, 0x4d, 0x62, 0xf6, 0x17, 0xbb, 0xe8,
    0x99, 0x1d, 0xf4, 0x4d, 0xf1, 0xc6, 0x21, 0xcf, 0x44, 0xd3, 0x2c, 0x52,
    0x38, 0x40, 0x6d, 0x3e, 0x0a, 0x53, 0x37, 0xae, 0x64, 0x25, 0x60, 0xf1,
    0x7f, 0xc2, 0x57, 0xb7, 0xd9, 0x47, 0xc9, 0xa0, 0xdc, 0xb2, 0xd6, 0xd1,
    0xb9, 0xb4, 0x12, 0x02, 0x0a, 0xf8, 0x51, 0x1b, 0x27, 0xd5, 0xb8, 0xc7,
    0xcd, 0x60, 0xa9, 0xf3, 0xc1, 0xf9, 0xfe, 0xf1, 0xb0, 0xb9, 0x58, 0xe6,
    0x33, 0x3e, 0x59, 0xb1, 0xce, 0x62, 0xb5, 0xd8, 0xae, 0x08, 0xf9, 0xb0,
    0x00, 0xcb, 0x22, 0x61, 0x39, 0xb9, 0xa7, 0x0a, 0x00, 0xc9, 0xd0, 0x55,
    0xff, 0xcf, 0x6d, 0x49, 0xe1, 0x0c, 0x5c, 0xd3, 0x4e, 0x3f, 0xa9, 0x27,
    0xfc, 0x1c, 0xcb, 0xd4, 0x0d, 0x1a, 0x55, 0xf8, 0xec, 0x98, 0x36, 0x16,
    0x5f, 0x59, 0xe8, 0x1b, 0x35, 0x20, 0xe0, 0xea, 0xe7, 0x46, 0x20, 0xa8,
    0x33, 0xb2, 0x08, 0x01, 0x1d, 0x45, 0xf0, 0xe9, 0x2e, 0x51, 0xbf, 0xe7,
    0xa9, 0x9d, 0x26, 0x2a, 0x26, 0xe6, 0xff, 0xff, 0x04, 0x00, 0x00, 0x00,
    0x40, 0x00, 0x00, 0x00, 0x00, 0x00, 0x00, 0x00, 0x00, 0x00, 0x00, 0x00,
    0x00, 0x00, 0x00, 0x00, 0x00, 0x00, 0x00, 0x00, 0x00, 0x00, 0x00, 0x00,
    0x00, 0x00, 0x00, 0x00, 0x00, 0x00, 0x00, 0x00, 0x00, 0x00, 0x00, 0x00,
    0x00, 0x00, 0x00, 0x00, 0x00, 0x00, 0x00, 0x00, 0x00, 0x00, 0x00, 0x00,
    0x00, 0x00, 0x00, 0x00, 0x00, 0x00, 0x00, 0x00, 0x00, 0x00, 0x00, 0x00,
    0x00, 0x00, 0x00, 0x00, 0x00, 0x00, 0x00, 0x00, 0x72, 0xe6, 0xff, 0xff,
    0x04, 0x00, 0x00, 0x00, 0x90, 0x00, 0x00, 0x00, 0xd0, 0x81, 0xdb, 0x9f,
    0xfd, 0xce, 0x9e, 0xf1, 0x9e, 0x16, 0x1e, 0x10, 0x0a, 0x7f, 0x9c, 0x20,
    0x03, 0xdb, 0x44, 0xfa, 0x16, 0x09, 0x4b, 0x85, 0xf9, 0x9e, 0x94, 0x48,
    0x81, 0xcd, 0xf1, 0xa6, 0xbb, 0x08, 0x7f, 0xbf, 0x1f, 0xcb, 0x81, 0x4c,
    0x31, 0x81, 0x42, 0xe7, 0x2f, 0xe7, 0xbd, 0x85, 0x7f, 0xda, 0xbf, 0x69,
    0x08, 0x1e, 0x9f, 0xcd, 0x56, 0xe3, 0x5e, 0x4c, 0xc0, 0x79, 0xdc, 0xe3,
    0x52, 0xba, 0x1a, 0x48, 0x7f, 0x81, 0x13, 0xd2, 0x7f, 0x29, 0x64, 0x7f,
    0xe3, 0xbe, 0x35, 0x81, 0x00, 0xbd, 0x42, 0x81, 0x36, 0x56, 0xcd, 0x70,
    0x11, 0x81, 0xbc, 0x11, 0x78, 0x72, 0x81, 0xb4, 0xa2, 0x68, 0xfd, 0x7a,
    0x11, 0x6a, 0x9d, 0x64, 0xca, 0xd0, 0x7f, 0xbc, 0x4c, 0x10, 0xb9, 0x8f,
    0x29, 0x22, 0xfd, 0xa2, 0x4c, 0x3c, 0x56, 0x5f, 0xe2, 0x83, 0xf5, 0x38,
    0x0d, 0xfc, 0xb3, 0x52, 0xf2, 0x74, 0x1b, 0x3e, 0xdb, 0xcb, 0x84, 0x7f,
    0xe0, 0xef, 0x24, 0xad, 0xe0, 0xda, 0x0c, 0x77, 0x0e, 0xe7, 0xff, 0xff,
    0x04, 0x00, 0x00, 0x00, 0x40, 0x00, 0x00, 0x00, 0xa1, 0xfe, 0xff, 0xff,
    0x30, 0x03, 0x00, 0x00, 0x3a, 0xf7, 0xff, 0xff, 0x66, 0x01, 0x00, 0x00,
    0xda, 0xf7, 0xff, 0xff, 0xbb, 0x00, 0x00, 0x00, 0x56, 0x05, 0x00, 0x00,
    0x1e, 0xff, 0xff, 0xff, 0x7a, 0xfc, 0xff, 0xff, 0xd5, 0x0c, 0x00, 0x00,
    0xa7, 0xed, 0xff, 0xff, 0xb0, 0xfe, 0xff, 0xff, 0xb2, 0xff, 0xff, 0xff,
    0x5b, 0xff, 0xff, 0xff, 0x8a, 0x16, 0x00, 0x00, 0xbb, 0x09, 0x00, 0x00,
    0x5a, 0xe7, 0xff, 0xff, 0x04, 0x00, 0x00, 0x00, 0x00, 0x01, 0x00, 0x00,
    0x81, 0x76, 0x42, 0x97, 0xa6, 0x11, 0x4b, 0xac, 0x60, 0x28, 0x96, 0x12,
    0xec, 0x86, 0x28, 0x4d, 0x2e, 0xe4, 0x82, 0xf6, 0xfa, 0xe3, 0x31, 0x1c,
    0x8c, 0x30, 0x97, 0x23, 0x41, 0xb1, 0x7f, 0x9a, 0x5d, 0xa5, 0x65, 0x43,
    0x5b, 0x08, 0x61, 0xab, 0x32, 0xc1, 0x44, 0x0a, 0x32, 0x2e, 0x7f, 0xba,
    0x3f, 0x7f, 0x1e, 0x98, 0xae, 0xfc, 0x22, 0x32, 0x00, 0x43, 0x64, 0xe1,
    0x9f, 0xca, 0x47, 0xaa, 0x68, 0x81, 0xa2, 0x32, 0x58, 0x57, 0x3b, 0xd9,
    0x82, 0x3d, 0xef, 0xe5, 0x47, 0xda, 0x94, 0x42, 0xc8, 0x6c, 0x41, 0x65,
    0xd2, 0xa5, 0x7f, 0xb7, 0x9a, 0x89, 0x5f, 0xae, 0xac, 0xd4, 0xcc, 0xea,
    0x81, 0x9a, 0x5a, 0xd7, 0x94, 0x6c, 0xe2, 0xa7, 0x96, 0x62, 0x51, 0xac,
    0xfc, 0xde, 0xdc, 0x54, 0x46, 0x5a, 0x7f, 0x23, 0x33, 0x9a, 0xe0, 0xdc,
    0x4f, 0x24, 0xfa, 0xcb, 0x19, 0xf0, 0xc7, 0x55, 0xa6, 0x57, 0xe1, 0x13,
    0xff, 0xec, 0x7f, 0xed, 0x0f, 0x5f, 0x78, 0x24, 0xd7, 0x92, 0x60, 0xe7,
    0xd3, 0x7f, 0x51, 0x17, 0x17, 0x7b, 0xd8, 0x78, 0xab, 0xf2, 0x17, 0x15,
    0x4b, 0xfe, 0x8b, 0xcc, 0x5d, 0x56, 0x53, 0x7b, 0x2c, 0x70, 0x28, 0x81,
    0x8e, 0x4e, 0xf0, 0xe8, 0x62, 0x52, 0xad, 0xab, 0x1b, 0x21, 0x22, 0x7f,
    0x71, 0xeb, 0xda, 0xe8, 0x66, 0xfd, 0x2f, 0x6a, 0xd9, 0xc8, 0xd0, 0x26,
    0x23, 0x7b, 0xb9, 0x7f, 0x5d, 0x92, 0x35, 0x44, 0x57, 0xf5, 0x74, 0x18,
    0x59, 0x1a, 0xec, 0xca, 0x48, 0x7f, 0x35, 0x6d, 0xfd, 0x04, 0xfc, 0x60,
    0x75, 0x74, 0x1b, 0x55, 0xf1, 0xe9, 0x1f, 0x08, 0xea, 0xa6, 0x6a, 0x2d,
    0xc9, 0x4c, 0x81, 0xbd, 0x6b, 0xb2, 0x90, 0x5e, 0x2a, 0x92, 0xf4, 0x11,
    0x03, 0xb7, 0x65, 0x81, 0xf2, 0x1d, 0x31, 0xb3, 0x0b, 0x9c, 0xbb, 0xd3,
    0x0b, 0x17, 0x2c, 0xb4, 0x66, 0xe8, 0xff, 0xff, 0x04, 0x00, 0x00, 0x00,
    0x40, 0x00, 0x00, 0x00, 0xbb, 0xfe, 0xff, 0xff, 0x6c, 0x06, 0x00, 0x00,
    0x54, 0xef, 0xff, 0xff, 0x87, 0xfa, 0xff, 0xff, 0x95, 0x01, 0x00, 0x00,
    0x69, 0x03, 0x00, 0x00, 0xf2, 0x05, 0x00, 0x00, 0xf8, 0xf4, 0xff, 0xff,
    0xe1, 0xf3, 0xff, 0xff, 0xf9, 0xfb, 0xff, 0xff, 0x1f, 0xf6, 0xff, 0xff,
    0xfd, 0xf2, 0xff, 0xff, 0xdb, 0xf0, 0xff, 0xff, 0xdb, 0xe8, 0xff, 0xff,
    0x2d, 0x04, 0x00, 0x00, 0x87, 0x07, 0x00, 0x00, 0xb2, 0xe8, 0xff, 0xff,
    0x04, 0x00, 0x00, 0x00, 0x00, 0x09, 0x00, 0x00, 0xc2, 0x49, 0x35, 0xdb,
    0xe1, 0x55, 0xb5, 0xd5, 0x5b, 0xe7, 0xb0, 0x7f, 0xb0, 0xc9, 0x6d, 0xf7,
    0xed, 0x3d, 0x2d, 0xea, 0x93, 0x13, 0xf1, 0x37, 0x37, 0xd5, 0x33, 0x56,
    0x40, 0xdd, 0xe3, 0xff, 0x7d, 0xf4, 0x26, 0x3b, 0xfb, 0xe9, 0x32, 0x38,
    0x4c, 0xce, 0x9e, 0x48, 0x24, 0xaf, 0x18, 0xdd, 0xbf, 0xc3, 0x1a, 0xa4,
    0xde, 0x19, 0xda, 0xfb, 0xbe, 0x48, 0x1f, 0x36, 0xc9, 0x50, 0x51, 0xbd,
    0xc1, 0xe6, 0x10, 0xc8, 0x06, 0xfb, 0x5c, 0x66, 0xaa, 0xc9, 0xeb, 0x04,
    0xc0, 0xc9, 0xe6, 0xd0, 0xd5, 0xdb, 0xab, 0x52, 0xe7, 0x62, 0xd3, 0x2e,
    0xac, 0x49, 0xc0, 0x27, 0xa6, 0xc6, 0x3e, 0x32, 0xc8, 0xa8, 0xa3, 0xad,
    0xc3, 0x68, 0xb7, 0xf6, 0x07, 0x89, 0xb3, 0x59, 0xf8, 0xc4, 0x3e, 0x5a,
    0x37, 0xc9, 0xa5, 0x60, 0xdc, 0x14, 0x0e, 0xf7, 0x3b, 0x6e, 0x2b, 0xcb,
    0xe0, 0x53, 0x39, 0xdf, 0x68, 0x35, 0x12, 0x32, 0x31, 0xbd, 0xc3, 0x14,
    0xd0, 0x0e, 0x39, 0x6a, 0x0d, 0x26, 0xe2, 0x26, 0xd4, 0x0b, 0xf4, 0xcc,
    0x5f, 0x5a, 0x24, 0x05, 0x00, 0xd1, 0x15, 0xfc, 0x3a, 0x08, 0x19, 0xb3,
    0x27, 0xf8, 0xb8, 0xc5, 0x62, 0xad, 0xae, 0x88, 0x30, 0xe0, 0xe7, 0xce,
    0xed, 0x47, 0x09, 0xf5, 0xbb, 0xf3, 0xa9, 0x3d, 0x4b, 0xab, 0x91, 0xda,
    0xea, 0x0b, 0x1e, 0x2a, 0x2d, 0xed, 0xea, 0x0b, 0x88, 0xe5, 0x03, 0x23,
    0xfd, 0x27, 0x32, 0x2c, 0xa1, 0xce, 0xe1, 0x4f, 0xf9, 0xfc, 0x03, 0xf3,
    0xeb, 0x2c, 0x17, 0x1a, 0xfe, 0xf1, 0xf6, 0x8a, 0x41, 0xc6, 0xe0, 0xe1,
    0x07, 0xd2, 0x81, 0x40, 0x04, 0x0d, 0x24, 0xbe, 0xf3, 0xa1, 0x1f, 0xa4,
    0xa6, 0x43, 0x0c, 0xe1, 0x16, 0x56, 0x32, 0xce, 0xa7, 0x25, 0x3b, 0xbc,
    0xbd, 0x29, 0x06, 0xbd, 0x9b, 0xf2, 0xba, 0xe8, 0xc6, 0xc8, 0x02, 0xd2,
    0x38, 0x21, 0xcc, 0xf7, 0xcf, 0xbf, 0x44, 0xc3, 0xdd, 0xf6, 0x24, 0x2e,
    0x38, 0xc6, 0xc1, 0xbe, 0x2f, 0x5f, 0x29, 0xfb, 0x85, 0x23, 0x27, 0x4d,
    0xec, 0xb0, 0x6c, 0x2e, 0x64, 0x2b, 0xff, 0x99, 0xc3, 0xb1, 0xf0, 0xf1,
    0xc6, 0x78, 0xd3, 0x42, 0xd0, 0xbe, 0x10, 0xcf, 0xfa, 0xb9, 0x20, 0xa8,
    0xcc, 0x36, 0xfc, 0xe6, 0x15, 0x49, 0xf9, 0xc1, 0x5d, 0x1e, 0x01, 0x4b,
    0x34, 0xe6, 0xea, 0xdd, 0xcd, 0x0a, 0xb8, 0x11, 0x81, 0x6e, 0x07, 0x25,
    0x20, 0x35, 0xd5, 0xef, 0x37, 0x0f, 0x27, 0xdd, 0x46, 0x3f, 0xb9, 0x45,
    0x00, 0x37, 0xf1, 0xce, 0xc4, 0x9e, 0xf9, 0x9c, 0x0d, 0xc0, 0x39, 0xfd,
    0x46, 0xd0, 0xc0, 0xc4, 0xda, 0xf6, 0x4a, 0x01, 0x03, 0xab, 0xc6, 0x2d,
    0xb6, 0x21, 0xd2, 0xe8, 0x56, 0x46, 0xe3, 0x27, 0x48, 0x4e, 0x5d, 0x09,
    0x17, 0xf7, 0xb9, 0xdc, 0x0f, 0x4b, 0x1f, 0x60, 0x4c, 0xdc, 0x0c, 0xd0,
    0x00, 0x20, 0xcc, 0xf9, 0x14, 0xb2, 0xd2, 0x33, 0x07, 0xaf, 0xf8, 0x0d,
    0x43, 0xc9, 0x3c, 0x05, 0x2f, 0x15, 0x1b, 0x3a, 0x0e, 0x22, 0x5b, 0x01,
    0x4b, 0x10, 0xe5, 0x22, 0x14, 0x1f, 0x27, 0xc2, 0xca, 0xd1, 0x47, 0xfb,
    0x42, 0x09, 0xc4, 0xb9, 0xa7, 0x21, 0x38, 0xe9, 0xc7, 0x6e, 0xdd, 0x27,
    0x75, 0x24, 0xaa, 0xd0, 0xec, 0xeb, 0x1c, 0xc1, 0xc4, 0xac, 0xaf, 0x11,
    0xcb, 0xf2, 0xe1, 0xe2, 0x1a, 0x17, 0x06, 0x2c, 0x18, 0xeb, 0x52, 0x91,
    0xed, 0xc0, 0xc6, 0xd3, 0xac, 0x72, 0xe9, 0x1e, 0x4e, 0x48, 0x14, 0xab,
    0xbd, 0xda, 0x17, 0xed, 0x20, 0x3f, 0x30, 0x29, 0xad, 0xc8, 0x47, 0xd5,
    0x64, 0xcf, 0xde, 0xf9, 0x17, 0x38, 0xb3, 0xe0, 0xc6, 0xc0, 0x1a, 0x9c,
    0x56, 0x1d, 0xee, 0xec, 0xbc, 0x32, 0xed, 0xb4, 0x01, 0xfa, 0xe6, 0xc3,
    0x23, 0xff, 0xf6, 0xac, 0x92, 0x05, 0xf8, 0x81, 0x36, 0x95, 0x56, 0x30,
    0xd8, 0xcf, 0xe4, 0xd2, 0x3c, 0x0f, 0x2d, 0xdc, 0xba, 0x7c, 0x13, 0xdf,
    0x26, 0xe3, 0x13, 0xb5, 0xfa, 0x3d, 0x25, 0xfb, 0x10, 0x91, 0xe3, 0xc2,
    0x2e, 0x1a, 0x63, 0xdf, 0xd1, 0x11, 0xe0, 0x90, 0x00, 0x60, 0x2e, 0xdc,
    0x07, 0xc1, 0xd7, 0x3c, 0xf1, 0xf8, 0x45, 0x9a, 0x75, 0x29, 0x10, 0xd1,
    0xeb, 0xe4, 0xe0, 0xca, 0x2c, 0x5e, 0xad, 0xa7, 0xe8, 0xa7, 0x0a, 0xdc,
    0xae, 0x58, 0xf8, 0xde, 0xc7, 0xa8, 0x9e, 0xff, 0x42, 0x49, 0x1b, 0xc3,
    0x06, 0xe5, 0xad, 0xd8, 0x0c, 0x49, 0x4d, 0xf5, 0xd9, 0x9d, 0x31, 0x29,
    0x0c, 0x31, 0x63, 0x22, 0x4d, 0x81, 0x02, 0x42, 0x0e, 0xd3, 0x46, 0x1e,
    0x42, 0xa8, 0xe8, 0xc1, 0x2d, 0x1c, 0x5a, 0x51, 0xe7, 0x49, 0xe2, 0x1b,
    0x08, 0x23, 0x05, 0x5a, 0x09, 0x38, 0x35, 0x99, 0x24, 0xbf, 0x06, 0xbd,
    0xae, 0xfd, 0x2e, 0x0e, 0x6e, 0x77, 0x21, 0x2e, 0xff, 0xcd, 0x95, 0xca,
    0xd8, 0x29, 0xd7, 0xc0, 0x41, 0xf6, 0x17, 0x0e, 0x24, 0xbe, 0x3d, 0x5f,
    0xdf, 0x1a, 0xa5, 0xa9, 0xf0, 0x16, 0xb8, 0x37, 0x53, 0x11, 0xb8, 0xdf,
    0x13, 0x76, 0x2f, 0x49, 0xd8, 0xba, 0xe4, 0xc9, 0xf4, 0x2f, 0xd6, 0xe8,
    0xb4, 0xbd, 0xf1, 0x2b, 0x28, 0x0d, 0x35, 0x38, 0x11, 0xec, 0xc5, 0x2c,
    0xe6, 0x15, 0x47, 0x92, 0x4b, 0x1b, 0x07, 0xe5, 0xcf, 0x06, 0xfd, 0x28,
    0x18, 0xdd, 0xf6, 0xc8, 0x09, 0xab, 0x40, 0xcf, 0x47, 0xb5, 0xae, 0xe1,
    0xeb, 0x43, 0x41, 0xac, 0xae, 0xb9, 0xb9, 0xaa, 0x96, 0xac, 0xbc, 0xa5,
    0xb8, 0x3e, 0xa6, 0x05, 0x64, 0xe9, 0xb4, 0xff, 0xcb, 0x18, 0x28, 0xeb,
    0x30, 0xf8, 0x2d, 0xe3, 0x5f, 0x17, 0xd8, 0xfb, 0xe3, 0xbe, 0xd5, 0x50,
    0x15, 0x18, 0x30, 0xd1, 0xee, 0xda, 0x09, 0xfb, 0x3f, 0xde, 0x20, 0x19,
    0xe4, 0xe2, 0x5f, 0xa3, 0xba, 0x04, 0xae, 0x1f, 0x98, 0xef, 0x8f, 0xf4,
    0xd8, 0xd2, 0xfe, 0x17, 0x43, 0x07, 0xda, 0x1e, 0xf0, 0xc2, 0xfb, 0xc3,
    0x3a, 0xf0, 0xd0, 0x81, 0xd0, 0x44, 0x31, 0xef, 0xdb, 0xe3, 0xad, 0xaa,
    0xf2, 0xf6, 0x38, 0x16, 0x1a, 0xa6, 0x2c, 0xad, 0x2e, 0x43, 0x41, 0xf5,
    0x18, 0x19, 0x38, 0x4d, 0xb4, 0xd9, 0x19, 0xb4, 0xe6, 0x0b, 0x94, 0xa6,
    0x3e, 0x47, 0xc9, 0x00, 0xe1, 0xf0, 0x2a, 0x55, 0xc2, 0x16, 0x69, 0xbe,
    0x26, 0x5e, 0xae, 0x00, 0xa9, 0xe9, 0x0e, 0x37, 0x0d, 0xfa, 0x2f, 0x05,
    0x47, 0x1c, 0xc6, 0xe6, 0xbd, 0x48, 0xd4, 0x3c, 0xd8, 0xc3, 0x15, 0xf4,
    0x3f, 0x67, 0xfd, 0x4f, 0x30, 0xfe, 0x38, 0xd2, 0x22, 0xaf, 0xd6, 0x2a,
    0x35, 0xd6, 0xaa, 0x04, 0xe7, 0xee, 0x2b, 0x3f, 0xf6, 0x04, 0x74, 0xc9,
    0xe0, 0x44, 0x27, 0x1e, 0x08, 0xd7, 0x33, 0x02, 0xf8, 0xec, 0xf3, 0xf0,
    0x0c, 0x04, 0xc6, 0xc6, 0x51, 0x11, 0x44, 0x3f, 0x07, 0x24, 0x8b, 0x13,
    0xd9, 0x5f, 0xfb, 0xeb, 0xa1, 0x52, 0xdc, 0xc7, 0x8c, 0xa0, 0xd3, 0x26,
    0x07, 0xc8, 0xcf, 0x67, 0x34, 0xc4, 0xdf, 0xe3, 0xf7, 0x1f, 0x0a, 0x16,
    0xd5, 0x5c, 0x37, 0xb5, 0x71, 0x00, 0x20, 0x2f, 0x37, 0x64, 0x06, 0x15,
    0xe8, 0xb4, 0x0f, 0x3f, 0x46, 0xc6, 0xf7, 0x6b, 0x4a, 0xde, 0xfe, 0x81,
    0x3d, 0x26, 0xd1, 0xb7, 0x08, 0xcb, 0x47, 0x1e, 0x23, 0xad, 0xf2, 0x18,
    0x12, 0xae, 0xd2, 0x9a, 0xb8, 0x20, 0xc7, 0x16, 0x29, 0x3b, 0x13, 0xf5,
    0xdd, 0x11, 0x47, 0xd7, 0x50, 0x0c, 0xe3, 0xc9, 0x97, 0xee, 0xdf, 0x0d,
    0xf4, 0x95, 0x48, 0xb3, 0x1c, 0xba, 0x59, 0x2e, 0x2f, 0xaa, 0xc9, 0xd3,
    0x23, 0x04, 0xd3, 0xc5, 0xd4, 0x2a, 0xe1, 0x40, 0xce, 0xe8, 0x14, 0x3d,
    0x19, 0x59, 0xe5, 0xa8, 0x9d, 0xc2, 0x47, 0xd5, 0xb5, 0x36, 0x2c, 0x39,
    0x26, 0x47, 0xef, 0xd6, 0xc7, 0x4c, 0x33, 0x04, 0x42, 0x4c, 0xd5, 0x4f,
    0xc9, 0x0b, 0x18, 0xaf, 0xc4, 0xf1, 0xbe, 0xc8, 0x0d, 0x25, 0xb6, 0x0c,
    0x32, 0x2e, 0x1d, 0x36, 0x70, 0x35, 0x65, 0xce, 0x4a, 0x51, 0xb2, 0xff,
    0x52, 0x07, 0xe9, 0x31, 0xc0, 0xe5, 0x19, 0x23, 0x04, 0xb7, 0xcf, 0xf6,
    0xca, 0x5c, 0xc3, 0x04, 0x76, 0xfd, 0x39, 0x36, 0xf4, 0x71, 0x54, 0xef,
    0x3d, 0x61, 0xbf, 0xa4, 0xe1, 0x68, 0x06, 0xe1, 0x6b, 0x9b, 0xe7, 0xde,
    0xbf, 0xe2, 0x08, 0x61, 0xb4, 0xee, 0x15, 0xdf, 0xdc, 0x14, 0xd2, 0x19,
    0x4b, 0xfc, 0x59, 0x39, 0xb4, 0x29, 0xcc, 0xf1, 0x57, 0x54, 0x26, 0xb4,
    0x96, 0x0f, 0x37, 0x65, 0x61, 0xf2, 0x39, 0xd0, 0x81, 0x2b, 0xc3, 0x32,
    0x32, 0x24, 0xbc, 0x03, 0x29, 0x0d, 0x04, 0xfd, 0xcd, 0xfb, 0xe5, 0x00,
    0x46, 0x32, 0xb1, 0xf0, 0x3b, 0xe7, 0x23, 0xac, 0x01, 0x3f, 0xd5, 0xbc,
    0x9e, 0x32, 0xe2, 0xfe, 0x1c, 0xd3, 0x3b, 0xc7, 0x0a, 0xc0, 0xd8, 0x0e,
    0x4f, 0x55, 0x09, 0xb6, 0x81, 0x3f, 0x0f, 0x2e, 0x38, 0xfc, 0x1d, 0x0d,
    0x06, 0xb9, 0x1a, 0xd7, 0x2b, 0x5d, 0x1f, 0x2a, 0xeb, 0x2a, 0xc6, 0x02,
    0x36, 0xb2, 0x1a, 0xb8, 0x1c, 0xec, 0x2a, 0x1b, 0x25, 0xc8, 0x36, 0xe8,
    0xff, 0xef, 0x12, 0xbf, 0xfc, 0xee, 0x20, 0x0c, 0x17, 0x1e, 0xfd, 0xb5,
    0xf7, 0x25, 0x07, 0xa9, 0x07, 0x62, 0xf8, 0xc1, 0xd6, 0xdc, 0x0c, 0x8c,
    0xc4, 0x37, 0xd7, 0x11, 0x2c, 0x23, 0xd2, 0xdf, 0x15, 0x21, 0xb2, 0xbd,
    0xda, 0x00, 0xe2, 0xbb, 0xbc, 0x3e, 0xde, 0x13, 0xc4, 0x0f, 0xc1, 0x07,
    0xf8, 0x3f, 0x25, 0x39, 0x34, 0x3e, 0xd2, 0xd8, 0xee, 0xf8, 0x00, 0x09,
    0xe7, 0xac, 0xb1, 0x97, 0xc9, 0x5a, 0xa3, 0xd1, 0x01, 0x12, 0xfd, 0x16,
    0xcf, 0x23, 0x4d, 0x05, 0x3c, 0xea, 0x0f, 0xc6, 0xde, 0x7d, 0x22, 0xab,
    0xf3, 0xc5, 0xe2, 0xbf, 0x4b, 0x35, 0xe3, 0xbd, 0x60, 0x23, 0xc0, 0x53,
    0x29, 0xd2, 0xd5, 0x88, 0xc3, 0x47, 0x3a, 0xe7, 0xa4, 0xd9, 0xcc, 0x1e,
    0xff, 0xd7, 0x93, 0x00, 0x36, 0x64, 0x0f, 0x21, 0xe0, 0x1a, 0xec, 0x1b,
    0x46, 0x2e, 0x31, 0x32, 0xf8, 0xc1, 0x35, 0x8e, 0x97, 0x24, 0x5f, 0xc0,
    0x55, 0xc0, 0x1a, 0xce, 0x68, 0x12, 0xbe, 0x20, 0xe7, 0xf5, 0x3d, 0x9b,
    0x3c, 0x2a, 0xfa, 0xdf, 0xbf, 0xa0, 0x15, 0x2f, 0xd6, 0x55, 0xc3, 0xe5,
    0x05, 0x58, 0x9b, 0xc2, 0xcf, 0xf8, 0x13, 0x43, 0x2b, 0xd3, 0x11, 0xfc,
    0xfe, 0xf2, 0x29, 0xeb, 0x68, 0xb8, 0x06, 0xe7, 0x36, 0xfa, 0x26, 0x46,
    0x7a, 0xe9, 0xd3, 0x38, 0xe6, 0xdf, 0x20, 0xa9, 0xd2, 0x00, 0xaa, 0xa5,
    0x4d, 0x72, 0xc3, 0xb3, 0xe9, 0xdf, 0x0d, 0x88, 0x6c, 0xf5, 0xbc, 0x55,
    0x36, 0xda, 0xea, 0x43, 0xee, 0x31, 0x34, 0xf2, 0x43, 0x44, 0x15, 0xf0,
    0xee, 0x7f, 0xbe, 0x55, 0xd8, 0x61, 0x9c, 0xc8, 0x21, 0x47, 0xb2, 0xca,
    0x7f, 0xc5, 0x02, 0x21, 0x16, 0x49, 0xc5, 0x35, 0x14, 0xb6, 0x88, 0xe6,
    0xc7, 0xfe, 0xfa, 0xde, 0x1d, 0x23, 0x03, 0x8f, 0x33, 0x48, 0xce, 0x1a,
    0x35, 0x3d, 0x19, 0x96, 0xd0, 0xef, 0x27, 0xf9, 0xfe, 0x90, 0xbd, 0x87,
    0x35, 0xc3, 0x4c, 0x1d, 0x57, 0xe3, 0x91, 0x0f, 0xff, 0x50, 0xd9, 0x9f,
    0xdb, 0xb8, 0xa3, 0x44, 0x5d, 0x27, 0x54, 0xdb, 0x4d, 0xde, 0x9c, 0x96,
    0x36, 0x2c, 0x1e, 0xea, 0x1b, 0x14, 0xe4, 0xf8, 0x57, 0x24, 0xf9, 0x08,
    0x46, 0xc8, 0xf8, 0xe4, 0xf8, 0x10, 0xd5, 0xfd, 0x0d, 0x41, 0xfa, 0xc8,
    0x36, 0x34, 0xbb, 0xde, 0xc5, 0xec, 0x32, 0x45, 0x1f, 0xc9, 0xd7, 0xdf,
    0xf2, 0x8c, 0xb8, 0xa8, 0x4d, 0x72, 0xaa, 0xe3, 0x09, 0xdc, 0x06, 0xc1,
    0xb7, 0x18, 0xd8, 0x21, 0x48, 0x00, 0x4d, 0xb6, 0xe6, 0x3a, 0x06, 0xcd,
    0x19, 0xd9, 0x2b, 0xbb, 0x17, 0x64, 0xae, 0x3f, 0xe0, 0xea, 0x39, 0x3c,
    0xbc, 0xc3, 0x14, 0xd0, 0x23, 0x10, 0xd6, 0x07, 0x47, 0xce, 0x40, 0x2c,
    0xbb, 0x62, 0xca, 0x38, 0x20, 0x02, 0x9f, 0x63, 0x97, 0x47, 0x59, 0x4f,
    0x3b, 0x1f, 0xf2, 0x46, 0xf5, 0x66, 0x35, 0x48, 0xd3, 0x0e, 0xd4, 0xc4,
    0x39, 0xf3, 0x36, 0x37, 0x07, 0xf6, 0x3e, 0x0d, 0x2b, 0x7f, 0x1f, 0x3d,
    0xd2, 0xdd, 0xa2, 0xd8, 0x20, 0x12, 0xd5, 0x06, 0x31, 0xd1, 0xa5, 0xa4,
    0x2d, 0x23, 0xac, 0x0a, 0x97, 0xf2, 0xcf, 0xd2, 0x22, 0xbd, 0xc3, 0x38,
    0xe0, 0xb8, 0x33, 0xdf, 0x69, 0x5a, 0xc7, 0x13, 0x57, 0x18, 0x1b, 0xfb,
    0xab, 0x11, 0x39, 0x03, 0x59, 0xd7, 0xa5, 0x5c, 0x1d, 0xea, 0x33, 0x10,
    0x42, 0xe7, 0xea, 0xda, 0x31, 0xba, 0xd5, 0x46, 0x46, 0xc7, 0xc5, 0xe1,
    0x04, 0x60, 0x23, 0xd3, 0x04, 0xb7, 0xbf, 0x1b, 0x49, 0x31, 0x09, 0x41,
    0x49, 0x2c, 0xcf, 0xa3, 0x2b, 0xc6, 0x71, 0x3a, 0x5e, 0xdc, 0x16, 0x02,
    0xf1, 0x37, 0x05, 0xb8, 0x79, 0x9e, 0xde, 0x3d, 0xcb, 0x64, 0xe0, 0xd0,
    0x27, 0x3b, 0xb9, 0xda, 0x4f, 0xdc, 0x47, 0x3f, 0xed, 0xc8, 0x61, 0x04,
    0xe3, 0xb6, 0xea, 0x1d, 0xea, 0xe4, 0x19, 0x42, 0xbd, 0xb1, 0xac, 0x74,
    0x53, 0xe9, 0xbe, 0x2a, 0x38, 0xcb, 0x9c, 0x1f, 0x70, 0x1d, 0x53, 0xad,
    0xe0, 0xf6, 0x09, 0x59, 0xfe, 0x9c, 0xe1, 0x06, 0x25, 0x14, 0xeb, 0xc0,
    0x1c, 0xd6, 0x01, 0x50, 0x17, 0xc4, 0x57, 0x0d, 0x1c, 0x17, 0x39, 0x75,
    0xcc, 0x40, 0xd9, 0x6d, 0x2a, 0xae, 0x32, 0x62, 0xb3, 0x51, 0x3e, 0x35,
    0x4c, 0x4a, 0x0f, 0xd0, 0xae, 0xed, 0x11, 0x24, 0x72, 0x52, 0x20, 0xad,
    0x2a, 0xc6, 0xb1, 0xa9, 0xc3, 0xd4, 0x52, 0xb8, 0xc2, 0x31, 0x54, 0x23,
    0xae, 0x61, 0xbe, 0x38, 0x67, 0xd2, 0x31, 0x33, 0x7f, 0x0c, 0x23, 0x2d,
    0xb1, 0x37, 0x32, 0x30, 0x3d, 0x32, 0x2c, 0xf3, 0x6b, 0xc3, 0xec, 0xe4,
    0x76, 0xc7, 0x0c, 0x71, 0x02, 0x62, 0xff, 0x41, 0x41, 0x2e, 0x3e, 0xa6,
    0xe1, 0x6a, 0xc2, 0x30, 0xce, 0x11, 0xd5, 0x6e, 0xe5, 0x52, 0x37, 0x5a,
    0xc7, 0xce, 0xbb, 0x6b, 0xb8, 0xee, 0x53, 0x5f, 0xf1, 0xd2, 0xd3, 0xfd,
    0xc1, 0x78, 0xbd, 0xfa, 0x4e, 0xd5, 0x26, 0x63, 0xb5, 0xc2, 0x7f, 0x76,
    0x05, 0xc9, 0x9f, 0x41, 0x43, 0x02, 0xd7, 0xf3, 0xf5, 0x0c, 0x25, 0x15,
    0xdd, 0x47, 0x14, 0x4f, 0xdf, 0xc0, 0x12, 0xab, 0xdd, 0xd4, 0xd3, 0xf2,
    0x3e, 0x22, 0xc6, 0x47, 0xc6, 0xd2, 0x0e, 0xea, 0xcc, 0x34, 0xfc, 0x4c,
    0xb9, 0x5f, 0x1d, 0x75, 0xa0, 0x62, 0xfd, 0x10, 0xb5, 0xa4, 0xf1, 0xc5,
    0x5f, 0xc9, 0xb4, 0xde, 0x9b, 0x4d, 0x24, 0x17, 0x4a, 0x46, 0x45, 0x39,
    0x3b, 0xa2, 0x50, 0x4f, 0x37, 0x33, 0x4d, 0x70, 0xef, 0x4e, 0x04, 0x0f,
    0x15, 0xef, 0x31, 0xa0, 0x67, 0x39, 0xce, 0x4f, 0x79, 0x06, 0x24, 0xda,
    0xb9, 0x77, 0xb9, 0xb9, 0x98, 0xd8, 0x09, 0x1e, 0xee, 0x39, 0xea, 0x6e,
    0x3b, 0xfb, 0x30, 0x02, 0x27, 0x30, 0x07, 0xbc, 0xf6, 0xb8, 0xad, 0x37,
    0xd3, 0x02, 0xb8, 0xfb, 0x11, 0x02, 0x17, 0x4e, 0xb3, 0x3c, 0xf4, 0xb9,
    0x01, 0xac, 0x2d, 0xc7, 0x1d, 0xee, 0x23, 0xf1, 0xf8, 0xd5, 0x49, 0xd6,
    0xde, 0x64, 0xf3, 0xdb, 0xe6, 0x4a, 0x10, 0xaa, 0x38, 0xd4, 0x94, 0xb5,
    0xbb, 0xdf, 0x9e, 0xc6, 0x26, 0x03, 0x49, 0xf9, 0xb4, 0x2f, 0x16, 0x12,
    0x1b, 0xee, 0x4c, 0x27, 0xd0, 0x46, 0x4f, 0xe3, 0x5b, 0x56, 0xbf, 0xb4,
    0xf1, 0x06, 0x49, 0x17, 0xf4, 0xcc, 0x5b, 0xdf, 0x6b, 0x6f, 0xd0, 0xcd,
    0xad, 0xc6, 0x0f, 0xca, 0xd2, 0xd1, 0x29, 0xf8, 0xfd, 0x0c, 0x1b, 0x04,
    0x27, 0x6d, 0x3e, 0x2d, 0xeb, 0x4f, 0x2d, 0x4d, 0x23, 0xa1, 0xdd, 0xf0,
    0x0b, 0xf7, 0xff, 0xc8, 0x2a, 0xe0, 0x30, 0x08, 0xc0, 0xf1, 0xf9, 0x9a,
    0xd8, 0x24, 0x64, 0x1e, 0x07, 0x1c, 0x01, 0xc1, 0xb5, 0x15, 0x23, 0x54,
    0x07, 0x46, 0x36, 0x4c, 0xe5, 0xf4, 0x3d, 0xcf, 0x35, 0x30, 0xcc, 0xce,
    0x1d, 0x17, 0xa2, 0xce, 0x9a, 0xe5, 0xf4, 0xd9, 0xa1, 0x0a, 0x51, 0xaa,
    0x23, 0xd1, 0x3c, 0x15, 0xaa, 0x23, 0xae, 0xaf, 0x02, 0x2e, 0xa9, 0xd9,
    0x81, 0xef, 0x1a, 0x3c, 0x1a, 0xe5, 0x0b, 0x23, 0x68, 0x3f, 0x78, 0x9f,
    0x9c, 0x37, 0xb2, 0x15, 0x16, 0x1d, 0xbd, 0x71, 0xda, 0x7b, 0x1f, 0xa5,
    0xde, 0x10, 0xe3, 0xa1, 0xda, 0x63, 0xc4, 0x35, 0x7f, 0x37, 0xad, 0x72,
    0xe7, 0x7f, 0x3f, 0x9d, 0x6d, 0xc8, 0xdb, 0xd3, 0xdb, 0x23, 0x2a, 0x4f,
    0x2f, 0xa0, 0x24, 0x62, 0x3f, 0xac, 0x35, 0xcd, 0x14, 0x26, 0x2f, 0x31,
    0x25, 0xd3, 0xcf, 0xff, 0x4f, 0xcb, 0x52, 0xc4, 0x25, 0x14, 0xcd, 0x44,
    0xc3, 0xed, 0xac, 0x5f, 0x25, 0x3c, 0xbc, 0xb9, 0xcd, 0x1b, 0xc2, 0x24,
    0x32, 0xd1, 0x9f, 0x31, 0xc6, 0x79, 0x4c, 0x3a, 0xc6, 0x1c, 0x27, 0xd6,
    0xee, 0xe0, 0x12, 0x38, 0x24, 0xed, 0xff, 0xfc, 0xd1, 0xea, 0xb8, 0x1d,
    0x2f, 0xed, 0xd7, 0xcd, 0x8e, 0x36, 0xbf, 0x12, 0x33, 0x38, 0xd2, 0x33,
    0x5d, 0x09, 0x18, 0xd8, 0xf9, 0x1f, 0x4d, 0x74, 0xaf, 0x9d, 0x55, 0x1c,
    0xe5, 0x6c, 0x4e, 0xd4, 0x4d, 0x76, 0x30, 0x21, 0xb8, 0x17, 0x54, 0x4a,
    0x1d, 0x15, 0x31, 0x18, 0xc4, 0xf2, 0x94, 0xfa, 0xbe, 0xf1, 0xff, 0xff,
    0x04, 0x00, 0x00, 0x00, 0x40, 0x00, 0x00, 0x00, 0x91, 0xfc, 0xff, 0xff,
    0x32, 0xff, 0xff, 0xff, 0xda, 0xfa, 0xff, 0xff, 0xe0, 0x0b, 0x00, 0x00,
    0xee, 0xfc, 0xff, 0xff, 0x82, 0x00, 0x00, 0x00, 0x48, 0x00, 0x00, 0x00,
    0xc0, 0xf6, 0xff, 0xff, 0x68, 0x05, 0x00, 0x00, 0xf0, 0x0a, 0x00, 0x00,
    0xa8, 0x05, 0x00, 0x00, 0x4f, 0xfb, 0xff, 0xff, 0x92, 0xfc, 0xff, 0xff,
    0x70, 0xfc, 0xff, 0xff, 0x75, 0x03, 0x00, 0x00, 0x63, 0xfa, 0xff, 0xff,
    0x0a, 0xf2, 0xff, 0xff, 0x04, 0x00, 0x00, 0x00, 0x90, 0x00, 0x00, 0x00,
    0x87, 0x7f, 0x29, 0x5a, 0x60, 0x59, 0x0c, 0x01, 0x5b, 0xae, 0x36, 0x81,
    0xd3, 0x81, 0x51, 0x8d, 0x21, 0xf5, 0x1b, 0x98, 0x81, 0xd5, 0xa7, 0x9a,
    0x23, 0xc3, 0x1f, 0x26, 0x50, 0xb2, 0x55, 0x81, 0x56, 0xf0, 0x6d, 0x81,
    0xcd, 0x4a, 0xa9, 0xf2, 0x13, 0x75, 0xc5, 0x12, 0x14, 0xd2, 0x81, 0x47,
    0xc8, 0x44, 0x9f, 0xa2, 0x3d, 0x3a, 0x43, 0xa7, 0x63, 0xac, 0x4c, 0x8e,
    0x7f, 0xf5, 0x6e, 0x52, 0x81, 0x6c, 0x7f, 0x0d, 0xca, 0x81, 0x2d, 0xcb,
    0xb1, 0x3d, 0x3c, 0xef, 0xaf, 0x00, 0x3d, 0xde, 0xcf, 0x8b, 0x30, 0xc1,
    0xf1, 0xe3, 0x36, 0x5d, 0x61, 0x66, 0x54, 0x0d, 0x2f, 0x19, 0x32, 0x1b,
    0xcf, 0xfe, 0x25, 0x0c, 0x87, 0xd0, 0x81, 0x81, 0xea, 0x7f, 0xbb, 0x8f,
    0x07, 0x0b, 0x48, 0xff, 0x88, 0x58, 0x44, 0x39, 0x3f, 0xf6, 0x85, 0x22,
    0x21, 0x23, 0x9a, 0x10, 0x91, 0xc6, 0x03, 0xfd, 0xa2, 0xe9, 0x4f, 0xc8,
    0xbe, 0x34, 0xf1, 0x04, 0x81, 0xdf, 0x81, 0x98, 0xa9, 0x0a, 0x7b, 0x04,
    0xa6, 0xf2, 0xff, 0xff, 0x04, 0x00, 0x00, 0x00, 0x40, 0x00, 0x00, 0x00,
    0x24, 0x0c, 0x00, 0x00, 0x83, 0xfc, 0xff, 0xff, 0x39, 0xfa, 0xff, 0xff,
    0xd9, 0x05, 0x00, 0x00, 0x1b, 0x06, 0x00, 0x00, 0x6b, 0x01, 0x00, 0x00,
    0x6d, 0x04, 0x00, 0x00, 0x5e, 0x04, 0x00, 0x00, 0xfe, 0xfe, 0xff, 0xff,
    0x91, 0xfd, 0xff, 0xff, 0x73, 0x01, 0x00, 0x00, 0x85, 0x08, 0x00, 0x00,
    0xbb, 0xff, 0xff, 0xff, 0xdf, 0x04, 0x00, 0x00, 0xc8, 0xf6, 0xff, 0xff,
    0x54, 0x01, 0x00, 0x00, 0xf2, 0xf2, 0xff, 0xff, 0x04, 0x00, 0x00, 0x00,
    0x00, 0x01, 0x00, 0x00, 0x4b, 0x31, 0x15, 0x10, 0xfc, 0x2c, 0x7f, 0xad,
    0x2e, 0xf8, 0xcd, 0x35, 0x88, 0xf3, 0x4b, 0xb1, 0x43, 0x34, 0x87, 0xf0,
    0xb1, 0x07, 0xc1, 0x50, 0x1d, 0xdd, 0x98, 0x6b, 0x81, 0xed, 0x40, 0x33,
    0xa6, 0xb1, 0xeb, 0x4e, 0x19, 0xa4, 0x1b, 0xa6, 0x82, 0xa0, 0x51, 0x51,
    0xb5, 0x81, 0x49, 0x3e, 0x7f, 0x6a, 0x32, 0xb3, 0x5b, 0xd0, 0xdd, 0xf9,
    0xac, 0x5a, 0x7e, 0x58, 0x86, 0x85, 0x6b, 0xcf, 0x4a, 0x43, 0x11, 0x89,
    0x7f, 0x47, 0x1b, 0xa7, 0x4d, 0x4c, 0xac, 0x51, 0xcb, 0x44, 0xfc, 0xb2,
    0x7a, 0x41, 0x2c, 0xa0, 0xfd, 0x81, 0x49, 0xcb, 0x7b, 0x34, 0xe4, 0x24,
    0x2a, 0x40, 0x55, 0x55, 0xaa, 0xfc, 0x24, 0xa5, 0x7f, 0xcd, 0xdf, 0x35,
    0x02, 0x5f, 0x4b, 0x63, 0x32, 0x3d, 0x7d, 0x3a, 0x29, 0x9f, 0xde, 0x7f,
    0x2e, 0x04, 0xe8, 0x22, 0x32, 0xc5, 0xa7, 0xc7, 0x6b, 0x37, 0xd2, 0xb3,
    0x99, 0xa8, 0x5b, 0x78, 0x0e, 0x3f, 0xcd, 0xe9, 0x93, 0xc4, 0x5e, 0xc3,
    0x6a, 0x9d, 0x81, 0x74, 0xab, 0x2c, 0x71, 0x44, 0x3d, 0xd6, 0x8b, 0x43,
    0x81, 0x2b, 0x59, 0xc6, 0x5b, 0x5d, 0xa7, 0xcc, 0x12, 0xc9, 0x81, 0x3a,
    0x7b, 0xfa, 0x5c, 0x42, 0x1f, 0xc4, 0x43, 0x7f, 0x44, 0xd3, 0x2a, 0x07,
    0x2a, 0x21, 0x20, 0x55, 0xf3, 0xe6, 0xa3, 0x21, 0x8f, 0xd1, 0xf7, 0x2d,
    0x6f, 0xe0, 0x81, 0x1b, 0xd2, 0x09, 0x7f, 0x19, 0xa8, 0xb8, 0x41, 0x70,
    0x94, 0xcd, 0x7e, 0xa9, 0x5b, 0x82, 0xd9, 0xe6, 0x11, 0xc3, 0x76, 0x94,
    0x0d, 0x45, 0xbe, 0x28, 0x81, 0x9a, 0xe9, 0xaa, 0xc8, 0xf4, 0xe1, 0x5f,
    0x5d, 0x07, 0x38, 0x40, 0xe1, 0x62, 0xb6, 0xe2, 0xa7, 0x93, 0x3e, 0x81,
    0xc2, 0x54, 0xa7, 0xfc, 0x22, 0x33, 0x03, 0xc0, 0x7f, 0x45, 0x5d, 0xcc,
    0xa9, 0xfb, 0x53, 0xd8, 0xa3, 0x5b, 0x38, 0xbf, 0xfe, 0xf3, 0xff, 0xff,
    0x04, 0x00, 0x00, 0x00, 0x40, 0x00, 0x00, 0x00, 0xde, 0xf5, 0xff, 0xff,
    0x37, 0x04, 0x00, 0x00, 0x00, 0x0d, 0x00, 0x00, 0xb8, 0xf4, 0xff, 0xff,
    0xef, 0xf3, 0xff, 0xff, 0xb1, 0xeb, 0xff, 0xff, 0xe9, 0xed, 0xff, 0xff,
    0x84, 0xff, 0xff, 0xff, 0x58, 0x06, 0x00, 0x00, 0xa0, 0xfc, 0xff, 0xff,
    0x98, 0xf0, 0xff, 0xff, 0xe9, 0x01, 0x00, 0x00, 0x4b, 0x03, 0x00, 0x00,
    0x00, 0x10, 0x00, 0x00, 0xdd, 0x06, 0x00, 0x00, 0x55, 0xf7, 0xff, 0xff,
    0x4a, 0xf4, 0xff, 0xff, 0x04, 0x00, 0x00, 0x00, 0x00, 0x08, 0x00, 0x00,
    0xe0, 0xe6, 0x07, 0xdd, 0x99, 0xae, 0xbe, 0x03, 0xfb, 0x75, 0xfd, 0xbd,
    0xc1, 0x74, 0xbe, 0x41, 0xcb, 0xd0, 0xa5, 0x46, 0x57, 0x44, 0x2a, 0x17,
    0x55, 0xdd, 0xb1, 0xec, 0x45, 0x1c, 0x20, 0x0f, 0x57, 0xed, 0x3a, 0x64,
    0x0d, 0xb9, 0x2b, 0x99, 0xd0, 0xfa, 0x3e, 0x3c, 0xaa, 0x00, 0x33, 0x46,
    0xbe, 0xaf, 0x27, 0xd6, 0xe1, 0x14, 0xe4, 0xe3, 0x0c, 0x01, 0x09, 0x5f,
    0xb2, 0xa6, 0xc1, 0x40, 0x91, 0xc1, 0x3d, 0x34, 0xb2, 0x54, 0x20, 0x15,
    0xba, 0xea, 0xb3, 0xd0, 0xd3, 0x55, 0xef, 0x21, 0xa4, 0x9f, 0x6b, 0xf3,
    0x18, 0x1c, 0xcd, 0xf1, 0x05, 0x52, 0xb7, 0x36, 0xb1, 0xd5, 0xc8, 0x8f,
    0xd2, 0x62, 0xc9, 0x58, 0x6b, 0x4f, 0x70, 0xaf, 0xea, 0x2e, 0xaf, 0x44,
    0xac, 0xa8, 0xb9, 0x29, 0x09, 0x3a, 0xdd, 0x19, 0xb6, 0xe6, 0x6c, 0x0a,
    0xf2, 0x9a, 0x64, 0x27, 0xa8, 0xc6, 0xfe, 0x66, 0x03, 0xd8, 0x94, 0x56,
    0x4e, 0x3a, 0x26, 0xb9, 0x9c, 0x30, 0xfc, 0xd0, 0x18, 0xe9, 0xb9, 0x57,
    0x63, 0xed, 0xc3, 0xcc, 0xeb, 0x3e, 0xf3, 0xb9, 0xaf, 0xd1, 0x5b, 0xba,
    0xe4, 0x0b, 0xf2, 0xdf, 0xb9, 0xf3, 0xdc, 0xed, 0x02, 0xe8, 0xc7, 0x49,
    0xbb, 0xef, 0xf9, 0x9d, 0x10, 0xd7, 0x41, 0x1a, 0x07, 0x1e, 0xf2, 0x53,
    0xf0, 0xa3, 0xe2, 0x0e, 0x05, 0xdf, 0xf5, 0x3d, 0x22, 0x3c, 0x2c, 0x00,
    0x04, 0x0d, 0xcc, 0x8d, 0x01, 0x44, 0xaf, 0x11, 0x72, 0x41, 0xe6, 0xd8,
    0xf6, 0xbe, 0x34, 0xe1, 0x17, 0xbf, 0x35, 0xa9, 0xe6, 0xb6, 0x47, 0x65,
    0xdd, 0x26, 0xf0, 0x33, 0x4d, 0x68, 0x2e, 0x2e, 0x43, 0xcd, 0x31, 0xb7,
    0x54, 0x17, 0xc3, 0xd1, 0x5d, 0x66, 0xae, 0xcc, 0xcd, 0x13, 0x54, 0x3a,
    0xd2, 0xce, 0x6c, 0x08, 0x43, 0xd7, 0xc8, 0x4e, 0x43, 0xb8, 0x91, 0x46,
    0x13, 0x67, 0x35, 0xaa, 0x29, 0x05, 0xe1, 0xbc, 0x02, 0x95, 0xa4, 0xce,
    0x43, 0x25, 0x9c, 0x76, 0x54, 0xfb, 0x24, 0x03, 0x37, 0xbe, 0x50, 0x3d,
    0x62, 0x71, 0x4a, 0xec, 0x99, 0xd5, 0xaf, 0x97, 0xdb, 0x1b, 0xb5, 0xd0,
    0x0b, 0xf8, 0x56, 0xe7, 0xb5, 0x9b, 0xbd, 0x2c, 0x35, 0x62, 0xfc, 0x08,
    0x2c, 0x4a, 0x13, 0x93, 0x46, 0xed, 0x50, 0x18, 0xba, 0x6c, 0x24, 0xe2,
    0x2d, 0x92, 0x5e, 0x2e, 0xb2, 0xab, 0x23, 0x45, 0x31, 0xcd, 0x4d, 0x91,
    0x9d, 0x96, 0x32, 0x08, 0xb3, 0xea, 0xef, 0x01, 0x44, 0xe0, 0xb3, 0x4d,
    0x9f, 0xcd, 0xe6, 0xf9, 0x2b, 0x8c, 0x9d, 0x54, 0x52, 0x11, 0x94, 0x3f,
    0xe3, 0x62, 0xb9, 0xc4, 0xfc, 0xd4, 0x06, 0xe7, 0xad, 0xb0, 0xd4, 0xb6,
    0xc7, 0x34, 0x07, 0xc0, 0xbc, 0x3a, 0x1c, 0xff, 0x48, 0xb9, 0x3a, 0x3c,
    0x69, 0x38, 0xc7, 0x0c, 0x13, 0x47, 0x27, 0x05, 0x36, 0x8f, 0x9f, 0xf6,
    0xae, 0xc6, 0x04, 0x8c, 0xea, 0x20, 0xd0, 0x39, 0x26, 0x50, 0x33, 0x39,
    0x15, 0x13, 0x5a, 0x4f, 0xc5, 0x4b, 0x26, 0xe0, 0x9b, 0x4c, 0x46, 0x4c,
    0x31, 0xce, 0x14, 0xcf, 0x30, 0x28, 0x30, 0x93, 0xd5, 0x78, 0x95, 0x73,
    0x3d, 0xeb, 0x10, 0xf3, 0xe9, 0xdb, 0x20, 0x22, 0xdc, 0xd5, 0xd9, 0x3a,
    0xd6, 0x4d, 0xd7, 0xf3, 0xe3, 0x69, 0x3f, 0xc3, 0xb8, 0xd3, 0x34, 0xc2,
    0xdc, 0xe6, 0xe6, 0x46, 0x63, 0x2a, 0x14, 0x02, 0x3c, 0x39, 0xb0, 0x8b,
    0x08, 0xe8, 0x07, 0xba, 0xb5, 0x45, 0xcb, 0xc9, 0x3b, 0x8d, 0x5d, 0xe9,
    0x39, 0xde, 0xee, 0xe9, 0xb0, 0x0b, 0x24, 0x5a, 0x5e, 0x39, 0xce, 0xb3,
    0xd6, 0x91, 0xda, 0x11, 0x30, 0xe3, 0xc8, 0xf8, 0xda, 0x39, 0xc4, 0x4d,
    0xb3, 0xdb, 0x2a, 0x43, 0x12, 0x96, 0xf3, 0x46, 0xf7, 0x8c, 0xb5, 0x4b,
    0xd6, 0xeb, 0xec, 0x66, 0x10, 0x27, 0x64, 0x98, 0xf1, 0xdf, 0x30, 0x1e,
    0xcd, 0x06, 0xe4, 0x76, 0x16, 0x61, 0xdd, 0x3f, 0xc3, 0x11, 0xc8, 0xb7,
    0x37, 0x90, 0xd8, 0x84, 0xa6, 0xa9, 0xb3, 0xec, 0x24, 0xc9, 0xce, 0xed,
    0x77, 0x2c, 0xde, 0x1a, 0x61, 0x1a, 0x99, 0x5c, 0xb0, 0x39, 0x24, 0xa9,
    0xe3, 0x1a, 0xfa, 0x44, 0xc3, 0x34, 0xb0, 0x18, 0x1d, 0xb3, 0x0b, 0x42,
    0x47, 0x94, 0x37, 0xbb, 0x01, 0xed, 0xfd, 0x2e, 0x0f, 0x1c, 0xb9, 0xa6,
    0x95, 0xf7, 0xea, 0x23, 0x08, 0x03, 0x4e, 0x67, 0xbe, 0xf8, 0xf6, 0x44,
    0x1d, 0x0f, 0x70, 0xd3, 0x37, 0x29, 0x68, 0xd9, 0xe2, 0x4c, 0x39, 0xba,
    0xf3, 0x2c, 0x9c, 0x42, 0xb8, 0x20, 0xcb, 0xa8, 0x10, 0x24, 0xb3, 0x48,
    0x06, 0xed, 0x54, 0x1e, 0x49, 0x1d, 0xb7, 0x26, 0x09, 0xf2, 0x44, 0xa3,
    0xb5, 0x45, 0xfa, 0x20, 0x2b, 0x66, 0xc3, 0x34, 0xa0, 0xad, 0xb5, 0xc5,
    0xda, 0xf5, 0xb2, 0xfd, 0xde, 0x62, 0xdb, 0x4d, 0x6f, 0xc4, 0x22, 0x3b,
    0x46, 0xdb, 0x26, 0x45, 0xde, 0xa0, 0xf3, 0xcc, 0xba, 0xfe, 0xd5, 0xcc,
    0xba, 0x00, 0xd0, 0x2d, 0xcf, 0x47, 0xf9, 0x48, 0x1f, 0xee, 0xf4, 0x92,
    0xed, 0x32, 0x48, 0xfb, 0x3d, 0x30, 0xb8, 0xd6, 0x2c, 0x47, 0x4f, 0x08,
    0x53, 0x24, 0xbc, 0x0c, 0x3c, 0xae, 0xa1, 0x58, 0x60, 0xd4, 0xef, 0x9c,
    0xfa, 0xe6, 0x0a, 0x33, 0xa5, 0x50, 0xa1, 0x29, 0xe4, 0x78, 0x35, 0x44,
    0x5a, 0xf9, 0x2e, 0x97, 0xb9, 0x94, 0xd7, 0x9a, 0x53, 0xd4, 0x10, 0xf4,
    0x2d, 0x6a, 0xf2, 0x50, 0xfe, 0xee, 0xb5, 0x90, 0xbf, 0x12, 0x30, 0xd6,
    0x18, 0x21, 0x91, 0x57, 0x3e, 0x3b, 0xc5, 0x14, 0x69, 0x63, 0xf9, 0xcd,
    0xcb, 0x30, 0x42, 0x0f, 0x4e, 0xcc, 0xc6, 0xe0, 0x1d, 0x45, 0xb3, 0x23,
    0xd9, 0xba, 0xe4, 0xee, 0x48, 0xd0, 0x40, 0x2e, 0xf1, 0x9a, 0x33, 0x0d,
    0xa5, 0xff, 0xea, 0xa9, 0x4f, 0x9c, 0xe3, 0x0d, 0x70, 0x48, 0x50, 0x6c,
    0x52, 0x46, 0x12, 0x22, 0xbd, 0xc9, 0xd7, 0x4a, 0xb9, 0xf2, 0xb7, 0x29,
    0xb2, 0xd6, 0x08, 0x28, 0xf8, 0x47, 0x39, 0x49, 0xe3, 0xc9, 0xaf, 0x98,
    0x00, 0xbf, 0x0b, 0x6e, 0x65, 0x0f, 0xc0, 0x1f, 0x01, 0xb2, 0x10, 0xc5,
    0x09, 0x9a, 0x1c, 0x2c, 0xb3, 0x03, 0x90, 0xcd, 0x22, 0x27, 0x47, 0xb5,
    0x60, 0xb9, 0x49, 0x15, 0x4e, 0x20, 0xb7, 0x37, 0x90, 0x28, 0x8d, 0xc7,
    0x04, 0xf6, 0xba, 0x51, 0x11, 0x42, 0x0f, 0xe8, 0x49, 0x99, 0x65, 0x8d,
    0x08, 0xdb, 0x45, 0xe2, 0xe9, 0xfa, 0x98, 0xaf, 0x41, 0xf5, 0x5d, 0x44,
    0xb1, 0xcb, 0xc9, 0x15, 0x3a, 0xaf, 0x64, 0xd6, 0x94, 0x1f, 0x06, 0xd5,
    0xe6, 0x12, 0xbf, 0x44, 0xf6, 0xbc, 0x02, 0xce, 0xcf, 0x36, 0xed, 0x02,
    0xb7, 0xd6, 0x00, 0x19, 0xd3, 0xfc, 0x25, 0xf0, 0xcb, 0xe8, 0x49, 0xfe,
    0xbd, 0xd6, 0xa0, 0x65, 0x36, 0x69, 0x16, 0x63, 0x4b, 0x2e, 0x64, 0xdc,
    0xc9, 0x27, 0xf8, 0xce, 0x12, 0x28, 0xef, 0x93, 0x10, 0xba, 0xd5, 0x4e,
    0x52, 0xcd, 0x52, 0x68, 0xf6, 0x1c, 0xc9, 0xb9, 0x96, 0x16, 0xd9, 0x6b,
    0x3a, 0x16, 0xb9, 0xc4, 0xe1, 0x77, 0xdf, 0x8f, 0x4a, 0x23, 0x64, 0xa0,
    0x55, 0x04, 0x00, 0x4d, 0xde, 0x3e, 0xa7, 0xb7, 0x17, 0xd4, 0xd2, 0xbc,
    0xca, 0xf4, 0x16, 0x6f, 0x05, 0x33, 0x03, 0xa6, 0xb6, 0xd1, 0x57, 0xf1,
    0x4e, 0xf2, 0x32, 0x0b, 0x0e, 0x12, 0xb7, 0xa4, 0xfa, 0xb9, 0xea, 0xd5,
    0x58, 0x16, 0xe5, 0xe9, 0xd0, 0x06, 0x4c, 0x24, 0xdd, 0xf4, 0xdf, 0x24,
    0x46, 0x1e, 0x79, 0x33, 0x9f, 0xa4, 0x17, 0x3e, 0xf3, 0x32, 0xcc, 0x5d,
    0xc7, 0x57, 0x2c, 0x73, 0x40, 0x69, 0x39, 0xbe, 0xb7, 0xe5, 0x37, 0xac,
    0x0c, 0xc9, 0x00, 0xb2, 0xf9, 0xf0, 0xce, 0xb3, 0xe2, 0xb7, 0x14, 0xee,
    0xff, 0x9a, 0x38, 0xbc, 0xb1, 0xd8, 0xb5, 0x6b, 0xda, 0xb0, 0xd2, 0x48,
    0x44, 0x23, 0x3e, 0xed, 0xca, 0x9d, 0x64, 0x01, 0x1f, 0xa9, 0xc4, 0x06,
    0x49, 0xee, 0x0a, 0xef, 0xf0, 0x8e, 0x05, 0x25, 0xc2, 0x3e, 0xc2, 0x30,
    0xf6, 0x5a, 0x22, 0xe8, 0x9d, 0x40, 0x5c, 0x50, 0xab, 0xeb, 0xaa, 0xb6,
    0x6c, 0xc9, 0xac, 0xc3, 0x44, 0x32, 0x48, 0x47, 0xdc, 0x07, 0xec, 0xe1,
    0x12, 0x1c, 0xb4, 0x67, 0x41, 0xe3, 0x45, 0x49, 0x60, 0x6d, 0x44, 0x9b,
    0x09, 0xb9, 0x40, 0x13, 0xe1, 0x20, 0xf2, 0xe0, 0x06, 0xef, 0x20, 0xad,
    0xcb, 0xb1, 0x1e, 0x54, 0x4b, 0xab, 0xde, 0xf1, 0xa3, 0x40, 0xbe, 0xee,
    0xc7, 0xad, 0xd5, 0xb4, 0xf6, 0x9a, 0xb9, 0xba, 0x1c, 0x97, 0x2a, 0xc0,
    0x56, 0x0b, 0x21, 0x0a, 0xe9, 0x37, 0xee, 0x43, 0x19, 0x58, 0xb2, 0xe5,
    0x59, 0x13, 0x42, 0xae, 0xe3, 0x46, 0x3d, 0xdb, 0xcc, 0x1e, 0xe8, 0xb3,
    0xb2, 0xd6, 0x00, 0x3f, 0xc1, 0x34, 0x76, 0xbe, 0xe6, 0xd2, 0x9d, 0xcf,
    0x64, 0x33, 0x0d, 0x6e, 0x2d, 0x0a, 0x11, 0xd4, 0x42, 0x31, 0x9f, 0xf3,
    0xf7, 0x5b, 0x76, 0x1a, 0xb9, 0xd3, 0x3d, 0xa7, 0x8b, 0xaf, 0xdf, 0x4f,
    0xa6, 0xb0, 0x4c, 0x0e, 0xcf, 0x06, 0x3d, 0xf8, 0x34, 0xa9, 0x4e, 0x1b,
    0x6e, 0xe3, 0xe8, 0x54, 0x9c, 0x8d, 0xdb, 0x17, 0xb7, 0xf4, 0x9b, 0x21,
    0xae, 0xed, 0x4d, 0x2b, 0xcd, 0x51, 0x52, 0xa0, 0xe1, 0xab, 0x3e, 0xa1,
    0x2c, 0xeb, 0xd9, 0x0e, 0x1c, 0x57, 0x19, 0x15, 0x44, 0x35, 0xe0, 0x9e,
    0xf9, 0x2f, 0xee, 0x54, 0xad, 0xe0, 0xc3, 0x3d, 0x8d, 0xd4, 0x22, 0xde,
    0x02, 0x1c, 0xdd, 0x4d, 0x1b, 0x30, 0x00, 0xf6, 0xf0, 0x1e, 0x2d, 0xe2,
    0xec, 0x43, 0x5e, 0x34, 0xb6, 0xe3, 0xf0, 0x4f, 0xe1, 0xec, 0xfc, 0xad,
    0x0c, 0xe8, 0x43, 0x3a, 0x38, 0xc6, 0x0d, 0x6d, 0x04, 0x21, 0x5f, 0xb5,
    0xac, 0x4d, 0x9d, 0x67, 0x4d, 0x5b, 0x3b, 0xb8, 0x92, 0xa1, 0xae, 0xc5,
    0x32, 0xb9, 0xf1, 0x3d, 0x4f, 0x70, 0xc2, 0x0a, 0x02, 0xee, 0xc1, 0x30,
    0x4c, 0x3f, 0x0a, 0x96, 0x00, 0xc0, 0xc4, 0x45, 0xa7, 0xf2, 0x1a, 0xac,
    0x59, 0x4d, 0x2d, 0xbf, 0xc1, 0x35, 0x54, 0xfc, 0x04, 0x34, 0x08, 0x26,
    0xaf, 0x1e, 0x3c, 0xc2, 0x52, 0xd8, 0xc5, 0x13, 0x3b, 0x14, 0x26, 0xf7,
    0x0c, 0x56, 0x4a, 0x55, 0xf8, 0x8b, 0x06, 0x4d, 0xaa, 0xa7, 0x17, 0xe7,
    0xff, 0x23, 0xf1, 0x10, 0xdf, 0x75, 0xf8, 0xce, 0xf5, 0x3c, 0x23, 0x1a,
    0x2f, 0x2b, 0x70, 0x47, 0x22, 0x34, 0x3e, 0xeb, 0xc0, 0x9e, 0x44, 0x51,
    0x27, 0x13, 0xb7, 0x3f, 0xcb, 0xab, 0xb3, 0x07, 0x1f, 0xc2, 0x36, 0x6d,
    0x27, 0x77, 0x6d, 0xa9, 0x05, 0xbe, 0xc5, 0xe2, 0x89, 0x4a, 0xeb, 0x65,
    0x66, 0x2b, 0xef, 0x67, 0x70, 0x60, 0xd8, 0xab, 0xa6, 0xbc, 0x4e, 0xae,
    0xf6, 0x1a, 0xe7, 0xf8, 0x43, 0x4b, 0x60, 0xcf, 0x37, 0xe4, 0x09, 0x30,
    0x51, 0xd6, 0xde, 0x64, 0x56, 0xc2, 0x34, 0x4d, 0x90, 0x10, 0x55, 0xb2,
    0xa2, 0x9c, 0xa9, 0x52, 0x94, 0xf9, 0x7f, 0xf6, 0xd2, 0x89, 0x47, 0x06,
    0xf4, 0xbd, 0x2a, 0x18, 0x3b, 0x49, 0x65, 0xed, 0xcc, 0xc6, 0xf8, 0x03,
    0x32, 0x60, 0x0d, 0xea, 0xdf, 0xe0, 0xd1, 0x5d, 0x47, 0x48, 0x03, 0x4f,
    0x52, 0xc5, 0x26, 0x3a, 0x3d, 0xe2, 0x0d, 0xd7, 0x53, 0x0f, 0xcc, 0x25,
    0xba, 0x3c, 0xfc, 0xd3, 0xa7, 0xe8, 0xda, 0xc9, 0xb5, 0xbe, 0x30, 0xd9,
    0xc6, 0x55, 0xbc, 0x16, 0xea, 0x47, 0xd5, 0x51, 0xee, 0xc3, 0x48, 0x64,
    0xd2, 0x19, 0x6a, 0x2a, 0xd3, 0xcb, 0xdd, 0xb4, 0xb5, 0xf7, 0xc0, 0x5d,
    0xf7, 0x1d, 0xf9, 0xaf, 0xc2, 0x25, 0x4e, 0xba, 0xf0, 0x50, 0xdf, 0x1f,
    0x00, 0x27, 0x1e, 0xcd, 0x05, 0x0d, 0x4f, 0xce, 0x46, 0x41, 0xea, 0xba,
    0xb1, 0x01, 0xd7, 0xef, 0x50, 0xbf, 0xfd, 0x36, 0x48, 0x8d, 0x67, 0x4a,
    0x28, 0x4c, 0xe5, 0x02, 0x2d, 0x68, 0xe0, 0xaa, 0xb6, 0xdb, 0x62, 0x95,
    0xef, 0xf2, 0x43, 0xd9, 0xd4, 0xb0, 0xb6, 0x13, 0xc7, 0x5b, 0xaf, 0x6a,
    0xda, 0x75, 0x47, 0x4d, 0xfd, 0x10, 0xee, 0x15, 0x23, 0xbc, 0xb3, 0xb1,
    0x0c, 0xc8, 0xc6, 0x09, 0xa9, 0xf8, 0x12, 0x45, 0x63, 0xdd, 0x3a, 0x32,
    0x28, 0x4f, 0x1d, 0x92, 0x9c, 0xea, 0x6f, 0x51, 0xdf, 0x25, 0x2f, 0x6d,
    0x38, 0xcd, 0xdf, 0x7a, 0x6a, 0xd9, 0xcd, 0x1f, 0x8a, 0x1f, 0x48, 0x22,
    0x29, 0x05, 0x3c, 0x74, 0x61, 0x0e, 0x00, 0x24, 0x5b, 0xc2, 0xd5, 0xd7,
    0xac, 0xd5, 0xb7, 0x9c, 0x2d, 0x3f, 0xa6, 0x55, 0x4d, 0xfc, 0xb8, 0x93,
    0xbd, 0xd8, 0xca, 0xc2, 0x2f, 0x0c, 0xac, 0xe0, 0xbe, 0xf3, 0xb7, 0x18,
    0x1b, 0xcf, 0x09, 0xda, 0xfa, 0x13, 0xde, 0x29, 0xdb, 0xa9, 0x49, 0x9f,
    0xa4, 0x27, 0xd5, 0xd0, 0x3b, 0x0d, 0x21, 0x65, 0xbf, 0x13, 0xa7, 0xce,
    0x3b, 0xcf, 0xd1, 0xf8, 0xec, 0x16, 0x17, 0x2d, 0xdc, 0xa9, 0x35, 0xdf,
    0x0e, 0x99, 0x29, 0xd0, 0x11, 0xb9, 0xed, 0x6d, 0x49, 0xd6, 0xfd, 0xab,
    0xe9, 0xe8, 0xb4, 0x5d, 0x2f, 0x59, 0xa9, 0xd0, 0x4a, 0xda, 0xde, 0x31,
    0x92, 0xa0, 0x43, 0xe8, 0xee, 0x1d, 0xe3, 0x04, 0x11, 0xb5, 0x93, 0x4d,
    0xec, 0x2f, 0x93, 0xdd, 0xde, 0x05, 0xb8, 0x9c, 0x46, 0xaf, 0xbf, 0xb9,
    0xaa, 0x03, 0x00, 0xa3, 0xf0, 0xa3, 0xd4, 0xd2, 0x19, 0x4c, 0xf5, 0x45,
    0x32, 0xf8, 0xc5, 0x0f, 0xcf, 0xb9, 0x51, 0xf9, 0xab, 0xc8, 0x95, 0x70,
    0x68, 0x2e, 0x2a, 0xae, 0x1c, 0x3b, 0x2d, 0x17, 0xdd, 0x91, 0xb2, 0xc4,
    0xc6, 0x62, 0xbe, 0x00, 0x23, 0x5b, 0x5f, 0x9a, 0xce, 0xff, 0xec, 0xca,
    0x4b, 0xc0, 0x27, 0x56, 0x2b, 0x22, 0x23, 0xd0, 0xc9, 0x0f, 0x50, 0xbe,
    0x10, 0x31, 0x95, 0xe7, 0x1f, 0x6f, 0xd8, 0x12, 0xc0, 0x49, 0x75, 0xe3,
    0xb2, 0x99, 0x48, 0x3f, 0xe4, 0xea, 0x44, 0x57, 0x26, 0x23, 0x1c, 0x4e,
    0x11, 0x96, 0xc4, 0xcf, 0xe8, 0x18, 0x39, 0xfe, 0x5a, 0xe6, 0x14, 0x35,
    0x6a, 0xfb, 0x10, 0x37, 0xf0, 0x42, 0x3e, 0x45, 0xeb, 0xd7, 0xb2, 0x19,
    0x20, 0x4f, 0x0d, 0x6d, 0x41, 0xc9, 0x1f, 0x9a, 0x97, 0x54, 0xdf, 0x9f,
    0xb4, 0x9c, 0x8f, 0xc7, 0x06, 0x29, 0xe3, 0x63, 0x1b, 0xef, 0x4b, 0xcf,
    0xb0, 0x39, 0x3a, 0xa8, 0xe9, 0xe4, 0x3b, 0xb3, 0xd3, 0x5d, 0xe7, 0x1a,
    0x2d, 0xf8, 0xc4, 0xa2, 0x20, 0xba, 0x73, 0x28, 0x8e, 0x07, 0xaa, 0xc0,
    0x63, 0x05, 0xc9, 0x08, 0xd8, 0x15, 0x2c, 0x21, 0x23, 0x15, 0x1b, 0x96,
    0x31, 0xd5, 0xe5, 0x44, 0xe1, 0x5a, 0x9e, 0x6b, 0xb5, 0x1c, 0x7c, 0xea,
    0xbc, 0x3a, 0xd2, 0xf7, 0xcb, 0xbc, 0xed, 0x57, 0x8a, 0x2d, 0x12, 0x49,
    0xdd, 0xca, 0xab, 0x5c, 0x4e, 0x2e, 0xeb, 0xfb, 0x45, 0x02, 0x6c, 0x13,
    0xcc, 0x91, 0x43, 0x22, 0x20, 0x3b, 0x4d, 0x25, 0xee, 0x60, 0x9f, 0x1e,
    0x64, 0x23, 0x0a, 0xfc, 0xa4, 0x98, 0xb5, 0xd1, 0x05, 0xa0, 0x1e, 0xc8,
    0x63, 0xfa, 0xc5, 0x42, 0x3d, 0x33, 0xc7, 0xa5, 0xe8, 0xcd, 0x28, 0xb7,
    0x97, 0xd9, 0x11, 0x02, 0x1f, 0x6b, 0x03, 0x34, 0x03, 0xd8, 0x1d, 0xa1,
    0x91, 0xb0, 0x1d, 0x14, 0x06, 0xa9, 0x16, 0xb9, 0x24, 0x69, 0x3e, 0x15,
    0x3f, 0x08, 0xd1, 0x99, 0x8f, 0x2c, 0x13, 0x3f, 0x14, 0xd1, 0x2a, 0x2c,
    0xf4, 0x34, 0x28, 0x5d, 0x6a, 0xbb, 0x0d, 0xf6, 0x56, 0xfc, 0xff, 0xff,
    0x04, 0x00, 0x00, 0x00, 0x00, 0x02, 0x00, 0x00, 0x47, 0x12, 0x00, 0x00,
    0x2b, 0xf4, 0xff, 0xff, 0xc9, 0x11, 0x00, 0x00, 0xdc, 0xf4, 0xff, 0xff,
    0x4a, 0x02, 0x00, 0x00, 0x30, 0x0b, 0x00, 0x00, 0x0b, 0xf3, 0xff, 0xff,
    0x97, 0x04, 0x00, 0x00, 0x43, 0x11, 0x00, 0x00, 0xc9, 0x07, 0x00, 0x00,
    0x0e, 0x12, 0x00, 0x00, 0x6d, 0xf6, 0xff, 0xff, 0x2b, 0x01, 0x00, 0x00,
    0x95, 0x11, 0x00, 0x00, 0x45, 0x02, 0x00, 0x00, 0xc5, 0x04, 0x00, 0x00,
    0xe9, 0x00, 0x00, 0x00, 0x72, 0x03, 0x00, 0x00, 0xd5, 0x03, 0x00, 0x00,
    0xbb, 0x09, 0x00, 0x00, 0x65, 0xf3, 0xff, 0xff, 0x26, 0x15, 0x00, 0x00,
    0x60, 0xf9, 0xff, 0xff, 0x35, 0xf3, 0xff, 0xff, 0x3f, 0x14, 0x00, 0x00,
    0xbd, 0xfc, 0xff, 0xff, 0xef, 0xf3, 0xff, 0xff, 0xb4, 0xf3, 0xff, 0xff,
    0xbd, 0x12, 0x00, 0x00, 0xfa, 0x0c, 0x00, 0x00, 0x01, 0xf0, 0xff, 0xff,
    0x10, 0xfc, 0xff, 0xff, 0x04, 0x14, 0x00, 0x00, 0xcd, 0x06, 0x00, 0x00,
    0x86, 0x0d, 0x00, 0x00, 0xea, 0xec, 0xff, 0xff, 0xea, 0xfa, 0xff, 0xff,
    0x16, 0x02, 0x00, 0x00, 0xe8, 0x03, 0x00, 0x00, 0x98, 0xfa, 0xff, 0xff,
    0xff, 0xf4, 0xff, 0xff, 0x22, 0xf8, 0xff, 0xff, 0xae, 0x0a, 0x00, 0x00,
    0xe6, 0x04, 0x00, 0x00, 0xe1, 0xf9, 0xff, 0xff, 0xd0, 0x00, 0x00, 0x00,
    0x51, 0xf2, 0xff, 0xff, 0xc8, 0xfe, 0xff, 0xff, 0xbe, 0x07, 0x00, 0x00,
    0x0c, 0x0a, 0x00, 0x00, 0xdc, 0x11, 0x00, 0x00, 0xcc, 0x06, 0x00, 0x00,
    0xb7, 0xfc, 0xff, 0xff, 0x2f, 0x04, 0x00, 0x00, 0x4c, 0xf1, 0xff, 0xff,
    0x20, 0xf3, 0xff, 0xff, 0xfd, 0x02, 0x00, 0x00, 0xba, 0xec, 0xff, 0xff,
    0xdc, 0x15, 0x00, 0x00, 0x19, 0xee, 0xff, 0xff, 0x9f, 0xf5, 0xff, 0xff,
    0xd5, 0xec, 0xff, 0xff, 0x63, 0x13, 0x00, 0x00, 0xc3, 0x08, 0x00, 0x00,
    0xb9, 0xfd, 0xff, 0xff, 0x6f, 0x02, 0x00, 0x00, 0xe5, 0x12, 0x00, 0x00,
    0xc6, 0xf0, 0xff, 0xff, 0x0a, 0xf8, 0xff, 0xff, 0xf9, 0x0e, 0x00, 0x00,
    0x90, 0x03, 0x00, 0x00, 0x15, 0x14, 0x00, 0x00, 0x8d, 0x15, 0x00, 0x00,
    0xd8, 0x04, 0x00, 0x00, 0x46, 0x0a, 0x00, 0x00, 0x90, 0xf8, 0xff, 0xff,
    0xbd, 0xf0, 0xff, 0xff, 0x24, 0xfd, 0xff, 0xff, 0xe3, 0x0f, 0x00, 0x00,
    0xc5, 0x0f, 0x00, 0x00, 0x75, 0xf0, 0xff, 0xff, 0xe0, 0x07, 0x00, 0x00,
    0x90, 0xfc, 0xff, 0xff, 0x42, 0x0e, 0x00, 0x00, 0x78, 0xfb, 0xff, 0xff,
    0x3c, 0x10, 0x00, 0x00, 0xaa, 0xf6, 0xff, 0xff, 0xce, 0xf9, 0xff, 0xff,
    0x17, 0xf6, 0xff, 0xff, 0x85, 0x0d, 0x00, 0x00, 0xd3, 0x05, 0x00, 0x00,
    0xc1, 0xf3, 0xff, 0xff, 0x97, 0xf8, 0xff, 0xff, 0x36, 0xf5, 0xff, 0xff,
    0x09, 0xf0, 0xff, 0xff, 0xcc, 0x0a, 0x00, 0x00, 0x9e, 0xed, 0xff, 0xff,
    0x17, 0xef, 0xff, 0xff, 0xcb, 0xf8, 0xff, 0xff, 0xab, 0x10, 0x00, 0x00,
    0xd7, 0xfa, 0xff, 0xff, 0x91, 0xfe, 0xff, 0xff, 0xbf, 0x08, 0x00, 0x00,
    0xbb, 0x00, 0x00, 0x00, 0x4a, 0x00, 0x00, 0x00, 0x92, 0xf5, 0xff, 0xff,
    0x3a, 0x11, 0x00, 0x00, 0xba, 0xf3, 0xff, 0xff, 0x60, 0xfd, 0xff, 0xff,
    0x93, 0xf2, 0xff, 0xff, 0x12, 0x08, 0x00, 0x00, 0xac, 0x02, 0x00, 0x00,
    0x5c, 0xf1, 0xff, 0xff, 0xa6, 0x10, 0x00, 0x00, 0x7d, 0x17, 0x00, 0x00,
    0x26, 0xf0, 0xff, 0xff, 0x65, 0x0c, 0x00, 0x00, 0x7d, 0x15, 0x00, 0x00,
    0x97, 0x07, 0x00, 0x00, 0xb7, 0x01, 0x00, 0x00, 0x5d, 0x0e, 0x00, 0x00,
    0x5b, 0x0b, 0x00, 0x00, 0x53, 0xf2, 0xff, 0xff, 0xca, 0xf6, 0xff, 0xff,
    0x7e, 0x0a, 0x00, 0x00, 0xaa, 0xf0, 0xff, 0xff, 0x08, 0x0f, 0x00, 0x00,
    0x13, 0x02, 0x00, 0x00, 0x62, 0xfe, 0xff, 0xff, 0x04, 0x00, 0x00, 0x00,
    0x00, 0x01, 0x00, 0x00, 0x48, 0x0f, 0xb0, 0x30, 0x33, 0x5b, 0xce, 0x89,
    0xe7, 0xa7, 0xf3, 0x17, 0x6d, 0x58, 0x3d, 0x60, 0x5a, 0xd1, 0x50, 0x9a,
    0x4d, 0xf7, 0x65, 0xce, 0xe7, 0x13, 0x84, 0xec, 0xa0, 0x35, 0xe8, 0x74,
    0x6d, 0x1f, 0xa9, 0x1f, 0x5c, 0x04, 0x18, 0xe2, 0x8d, 0x07, 0x29, 0xb1,
    0xdd, 0xc4, 0xd7, 0xe7, 0x08, 0x45, 0xdb, 0x22, 0x08, 0x1e, 0xe7, 0x08,
    0x66, 0xf2, 0x13, 0x28, 0xac, 0xe2, 0xff, 0x96, 0xdd, 0xf6, 0xff, 0x54,
    0x6b, 0x8d, 0x16, 0x5b, 0x95, 0x03, 0xbe, 0x38, 0x34, 0x3a, 0xfb, 0xc1,
    0x23, 0xcc, 0xe4, 0xdf, 0x0f, 0x5f, 0xaf, 0xe9, 0x38, 0xe9, 0x9a, 0x73,
    0x2f, 0xde, 0xf6, 0xd1, 0x1a, 0xd6, 0x28, 0x7a, 0xd0, 0x9c, 0xd0, 0xf5,
    0x15, 0x8f, 0x01, 0xff, 0x93, 0x56, 0xd1, 0x52, 0x60, 0x32, 0x16, 0xab,
    0x99, 0xad, 0xf7, 0xa6, 0xa1, 0x9a, 0x69, 0x50, 0x16, 0x5a, 0x6c, 0x5c,
    0xd9, 0x38, 0x10, 0x2a, 0xfa, 0xed, 0x58, 0xdf, 0x49, 0x09, 0x11, 0x0f,
    0xc8, 0x14, 0xe8, 0xfb, 0x07, 0x22, 0xec, 0x45, 0x12, 0x9a, 0xc8, 0x71,
    0x86, 0x91, 0xe5, 0x56, 0x6e, 0x8f, 0xc9, 0xbf, 0x95, 0xce, 0x7f, 0x03,
    0x95, 0xb6, 0xbc, 0x6f, 0x75, 0xa9, 0x29, 0x49, 0x1d, 0x28, 0x2d, 0x3b,
    0xa7, 0xe5, 0xb5, 0x94, 0xb6, 0xab, 0x5e, 0xc4, 0x23, 0x35, 0xbd, 0xd7,
    0x3a, 0xd4, 0x52, 0x19, 0x60, 0x72, 0x82, 0x92, 0xb7, 0x29, 0x38, 0xb9,
    0x39, 0xbd, 0x04, 0xf9, 0xad, 0x9a, 0x3b, 0x37, 0xdf, 0x6a, 0x7a, 0xd9,
    0x07, 0x14, 0x0a, 0x9f, 0xf8, 0xe6, 0x54, 0x21, 0x2f, 0xdf, 0x15, 0x28,
    0x36, 0xd1, 0xcd, 0x27, 0x42, 0x4f, 0x1c, 0x68, 0xee, 0x54, 0x23, 0x85,
    0x50, 0x94, 0x21, 0xb2, 0xfd, 0xca, 0x58, 0x47, 0xfc, 0x63, 0x29, 0x69,
    0x72, 0xf3, 0x24, 0xbc, 0xaf, 0xcb, 0xdc, 0xd2, 0x6e, 0xff, 0xff, 0xff,
    0x04, 0x00, 0x00, 0x00, 0x08, 0x00, 0x00, 0x00, 0xb2, 0xfe, 0xff, 0xff,
    0x58, 0xfe, 0xff, 0xff, 0x82, 0xff, 0xff, 0xff, 0x04, 0x00, 0x00, 0x00,
    0x08, 0x00, 0x00, 0x00, 0x01, 0x00, 0x00, 0x00, 0x10, 0x00, 0x00, 0x00,
    0x96, 0xff, 0xff, 0xff, 0x04, 0x00, 0x00, 0x00, 0x08, 0x00, 0x00, 0x00,
    0x02, 0x00, 0x00, 0x00, 0x03, 0x00, 0x00, 0x00, 0xaa, 0xff, 0xff, 0xff,
    0x04, 0x00, 0x00, 0x00, 0x10, 0x00, 0x00, 0x00, 0x00, 0x00, 0x00, 0x00,
    0x02, 0x00, 0x00, 0x00, 0x03, 0x00, 0x00, 0x00, 0x01, 0x00, 0x00, 0x00,
    0xc6, 0xff, 0xff, 0xff, 0x04, 0x00, 0x00, 0x00, 0x10, 0x00, 0x00, 0x00,
    0x00, 0x00, 0x00, 0x00, 0x03, 0x00, 0x00, 0x00, 0x01, 0x00, 0x00, 0x00,
    0x02, 0x00, 0x00, 0x00, 0xe2, 0xff, 0xff, 0xff, 0x04, 0x00, 0x00, 0x00,
    0x10, 0x00, 0x00, 0x00, 0x01, 0x00, 0x00, 0x00, 0x2a, 0x00, 0x00, 0x00,
    0x1c, 0x00, 0x00, 0x00, 0x01, 0x00, 0x00, 0x00, 0x00, 0x00, 0x06, 0x00,
    0x08, 0x00, 0x04, 0x00, 0x06, 0x00, 0x00, 0x00, 0x04, 0x00, 0x00, 0x00,
    0x20, 0x00, 0x00, 0x00, 0x00, 0x00, 0x00, 0x00, 0x00, 0x00, 0x00, 0x00,
    0x00, 0x00, 0x00, 0x00, 0x00, 0x00, 0x00, 0x00, 0x01, 0x00, 0x00, 0x00,
    0x01, 0x00, 0x00, 0x00, 0x01, 0x00, 0x00, 0x00, 0x01, 0x00, 0x00, 0x00,
    0x54, 0xd0, 0xff, 0xff, 0x58, 0xd0, 0xff, 0xff, 0x0f, 0x00, 0x00, 0x00,
    0x4d, 0x4c, 0x49, 0x52, 0x20, 0x43, 0x6f, 0x6e, 0x76, 0x65, 0x72, 0x74,
    0x65, 0x64, 0x2e, 0x00, 0x01, 0x00, 0x00, 0x00, 0x14, 0x00, 0x00, 0x00,
    0x00, 0x00, 0x0e, 0x00, 0x18, 0x00, 0x14, 0x00, 0x10, 0x00, 0x0c, 0x00,
    0x08, 0x00, 0x04, 0x00, 0x0e, 0x00, 0x00, 0x00, 0x14, 0x00, 0x00, 0x00,
    0x1c, 0x00, 0x00, 0x00, 0xc0, 0x08, 0x00, 0x00, 0xc4, 0x08, 0x00, 0x00,
    0xc8, 0x08, 0x00, 0x00, 0x04, 0x00, 0x00, 0x00, 0x6d, 0x61, 0x69, 0x6e,
    0x00, 0x00, 0x00, 0x00, 0x2b, 0x00, 0x00, 0x00, 0x88, 0x08, 0x00, 0x00,
    0x48, 0x08, 0x00, 0x00, 0x10, 0x08, 0x00, 0x00, 0xb4, 0x07, 0x00, 0x00,
    0x8c, 0x07, 0x00, 0x00, 0x58, 0x07, 0x00, 0x00, 0x24, 0x07, 0x00, 0x00,
    0xfc, 0x06, 0x00, 0x00, 0xd8, 0x06, 0x00, 0x00, 0xa4, 0x06, 0x00, 0x00,
    0x70, 0x06, 0x00, 0x00, 0x48, 0x06, 0x00, 0x00, 0xf4, 0x05, 0x00, 0x00,
    0xcc, 0x05, 0x00, 0x00, 0x98, 0x05, 0x00, 0x00, 0x70, 0x05, 0x00, 0x00,
    0x14, 0x05, 0x00, 0x00, 0xd0, 0x04, 0x00, 0x00, 0xa8, 0x04, 0x00, 0x00,
    0x74, 0x04, 0x00, 0x00, 0x4c, 0x04, 0x00, 0x00, 0x08, 0x04, 0x00, 0x00,
    0xe0, 0x03, 0x00, 0x00, 0xac, 0x03, 0x00, 0x00, 0x78, 0x03, 0x00, 0x00,
    0x50, 0x03, 0x00, 0x00, 0x2c, 0x03, 0x00, 0x00, 0xf8, 0x02, 0x00, 0x00,
    0xc4, 0x02, 0x00, 0x00, 0x9c, 0x02, 0x00, 0x00, 0x50, 0x02, 0x00, 0x00,
    0x0c, 0x02, 0x00, 0x00, 0xe4, 0x01, 0x00, 0x00, 0xa4, 0x01, 0x00, 0x00,
    0x7c, 0x01, 0x00, 0x00, 0x44, 0x01, 0x00, 0x00, 0x10, 0x01, 0x00, 0x00,
    0xdc, 0x00, 0x00, 0x00, 0xb4, 0x00, 0x00, 0x00, 0x90, 0x00, 0x00, 0x00,
    0x5c, 0x00, 0x00, 0x00, 0x24, 0x00, 0x00, 0x00, 0x04, 0x00, 0x00, 0x00,
    0x2e, 0xf8, 0xff, 0xff, 0x08, 0x00, 0x00, 0x00, 0x0c, 0x00, 0x00, 0x00,
    0x01, 0x00, 0x00, 0x00, 0x48, 0x00, 0x00, 0x00, 0x01, 0x00, 0x00, 0x00,
    0x47, 0x00, 0x00, 0x00, 0x8a, 0xf8, 0xff, 0xff, 0x14, 0x00, 0x00, 0x00,
    0x00, 0x00, 0x00, 0x08, 0x10, 0x00, 0x00, 0x00, 0x14, 0x00, 0x00, 0x00,
    0x0b, 0x00, 0x00, 0x00, 0x90, 0xd1, 0xff, 0xff, 0x01, 0x00, 0x00, 0x00,
    0x47, 0x00, 0x00, 0x00, 0x03, 0x00, 0x00, 0x00, 0x46, 0x00, 0x00, 0x00,
    0x08, 0x00, 0x00, 0x00, 0x07, 0x00, 0x00, 0x00, 0xbe, 0xf8, 0xff, 0xff,
    0x14, 0x00, 0x00, 0x00, 0x00, 0x00, 0x00, 0x15, 0x10, 0x00, 0x00, 0x00,
    0x14, 0x00, 0x00, 0x00, 0x05, 0x00, 0x00, 0x00, 0xc4, 0xd1, 0xff, 0xff,
    0x01, 0x00, 0x00, 0x00, 0x46, 0x00, 0x00, 0x00, 0x02, 0x00, 0x00, 0x00,
    0x41, 0x00, 0x00, 0x00, 0x45, 0x00, 0x00, 0x00, 0x1e, 0xf9, 0xff, 0xff,
    0x0c, 0x00, 0x00, 0x00, 0x10, 0x00, 0x00, 0x00, 0x08, 0x00, 0x00, 0x00,
    0x01, 0x00, 0x00, 0x00, 0x45, 0x00, 0x00, 0x00, 0x01, 0x00, 0x00, 0x00,
    0x44, 0x00, 0x00, 0x00, 0x3e, 0xf9, 0xff, 0xff, 0x0c, 0x00, 0x00, 0x00,
    0x10, 0x00, 0x00, 0x00, 0x07, 0x00, 0x00, 0x00, 0x01, 0x00, 0x00, 0x00,
    0x44, 0x00, 0x00, 0x00, 0x02, 0x00, 0x00, 0x00, 0x43, 0x00, 0x00, 0x00,
    0x19, 0x00, 0x00, 0x00, 0x32, 0xf9, 0xff, 0xff, 0x14, 0x00, 0x00, 0x00,
    0x00, 0x00, 0x00, 0x0b, 0x10, 0x00, 0x00, 0x00, 0x14, 0x00, 0x00, 0x00,
    0x06, 0x00, 0x00, 0x00, 0x38, 0xd2, 0xff, 0xff, 0x01, 0x00, 0x00, 0x00,
    0x43, 0x00, 0x00, 0x00, 0x02, 0x00, 0x00, 0x00, 0x42, 0x00, 0x00, 0x00,
    0x1a, 0x00, 0x00, 0x00, 0x62, 0xf9, 0xff, 0xff, 0x14, 0x00, 0x00, 0x00,
    0x00, 0x00, 0x00, 0x15, 0x10, 0x00, 0x00, 0x00, 0x14, 0x00, 0x00, 0x00,
    0x05, 0x00, 0x00, 0x00, 0x68, 0xd2, 0xff, 0xff, 0x01, 0x00, 0x00, 0x00,
    0x42, 0x00, 0x00, 0x00, 0x02, 0x00, 0x00, 0x00, 0x41, 0x00, 0x00, 0x00,
    0x1b, 0x00, 0x00, 0x00, 0x92, 0xf9, 0xff, 0xff, 0x14, 0x00, 0x00, 0x00,
    0x00, 0x00, 0x00, 0x08, 0x10, 0x00, 0x00, 0x00, 0x14, 0x00, 0x00, 0x00,
    0x0b, 0x00, 0x00, 0x00, 0x98, 0xd2, 0xff, 0xff, 0x01, 0x00, 0x00, 0x00,
    0x41, 0x00, 0x00, 0x00, 0x03, 0x00, 0x00, 0x00, 0x40, 0x00, 0x00, 0x00,
    0x0a, 0x00, 0x00, 0x00, 0x09, 0x00, 0x00, 0x00, 0xf6, 0xf9, 0xff, 0xff,
    0x0c, 0x00, 0x00, 0x00, 0x10, 0x00, 0x00, 0x00, 0x02, 0x00, 0x00, 0x00,
    0x01, 0x00, 0x00, 0x00, 0x40, 0x00, 0x00, 0x00, 0x02, 0x00, 0x00, 0x00,
    0x3f, 0x00, 0x00, 0x00, 0x06, 0x00, 0x00, 0x00, 0xea, 0xf9, 0xff, 0xff,
    0x1c, 0x00, 0x00, 0x00, 0x00, 0x00, 0x00, 0x1b, 0x1c, 0x00, 0x00, 0x00,
    0x20, 0x00, 0x00, 0x00, 0x0a, 0x00, 0x00, 0x00, 0x00, 0x00, 0x06, 0x00,
    0x08, 0x00, 0x07, 0x00, 0x06, 0x00, 0x00, 0x00, 0x00, 0x00, 0x00, 0x01,
    0x01, 0x00, 0x00, 0x00, 0x3f, 0x00, 0x00, 0x00, 0x02, 0x00, 0x00, 0x00,
    0x3e, 0x00, 0x00, 0x00, 0x05, 0x00, 0x00, 0x00, 0x56, 0xfa, 0xff, 0xff,
    0x0c, 0x00, 0x00, 0x00, 0x10, 0x00, 0x00, 0x00, 0x04, 0x00, 0x00, 0x00,
    0x01, 0x00, 0x00, 0x00, 0x3e, 0x00, 0x00, 0x00, 0x02, 0x00, 0x00, 0x00,
    0x3d, 0x00, 0x00, 0x00, 0x03, 0x00, 0x00, 0x00, 0x4a, 0xfa, 0xff, 0xff,
    0x14, 0x00, 0x00, 0x00, 0x00, 0x00, 0x00, 0x01, 0x1c, 0x00, 0x00, 0x00,
    0x20, 0x00, 0x00, 0x00, 0x03, 0x00, 0x00, 0x00, 0xc6, 0xfa, 0xff, 0xff,
    0x01, 0x00, 0x00, 0x00, 0x01, 0x00, 0x00, 0x00, 0x00, 0x00, 0x00, 0x01,
    0x01, 0x00, 0x00, 0x00, 0x3d, 0x00, 0x00, 0x00, 0x03, 0x00, 0x00, 0x00,
    0x3c, 0x00, 0x00, 0x00, 0x0c, 0x00, 0x00, 0x00, 0x0b, 0x00, 0x00, 0x00,
    0x8a, 0xfa, 0xff, 0xff, 0x14, 0x00, 0x00, 0x00, 0x00, 0x00, 0x00, 0x02,
    0x24, 0x00, 0x00, 0x00, 0x28, 0x00, 0x00, 0x00, 0x09, 0x00, 0x00, 0x00,
    0x72, 0xfd, 0xff, 0xff, 0x00, 0x00, 0x00, 0x01, 0x01, 0x00, 0x00, 0x00,
    0x01, 0x00, 0x00, 0x00, 0x01, 0x00, 0x00, 0x00, 0x00, 0x00, 0x00, 0x01,
    0x01, 0x00, 0x00, 0x00, 0x3c, 0x00, 0x00, 0x00, 0x03, 0x00, 0x00, 0x00,
    0x3b, 0x00, 0x00, 0x00, 0x0e, 0x00, 0x00, 0x00, 0x0d, 0x00, 0x00, 0x00,
    0x02, 0xfb, 0xff, 0xff, 0x0c, 0x00, 0x00, 0x00, 0x10, 0x00, 0x00, 0x00,
    0x04, 0x00, 0x00, 0x00, 0x01, 0x00, 0x00, 0x00, 0x3b, 0x00, 0x00, 0x00,
    0x02, 0x00, 0x00, 0x00, 0x3a, 0x00, 0x00, 0x00, 0x04, 0x00, 0x00, 0x00,
    0xf6, 0xfa, 0xff, 0xff, 0x14, 0x00, 0x00, 0x00, 0x00, 0x00, 0x00, 0x16,
    0x10, 0x00, 0x00, 0x00, 0x14, 0x00, 0x00, 0x00, 0x01, 0x00, 0x00, 0x00,
    0xfc, 0xd3, 0xff, 0xff, 0x01, 0x00, 0x00, 0x00, 0x3a, 0x00, 0x00, 0x00,
    0x02, 0x00, 0x00, 0x00, 0x39, 0x00, 0x00, 0x00, 0x01, 0x00, 0x00, 0x00,
    0x26, 0xfb, 0xff, 0xff, 0x14, 0x00, 0x00, 0x00, 0x00, 0x00, 0x00, 0x15,
    0x10, 0x00, 0x00, 0x00, 0x14, 0x00, 0x00, 0x00, 0x05, 0x00, 0x00, 0x00,
    0x2c, 0xd4, 0xff, 0xff, 0x01, 0x00, 0x00, 0x00, 0x39, 0x00, 0x00, 0x00,
    0x02, 0x00, 0x00, 0x00, 0x34, 0x00, 0x00, 0x00, 0x38, 0x00, 0x00, 0x00,
    0x86, 0xfb, 0xff, 0xff, 0x0c, 0x00, 0x00, 0x00, 0x10, 0x00, 0x00, 0x00,
    0x08, 0x00, 0x00, 0x00, 0x01, 0x00, 0x00, 0x00, 0x38, 0x00, 0x00, 0x00,
    0x01, 0x00, 0x00, 0x00, 0x37, 0x00, 0x00, 0x00, 0xa6, 0xfb, 0xff, 0xff,
    0x0c, 0x00, 0x00, 0x00, 0x10, 0x00, 0x00, 0x00, 0x07, 0x00, 0x00, 0x00,
    0x01, 0x00, 0x00, 0x00, 0x37, 0x00, 0x00, 0x00, 0x02, 0x00, 0x00, 0x00,
    0x36, 0x00, 0x00, 0x00, 0x18, 0x00, 0x00, 0x00, 0x9a, 0xfb, 0xff, 0xff,
    0x14, 0x00, 0x00, 0x00, 0x00, 0x00, 0x00, 0x0b, 0x10, 0x00, 0x00, 0x00,
    0x14, 0x00, 0x00, 0x00, 0x06, 0x00, 0x00, 0x00, 0xa0, 0xd4, 0xff, 0xff,
    0x01, 0x00, 0x00, 0x00, 0x36, 0x00, 0x00, 0x00, 0x02, 0x00, 0x00, 0x00,
    0x35, 0x00, 0x00, 0x00, 0x1a, 0x00, 0x00, 0x00, 0xca, 0xfb, 0xff, 0xff,
    0x14, 0x00, 0x00, 0x00, 0x00, 0x00, 0x00, 0x15, 0x10, 0x00, 0x00, 0x00,
    0x14, 0x00, 0x00, 0x00, 0x05, 0x00, 0x00, 0x00, 0xd0, 0xd4, 0xff, 0xff,
    0x01, 0x00, 0x00, 0x00, 0x35, 0x00, 0x00, 0x00, 0x02, 0x00, 0x00, 0x00,
    0x34, 0x00, 0x00, 0x00, 0x1b, 0x00, 0x00, 0x00, 0x2a, 0xfc, 0xff, 0xff,
    0x0c, 0x00, 0x00, 0x00, 0x10, 0x00, 0x00, 0x00, 0x04, 0x00, 0x00, 0x00,
    0x01, 0x00, 0x00, 0x00, 0x34, 0x00, 0x00, 0x00, 0x02, 0x00, 0x00, 0x00,
    0x33, 0x00, 0x00, 0x00, 0x03, 0x00, 0x00, 0x00, 0x1e, 0xfc, 0xff, 0xff,
    0x14, 0x00, 0x00, 0x00, 0x00, 0x00, 0x00, 0x01, 0x1c, 0x00, 0x00, 0x00,
    0x20, 0x00, 0x00, 0x00, 0x03, 0x00, 0x00, 0x00, 0x9a, 0xfc, 0xff, 0xff,
    0x02, 0x00, 0x00, 0x00, 0x02, 0x00, 0x00, 0x00, 0x00, 0x00, 0x00, 0x01,
    0x01, 0x00, 0x00, 0x00, 0x33, 0x00, 0x00, 0x00, 0x03, 0x00, 0x00, 0x00,
    0x32, 0x00, 0x00, 0x00, 0x10, 0x00, 0x00, 0x00, 0x0f, 0x00, 0x00, 0x00,
    0x8e, 0xfc, 0xff, 0xff, 0x0c, 0x00, 0x00, 0x00, 0x10, 0x00, 0x00, 0x00,
    0x04, 0x00, 0x00, 0x00, 0x01, 0x00, 0x00, 0x00, 0x32, 0x00, 0x00, 0x00,
    0x02, 0x00, 0x00, 0x00, 0x31, 0x00, 0x00, 0x00, 0x04, 0x00, 0x00, 0x00,
    0x82, 0xfc, 0xff, 0xff, 0x14, 0x00, 0x00, 0x00, 0x00, 0x00, 0x00, 0x16,
    0x10, 0x00, 0x00, 0x00, 0x14, 0x00, 0x00, 0x00, 0x01, 0x00, 0x00, 0x00,
    0x88, 0xd5, 0xff, 0xff, 0x01, 0x00, 0x00, 0x00, 0x31, 0x00, 0x00, 0x00,
    0x02, 0x00, 0x00, 0x00, 0x30, 0x00, 0x00, 0x00, 0x01, 0x00, 0x00, 0x00,
    0xe2, 0xfc, 0xff, 0xff, 0x0c, 0x00, 0x00, 0x00, 0x10, 0x00, 0x00, 0x00,
    0x04, 0x00, 0x00, 0x00, 0x01, 0x00, 0x00, 0x00, 0x30, 0x00, 0x00, 0x00,
    0x02, 0x00, 0x00, 0x00, 0x2f, 0x00, 0x00, 0x00, 0x03, 0x00, 0x00, 0x00,
    0xd6, 0xfc, 0xff, 0xff, 0x14, 0x00, 0x00, 0x00, 0x00, 0x00, 0x00, 0x01,
    0x1c, 0x00, 0x00, 0x00, 0x20, 0x00, 0x00, 0x00, 0x03, 0x00, 0x00, 0x00,
    0x52, 0xfd, 0xff, 0xff, 0x01, 0x00, 0x00, 0x00, 0x01, 0x00, 0x00, 0x00,
    0x00, 0x00, 0x00, 0x01, 0x01, 0x00, 0x00, 0x00, 0x2f, 0x00, 0x00, 0x00,
    0x03, 0x00, 0x00, 0x00, 0x2e, 0x00, 0x00, 0x00, 0x12, 0x00, 0x00, 0x00,
    0x11, 0x00, 0x00, 0x00, 0x16, 0xfd, 0xff, 0xff, 0x24, 0x00, 0x00, 0x00,
    0x00, 0x00, 0x00, 0x02, 0x34, 0x00, 0x00, 0x00, 0x38, 0x00, 0x00, 0x00,
    0x09, 0x00, 0x00, 0x00, 0x00, 0x00, 0x0e, 0x00, 0x18, 0x00, 0x17, 0x00,
    0x10, 0x00, 0x0c, 0x00, 0x08, 0x00, 0x07, 0x00, 0x0e, 0x00, 0x00, 0x00,
    0x00, 0x00, 0x00, 0x01, 0x01, 0x00, 0x00, 0x00, 0x01, 0x00, 0x00, 0x00,
    0x01, 0x00, 0x00, 0x00, 0x00, 0x00, 0x00, 0x01, 0x01, 0x00, 0x00, 0x00,
    0x2e, 0x00, 0x00, 0x00, 0x03, 0x00, 0x00, 0x00, 0x2d, 0x00, 0x00, 0x00,
    0x14, 0x00, 0x00, 0x00, 0x13, 0x00, 0x00, 0x00, 0x9e, 0xfd, 0xff, 0xff,
    0x0c, 0x00, 0x00, 0x00, 0x10, 0x00, 0x00, 0x00, 0x04, 0x00, 0x00, 0x00,
    0x01, 0x00, 0x00, 0x00, 0x2d, 0x00, 0x00, 0x00, 0x02, 0x00, 0x00, 0x00,
    0x2c, 0x00, 0x00, 0x00, 0x04, 0x00, 0x00, 0x00, 0x92, 0xfd, 0xff, 0xff,
    0x14, 0x00, 0x00, 0x00, 0x00, 0x00, 0x00, 0x16, 0x10, 0x00, 0x00, 0x00,
    0x14, 0x00, 0x00, 0x00, 0x01, 0x00, 0x00, 0x00, 0x98, 0xd6, 0xff, 0xff,
    0x01, 0x00, 0x00, 0x00, 0x2c, 0x00, 0x00, 0x00, 0x02, 0x00, 0x00, 0x00,
    0x2b, 0x00, 0x00, 0x00, 0x01, 0x00, 0x00, 0x00, 0xf2, 0xfd, 0xff, 0xff,
    0x0c, 0x00, 0x00, 0x00, 0x10, 0x00, 0x00, 0x00, 0x04, 0x00, 0x00, 0x00,
    0x01, 0x00, 0x00, 0x00, 0x2b, 0x00, 0x00, 0x00, 0x02, 0x00, 0x00, 0x00,
    0x2a, 0x00, 0x00, 0x00, 0x03, 0x00, 0x00, 0x00, 0xe6, 0xfd, 0xff, 0xff,
    0x20, 0x00, 0x00, 0x00, 0x00, 0x00, 0x00, 0x01, 0x2c, 0x00, 0x00, 0x00,
    0x30, 0x00, 0x00, 0x00, 0x03, 0x00, 0x00, 0x00, 0x0c, 0x00, 0x14, 0x00,
    0x13, 0x00, 0x0c, 0x00, 0x08, 0x00, 0x07, 0x00, 0x0c, 0x00, 0x00, 0x00,
    0x00, 0x00, 0x00, 0x01, 0x02, 0x00, 0x00, 0x00, 0x02, 0x00, 0x00, 0x00,
    0x00, 0x00, 0x00, 0x01, 0x01, 0x00, 0x00, 0x00, 0x2a, 0x00, 0x00, 0x00,
    0x03, 0x00, 0x00, 0x00, 0x29, 0x00, 0x00, 0x00, 0x16, 0x00, 0x00, 0x00,
    0x15, 0x00, 0x00, 0x00, 0x66, 0xfe, 0xff, 0xff, 0x0c, 0x00, 0x00, 0x00,
    0x10, 0x00, 0x00, 0x00, 0x04, 0x00, 0x00, 0x00, 0x01, 0x00, 0x00, 0x00,
    0x29, 0x00, 0x00, 0x00, 0x02, 0x00, 0x00, 0x00, 0x28, 0x00, 0x00, 0x00,
    0x04, 0x00, 0x00, 0x00, 0x5a, 0xfe, 0xff, 0xff, 0x14, 0x00, 0x00, 0x00,
    0x00, 0x00, 0x00, 0x16, 0x10, 0x00, 0x00, 0x00, 0x14, 0x00, 0x00, 0x00,
    0x01, 0x00, 0x00, 0x00, 0x60, 0xd7, 0xff, 0xff, 0x01, 0x00, 0x00, 0x00,
    0x28, 0x00, 0x00, 0x00, 0x02, 0x00, 0x00, 0x00, 0x27, 0x00, 0x00, 0x00,
    0x01, 0x00, 0x00, 0x00, 0x8a, 0xfe, 0xff, 0xff, 0x14, 0x00, 0x00, 0x00,
    0x00, 0x00, 0x00, 0x15, 0x10, 0x00, 0x00, 0x00, 0x14, 0x00, 0x00, 0x00,
    0x05, 0x00, 0x00, 0x00, 0x90, 0xd7, 0xff, 0xff, 0x01, 0x00, 0x00, 0x00,
    0x27, 0x00, 0x00, 0x00, 0x02, 0x00, 0x00, 0x00, 0x22, 0x00, 0x00, 0x00,
    0x26, 0x00, 0x00, 0x00, 0xea, 0xfe, 0xff, 0xff, 0x0c, 0x00, 0x00, 0x00,
    0x10, 0x00, 0x00, 0x00, 0x08, 0x00, 0x00, 0x00, 0x01, 0x00, 0x00, 0x00,
    0x26, 0x00, 0x00, 0x00, 0x01, 0x00, 0x00, 0x00, 0x25, 0x00, 0x00, 0x00,
    0x0a, 0xff, 0xff, 0xff, 0x0c, 0x00, 0x00, 0x00, 0x10, 0x00, 0x00, 0x00,
    0x07, 0x00, 0x00, 0x00, 0x01, 0x00, 0x00, 0x00, 0x25, 0x00, 0x00, 0x00,
    0x02, 0x00, 0x00, 0x00, 0x24, 0x00, 0x00, 0x00, 0x17, 0x00, 0x00, 0x00,
    0xfe, 0xfe, 0xff, 0xff, 0x14, 0x00, 0x00, 0x00, 0x00, 0x00, 0x00, 0x0b,
    0x10, 0x00, 0x00, 0x00, 0x14, 0x00, 0x00, 0x00, 0x06, 0x00, 0x00, 0x00,
    0x04, 0xd8, 0xff, 0xff, 0x01, 0x00, 0x00, 0x00, 0x24, 0x00, 0x00, 0x00,
    0x02, 0x00, 0x00, 0x00, 0x23, 0x00, 0x00, 0x00, 0x1a, 0x00, 0x00, 0x00,
    0x2e, 0xff, 0xff, 0xff, 0x14, 0x00, 0x00, 0x00, 0x00, 0x00, 0x00, 0x15,
    0x10, 0x00, 0x00, 0x00, 0x14, 0x00, 0x00, 0x00, 0x05, 0x00, 0x00, 0x00,
    0x34, 0xd8, 0xff, 0xff, 0x01, 0x00, 0x00, 0x00, 0x23, 0x00, 0x00, 0x00,
    0x02, 0x00, 0x00, 0x00, 0x22, 0x00, 0x00, 0x00, 0x1b, 0x00, 0x00, 0x00,
    0x8e, 0xff, 0xff, 0xff, 0x0c, 0x00, 0x00, 0x00, 0x10, 0x00, 0x00, 0x00,
    0x04, 0x00, 0x00, 0x00, 0x01, 0x00, 0x00, 0x00, 0x22, 0x00, 0x00, 0x00,
    0x02, 0x00, 0x00, 0x00, 0x21, 0x00, 0x00, 0x00, 0x03, 0x00, 0x00, 0x00,
    0x82, 0xff, 0xff, 0xff, 0x20, 0x00, 0x00, 0x00, 0x00, 0x00, 0x00, 0x01,
    0x28, 0x00, 0x00, 0x00, 0x2c, 0x00, 0x00, 0x00, 0x03, 0x00, 0x00, 0x00,
    0x00, 0x00, 0x0a, 0x00, 0x10, 0x00, 0x0f, 0x00, 0x08, 0x00, 0x04, 0x00,
    0x0a, 0x00, 0x00, 0x00, 0x02, 0x00, 0x00, 0x00, 0x02, 0x00, 0x00, 0x00,
    0x00, 0x00, 0x00, 0x01, 0x01, 0x00, 0x00, 0x00, 0x21, 0x00, 0x00, 0x00,
    0x03, 0x00, 0x00, 0x00, 0x20, 0x00, 0x00, 0x00, 0x1d, 0x00, 0x00, 0x00,
    0x1c, 0x00, 0x00, 0x00, 0x00, 0x00, 0x0a, 0x00, 0x10, 0x00, 0x0c, 0x00,
    0x08, 0x00, 0x04, 0x00, 0x0a, 0x00, 0x00, 0x00, 0x0c, 0x00, 0x00, 0x00,
    0x10, 0x00, 0x00, 0x00, 0x02, 0x00, 0x00, 0x00, 0x01, 0x00, 0x00, 0x00,
    0x20, 0x00, 0x00, 0x00, 0x02, 0x00, 0x00, 0x00, 0x1f, 0x00, 0x00, 0x00,
    0x02, 0x00, 0x00, 0x00, 0x00, 0x00, 0x0e, 0x00, 0x18, 0x00, 0x14, 0x00,
    0x10, 0x00, 0x0c, 0x00, 0x0b, 0x00, 0x04, 0x00, 0x0e, 0x00, 0x00, 0x00,
    0x14, 0x00, 0x00, 0x00, 0x00, 0x00, 0x00, 0x16, 0x10, 0x00, 0x00, 0x00,
    0x14, 0x00, 0x00, 0x00, 0x01, 0x00, 0x00, 0x00, 0x14, 0xd9, 0xff, 0xff,
    0x01, 0x00, 0x00, 0x00, 0x1f, 0x00, 0x00, 0x00, 0x02, 0x00, 0x00, 0x00,
    0x1e, 0x00, 0x00, 0x00, 0x01, 0x00, 0x00, 0x00, 0x00, 0x00, 0x0a, 0x00,
    0x0c, 0x00, 0x00, 0x00, 0x08, 0x00, 0x04, 0x00, 0x0a, 0x00, 0x00, 0x00,
    0x08, 0x00, 0x00, 0x00, 0x0c, 0x00, 0x00, 0x00, 0x01, 0x00, 0x00, 0x00,
    0x1e, 0x00, 0x00, 0x00, 0x01, 0x00, 0x00, 0x00, 0x00, 0x00, 0x00, 0x00,
    0x01, 0x00, 0x00, 0x00, 0x48, 0x00, 0x00, 0x00, 0x01, 0x00, 0x00, 0x00,
    0x00, 0x00, 0x00, 0x00, 0x49, 0x00, 0x00, 0x00, 0xd8, 0x26, 0x00, 0x00,
    0x78, 0x26, 0x00, 0x00, 0x38, 0x26, 0x00, 0x00, 0xf8, 0x25, 0x00, 0x00,
    0xb8, 0x25, 0x00, 0x00, 0x78, 0x25, 0x00, 0x00, 0x38, 0x25, 0x00, 0x00,
    0xd8, 0x24, 0x00, 0x00, 0x74, 0x24, 0x00, 0x00, 0x10, 0x24, 0x00, 0x00,
    0xac, 0x23, 0x00, 0x00, 0x98, 0x22, 0x00, 0x00, 0x74, 0x21, 0x00, 0x00,
    0x60, 0x20, 0x00, 0x00, 0x24, 0x1f, 0x00, 0x00, 0x10, 0x1e, 0x00, 0x00,
    0xec, 0x1c, 0x00, 0x00, 0xd8, 0x1b, 0x00, 0x00, 0xb4, 0x1a, 0x00, 0x00,
    0xa0, 0x19, 0x00, 0x00, 0x78, 0x18, 0x00, 0x00, 0x60, 0x17, 0x00, 0x00,
    0x3c, 0x16, 0x00, 0x00, 0xe0, 0x15, 0x00, 0x00, 0x84, 0x15, 0x00, 0x00,
    0x28, 0x15, 0x00, 0x00, 0xcc, 0x14, 0x00, 0x00, 0x70, 0x14, 0x00, 0x00,
    0x5c, 0x13, 0x00, 0x00, 0x38, 0x12, 0x00, 0x00, 0xcc, 0x11, 0x00, 0x00,
    0x70, 0x11, 0x00, 0x00, 0x0c, 0x11, 0x00, 0x00, 0x98, 0x10, 0x00, 0x00,
    0x34, 0x10, 0x00, 0x00, 0xd8, 0x0f, 0x00, 0x00, 0x74, 0x0f, 0x00, 0x00,
    0x00, 0x0f, 0x00, 0x00, 0x94, 0x0e, 0x00, 0x00, 0x18, 0x0e, 0x00, 0x00,
    0xb4, 0x0d, 0x00, 0x00, 0x50, 0x0d, 0x00, 0x00, 0xcc, 0x0c, 0x00, 0x00,
    0x68, 0x0c, 0x00, 0x00, 0x04, 0x0c, 0x00, 0x00, 0xa0, 0x0b, 0x00, 0x00,
    0x04, 0x0b, 0x00, 0x00, 0x90, 0x0a, 0x00, 0x00, 0x24, 0x0a, 0x00, 0x00,
    0xc0, 0x09, 0x00, 0x00, 0x54, 0x09, 0x00, 0x00, 0xe0, 0x08, 0x00, 0x00,
    0x74, 0x08, 0x00, 0x00, 0x10, 0x08, 0x00, 0x00, 0xac, 0x07, 0x00, 0x00,
    0x38, 0x07, 0x00, 0x00, 0xcc, 0x06, 0x00, 0x00, 0x50, 0x06, 0x00, 0x00,
    0xec, 0x05, 0x00, 0x00, 0x80, 0x05, 0x00, 0x00, 0xe4, 0x04, 0x00, 0x00,
    0x68, 0x04, 0x00, 0x00, 0xfc, 0x03, 0x00, 0x00, 0x98, 0x03, 0x00, 0x00,
    0x3c, 0x03, 0x00, 0x00, 0xd8, 0x02, 0x00, 0x00, 0x7c, 0x02, 0x00, 0x00,
    0x20, 0x02, 0x00, 0x00, 0xb4, 0x01, 0x00, 0x00, 0x50, 0x01, 0x00, 0x00,
    0xcc, 0x00, 0x00, 0x00, 0x68, 0x00, 0x00, 0x00, 0x04, 0x00, 0x00, 0x00,
    0x62, 0xda, 0xff, 0xff, 0x00, 0x00, 0x00, 0x01, 0x14, 0x00, 0x00, 0x00,
    0x34, 0x00, 0x00, 0x00, 0x49, 0x00, 0x00, 0x00, 0x00, 0x00, 0x00, 0x03,
    0x3c, 0x00, 0x00, 0x00, 0x4c, 0xda, 0xff, 0xff, 0x08, 0x00, 0x00, 0x00,
    0x14, 0x00, 0x00, 0x00, 0x01, 0x00, 0x00, 0x00, 0x85, 0x00, 0x00, 0x00,
    0x00, 0x00, 0x00, 0x00, 0x00, 0x00, 0x00, 0x00, 0x01, 0x00, 0x00, 0x00,
    0x72, 0xe6, 0x32, 0x3d, 0x0f, 0x00, 0x00, 0x00, 0x50, 0x61, 0x72, 0x74,
    0x69, 0x74, 0x69, 0x6f, 0x6e, 0x65, 0x64, 0x43, 0x61, 0x6c, 0x6c, 0x00,
    0x02, 0x00, 0x00, 0x00, 0x01, 0x00, 0x00, 0x00, 0x02, 0x00, 0x00, 0x00,
    0xc2, 0xda, 0xff, 0xff, 0x00, 0x00, 0x00, 0x01, 0x14, 0x00, 0x00, 0x00,
    0x30, 0x00, 0x00, 0x00, 0x48, 0x00, 0x00, 0x00, 0x00, 0x00, 0x00, 0x09,
    0x3c, 0x00, 0x00, 0x00, 0xac, 0xda, 0xff, 0xff, 0x08, 0x00, 0x00, 0x00,
    0x10, 0x00, 0x00, 0x00, 0x01, 0x00, 0x00, 0x00, 0x05, 0x00, 0x00, 0x00,
    0x00, 0x00, 0x00, 0x00, 0x01, 0x00, 0x00, 0x00, 0x72, 0xe6, 0x32, 0x3d,
    0x10, 0x00, 0x00, 0x00, 0x50, 0x61, 0x72, 0x74, 0x69, 0x74, 0x69, 0x6f,
    0x6e, 0x65, 0x64, 0x43, 0x61, 0x6c, 0x6c, 0x31, 0x00, 0x00, 0x00, 0x00,
    0x02, 0x00, 0x00, 0x00, 0x01, 0x00, 0x00, 0x00, 0x02, 0x00, 0x00, 0x00,
    0x22, 0xdb, 0xff, 0xff, 0x00, 0x00, 0x00, 0x01, 0x14, 0x00, 0x00, 0x00,
    0x30, 0x00, 0x00, 0x00, 0x47, 0x00, 0x00, 0x00, 0x00, 0x00, 0x00, 0x09,
    0x5c, 0x00, 0x00, 0x00, 0x0c, 0xdb, 0xff, 0xff, 0x08, 0x00, 0x00, 0x00,
    0x10, 0x00, 0x00, 0x00, 0x01, 0x00, 0x00, 0x00, 0x97, 0xff, 0xff, 0xff,
    0xff, 0xff, 0xff, 0xff, 0x01, 0x00, 0x00, 0x00, 0xe7, 0xba, 0x86, 0x3c,
    0x31, 0x00, 0x00, 0x00, 0x6f, 0x6e, 0x6e, 0x78, 0x5f, 0x74, 0x66, 0x5f,
    0x70, 0x72, 0x65, 0x66, 0x69, 0x78, 0x5f, 0x2f, 0x63, 0x6c, 0x61, 0x73,
    0x73, 0x69, 0x66, 0x5f, 0x62, 0x6c, 0x6f, 0x63, 0x6b, 0x2f, 0x63, 0x6c,
    0x61, 0x73, 0x73, 0x69, 0x66, 0x5f, 0x62, 0x6c, 0x6f, 0x63, 0x6b, 0x2e,
    0x31, 0x2f, 0x4d, 0x75, 0x6c, 0x00, 0x00, 0x00, 0x02, 0x00, 0x00, 0x00,
    0x01, 0x00, 0x00, 0x00, 0x80, 0x00, 0x00, 0x00, 0xa2, 0xdb, 0xff, 0xff,
    0x00, 0x00, 0x00, 0x01, 0x14, 0x00, 0x00, 0x00, 0x34, 0x00, 0x00, 0x00,
    0x46, 0x00, 0x00, 0x00, 0x00, 0x00, 0x00, 0x09, 0x3c, 0x00, 0x00, 0x00,
    0x8c, 0xdb, 0xff, 0xff, 0x08, 0x00, 0x00, 0x00, 0x14, 0x00, 0x00, 0x00,
    0x01, 0x00, 0x00, 0x00, 0x97, 0xff, 0xff, 0xff, 0xff, 0xff, 0xff, 0xff,
    0x00, 0x00, 0x00, 0x00, 0x01, 0x00, 0x00, 0x00, 0xe7, 0xba, 0x86, 0x3c,
    0x0f, 0x00, 0x00, 0x00, 0x63, 0x6c, 0x69, 0x70, 0x5f, 0x62, 0x79, 0x5f,
    0x76, 0x61, 0x6c, 0x75, 0x65, 0x5f, 0x32, 0x00, 0x02, 0x00, 0x00, 0x00,
    0x01, 0x00, 0x00, 0x00, 0x80, 0x00, 0x00, 0x00, 0x02, 0xdc, 0xff, 0xff,
    0x00, 0x00, 0x00, 0x01, 0x14, 0x00, 0x00, 0x00, 0x34, 0x00, 0x00, 0x00,
    0x45, 0x00, 0x00, 0x00, 0x00, 0x00, 0x00, 0x09, 0x44, 0x00, 0x00, 0x00,
    0xec, 0xdb, 0xff, 0xff, 0x08, 0x00, 0x00, 0x00, 0x14, 0x00, 0x00, 0x00,
    0x01, 0x00, 0x00, 0x00, 0x9f, 0xff, 0xff, 0xff, 0xff, 0xff, 0xff, 0xff,
    0x00, 0x00, 0x00, 0x00, 0x01, 0x00, 0x00, 0x00, 0x1c, 0x69, 0x92, 0x3b,
    0x17, 0x00, 0x00, 0x00, 0x63, 0x6c, 0x69, 0x70, 0x5f, 0x62, 0x79, 0x5f,
    0x76, 0x61, 0x6c, 0x75, 0x65, 0x5f, 0x32, 0x2f, 0x4d, 0x69, 0x6e, 0x69,
    0x6d, 0x75, 0x6d, 0x00, 0x02, 0x00, 0x00, 0x00, 0x01, 0x00, 0x00, 0x00,
    0x80, 0x00, 0x00, 0x00, 0x6a, 0xdc, 0xff, 0xff, 0x00, 0x00, 0x00, 0x01,
    0x14, 0x00, 0x00, 0x00, 0x34, 0x00, 0x00, 0x00, 0x44, 0x00, 0x00, 0x00,
    0x00, 0x00, 0x00, 0x09, 0x34, 0x00, 0x00, 0x00, 0x54, 0xdc, 0xff, 0xff,
    0x08, 0x00, 0x00, 0x00, 0x14, 0x00, 0x00, 0x00, 0x01, 0x00, 0x00, 0x00,
    0x9f, 0xff, 0xff, 0xff, 0xff, 0xff, 0xff, 0xff, 0x00, 0x00, 0x00, 0x00,
    0x01, 0x00, 0x00, 0x00, 0x1c, 0x69, 0x92, 0x3b, 0x05, 0x00, 0x00, 0x00,
    0x61, 0x64, 0x64, 0x5f, 0x39, 0x00, 0x00, 0x00, 0x02, 0x00, 0x00, 0x00,
    0x01, 0x00, 0x00, 0x00, 0x80, 0x00, 0x00, 0x00, 0xc2, 0xdc, 0xff, 0xff,
    0x00, 0x00, 0x00, 0x01, 0x14, 0x00, 0x00, 0x00, 0x34, 0x00, 0x00, 0x00,
    0x43, 0x00, 0x00, 0x00, 0x00, 0x00, 0x00, 0x09, 0x34, 0x00, 0x00, 0x00,
    0xac, 0xdc, 0xff, 0xff, 0x08, 0x00, 0x00, 0x00, 0x14, 0x00, 0x00, 0x00,
    0x01, 0x00, 0x00, 0x00, 0xdc, 0xff, 0xff, 0xff, 0xff, 0xff, 0xff, 0xff,
    0x00, 0x00, 0x00, 0x00, 0x01, 0x00, 0x00, 0x00, 0x04, 0x33, 0xe4, 0x3b,
    0x05, 0x00, 0x00, 0x00, 0x6d, 0x75, 0x6c, 0x5f, 0x34, 0x00, 0x00, 0x00,
    0x02, 0x00, 0x00, 0x00, 0x01, 0x00, 0x00, 0x00, 0x80, 0x00, 0x00, 0x00,
    0x1a, 0xdd, 0xff, 0xff, 0x00, 0x00, 0x00, 0x01, 0x14, 0x00, 0x00, 0x00,
    0x34, 0x00, 0x00, 0x00, 0x42, 0x00, 0x00, 0x00, 0x00, 0x00, 0x00, 0x09,
    0x3c, 0x00, 0x00, 0x00, 0x04, 0xdd, 0xff, 0xff, 0x08, 0x00, 0x00, 0x00,
    0x14, 0x00, 0x00, 0x00, 0x01, 0x00, 0x00, 0x00, 0x00, 0x00, 0x00, 0x00,
    0x00, 0x00, 0x00, 0x00, 0x00, 0x00, 0x00, 0x00, 0x01, 0x00, 0x00, 0x00,
    0x24, 0xec, 0xf5, 0x3c, 0x0c, 0x00, 0x00, 0x00, 0x4d, 0x61, 0x74, 0x4d,
    0x75, 0x6c, 0x3b, 0x61, 0x64, 0x64, 0x5f, 0x38, 0x00, 0x00, 0x00, 0x00,
    0x02, 0x00, 0x00, 0x00, 0x01, 0x00, 0x00, 0x00, 0x80, 0x00, 0x00, 0x00,
    0x7a, 0xdd, 0xff, 0xff, 0x00, 0x00, 0x00, 0x01, 0x14, 0x00, 0x00, 0x00,
    0x30, 0x00, 0x00, 0x00, 0x41, 0x00, 0x00, 0x00, 0x00, 0x00, 0x00, 0x09,
    0x34, 0x00, 0x00, 0x00, 0x64, 0xdd, 0xff, 0xff, 0x08, 0x00, 0x00, 0x00,
    0x10, 0x00, 0x00, 0x00, 0x01, 0x00, 0x00, 0x00, 0x00, 0x00, 0x00, 0x00,
    0x00, 0x00, 0x00, 0x00, 0x01, 0x00, 0x00, 0x00, 0x63, 0xaf, 0xa5, 0x3c,
    0x09, 0x00, 0x00, 0x00, 0x52, 0x65, 0x73, 0x68, 0x61, 0x70, 0x65, 0x5f,
    0x32, 0x00, 0x00, 0x00, 0x02, 0x00, 0x00, 0x00, 0x01, 0x00, 0x00, 0x00,
    0x10, 0x00, 0x00, 0x00, 0xd2, 0xdd, 0xff, 0xff, 0x00, 0x00, 0x00, 0x01,
    0x14, 0x00, 0x00, 0x00, 0x34, 0x00, 0x00, 0x00, 0x40, 0x00, 0x00, 0x00,
    0x00, 0x00, 0x00, 0x09, 0x34, 0x00, 0x00, 0x00, 0xbc, 0xdd, 0xff, 0xff,
    0x08, 0x00, 0x00, 0x00, 0x14, 0x00, 0x00, 0x00, 0x01, 0x00, 0x00, 0x00,
    0x00, 0x00, 0x00, 0x00, 0x00, 0x00, 0x00, 0x00, 0x00, 0x00, 0x00, 0x00,
    0x01, 0x00, 0x00, 0x00, 0x63, 0xaf, 0xa5, 0x3c, 0x04, 0x00, 0x00, 0x00,
    0x4d, 0x65, 0x61, 0x6e, 0x00, 0x00, 0x00, 0x00, 0x04, 0x00, 0x00, 0x00,
    0x01, 0x00, 0x00, 0x00, 0x10, 0x00, 0x00, 0x00, 0x01, 0x00, 0x00, 0x00,
    0x01, 0x00, 0x00, 0x00, 0x32, 0xde, 0xff, 0xff, 0x00, 0x00, 0x00, 0x01,
    0x14, 0x00, 0x00, 0x00, 0x34, 0x00, 0x00, 0x00, 0x3f, 0x00, 0x00, 0x00,
    0x00, 0x00, 0x00, 0x09, 0x3c, 0x00, 0x00, 0x00, 0x1c, 0xde, 0xff, 0xff,
    0x08, 0x00, 0x00, 0x00, 0x14, 0x00, 0x00, 0x00, 0x01, 0x00, 0x00, 0x00,
    0x05, 0x00, 0x00, 0x00, 0x00, 0x00, 0x00, 0x00, 0x00, 0x00, 0x00, 0x00,
    0x01, 0x00, 0x00, 0x00, 0x8d, 0x94, 0x7f, 0x3d, 0x0c, 0x00, 0x00, 0x00,
    0x74, 0x72, 0x61, 0x6e, 0x73, 0x70, 0x6f, 0x73, 0x65, 0x5f, 0x32, 0x30,
    0x00, 0x00, 0x00, 0x00, 0x04, 0x00, 0x00, 0x00, 0x01, 0x00, 0x00, 0x00,
    0x10, 0x00, 0x00, 0x00, 0x05, 0x00, 0x00, 0x00, 0x04, 0x00, 0x00, 0x00,
    0x9a, 0xde, 0xff, 0xff, 0x00, 0x00, 0x00, 0x01, 0x14, 0x00, 0x00, 0x00,
    0x34, 0x00, 0x00, 0x00, 0x3e, 0x00, 0x00, 0x00, 0x00, 0x00, 0x00, 0x09,
    0x4c, 0x00, 0x00, 0x00, 0x84, 0xde, 0xff, 0xff, 0x08, 0x00, 0x00, 0x00,
    0x14, 0x00, 0x00, 0x00, 0x01, 0x00, 0x00, 0x00, 0x05, 0x00, 0x00, 0x00,
    0x00, 0x00, 0x00, 0x00, 0x00, 0x00, 0x00, 0x00, 0x01, 0x00, 0x00, 0x00,
    0x8d, 0x94, 0x7f, 0x3d, 0x1c, 0x00, 0x00, 0x00, 0x41, 0x64, 0x64, 0x5f,
    0x37, 0x3b, 0x63, 0x6f, 0x6e, 0x76, 0x6f, 0x6c, 0x75, 0x74, 0x69, 0x6f,
    0x6e, 0x5f, 0x34, 0x3b, 0x43, 0x6f, 0x6e, 0x73, 0x74, 0x5f, 0x31, 0x32,
    0x00, 0x00, 0x00, 0x00, 0x04, 0x00, 0x00, 0x00, 0x01, 0x00, 0x00, 0x00,
    0x05, 0x00, 0x00, 0x00, 0x04, 0x00, 0x00, 0x00, 0x10, 0x00, 0x00, 0x00,
    0x12, 0xdf, 0xff, 0xff, 0x00, 0x00, 0x00, 0x01, 0x14, 0x00, 0x00, 0x00,
    0x34, 0x00, 0x00, 0x00, 0x3d, 0x00, 0x00, 0x00, 0x00, 0x00, 0x00, 0x09,
    0x6c, 0x00, 0x00, 0x00, 0xfc, 0xde, 0xff, 0xff, 0x08, 0x00, 0x00, 0x00,
    0x14, 0x00, 0x00, 0x00, 0x01, 0x00, 0x00, 0x00, 0x80, 0xff, 0xff, 0xff,
    0xff, 0xff, 0xff, 0xff, 0x00, 0x00, 0x00, 0x00, 0x01, 0x00, 0x00, 0x00,
    0xe2, 0x3b, 0x1c, 0x3d, 0x3f, 0x00, 0x00, 0x00, 0x6f, 0x6e, 0x6e, 0x78,
    0x5f, 0x74, 0x66, 0x5f, 0x70, 0x72, 0x65, 0x66, 0x69, 0x78, 0x5f, 0x2f,
    0x62, 0x6c, 0x6f, 0x63, 0x6b, 0x32, 0x2f, 0x62, 0x6c, 0x6f, 0x63, 0x6b,
    0x32, 0x2e, 0x32, 0x2f, 0x52, 0x65, 0x6c, 0x75, 0x3b, 0x41, 0x64, 0x64,
    0x5f, 0x36, 0x3b, 0x64, 0x65, 0x70, 0x74, 0x68, 0x77, 0x69, 0x73, 0x65,
    0x5f, 0x31, 0x3b, 0x43, 0x6f, 0x6e, 0x73, 0x74, 0x5f, 0x31, 0x30, 0x00,
    0x04, 0x00, 0x00, 0x00, 0x01, 0x00, 0x00, 0x00, 0x05, 0x00, 0x00, 0x00,
    0x04, 0x00, 0x00, 0x00, 0x10, 0x00, 0x00, 0x00, 0xaa, 0xdf, 0xff, 0xff,
    0x00, 0x00, 0x00, 0x01, 0x14, 0x00, 0x00, 0x00, 0x34, 0x00, 0x00, 0x00,
    0x3c, 0x00, 0x00, 0x00, 0x00, 0x00, 0x00, 0x09, 0x3c, 0x00, 0x00, 0x00,
    0x94, 0xdf, 0xff, 0xff, 0x08, 0x00, 0x00, 0x00, 0x14, 0x00, 0x00, 0x00,
    0x01, 0x00, 0x00, 0x00, 0x8e, 0xff, 0xff, 0xff, 0xff, 0xff, 0xff, 0xff,
    0x00, 0x00, 0x00, 0x00, 0x01, 0x00, 0x00, 0x00, 0x6f, 0x52, 0xe0, 0x3c,
    0x0c, 0x00, 0x00, 0x00, 0x74, 0x72, 0x61, 0x6e, 0x73, 0x70, 0x6f, 0x73,
    0x65, 0x5f, 0x31, 0x36, 0x00, 0x00, 0x00, 0x00, 0x04, 0x00, 0x00, 0x00,
    0x01, 0x00, 0x00, 0x00, 0x07, 0x00, 0x00, 0x00, 0x06, 0x00, 0x00, 0x00,
    0x10, 0x00, 0x00, 0x00, 0x12, 0xe0, 0xff, 0xff, 0x00, 0x00, 0x00, 0x01,
    0x14, 0x00, 0x00, 0x00, 0x34, 0x00, 0x00, 0x00, 0x3b, 0x00, 0x00, 0x00,
    0x00, 0x00, 0x00, 0x09, 0x34, 0x00, 0x00, 0x00, 0xfc, 0xdf, 0xff, 0xff,
    0x08, 0x00, 0x00, 0x00, 0x14, 0x00, 0x00, 0x00, 0x01, 0x00, 0x00, 0x00,
    0x8e, 0xff, 0xff, 0xff, 0xff, 0xff, 0xff, 0xff, 0x00, 0x00, 0x00, 0x00,
    0x01, 0x00, 0x00, 0x00, 0x6f, 0x52, 0xe0, 0x3c, 0x05, 0x00, 0x00, 0x00,
    0x50, 0x61, 0x64, 0x5f, 0x34, 0x00, 0x00, 0x00, 0x04, 0x00, 0x00, 0x00,
    0x01, 0x00, 0x00, 0x00, 0x10, 0x00, 0x00, 0x00, 0x07, 0x00, 0x00, 0x00,
    0x06, 0x00, 0x00, 0x00, 0x72, 0xe0, 0xff, 0xff, 0x00, 0x00, 0x00, 0x01,
    0x14, 0x00, 0x00, 0x00, 0x34, 0x00, 0x00, 0x00, 0x3a, 0x00, 0x00, 0x00,
    0x00, 0x00, 0x00, 0x09, 0x4c, 0x00, 0x00, 0x00, 0x5c, 0xe0, 0xff, 0xff,
    0x08, 0x00, 0x00, 0x00, 0x14, 0x00, 0x00, 0x00, 0x01, 0x00, 0x00, 0x00,
    0x8e, 0xff, 0xff, 0xff, 0xff, 0xff, 0xff, 0xff, 0x00, 0x00, 0x00, 0x00,
    0x01, 0x00, 0x00, 0x00, 0x6f, 0x52, 0xe0, 0x3c, 0x1f, 0x00, 0x00, 0x00,
    0x6f, 0x6e, 0x6e, 0x78, 0x5f, 0x74, 0x66, 0x5f, 0x70, 0x72, 0x65, 0x66,
    0x69, 0x78, 0x5f, 0x2f, 0x68, 0x61, 0x72, 0x64, 0x73, 0x77, 0x69, 0x73,
    0x68, 0x5f, 0x31, 0x2f, 0x4d, 0x75, 0x6c, 0x00, 0x04, 0x00, 0x00, 0x00,
    0x01, 0x00, 0x00, 0x00, 0x10, 0x00, 0x00, 0x00, 0x05, 0x00, 0x00, 0x00,
    0x04, 0x00, 0x00, 0x00, 0xea, 0xe0, 0xff, 0xff, 0x00, 0x00, 0x00, 0x01,
    0x14, 0x00, 0x00, 0x00, 0x34, 0x00, 0x00, 0x00, 0x39, 0x00, 0x00, 0x00,
    0x00, 0x00, 0x00, 0x09, 0x3c, 0x00, 0x00, 0x00, 0xd4, 0xe0, 0xff, 0xff,
    0x08, 0x00, 0x00, 0x00, 0x14, 0x00, 0x00, 0x00, 0x01, 0x00, 0x00, 0x00,
    0x8e, 0xff, 0xff, 0xff, 0xff, 0xff, 0xff, 0xff, 0x00, 0x00, 0x00, 0x00,
    0x01, 0x00, 0x00, 0x00, 0x6f, 0x52, 0xe0, 0x3c, 0x0f, 0x00, 0x00, 0x00,
    0x63, 0x6c, 0x69, 0x70, 0x5f, 0x62, 0x79, 0x5f, 0x76, 0x61, 0x6c, 0x75,
    0x65, 0x5f, 0x31, 0x00, 0x04, 0x00, 0x00, 0x00, 0x01, 0x00, 0x00, 0x00,
    0x10, 0x00, 0x00, 0x00, 0x05, 0x00, 0x00, 0x00, 0x04, 0x00, 0x00, 0x00,
    0x52, 0xe1, 0xff, 0xff, 0x00, 0x00, 0x00, 0x01, 0x14, 0x00, 0x00, 0x00,
    0x34, 0x00, 0x00, 0x00, 0x38, 0x00, 0x00, 0x00, 0x00, 0x00, 0x00, 0x09,
    0x44, 0x00, 0x00, 0x00, 0x3c, 0xe1, 0xff, 0xff, 0x08, 0x00, 0x00, 0x00,
    0x14, 0x00, 0x00, 0x00, 0x01, 0x00, 0x00, 0x00, 0x03, 0x00, 0x00, 0x00,
    0x00, 0x00, 0x00, 0x00, 0x00, 0x00, 0x00, 0x00, 0x01, 0x00, 0x00, 0x00,
    0x8f, 0xd0, 0x03, 0x3c, 0x17, 0x00, 0x00, 0x00, 0x63, 0x6c, 0x69, 0x70,
    0x5f, 0x62, 0x79, 0x5f, 0x76, 0x61, 0x6c, 0x75, 0x65, 0x5f, 0x31, 0x2f,
    0x4d, 0x69, 0x6e, 0x69, 0x6d, 0x75, 0x6d, 0x00, 0x04, 0x00, 0x00, 0x00,
    0x01, 0x00, 0x00, 0x00, 0x10, 0x00, 0x00, 0x00, 0x05, 0x00, 0x00, 0x00,
    0x04, 0x00, 0x00, 0x00, 0xc2, 0xe1, 0xff, 0xff, 0x00, 0x00, 0x00, 0x01,
    0x14, 0x00, 0x00, 0x00, 0x34, 0x00, 0x00, 0x00, 0x37, 0x00, 0x00, 0x00,
    0x00, 0x00, 0x00, 0x09, 0x34, 0x00, 0x00, 0x00, 0xac, 0xe1, 0xff, 0xff,
    0x08, 0x00, 0x00, 0x00, 0x14, 0x00, 0x00, 0x00, 0x01, 0x00, 0x00, 0x00,
    0x03, 0x00, 0x00, 0x00, 0x00, 0x00, 0x00, 0x00, 0x00, 0x00, 0x00, 0x00,
    0x01, 0x00, 0x00, 0x00, 0x8f, 0xd0, 0x03, 0x3c, 0x05, 0x00, 0x00, 0x00,
    0x61, 0x64, 0x64, 0x5f, 0x35, 0x00, 0x00, 0x00, 0x04, 0x00, 0x00, 0x00,
    0x01, 0x00, 0x00, 0x00, 0x10, 0x00, 0x00, 0x00, 0x05, 0x00, 0x00, 0x00,
    0x04, 0x00, 0x00, 0x00, 0x22, 0xe2, 0xff, 0xff, 0x00, 0x00, 0x00, 0x01,
    0x14, 0x00, 0x00, 0x00, 0x34, 0x00, 0x00, 0x00, 0x36, 0x00, 0x00, 0x00,
    0x00, 0x00, 0x00, 0x09, 0x34, 0x00, 0x00, 0x00, 0x0c, 0xe2, 0xff, 0xff,
    0x08, 0x00, 0x00, 0x00, 0x14, 0x00, 0x00, 0x00, 0x01, 0x00, 0x00, 0x00,
    0xfd, 0xff, 0xff, 0xff, 0xff, 0xff, 0xff, 0xff, 0x00, 0x00, 0x00, 0x00,
    0x01, 0x00, 0x00, 0x00, 0xb0, 0x92, 0x4a, 0x3c, 0x05, 0x00, 0x00, 0x00,
    0x6d, 0x75, 0x6c, 0x5f, 0x31, 0x00, 0x00, 0x00, 0x04, 0x00, 0x00, 0x00,
    0x01, 0x00, 0x00, 0x00, 0x10, 0x00, 0x00, 0x00, 0x05, 0x00, 0x00, 0x00,
    0x04, 0x00, 0x00, 0x00, 0x82, 0xe2, 0xff, 0xff, 0x00, 0x00, 0x00, 0x01,
    0x14, 0x00, 0x00, 0x00, 0x34, 0x00, 0x00, 0x00, 0x35, 0x00, 0x00, 0x00,
    0x00, 0x00, 0x00, 0x09, 0x3c, 0x00, 0x00, 0x00, 0x6c, 0xe2, 0xff, 0xff,
    0x08, 0x00, 0x00, 0x00, 0x14, 0x00, 0x00, 0x00, 0x01, 0x00, 0x00, 0x00,
    0x15, 0x00, 0x00, 0x00, 0x00, 0x00, 0x00, 0x00, 0x00, 0x00, 0x00, 0x00,
    0x01, 0x00, 0x00, 0x00, 0xd8, 0xab, 0x7f, 0x3d, 0x0c, 0x00, 0x00, 0x00,
    0x74, 0x72, 0x61, 0x6e, 0x73, 0x70, 0x6f, 0x73, 0x65, 0x5f, 0x31, 0x34,
    0x00, 0x00, 0x00, 0x00, 0x04, 0x00, 0x00, 0x00, 0x01, 0x00, 0x00, 0x00,
    0x10, 0x00, 0x00, 0x00, 0x05, 0x00, 0x00, 0x00, 0x04, 0x00, 0x00, 0x00,
    0xea, 0xe2, 0xff, 0xff, 0x00, 0x00, 0x00, 0x01, 0x14, 0x00, 0x00, 0x00,
    0x30, 0x00, 0x00, 0x00, 0x34, 0x00, 0x00, 0x00, 0x00, 0x00, 0x00, 0x09,
    0x44, 0x00, 0x00, 0x00, 0xd4, 0xe2, 0xff, 0xff, 0x08, 0x00, 0x00, 0x00,
    0x10, 0x00, 0x00, 0x00, 0x01, 0x00, 0x00, 0x00, 0x15, 0x00, 0x00, 0x00,
    0x00, 0x00, 0x00, 0x00, 0x01, 0x00, 0x00, 0x00, 0xd8, 0xab, 0x7f, 0x3d,
    0x1b, 0x00, 0x00, 0x00, 0x41, 0x64, 0x64, 0x5f, 0x34, 0x3b, 0x63, 0x6f,
    0x6e, 0x76, 0x6f, 0x6c, 0x75, 0x74, 0x69, 0x6f, 0x6e, 0x5f, 0x33, 0x3b,
    0x43, 0x6f, 0x6e, 0x73, 0x74, 0x5f, 0x38, 0x00, 0x04, 0x00, 0x00, 0x00,
    0x01, 0x00, 0x00, 0x00, 0x05, 0x00, 0x00, 0x00, 0x04, 0x00, 0x00, 0x00,
    0x10, 0x00, 0x00, 0x00, 0x5a, 0xe3, 0xff, 0xff, 0x00, 0x00, 0x00, 0x01,
    0x14, 0x00, 0x00, 0x00, 0x34, 0x00, 0x00, 0x00, 0x33, 0x00, 0x00, 0x00,
    0x00, 0x00, 0x00, 0x09, 0x3c, 0x00, 0x00, 0x00, 0x44, 0xe3, 0xff, 0xff,
    0x08, 0x00, 0x00, 0x00, 0x14, 0x00, 0x00, 0x00, 0x01, 0x00, 0x00, 0x00,
    0x01, 0x00, 0x00, 0x00, 0x00, 0x00, 0x00, 0x00, 0x00, 0x00, 0x00, 0x00,
    0x01, 0x00, 0x00, 0x00, 0xb2, 0x63, 0xa5, 0x3d, 0x0c, 0x00, 0x00, 0x00,
    0x74, 0x72, 0x61, 0x6e, 0x73, 0x70, 0x6f, 0x73, 0x65, 0x5f, 0x31, 0x33,
    0x00, 0x00, 0x00, 0x00, 0x04, 0x00, 0x00, 0x00, 0x01, 0x00, 0x00, 0x00,
    0x0c, 0x00, 0x00, 0x00, 0x09, 0x00, 0x00, 0x00, 0x10, 0x00, 0x00, 0x00,
    0xc2, 0xe3, 0xff, 0xff, 0x00, 0x00, 0x00, 0x01, 0x14, 0x00, 0x00, 0x00,
    0x34, 0x00, 0x00, 0x00, 0x32, 0x00, 0x00, 0x00, 0x00, 0x00, 0x00, 0x09,
    0x34, 0x00, 0x00, 0x00, 0xac, 0xe3, 0xff, 0xff, 0x08, 0x00, 0x00, 0x00,
    0x14, 0x00, 0x00, 0x00, 0x01, 0x00, 0x00, 0x00, 0x01, 0x00, 0x00, 0x00,
    0x00, 0x00, 0x00, 0x00, 0x00, 0x00, 0x00, 0x00, 0x01, 0x00, 0x00, 0x00,
    0xb2, 0x63, 0xa5, 0x3d, 0x05, 0x00, 0x00, 0x00, 0x50, 0x61, 0x64, 0x5f,
    0x33, 0x00, 0x00, 0x00, 0x04, 0x00, 0x00, 0x00, 0x01, 0x00, 0x00, 0x00,
    0x10, 0x00, 0x00, 0x00, 0x0c, 0x00, 0x00, 0x00, 0x09, 0x00, 0x00, 0x00,
    0x22, 0xe4, 0xff, 0xff, 0x00, 0x00, 0x00, 0x01, 0x14, 0x00, 0x00, 0x00,
    0x34, 0x00, 0x00, 0x00, 0x31, 0x00, 0x00, 0x00, 0x00, 0x00, 0x00, 0x09,
    0x3c, 0x00, 0x00, 0x00, 0x0c, 0xe4, 0xff, 0xff, 0x08, 0x00, 0x00, 0x00,
    0x14, 0x00, 0x00, 0x00, 0x01, 0x00, 0x00, 0x00, 0x01, 0x00, 0x00, 0x00,
    0x00, 0x00, 0x00, 0x00, 0x00, 0x00, 0x00, 0x00, 0x01, 0x00, 0x00, 0x00,
    0xb2, 0x63, 0xa5, 0x3d, 0x0c, 0x00, 0x00, 0x00, 0x74, 0x72, 0x61, 0x6e,
    0x73, 0x70, 0x6f, 0x73, 0x65, 0x5f, 0x31, 0x31, 0x00, 0x00, 0x00, 0x00,
    0x04, 0x00, 0x00, 0x00, 0x01, 0x00, 0x00, 0x00, 0x10, 0x00, 0x00, 0x00,
    0x0a, 0x00, 0x00, 0x00, 0x07, 0x00, 0x00, 0x00, 0x8a, 0xe4, 0xff, 0xff,
    0x00, 0x00, 0x00, 0x01, 0x14, 0x00, 0x00, 0x00, 0x30, 0x00, 0x00, 0x00,
    0x30, 0x00, 0x00, 0x00, 0x00, 0x00, 0x00, 0x09, 0x44, 0x00, 0x00, 0x00,
    0x74, 0xe4, 0xff, 0xff, 0x08, 0x00, 0x00, 0x00, 0x10, 0x00, 0x00, 0x00,
    0x01, 0x00, 0x00, 0x00, 0x01, 0x00, 0x00, 0x00, 0x00, 0x00, 0x00, 0x00,
    0x01, 0x00, 0x00, 0x00, 0xb2, 0x63, 0xa5, 0x3d, 0x1b, 0x00, 0x00, 0x00,
    0x41, 0x64, 0x64, 0x5f, 0x33, 0x3b, 0x63, 0x6f, 0x6e, 0x76, 0x6f, 0x6c,
    0x75, 0x74, 0x69, 0x6f, 0x6e, 0x5f, 0x32, 0x3b, 0x43, 0x6f, 0x6e, 0x73,
    0x74, 0x5f, 0x36, 0x00, 0x04, 0x00, 0x00, 0x00, 0x01, 0x00, 0x00, 0x00,
    0x0a, 0x00, 0x00, 0x00, 0x07, 0x00, 0x00, 0x00, 0x10, 0x00, 0x00, 0x00,
    0xfa, 0xe4, 0xff, 0xff, 0x00, 0x00, 0x00, 0x01, 0x14, 0x00, 0x00, 0x00,
    0x34, 0x00, 0x00, 0x00, 0x2f, 0x00, 0x00, 0x00, 0x00, 0x00, 0x00, 0x09,
    0x6c, 0x00, 0x00, 0x00, 0xe4, 0xe4, 0xff, 0xff, 0x08, 0x00, 0x00, 0x00,
    0x14, 0x00, 0x00, 0x00, 0x01, 0x00, 0x00, 0x00, 0x80, 0xff, 0xff, 0xff,
    0xff, 0xff, 0xff, 0xff, 0x00, 0x00, 0x00, 0x00, 0x01, 0x00, 0x00, 0x00,
    0x2b, 0x99, 0x32, 0x3d, 0x3c, 0x00, 0x00, 0x00, 0x6f, 0x6e, 0x6e, 0x78,
    0x5f, 0x74, 0x66, 0x5f, 0x70, 0x72, 0x65, 0x66, 0x69, 0x78, 0x5f, 0x2f,
    0x62, 0x6c, 0x6f, 0x63, 0x6b, 0x31, 0x2f, 0x62, 0x6c, 0x6f, 0x63, 0x6b,
    0x31, 0x2e, 0x32, 0x2f, 0x52, 0x65, 0x6c, 0x75, 0x3b, 0x41, 0x64, 0x64,
    0x5f, 0x32, 0x3b, 0x64, 0x65, 0x70, 0x74, 0x68, 0x77, 0x69, 0x73, 0x65,
    0x3b, 0x43, 0x6f, 0x6e, 0x73, 0x74, 0x5f, 0x34, 0x00, 0x00, 0x00, 0x00,
    0x04, 0x00, 0x00, 0x00, 0x01, 0x00, 0x00, 0x00, 0x0a, 0x00, 0x00, 0x00,
    0x07, 0x00, 0x00, 0x00, 0x10, 0x00, 0x00, 0x00, 0x92, 0xe5, 0xff, 0xff,
    0x00, 0x00, 0x00, 0x01, 0x14, 0x00, 0x00, 0x00, 0x30, 0x00, 0x00, 0x00,
    0x2e, 0x00, 0x00, 0x00, 0x00, 0x00, 0x00, 0x09, 0x34, 0x00, 0x00, 0x00,
    0x7c, 0xe5, 0xff, 0xff, 0x08, 0x00, 0x00, 0x00, 0x10, 0x00, 0x00, 0x00,
    0x01, 0x00, 0x00, 0x00, 0x80, 0xff, 0xff, 0xff, 0xff, 0xff, 0xff, 0xff,
    0x01, 0x00, 0x00, 0x00, 0xb0, 0x1f, 0x50, 0x3c, 0x0b, 0x00, 0x00, 0x00,
    0x74, 0x72, 0x61, 0x6e, 0x73, 0x70, 0x6f, 0x73, 0x65, 0x5f, 0x37, 0x00,
    0x04, 0x00, 0x00, 0x00, 0x01, 0x00, 0x00, 0x00, 0x0c, 0x00, 0x00, 0x00,
    0x09, 0x00, 0x00, 0x00, 0x10, 0x00, 0x00, 0x00, 0xf2, 0xe5, 0xff, 0xff,
    0x00, 0x00, 0x00, 0x01, 0x14, 0x00, 0x00, 0x00, 0x34, 0x00, 0x00, 0x00,
    0x2d, 0x00, 0x00, 0x00, 0x00, 0x00, 0x00, 0x09, 0x34, 0x00, 0x00, 0x00,
    0xdc, 0xe5, 0xff, 0xff, 0x08, 0x00, 0x00, 0x00, 0x14, 0x00, 0x00, 0x00,
    0x01, 0x00, 0x00, 0x00, 0x80, 0xff, 0xff, 0xff, 0xff, 0xff, 0xff, 0xff,
    0x00, 0x00, 0x00, 0x00, 0x01, 0x00, 0x00, 0x00, 0xb0, 0x1f, 0x50, 0x3c,
    0x05, 0x00, 0x00, 0x00, 0x50, 0x61, 0x64, 0x5f, 0x32, 0x00, 0x00, 0x00,
    0x04, 0x00, 0x00, 0x00, 0x01, 0x00, 0x00, 0x00, 0x10, 0x00, 0x00, 0x00,
    0x0c, 0x00, 0x00, 0x00, 0x09, 0x00, 0x00, 0x00, 0x52, 0xe6, 0xff, 0xff,
    0x00, 0x00, 0x00, 0x01, 0x14, 0x00, 0x00, 0x00, 0x30, 0x00, 0x00, 0x00,
    0x2c, 0x00, 0x00, 0x00, 0x00, 0x00, 0x00, 0x09, 0x34, 0x00, 0x00, 0x00,
