#ifndef GENERAL_H
#define GENERAL_H

unsigned int general_model_len = 22408;
unsigned char general_model[] = {
    0x1c, 0x00, 0x00, 0x00, 0x54, 0x46, 0x4c, 0x33, 0x14, 0x00, 0x20, 0x00,
    0x1c, 0x00, 0x18, 0x00, 0x14, 0x00, 0x10, 0x00, 0x0c, 0x00, 0x00, 0x00,
    0x08, 0x00, 0x04, 0x00, 0x14, 0x00, 0x00, 0x00, 0x1c, 0x00, 0x00, 0x00,
    0x1c, 0x00, 0x00, 0x00, 0x9c, 0x00, 0x00, 0x00, 0x20, 0x27, 0x00, 0x00,
    0x30, 0x27, 0x00, 0x00, 0x54, 0x56, 0x00, 0x00, 0x03, 0x00, 0x00, 0x00,
    0x00, 0x00, 0x00, 0x00, 0x03, 0x00, 0x00, 0x00, 0x5c, 0x00, 0x00, 0x00,
    0x2c, 0x00, 0x00, 0x00, 0x04, 0x00, 0x00, 0x00, 0xb8, 0xff, 0xff, 0xff,
    0x4a, 0x00, 0x00, 0x00, 0x04, 0x00, 0x00, 0x00, 0x13, 0x00, 0x00, 0x00,
    0x43, 0x4f, 0x4e, 0x56, 0x45, 0x52, 0x53, 0x49, 0x4f, 0x4e, 0x5f, 0x4d,
    0x45, 0x54, 0x41, 0x44, 0x41, 0x54, 0x41, 0x00, 0xdc, 0xff, 0xff, 0xff,
    0x49, 0x00, 0x00, 0x00, 0x04, 0x00, 0x00, 0x00, 0x13, 0x00, 0x00, 0x00,
    0x6d, 0x69, 0x6e, 0x5f, 0x72, 0x75, 0x6e, 0x74, 0x69, 0x6d, 0x65, 0x5f,
    0x76, 0x65, 0x72, 0x73, 0x69, 0x6f, 0x6e, 0x00, 0x08, 0x00, 0x0c, 0x00,
    0x08, 0x00, 0x04, 0x00, 0x08, 0x00, 0x00, 0x00, 0x48, 0x00, 0x00, 0x00,
    0x04, 0x00, 0x00, 0x00, 0x13, 0x00, 0x00, 0x00, 0x6d, 0x69, 0x6e, 0x5f,
    0x72, 0x75, 0x6e, 0x74, 0x69, 0x6d, 0x65, 0x5f, 0x76, 0x65, 0x72, 0x73,
    0x69, 0x6f, 0x6e, 0x00, 0x4b, 0x00, 0x00, 0x00, 0x80, 0x26, 0x00, 0x00,
    0x78, 0x26, 0x00, 0x00, 0x48, 0x26, 0x00, 0x00, 0x20, 0x26, 0x00, 0x00,
    0x00, 0x26, 0x00, 0x00, 0xe0, 0x25, 0x00, 0x00, 0xc8, 0x25, 0x00, 0x00,
    0xb0, 0x25, 0x00, 0x00, 0x98, 0x25, 0x00, 0x00, 0x88, 0x24, 0x00, 0x00,
    0x78, 0x22, 0x00, 0x00, 0x68, 0x1a, 0x00, 0x00, 0x18, 0x1a, 0x00, 0x00,
    0x08, 0x19, 0x00, 0x00, 0xb8, 0x18, 0x00, 0x00, 0x18, 0x18, 0x00, 0x00,
    0xc8, 0x17, 0x00, 0x00, 0xb8, 0x0e, 0x00, 0x00, 0x68, 0x0e, 0x00, 0x00,
    0x58, 0x0d, 0x00, 0x00, 0x08, 0x0d, 0x00, 0x00, 0x68, 0x0c, 0x00, 0x00,
    0x18, 0x0c, 0x00, 0x00, 0x08, 0x03, 0x00, 0x00, 0xf4, 0x02, 0x00, 0x00,
    0xec, 0x02, 0x00, 0x00, 0xe4, 0x02, 0x00, 0x00, 0xdc, 0x02, 0x00, 0x00,
    0xd4, 0x02, 0x00, 0x00, 0x84, 0x02, 0x00, 0x00, 0xe4, 0x01, 0x00, 0x00,
    0xdc, 0x01, 0x00, 0x00, 0xd4, 0x01, 0x00, 0x00, 0xcc, 0x01, 0x00, 0x00,
    0xc4, 0x01, 0x00, 0x00, 0xbc, 0x01, 0x00, 0x00, 0xb4, 0x01, 0x00, 0x00,
    0xac, 0x01, 0x00, 0x00, 0xa4, 0x01, 0x00, 0x00, 0x9c, 0x01, 0x00, 0x00,
    0x94, 0x01, 0x00, 0x00, 0x8c, 0x01, 0x00, 0x00, 0x84, 0x01, 0x00, 0x00,
    0x7c, 0x01, 0x00, 0x00, 0x74, 0x01, 0x00, 0x00, 0x6c, 0x01, 0x00, 0x00,
    0x64, 0x01, 0x00, 0x00, 0x5c, 0x01, 0x00, 0x00, 0x54, 0x01, 0x00, 0x00,
    0x4c, 0x01, 0x00, 0x00, 0x44, 0x01, 0x00, 0x00, 0x3c, 0x01, 0x00, 0x00,
    0x34, 0x01, 0x00, 0x00, 0x2c, 0x01, 0x00, 0x00, 0x24, 0x01, 0x00, 0x00,
    0x1c, 0x01, 0x00, 0x00, 0x14, 0x01, 0x00, 0x00, 0x0c, 0x01, 0x00, 0x00,
    0x04, 0x01, 0x00, 0x00, 0xfc, 0x00, 0x00, 0x00, 0xf4, 0x00, 0x00, 0x00,
    0xec, 0x00, 0x00, 0x00, 0xe4, 0x00, 0x00, 0x00, 0xdc, 0x00, 0x00, 0x00,
    0xd4, 0x00, 0x00, 0x00, 0xcc, 0x00, 0x00, 0x00, 0xc4, 0x00, 0x00, 0x00,
    0xbc, 0x00, 0x00, 0x00, 0xb4, 0x00, 0x00, 0x00, 0xac, 0x00, 0x00, 0x00,
    0xa4, 0x00, 0x00, 0x00, 0x9c, 0x00, 0x00, 0x00, 0x7c, 0x00, 0x00, 0x00,
    0x5c, 0x00, 0x00, 0x00, 0x04, 0x00, 0x00, 0x00, 0xe2, 0xda, 0xff, 0xff,
    0x04, 0x00, 0x00, 0x00, 0x48, 0x00, 0x00, 0x00, 0x04, 0x00, 0x00, 0x00,
    0xdc, 0xff, 0xff, 0xff, 0x10, 0x00, 0x00, 0x00, 0x24, 0x00, 0x00, 0x00,
    0x00, 0x00, 0x06, 0x00, 0x08, 0x00, 0x04, 0x00, 0x06, 0x00, 0x00, 0x00,
    0x04, 0x00, 0x00, 0x00, 0x01, 0x00, 0x00, 0x00, 0xeb, 0x03, 0x00, 0x00,
    0x08, 0x00, 0x0c, 0x00, 0x08, 0x00, 0x04, 0x00, 0x08, 0x00, 0x00, 0x00,
    0x01, 0x00, 0x00, 0x00, 0x04, 0x00, 0x00, 0x00, 0x06, 0x00, 0x00, 0x00,
    0x32, 0x2e, 0x31, 0x36, 0x2e, 0x31, 0x00, 0x00, 0x36, 0xdb, 0xff, 0xff,
    0x04, 0x00, 0x00, 0x00, 0x10, 0x00, 0x00, 0x00, 0x00, 0x00, 0x00, 0x00,
    0x00, 0x00, 0x00, 0x00, 0x00, 0x00, 0x00, 0x00, 0x00, 0x00, 0x00, 0x00,
    0x52, 0xdb, 0xff, 0xff, 0x04, 0x00, 0x00, 0x00, 0x10, 0x00, 0x00, 0x00,
    0x32, 0x2e, 0x31, 0x2e, 0x30, 0x00, 0x00, 0x00, 0x00, 0x00, 0x00, 0x00,
    0x00, 0x00, 0x00, 0x00, 0xb0, 0xac, 0xff, 0xff, 0xb4, 0xac, 0xff, 0xff,
    0xb8, 0xac, 0xff, 0xff, 0xbc, 0xac, 0xff, 0xff, 0xc0, 0xac, 0xff, 0xff,
    0xc4, 0xac, 0xff, 0xff, 0xc8, 0xac, 0xff, 0xff, 0xcc, 0xac, 0xff, 0xff,
    0xd0, 0xac, 0xff, 0xff, 0xd4, 0xac, 0xff, 0xff, 0xd8, 0xac, 0xff, 0xff,
    0xdc, 0xac, 0xff, 0xff, 0xe0, 0xac, 0xff, 0xff, 0xe4, 0xac, 0xff, 0xff,
    0xe8, 0xac, 0xff, 0xff, 0xec, 0xac, 0xff, 0xff, 0xf0, 0xac, 0xff, 0xff,
    0xf4, 0xac, 0xff, 0xff, 0xf8, 0xac, 0xff, 0xff, 0xfc, 0xac, 0xff, 0xff,
    0x00, 0xad, 0xff, 0xff, 0x04, 0xad, 0xff, 0xff, 0x08, 0xad, 0xff, 0xff,
    0x0c, 0xad, 0xff, 0xff, 0x10, 0xad, 0xff, 0xff, 0x14, 0xad, 0xff, 0xff,
    0x18, 0xad, 0xff, 0xff, 0x1c, 0xad, 0xff, 0xff, 0x20, 0xad, 0xff, 0xff,
    0x24, 0xad, 0xff, 0xff, 0x28, 0xad, 0xff, 0xff, 0x2c, 0xad, 0xff, 0xff,
    0x30, 0xad, 0xff, 0xff, 0x34, 0xad, 0xff, 0xff, 0x38, 0xad, 0xff, 0xff,
    0x3c, 0xad, 0xff, 0xff, 0x40, 0xad, 0xff, 0xff, 0x44, 0xad, 0xff, 0xff,
    0x48, 0xad, 0xff, 0xff, 0x4c, 0xad, 0xff, 0xff, 0x50, 0xad, 0xff, 0xff,
    0x12, 0xdc, 0xff, 0xff, 0x04, 0x00, 0x00, 0x00, 0x90, 0x00, 0x00, 0x00,
    0x71, 0x8e, 0x7f, 0x74, 0xef, 0x46, 0x90, 0x35, 0x2d, 0x3a, 0x83, 0xc5,
    0x7f, 0x21, 0xe1, 0x22, 0x39, 0x67, 0x96, 0x53, 0x56, 0x3c, 0x1e, 0x81,
    0x85, 0xb7, 0xaa, 0x1a, 0x7f, 0x8e, 0xad, 0x20, 0x4f, 0xcf, 0x48, 0xf7,
    0xb8, 0x81, 0xf2, 0xa9, 0xa0, 0x17, 0x7a, 0xe6, 0x02, 0x20, 0x00, 0x4a,
    0xb2, 0x7f, 0xf5, 0x1c, 0x7f, 0x03, 0xd4, 0x39, 0x7a, 0x55, 0x39, 0xc9,
    0x81, 0x1d, 0x24, 0xa9, 0xac, 0xed, 0xf5, 0x3d, 0x54, 0x7f, 0xd8, 0x10,
    0x48, 0xab, 0x86, 0xfb, 0x10, 0x7f, 0xf3, 0x18, 0x5e, 0xd8, 0x14, 0xc6,
    0x7f, 0xe2, 0x13, 0xd4, 0xb1, 0xf1, 0x81, 0x0f, 0x6a, 0x08, 0x90, 0x5a,
    0xb5, 0xa4, 0x41, 0x56, 0x81, 0x37, 0xd6, 0x61, 0x27, 0x5f, 0xb8, 0x49,
    0x3b, 0x4d, 0xe9, 0x26, 0x96, 0x7d, 0x7f, 0xa5, 0x34, 0x09, 0x3d, 0xb3,
    0xd0, 0x0c, 0x60, 0x39, 0x7f, 0x0b, 0xe5, 0xbb, 0xc2, 0x58, 0xfd, 0xc7,
    0x0e, 0x1e, 0x7f, 0x6d, 0xb5, 0x98, 0xe4, 0xca, 0x24, 0xb6, 0x7f, 0xd8,
    0xae, 0xdc, 0xff, 0xff, 0x04, 0x00, 0x00, 0x00, 0x40, 0x00, 0x00, 0x00,
    0xd3, 0x10, 0xff, 0xff, 0x6b, 0x58, 0xff, 0xff, 0x83, 0xdf, 0x00, 0x00,
    0x08, 0xb2, 0xff, 0xff, 0x57, 0xea, 0x00, 0x00, 0xb8, 0xf4, 0xfe, 0xff,
    0x63, 0x72, 0xff, 0xff, 0xc0, 0xce, 0xff, 0xff, 0x22, 0x9c, 0xff, 0xff,
    0x7a, 0x5a, 0x00, 0x00, 0xd9, 0x5f, 0x00, 0x00, 0x85, 0x51, 0xff, 0xff,
    0xd0, 0x2b, 0xff, 0xff, 0x81, 0x22, 0xff, 0xff, 0xf8, 0xd7, 0xff, 0xff,
    0xe2, 0x59, 0x00, 0x00, 0x3c, 0xae, 0xff, 0xff, 0x40, 0xae, 0xff, 0xff,
    0x44, 0xae, 0xff, 0xff, 0x48, 0xae, 0xff, 0xff, 0x0a, 0xdd, 0xff, 0xff,
    0x04, 0x00, 0x00, 0x00, 0x01, 0x00, 0x00, 0x00, 0x7f, 0x00, 0x00, 0x00,
    0x1a, 0xdd, 0xff, 0xff, 0x04, 0x00, 0x00, 0x00, 0x00, 0x09, 0x00, 0x00,
    0x32, 0x48, 0x2f, 0xb1, 0xc1, 0x2d, 0xee, 0xe3, 0xb1, 0x31, 0xb3, 0x2b,
    0x02, 0x99, 0xd6, 0x69, 0x04, 0x4f, 0x01, 0xcc, 0x96, 0x87, 0x2b, 0xf6,
    0x49, 0x31, 0xec, 0x6d, 0xd3, 0x9a, 0xf3, 0xa8, 0x50, 0x2e, 0x0c, 0x74,
    0xfd, 0x4b, 0x2f, 0x5e, 0xed, 0xe3, 0x29, 0x46, 0xe3, 0x9e, 0x12, 0x09,
    0xef, 0x58, 0xde, 0xc5, 0x84, 0x0a, 0xc2, 0xdf, 0xc9, 0x3a, 0xd0, 0x08,
    0x06, 0x00, 0x43, 0xff, 0xf0, 0xdb, 0x30, 0xb1, 0x3f, 0x51, 0xe0, 0xaa,
    0xfd, 0x6a, 0x38, 0xbc, 0xc1, 0xe3, 0x5c, 0x50, 0x4d, 0x3a, 0x67, 0x44,
    0x38, 0x92, 0xdb, 0x0f, 0x32, 0x1e, 0x45, 0xfc, 0xd0, 0xdf, 0x41, 0x17,
    0xcf, 0xf4, 0xf5, 0xd3, 0xa6, 0xba, 0xaa, 0x57, 0xe3, 0xce, 0x6e, 0xf6,
    0x06, 0x35, 0x2d, 0x1b, 0x04, 0xbe, 0x4c, 0xbf, 0x2b, 0x97, 0x59, 0x53,
    0xe4, 0x09, 0x27, 0xdb, 0xc3, 0x32, 0x15, 0xed, 0x63, 0x54, 0xbf, 0x81,
    0x70, 0x2b, 0x9f, 0xd5, 0x2f, 0xa4, 0xfd, 0x65, 0x8f, 0x50, 0xd9, 0xbc,
    0xd5, 0xca, 0xb2, 0x14, 0x0e, 0x20, 0x01, 0x53, 0xd9, 0x23, 0xb9, 0xc7,
    0xe5, 0xb5, 0x55, 0xf1, 0x1e, 0x3f, 0xd0, 0xd9, 0xd2, 0xb8, 0x43, 0xc5,
    0x3b, 0x96, 0x6b, 0x58, 0x49, 0xfc, 0xf4, 0x18, 0x5e, 0x95, 0x57, 0x18,
    0xc2, 0xe1, 0x2c, 0xe9, 0x34, 0x9d, 0x29, 0x36, 0xdc, 0xfc, 0xff, 0x3e,
    0xc4, 0x8d, 0xd0, 0xdb, 0x9f, 0xc1, 0x41, 0xa4, 0xd7, 0x0f, 0x17, 0xaa,
    0xec, 0xd0, 0xd2, 0x03, 0x44, 0xd4, 0x69, 0xb8, 0x0e, 0x05, 0x37, 0x5f,
    0x0c, 0x1a, 0xbe, 0xf2, 0xd3, 0xe2, 0x40, 0xc1, 0xe7, 0xf5, 0xa9, 0xb2,
    0x17, 0xe5, 0x2b, 0x15, 0x72, 0x14, 0x12, 0x23, 0x40, 0x81, 0xa9, 0xb5,
    0xfd, 0xd3, 0x01, 0xba, 0xb7, 0xb5, 0xa2, 0xf8, 0x08, 0x22, 0xd5, 0x56,
    0x18, 0xa3, 0xfb, 0xd0, 0x45, 0xcf, 0xde, 0x48, 0xf6, 0x0a, 0x2b, 0x57,
    0x5d, 0x3e, 0xd6, 0xc2, 0xfb, 0x99, 0xdc, 0xa3, 0x0d, 0x07, 0xee, 0xb0,
    0xb3, 0x24, 0xed, 0x62, 0x0f, 0xde, 0xe6, 0xf4, 0x22, 0x2b, 0xdb, 0xe8,
    0xb3, 0x59, 0x2a, 0xe7, 0x33, 0xd6, 0x66, 0x64, 0xb2, 0xf3, 0x34, 0x4e,
    0x03, 0x31, 0xf0, 0xd0, 0x25, 0xaa, 0xa0, 0xc8, 0x88, 0xa8, 0xab, 0xcd,
    0x42, 0x51, 0x60, 0xec, 0x45, 0x23, 0x24, 0xb3, 0x1e, 0xaa, 0x90, 0x18,
    0xf5, 0xec, 0xd6, 0xfd, 0x06, 0x12, 0x8b, 0x2d, 0x78, 0xf6, 0xcb, 0x10,
    0xe2, 0x9b, 0x2e, 0xf0, 0xe3, 0xa7, 0xbc, 0x27, 0x2c, 0x63, 0xc8, 0x29,
    0xa6, 0x2c, 0xc7, 0xd8, 0xbb, 0x21, 0xe9, 0x1d, 0xea, 0x7a, 0x5a, 0xbb,
    0xc8, 0xe8, 0x58, 0xf3, 0x9c, 0xb1, 0xd5, 0x51, 0xa9, 0x1a, 0xd2, 0x02,
    0xc7, 0x09, 0xcb, 0xad, 0x0b, 0x81, 0x44, 0x9d, 0x30, 0x62, 0x10, 0x2b,
    0xd5, 0x42, 0x28, 0xa8, 0x1e, 0xbf, 0xd4, 0xac, 0x6e, 0xab, 0x28, 0xe8,
    0x0f, 0xd5, 0xc4, 0xa6, 0x8a, 0x6b, 0x6b, 0x2b, 0xbe, 0x03, 0xdb, 0xcc,
    0xdc, 0x3c, 0x0a, 0xc8, 0xa1, 0xb2, 0xc4, 0x89, 0x5f, 0xbf, 0xc7, 0x56,
    0xcd, 0xec, 0x9e, 0x2c, 0x50, 0x4f, 0xe4, 0x25, 0xa3, 0xd7, 0xc3, 0xff,
    0x2b, 0xa7, 0x2e, 0xd4, 0x30, 0xd1, 0xb1, 0x46, 0x2d, 0x3f, 0x4a, 0xad,
    0x33, 0xac, 0xd0, 0x2b, 0x99, 0x12, 0x04, 0x23, 0xf4, 0xc1, 0x5d, 0xb9,
    0xc6, 0xde, 0x03, 0xf1, 0x94, 0xb4, 0x29, 0xf7, 0x2f, 0x1b, 0xdf, 0xf6,
    0x2b, 0x2d, 0x4f, 0xe3, 0xe3, 0xc3, 0xaf, 0xdb, 0xcb, 0x46, 0xe8, 0xe3,
    0x34, 0x30, 0x4e, 0xbc, 0x62, 0x0c, 0x8d, 0xe5, 0x1e, 0x4f, 0xfb, 0xa9,
    0xa2, 0x81, 0xba, 0xc8, 0xfe, 0x20, 0xdb, 0x30, 0x10, 0xfe, 0xcc, 0x35,
    0x24, 0x15, 0x28, 0x17, 0xdd, 0xea, 0xc7, 0xf5, 0x08, 0xbd, 0x4d, 0x46,
    0xc9, 0xea, 0xf2, 0x25, 0x23, 0xc1, 0xed, 0x19, 0xad, 0x4c, 0x37, 0xa8,
    0x9d, 0x92, 0xa9, 0xbb, 0xdc, 0xda, 0x82, 0x36, 0x06, 0x2a, 0x5f, 0x28,
    0x2d, 0xd9, 0xd3, 0xd1, 0x0b, 0xcc, 0x26, 0x36, 0xe6, 0xf6, 0xa0, 0x57,
    0xd7, 0xd1, 0xce, 0xd8, 0x0e, 0x53, 0xb5, 0x4c, 0xbb, 0x43, 0xc6, 0x3d,
    0x13, 0x15, 0x0b, 0xe8, 0x2e, 0x40, 0x34, 0x49, 0xdf, 0x4d, 0xc5, 0xeb,
    0x55, 0x02, 0xa3, 0xe1, 0x46, 0xcc, 0x47, 0x3a, 0x53, 0x9c, 0xff, 0x20,
    0xe6, 0x25, 0xe0, 0x8c, 0x25, 0xd9, 0xce, 0x50, 0x09, 0x6a, 0x3c, 0xfc,
    0x4a, 0xf9, 0x3b, 0x0f, 0x53, 0xc7, 0x32, 0xff, 0xb4, 0x18, 0x08, 0x3d,
    0x18, 0x52, 0xec, 0x30, 0x40, 0xa4, 0x07, 0xf2, 0xbc, 0x45, 0xb5, 0x81,
    0xe3, 0x5e, 0x0e, 0xed, 0xca, 0xc5, 0xc4, 0x2d, 0xf5, 0x53, 0x9f, 0x39,
    0x4a, 0x2e, 0xf9, 0x03, 0x5a, 0x67, 0x12, 0x11, 0xdd, 0x4b, 0x29, 0xe6,
    0x37, 0x32, 0xf3, 0x90, 0x17, 0xdd, 0xbe, 0x09, 0xdf, 0x46, 0x28, 0xd2,
    0xa4, 0x64, 0x00, 0xc4, 0xec, 0x35, 0x27, 0xe7, 0xa0, 0xe6, 0x9a, 0xc1,
    0x38, 0x6f, 0x81, 0xd0, 0x0f, 0x63, 0x5b, 0xd9, 0xcb, 0xa5, 0x45, 0x2f,
    0x37, 0x1c, 0xa0, 0xaa, 0xab, 0x9e, 0x45, 0xbc, 0x5c, 0x55, 0x57, 0x41,
    0x77, 0xc8, 0x51, 0xef, 0x8e, 0x79, 0xc2, 0xee, 0x65, 0xd4, 0x0c, 0xf1,
    0x0b, 0x0a, 0x11, 0xd7, 0x30, 0xad, 0xfc, 0x3b, 0x4d, 0xa5, 0x44, 0x21,
    0xfe, 0x31, 0x12, 0x28, 0xc5, 0x8d, 0xda, 0x29, 0x9c, 0xf0, 0xef, 0xef,
    0x2f, 0x32, 0x3f, 0xbf, 0xa1, 0x0c, 0xf2, 0x18, 0xd6, 0x1f, 0x1e, 0x3c,
    0x9f, 0xd0, 0xac, 0x0c, 0x2d, 0x12, 0x39, 0xb5, 0x1e, 0x35, 0x49, 0x00,
    0xbc, 0xef, 0x03, 0x0d, 0x18, 0xd0, 0xb3, 0xf0, 0x65, 0x2f, 0x12, 0x39,
    0xe3, 0xd0, 0xba, 0x00, 0x60, 0x13, 0x16, 0xd9, 0xc5, 0x4c, 0x23, 0xc6,
    0x39, 0xe9, 0x3d, 0xb7, 0xa9, 0xa0, 0xc1, 0xde, 0xe8, 0xeb, 0x23, 0x5f,
    0x20, 0x85, 0xa0, 0x91, 0x50, 0xac, 0xa0, 0xdd, 0x2a, 0xc9, 0x9f, 0xc4,
    0x01, 0xee, 0x1a, 0x03, 0xca, 0xec, 0x2d, 0xad, 0x58, 0x5a, 0x43, 0x6f,
    0x0f, 0xbc, 0x8c, 0x35, 0x1c, 0xbb, 0x43, 0xfb, 0x3b, 0x25, 0x4b, 0x5c,
    0x9a, 0x17, 0xc0, 0x16, 0x44, 0x49, 0x9f, 0x77, 0x2c, 0x00, 0x1a, 0x91,
    0x7f, 0x13, 0xc9, 0x54, 0xda, 0x9d, 0xec, 0x39, 0x4b, 0x98, 0x0d, 0x2a,
    0x4e, 0x94, 0xfb, 0xb9, 0xc6, 0x1c, 0x2a, 0x9f, 0x48, 0xb0, 0x03, 0xfe,
    0xc8, 0x4c, 0xcd, 0xa6, 0xae, 0x00, 0x2d, 0x52, 0x15, 0x0a, 0x44, 0x46,
    0x5b, 0xc6, 0xf8, 0x4f, 0xa9, 0x41, 0x14, 0xce, 0x96, 0xd9, 0xa9, 0x3d,
    0xb3, 0xcd, 0xce, 0x01, 0x20, 0xd0, 0xf3, 0x17, 0xa1, 0x1d, 0xee, 0x48,
    0xa0, 0x5d, 0x00, 0x0f, 0x46, 0x52, 0x31, 0x7b, 0x19, 0xbf, 0xc9, 0x5b,
    0x37, 0xe5, 0xe5, 0xc0, 0xac, 0x3d, 0x1a, 0xb0, 0xad, 0x08, 0xbc, 0x44,
    0x67, 0x54, 0x0f, 0xa8, 0x40, 0xcd, 0x81, 0x2e, 0xb6, 0x67, 0xa5, 0xb9,
    0x24, 0x8b, 0x14, 0x05, 0x06, 0xa9, 0xdf, 0xff, 0xa8, 0x49, 0x8f, 0xd4,
    0xd6, 0x61, 0x31, 0x2f, 0xa8, 0x13, 0xda, 0xd7, 0x2e, 0xbd, 0xe4, 0x91,
    0x0b, 0xf6, 0x8a, 0x60, 0x5e, 0xff, 0x1f, 0xc7, 0x34, 0x3c, 0xb3, 0xb1,
    0x99, 0x31, 0xe3, 0x02, 0x51, 0x58, 0x02, 0x18, 0x29, 0xb8, 0xc9, 0xd9,
    0x48, 0x05, 0xd1, 0x58, 0x53, 0xfb, 0x34, 0xa0, 0xf1, 0xb6, 0x94, 0x17,
    0x51, 0xab, 0xdf, 0x36, 0xff, 0x89, 0xa0, 0x2e, 0xf6, 0x5b, 0xdc, 0xf5,
    0x0a, 0x19, 0xae, 0x3d, 0x49, 0xc1, 0xf6, 0x05, 0x81, 0xb6, 0xfd, 0xdc,
    0x12, 0xc7, 0xb7, 0x0d, 0x19, 0x29, 0x23, 0xf3, 0x29, 0x2b, 0xb8, 0x38,
    0xce, 0xe7, 0x19, 0xfc, 0xd0, 0x10, 0xd9, 0x2d, 0xe2, 0x01, 0x49, 0xdb,
    0x41, 0xa2, 0xbe, 0xd1, 0xb0, 0xb3, 0xb8, 0x17, 0xe1, 0xc3, 0xe8, 0xc1,
    0xae, 0x03, 0x01, 0xb3, 0x14, 0xd8, 0xea, 0x12, 0x42, 0x62, 0xeb, 0x2b,
    0x8d, 0xc5, 0x25, 0x2b, 0x2d, 0x92, 0x2e, 0xde, 0x19, 0xc6, 0x28, 0x26,
    0x1e, 0x5f, 0x4f, 0xc1, 0x1f, 0xf1, 0xd4, 0xfd, 0x22, 0x07, 0xbd, 0x06,
    0x02, 0x05, 0xa3, 0xdb, 0xb2, 0x35, 0x7f, 0x41, 0xe8, 0xa1, 0xee, 0x2c,
    0x06, 0x56, 0x45, 0x1b, 0x19, 0xcd, 0xba, 0x3e, 0xd7, 0x4b, 0x1e, 0xe0,
    0xb1, 0xbe, 0x30, 0x03, 0xbb, 0x00, 0x52, 0xfb, 0x34, 0xe6, 0xf6, 0xe6,
    0xff, 0xd1, 0xd7, 0x19, 0x0b, 0xd4, 0x60, 0xf2, 0x02, 0xa7, 0xf7, 0xc1,
    0x5f, 0xe9, 0x2d, 0xf0, 0x0c, 0x5c, 0xd8, 0xd2, 0xfe, 0x96, 0xd9, 0x17,
    0xec, 0xf4, 0xf5, 0x0c, 0x46, 0x42, 0x30, 0xbe, 0x61, 0xa9, 0xc4, 0xfd,
    0xd4, 0x3b, 0x34, 0x4b, 0x2d, 0xd8, 0xb5, 0xcb, 0xa6, 0xa0, 0x54, 0xbc,
    0xbd, 0x5d, 0xc1, 0x41, 0xac, 0xba, 0xbb, 0x31, 0xc6, 0x24, 0xf0, 0x7f,
    0xe7, 0x1e, 0xea, 0x3b, 0x09, 0xf8, 0x1d, 0xf1, 0x31, 0x44, 0xf0, 0xec,
    0x2d, 0x24, 0xe2, 0x2e, 0x3b, 0xfb, 0x1f, 0xbf, 0x23, 0x35, 0x01, 0x27,
    0x52, 0x3a, 0xf8, 0xf6, 0xc5, 0xd4, 0xee, 0xf8, 0x09, 0xea, 0x1b, 0xe2,
    0xb8, 0xc4, 0x06, 0x38, 0xaf, 0x9c, 0x5b, 0x0d, 0x35, 0x47, 0x16, 0x05,
    0xb8, 0xe6, 0x44, 0x0a, 0x9c, 0x05, 0xfb, 0xe0, 0xea, 0xda, 0xa5, 0x3c,
    0xe6, 0xb9, 0xbf, 0xe4, 0x27, 0xf1, 0x2a, 0x12, 0xfe, 0x32, 0xf8, 0x1c,
    0x46, 0x31, 0x21, 0xc0, 0xc5, 0xae, 0xd5, 0x21, 0x9b, 0x1b, 0x04, 0xe8,
    0xf3, 0xe7, 0x36, 0xc9, 0xd0, 0x36, 0x0e, 0x38, 0x07, 0x48, 0x2e, 0x6e,
    0x15, 0xc2, 0xf6, 0x14, 0x01, 0x10, 0xd4, 0xec, 0xbf, 0x0b, 0x04, 0x00,
    0xea, 0x2a, 0x1f, 0x03, 0xf9, 0x2c, 0xf5, 0xbf, 0xda, 0xc8, 0xee, 0xa3,
    0x49, 0x89, 0xa1, 0x5d, 0x25, 0x52, 0xb5, 0x1f, 0xc0, 0x54, 0xed, 0x99,
    0x1f, 0xff, 0x94, 0xd1, 0xa2, 0xd1, 0xb1, 0x0f, 0x49, 0xba, 0x44, 0xaa,
    0xb1, 0xd9, 0x64, 0xd6, 0xa4, 0xf4, 0xf7, 0x39, 0xab, 0xff, 0x8d, 0xca,
    0x26, 0x8b, 0xfe, 0x88, 0xa4, 0x2d, 0x50, 0x29, 0xc0, 0x08, 0x17, 0x27,
    0x09, 0xd1, 0x4d, 0xd1, 0x6d, 0x5a, 0xae, 0x61, 0x35, 0x9a, 0x68, 0x5b,
    0x81, 0xa7, 0xb3, 0x2d, 0x7a, 0xc0, 0x2e, 0xe3, 0x11, 0x15, 0x47, 0x0d,
    0xec, 0xeb, 0x18, 0xdf, 0xaf, 0x4b, 0x16, 0xc5, 0x35, 0xcc, 0xff, 0xc9,
    0xa5, 0xde, 0x27, 0x0b, 0x90, 0x16, 0xa0, 0xcc, 0x50, 0x3f, 0x08, 0xf1,
    0x27, 0x86, 0xb7, 0xb2, 0x97, 0x11, 0xf1, 0xf9, 0xc0, 0x8c, 0xc3, 0xdc,
    0x28, 0x41, 0xb1, 0xda, 0x7c, 0xc9, 0x47, 0xeb, 0xb0, 0xa8, 0xfc, 0xd5,
    0xa8, 0xa9, 0x37, 0x1c, 0xd4, 0x83, 0x58, 0x47, 0x0b, 0x2b, 0x32, 0xd7,
    0xba, 0xbe, 0x3e, 0x7f, 0x44, 0x5d, 0x46, 0x5f, 0x44, 0xb8, 0x57, 0xdb,
    0x46, 0x51, 0x17, 0x08, 0x55, 0x47, 0x99, 0x47, 0x58, 0xb3, 0x0d, 0x5b,
    0xb3, 0x0e, 0xe7, 0xe0, 0xa9, 0xf8, 0xee, 0xc7, 0x0f, 0x1b, 0x0a, 0x1f,
    0x58, 0x4a, 0xd8, 0x3d, 0x2c, 0xb5, 0xd6, 0x3b, 0x30, 0xe8, 0x0c, 0xed,
    0x45, 0xe0, 0x28, 0x2a, 0x19, 0x59, 0x9a, 0x00, 0x11, 0x43, 0xb3, 0xc4,
    0x32, 0x63, 0xe6, 0xf1, 0xc4, 0xc2, 0xe6, 0xfe, 0x95, 0x5f, 0xc9, 0x11,
    0xba, 0x26, 0x15, 0x21, 0xb3, 0x2b, 0x1f, 0xac, 0x33, 0x64, 0xd4, 0xa6,
    0x2b, 0xad, 0xa5, 0xfa, 0x1f, 0xfe, 0x0d, 0xdb, 0x60, 0x3c, 0x37, 0x58,
    0x47, 0x03, 0x08, 0xa1, 0x25, 0xd0, 0xc9, 0xf4, 0xcc, 0x2a, 0x98, 0xf8,
    0xd2, 0x26, 0xe4, 0x1a, 0x0f, 0xe0, 0xae, 0x8c, 0x41, 0xa3, 0x11, 0xae,
    0x5b, 0xd3, 0xa3, 0x6d, 0x43, 0x72, 0xfa, 0xb1, 0x4e, 0xbb, 0x3f, 0xee,
    0xfd, 0x72, 0x5f, 0x28, 0x44, 0x1f, 0xd4, 0x15, 0x36, 0xd7, 0x4f, 0x1c,
    0x0b, 0xbd, 0xdf, 0xb4, 0x16, 0x59, 0xc2, 0x31, 0x2d, 0x4f, 0x49, 0x17,
    0xd9, 0x26, 0xf3, 0xf7, 0xe4, 0x34, 0x50, 0x02, 0xb5, 0x3d, 0xc6, 0x0e,
    0x48, 0xe1, 0xa9, 0xe2, 0x20, 0x08, 0x9c, 0xfb, 0xd1, 0xe6, 0x09, 0x7f,
    0xcc, 0xf6, 0xe2, 0xc4, 0xd8, 0x35, 0x63, 0x12, 0xf8, 0xcc, 0xb9, 0x45,
    0x24, 0x05, 0xe4, 0x71, 0x27, 0x06, 0x43, 0x21, 0xf3, 0xb9, 0x3f, 0x08,
    0xc9, 0x0d, 0xe2, 0xbb, 0xc9, 0x2a, 0x30, 0x54, 0xb7, 0x2f, 0x18, 0xf0,
    0x42, 0x37, 0x4c, 0xfa, 0x4b, 0x34, 0x9f, 0xb7, 0xc8, 0x21, 0x0f, 0xc8,
    0x2e, 0x1c, 0x01, 0x37, 0x3a, 0xca, 0x12, 0xd9, 0xf9, 0xdd, 0x14, 0xcb,
    0xe0, 0x17, 0x48, 0xcc, 0xfe, 0xdc, 0x52, 0xac, 0xdc, 0xe2, 0xb5, 0xba,
    0x2b, 0xaa, 0x2d, 0xe5, 0xdd, 0x28, 0x22, 0xca, 0xd5, 0xe9, 0xe2, 0xd6,
    0x1a, 0xc5, 0x1c, 0xb4, 0xdc, 0xd5, 0x18, 0x3a, 0x59, 0x1a, 0x24, 0xbf,
    0x3b, 0x1b, 0x47, 0x15, 0x07, 0xe1, 0xab, 0x18, 0x1d, 0x2c, 0x37, 0xc9,
    0x18, 0x45, 0xa9, 0xaa, 0xb7, 0x4d, 0x87, 0xe1, 0x1d, 0x16, 0xa9, 0xe0,
    0x52, 0x1b, 0x9a, 0x33, 0xf8, 0xf4, 0x3b, 0xa7, 0xa0, 0xad, 0x47, 0xee,
    0x97, 0x4d, 0x11, 0x42, 0x39, 0x99, 0xda, 0xac, 0xe7, 0xc8, 0xee, 0x0d,
    0x30, 0x68, 0x68, 0xac, 0x42, 0x54, 0x90, 0x3d, 0xaf, 0xac, 0xbd, 0x98,
    0x36, 0x28, 0x06, 0x37, 0xbe, 0x20, 0x03, 0x13, 0xf3, 0x3f, 0xce, 0x54,
    0x63, 0x14, 0xbc, 0x4d, 0x97, 0x26, 0xf1, 0x84, 0xe2, 0xdd, 0x3e, 0xb2,
    0xa0, 0x57, 0x2a, 0xe4, 0x95, 0x47, 0x25, 0x9a, 0x52, 0x02, 0x7f, 0xc5,
    0xed, 0x28, 0x62, 0xc3, 0x19, 0xdb, 0x3c, 0x99, 0x92, 0xbf, 0x61, 0x4c,
    0x29, 0x93, 0x3e, 0x5b, 0xd1, 0xc2, 0xfb, 0x22, 0x0d, 0xcf, 0x22, 0x2d,
    0xa8, 0xc7, 0xfe, 0xcf, 0x50, 0x39, 0x22, 0xab, 0x56, 0xeb, 0x71, 0x98,
    0xc3, 0x5f, 0xb6, 0xa5, 0xb7, 0x29, 0x56, 0x29, 0x1d, 0x33, 0x98, 0xeb,
    0x11, 0x0b, 0x4e, 0xdb, 0xca, 0x37, 0xc2, 0x92, 0x18, 0xaa, 0xe6, 0x24,
    0xf3, 0xad, 0x15, 0x78, 0x97, 0x69, 0x53, 0x14, 0x53, 0xa7, 0xd9, 0xed,
    0x5c, 0x26, 0xbd, 0xc7, 0xfe, 0x0f, 0xfd, 0x7f, 0xff, 0x1e, 0x50, 0xb6,
    0x79, 0x4d, 0x3f, 0x37, 0x22, 0x51, 0x7a, 0x98, 0xe8, 0x1b, 0x56, 0x2a,
    0xe6, 0x6b, 0x6b, 0x6d, 0x96, 0x14, 0x1c, 0x09, 0xc5, 0xa7, 0xaa, 0x0c,
    0x57, 0x6a, 0x3f, 0x49, 0xc6, 0x96, 0x6b, 0xc5, 0xb8, 0x7a, 0xae, 0x98,
    0x34, 0xe8, 0x4c, 0x44, 0xe1, 0xa5, 0x51, 0x76, 0x44, 0xd9, 0x04, 0xa2,
    0x4e, 0xfb, 0xfb, 0xf1, 0xa4, 0x09, 0x40, 0x20, 0xdb, 0x90, 0xa8, 0x49,
    0x39, 0xa0, 0x51, 0xaa, 0xca, 0x6a, 0x39, 0x2e, 0xfd, 0xbb, 0x20, 0xea,
    0x50, 0xd5, 0xbc, 0x82, 0x06, 0xf2, 0x60, 0x4c, 0x97, 0xe8, 0x11, 0x11,
    0x34, 0x73, 0xa1, 0xd6, 0x59, 0xb1, 0xd2, 0x4b, 0x24, 0xaf, 0x50, 0x66,
    0xa3, 0xd5, 0x3b, 0x53, 0xb9, 0xc3, 0x68, 0x3f, 0xba, 0xba, 0xeb, 0x98,
    0x63, 0x1a, 0x8d, 0xb2, 0x1f, 0xb3, 0xa3, 0xdb, 0xfe, 0xc4, 0x71, 0x0c,
    0xf3, 0x10, 0xe8, 0x12, 0xf0, 0x23, 0xbf, 0x4a, 0xc9, 0xdf, 0x75, 0x47,
    0x10, 0xba, 0xba, 0xa5, 0xb2, 0x70, 0x69, 0x22, 0x27, 0xee, 0x20, 0x55,
    0xcd, 0x69, 0x29, 0x9d, 0x67, 0x38, 0x0d, 0x79, 0x32, 0xfe, 0xcd, 0xe8,
    0xe1, 0x96, 0x00, 0x75, 0x51, 0x48, 0xea, 0xed, 0x30, 0x81, 0x28, 0xe5,
    0x38, 0xb8, 0xbd, 0xe0, 0xd1, 0xa8, 0x00, 0x49, 0x44, 0x3d, 0x38, 0x11,
    0x63, 0xc7, 0x46, 0x22, 0xc2, 0x10, 0xcb, 0xbb, 0x96, 0x2e, 0x72, 0x24,
    0xe0, 0xd0, 0xb9, 0x2f, 0xcb, 0xff, 0x1a, 0xe6, 0x6a, 0xc4, 0xa5, 0x13,
    0x3b, 0x08, 0xf1, 0xc9, 0x94, 0xcb, 0x90, 0x47, 0xde, 0xff, 0x11, 0x12,
    0x38, 0x03, 0xed, 0xa3, 0xd4, 0x97, 0x44, 0xb3, 0x55, 0xd5, 0xcc, 0x0a,
    0x8f, 0xeb, 0x45, 0xba, 0x36, 0x3c, 0xd4, 0xf9, 0x2f, 0x13, 0x19, 0xf2,
    0x46, 0x0d, 0xee, 0xad, 0x9e, 0x08, 0x12, 0xc3, 0xaf, 0xab, 0x32, 0x0a,
    0xb2, 0x9d, 0x2f, 0x44, 0xad, 0xaa, 0xab, 0xd5, 0x50, 0xc5, 0xcf, 0xbe,
    0x17, 0x1c, 0x8c, 0x30, 0x34, 0x3f, 0xcf, 0xc2, 0x1e, 0xb1, 0x5b, 0x33,
    0xce, 0x2f, 0x46, 0xb4, 0x4c, 0xfe, 0xea, 0x65, 0xac, 0xc6, 0x19, 0x4b,
    0x02, 0xd4, 0xed, 0x65, 0x12, 0x7f, 0xd4, 0xe5, 0x12, 0x11, 0x41, 0x9e,
    0xfa, 0x57, 0xec, 0xe2, 0xb0, 0x44, 0x49, 0x0b, 0xda, 0x2b, 0x40, 0x48,
    0x77, 0x9d, 0xa3, 0x1d, 0xa2, 0xbe, 0x79, 0xb4, 0x5f, 0x39, 0xb7, 0x60,
    0x14, 0x37, 0x15, 0xc2, 0xc3, 0x08, 0x00, 0x1e, 0x45, 0x25, 0xe7, 0x08,
    0x9a, 0xe3, 0x60, 0x5c, 0x1f, 0x0d, 0x05, 0x58, 0xf7, 0x3b, 0x4d, 0x17,
    0x31, 0xd9, 0xb4, 0x91, 0xf3, 0x03, 0x98, 0x03, 0xd2, 0x60, 0xa5, 0xf4,
    0x79, 0x2d, 0x15, 0x63, 0xc1, 0xcd, 0xed, 0xc5, 0x0e, 0xea, 0x0a, 0xda,
    0x11, 0x14, 0x99, 0x37, 0xe4, 0xfd, 0xa8, 0x47, 0x05, 0xcf, 0xd4, 0xe5,
    0xfb, 0xfe, 0xdb, 0xec, 0xf7, 0x12, 0x23, 0x0f, 0x2b, 0xcf, 0x09, 0x79,
    0xa2, 0xdc, 0x3a, 0xbd, 0xd3, 0x3e, 0xa5, 0x1f, 0xf5, 0x56, 0x1a, 0x0e,
    0x26, 0xe6, 0xff, 0xff, 0x04, 0x00, 0x00, 0x00, 0x40, 0x00, 0x00, 0x00,
    0x00, 0x00, 0x00, 0x00, 0x00, 0x00, 0x00, 0x00, 0x00, 0x00, 0x00, 0x00,
    0x00, 0x00, 0x00, 0x00, 0x00, 0x00, 0x00, 0x00, 0x00, 0x00, 0x00, 0x00,
    0x00, 0x00, 0x00, 0x00, 0x00, 0x00, 0x00, 0x00, 0x00, 0x00, 0x00, 0x00,
    0x00, 0x00, 0x00, 0x00, 0x00, 0x00, 0x00, 0x00, 0x00, 0x00, 0x00, 0x00,
    0x00, 0x00, 0x00, 0x00, 0x00, 0x00, 0x00, 0x00, 0x00, 0x00, 0x00, 0x00,
    0x00, 0x00, 0x00, 0x00, 0x72, 0xe6, 0xff, 0xff, 0x04, 0x00, 0x00, 0x00,
    0x90, 0x00, 0x00, 0x00, 0x10, 0xb5, 0x05, 0x82, 0xf6, 0x2d, 0xa2, 0x81,
    0xe0, 0x7a, 0x81, 0x44, 0x26, 0x81, 0x07, 0xa6, 0xe1, 0x81, 0x3c, 0x52,
    0x74, 0x3b, 0xe2, 0x70, 0x70, 0x7f, 0xa2, 0x24, 0x61, 0xe3, 0x7c, 0x06,
    0x7f, 0xa7, 0x2a, 0x7f, 0x86, 0x7b, 0x6f, 0x9f, 0xd2, 0x24, 0x33, 0x7f,
    0x81, 0x8d, 0x42, 0x0e, 0x5c, 0x5b, 0x81, 0x77, 0x02, 0xae, 0xe4, 0xf4,
    0xc1, 0x65, 0xa9, 0x0c, 0x18, 0xbd, 0xb8, 0x08, 0x41, 0x5d, 0x59, 0x42,
    0x7f, 0xe8, 0x83, 0x28, 0x03, 0x5c, 0x71, 0x8d, 0xad, 0x2f, 0x81, 0x7f,
    0x6f, 0x75, 0xd2, 0x1d, 0xa8, 0xea, 0xc9, 0x38, 0x7f, 0x25, 0x4f, 0x3e,
    0x55, 0x67, 0x4f, 0x5c, 0x4a, 0x04, 0xfd, 0x77, 0x32, 0x81, 0xfc, 0x19,
    0x61, 0x4c, 0xe0, 0xdc, 0xc2, 0x4f, 0xc9, 0x8e, 0x57, 0x11, 0x5f, 0x4f,
    0x2d, 0x0f, 0xd0, 0xaf, 0xc9, 0x6b, 0x8f, 0xd5, 0xf3, 0x81, 0x4d, 0x75,
    0x37, 0xe1, 0xcb, 0x4b, 0x9e, 0x6a, 0x81, 0x43, 0x10, 0x27, 0x30, 0x43,
    0x83, 0x1d, 0x9f, 0x5d, 0x0e, 0xe7, 0xff, 0xff, 0x04, 0x00, 0x00, 0x00,
    0x40, 0x00, 0x00, 0x00, 0x72, 0xeb, 0xff, 0xff, 0xfe, 0xff, 0xff, 0xff,
    0x3b, 0xfd, 0xff, 0xff, 0xce, 0xf2, 0xff, 0xff, 0x56, 0xf6, 0xff, 0xff,
    0x4b, 0xff, 0xff, 0xff, 0x70, 0x17, 0x00, 0x00, 0x0a, 0x00, 0x00, 0x00,
    0xde, 0xfe, 0xff, 0xff, 0x86, 0xfb, 0xff, 0xff, 0x03, 0x08, 0x00, 0x00,
    0x6f, 0x00, 0x00, 0x00, 0x90, 0x01, 0x00, 0x00, 0x84, 0x0c, 0x00, 0x00,
    0xf8, 0xff, 0xff, 0xff, 0x49, 0xee, 0xff, 0xff, 0x5a, 0xe7, 0xff, 0xff,
    0x04, 0x00, 0x00, 0x00, 0x00, 0x01, 0x00, 0x00, 0xcb, 0xfc, 0xa7, 0xfb,
    0xc8, 0x72, 0xcd, 0xee, 0x8f, 0x1b, 0xe5, 0x97, 0xcf, 0x7d, 0x1d, 0x81,
    0x23, 0x10, 0xdc, 0x4e, 0x76, 0xe6, 0x25, 0x0d, 0x26, 0x81, 0x75, 0x3b,
    0x1d, 0x3f, 0x0f, 0x69, 0x04, 0xf1, 0x2d, 0xe8, 0x3d, 0x8e, 0xb3, 0x98,
    0xbe, 0x26, 0x89, 0x9a, 0x7f, 0x6c, 0xd8, 0x29, 0xb3, 0xea, 0xc5, 0x81,
    0x75, 0x62, 0x08, 0x90, 0x69, 0x06, 0xe5, 0x0c, 0x21, 0x62, 0x4b, 0x3c,
    0x0c, 0xca, 0x81, 0x10, 0x90, 0xe9, 0x38, 0xbe, 0x79, 0x45, 0x75, 0x5c,
    0xf4, 0x0c, 0xf0, 0xcd, 0xb6, 0x54, 0x9b, 0xd0, 0xc9, 0x57, 0xbb, 0x9b,
    0xad, 0x81, 0x0a, 0x10, 0xcd, 0x18, 0x20, 0xff, 0x77, 0x2b, 0x25, 0xbf,
    0xde, 0x70, 0xeb, 0xad, 0x0e, 0x01, 0xed, 0x2a, 0xa1, 0xe0, 0x38, 0x81,
    0xcc, 0x5d, 0x7b, 0xa1, 0xe8, 0x78, 0x3d, 0xbd, 0x1b, 0x7f, 0x7f, 0x48,
    0x0f, 0x81, 0xa9, 0x49, 0x14, 0x9b, 0x54, 0x53, 0x41, 0x15, 0x51, 0xff,
    0x12, 0xe8, 0x4a, 0x5c, 0x81, 0xf8, 0x31, 0x1a, 0xe5, 0x18, 0x7a, 0x60,
    0x22, 0x96, 0x67, 0xfc, 0x7a, 0xd8, 0xd9, 0x46, 0x23, 0x81, 0xc9, 0x62,
    0x18, 0x38, 0x16, 0x21, 0x9e, 0x40, 0xb8, 0x32, 0x04, 0x17, 0x6b, 0x08,
    0x27, 0xb4, 0x7f, 0xf2, 0x83, 0xe1, 0x2a, 0x09, 0x99, 0x83, 0x50, 0xb7,
    0x54, 0xb2, 0x7e, 0x7f, 0xd3, 0x2e, 0xac, 0x1d, 0xb5, 0x28, 0x17, 0x81,
    0xfa, 0x33, 0xef, 0xb5, 0x68, 0x59, 0xd1, 0x7b, 0x0e, 0xb6, 0x04, 0xfe,
    0x81, 0x69, 0xf6, 0xaf, 0xfd, 0xc9, 0x8f, 0xfe, 0xcd, 0x0b, 0xc9, 0x41,
    0x6e, 0xe7, 0x4c, 0x67, 0x36, 0xc4, 0xcb, 0xc2, 0xf7, 0xe9, 0xb4, 0x74,
    0x9b, 0xdd, 0x0d, 0x1f, 0x88, 0xb7, 0x81, 0x12, 0xf3, 0x8f, 0x81, 0xe2,
    0xa0, 0x68, 0x2b, 0x12, 0xd7, 0x28, 0x52, 0x65, 0x64, 0xff, 0xcd, 0x0b,
    0x66, 0xe8, 0xff, 0xff, 0x04, 0x00, 0x00, 0x00, 0x40, 0x00, 0x00, 0x00,
    0xf3, 0x08, 0x00, 0x00, 0x2a, 0xf2, 0xff, 0xff, 0x4d, 0x03, 0x00, 0x00,
    0x4e, 0xfd, 0xff, 0xff, 0xf1, 0xfe, 0xff, 0xff, 0x2e, 0x0b, 0x00, 0x00,
    0x77, 0x03, 0x00, 0x00, 0x7e, 0xfa, 0xff, 0xff, 0x9c, 0xf5, 0xff, 0xff,
    0x7f, 0xf9, 0xff, 0xff, 0xd5, 0xfc, 0xff, 0xff, 0x9c, 0x00, 0x00, 0x00,
    0xff, 0x03, 0x00, 0x00, 0x73, 0x04, 0x00, 0x00, 0x95, 0x08, 0x00, 0x00,
    0x32, 0xff, 0xff, 0xff, 0xb2, 0xe8, 0xff, 0xff, 0x04, 0x00, 0x00, 0x00,
    0x00, 0x09, 0x00, 0x00, 0xde, 0xd5, 0x24, 0x2a, 0x30, 0xf1, 0xbc, 0xc8,
    0xf2, 0xa9, 0xed, 0x62, 0xad, 0xdb, 0x34, 0x39, 0xc9, 0x4c, 0x68, 0xd0,
    0x53, 0xec, 0xb4, 0x55, 0x1c, 0xc1, 0xb1, 0x2d, 0x4d, 0x09, 0xfe, 0xdb,
    0x3f, 0xf2, 0x31, 0x2a, 0x14, 0x2c, 0x2a, 0xd1, 0xbb, 0x46, 0xdd, 0x27,
    0xaf, 0x5b, 0x3f, 0x28, 0x4a, 0xe5, 0x22, 0xe5, 0x64, 0xa8, 0x3e, 0x24,
    0xab, 0x02, 0xf0, 0xab, 0x39, 0xd6, 0x1a, 0xa2, 0x26, 0x16, 0xff, 0x4f,
    0xd3, 0x1d, 0xde, 0x08, 0xe6, 0xfc, 0x0b, 0xb9, 0xcb, 0x7f, 0xd3, 0xfa,
    0x13, 0x11, 0xca, 0xf9, 0x44, 0x36, 0xa5, 0xce, 0xee, 0xd4, 0x4f, 0xa1,
    0x35, 0x5f, 0xbd, 0xfd, 0x12, 0x49, 0xb5, 0xe4, 0xe3, 0xd7, 0xdd, 0xd6,
    0xd4, 0xa2, 0x61, 0x68, 0xbc, 0x11, 0xca, 0xd7, 0xaf, 0xa4, 0xe4, 0x26,
    0x1c, 0xc9, 0x0c, 0x41, 0x1a, 0x09, 0xfc, 0x43, 0xa3, 0x0f, 0x08, 0x48,
    0xb4, 0x06, 0x49, 0x1d, 0x91, 0xd5, 0x9d, 0xe4, 0x4e, 0x28, 0x13, 0x28,
    0xa6, 0xd0, 0xfc, 0x35, 0xe7, 0x34, 0x56, 0xec, 0xbd, 0xdb, 0xd9, 0xb2,
    0x0c, 0x20, 0xb5, 0xb5, 0xf7, 0x36, 0x2b, 0x13, 0xc4, 0x2f, 0x51, 0x0f,
    0xe0, 0xfd, 0xe6, 0xeb, 0xfd, 0x2c, 0x3b, 0xd1, 0xd1, 0x02, 0x33, 0xcc,
    0x1a, 0x53, 0x6b, 0xb6, 0x0b, 0x19, 0xaf, 0x25, 0xc0, 0xb6, 0x1b, 0x40,
    0xe5, 0x52, 0xd5, 0xf7, 0x5f, 0x0f, 0xf8, 0x35, 0xab, 0x3e, 0xd9, 0x0b,
    0xd9, 0x38, 0xdd, 0xf3, 0xf8, 0xc7, 0xc8, 0xa6, 0xef, 0xb7, 0xcc, 0xec,
    0xcc, 0x02, 0xe3, 0xde, 0x1c, 0xf7, 0xd4, 0x2b, 0x1e, 0xdd, 0xda, 0x36,
    0x30, 0x05, 0x47, 0xd4, 0xcd, 0x2c, 0xd9, 0x12, 0x42, 0xa7, 0x4f, 0x90,
    0xc0, 0x4c, 0x10, 0x03, 0xc3, 0xb4, 0x0c, 0x56, 0xd1, 0xc5, 0x14, 0x4c,
    0x1a, 0xa3, 0x30, 0x12, 0xb3, 0x33, 0xfb, 0xd6, 0xea, 0x57, 0xf9, 0x31,
    0x3f, 0x00, 0xbf, 0xf8, 0x1d, 0xe1, 0x49, 0xdf, 0x9a, 0x0a, 0x4c, 0x3b,
    0xbb, 0xec, 0x21, 0x00, 0xd3, 0x31, 0x81, 0xb5, 0xff, 0xe5, 0xa8, 0x34,
    0x8b, 0x0e, 0xda, 0xef, 0x30, 0xbc, 0x9e, 0x1c, 0x2e, 0x4e, 0x9b, 0x0f,
    0xb9, 0x40, 0xb9, 0x4f, 0x9f, 0xf4, 0x27, 0x1f, 0x4e, 0x1f, 0xda, 0xf7,
    0xed, 0x11, 0xa9, 0xaa, 0x97, 0x9c, 0xfd, 0x2e, 0xac, 0x10, 0x2b, 0xe0,
    0xc8, 0x2d, 0x4f, 0x2c, 0xc4, 0x71, 0x4b, 0xdc, 0xa2, 0xaa, 0x38, 0xfa,
    0x38, 0x3d, 0x65, 0xf2, 0xeb, 0x4a, 0xc0, 0x66, 0x89, 0xb6, 0xbf, 0xe5,
    0x33, 0xb5, 0xa8, 0x4b, 0x5f, 0x48, 0x5c, 0x1f, 0xe0, 0xe6, 0x3b, 0xc1,
    0xaf, 0xdc, 0xd7, 0x24, 0xfc, 0xa7, 0xd8, 0xab, 0xa7, 0x2d, 0xfd, 0x11,
    0x08, 0xc5, 0x06, 0xb6, 0x09, 0x23, 0xff, 0xe3, 0x9b, 0xfd, 0x4c, 0x04,
    0xb0, 0xe9, 0xf1, 0xdb, 0xfd, 0xc1, 0xca, 0x14, 0xba, 0x3d, 0x89, 0xe8,
    0x20, 0xb3, 0x56, 0xfb, 0x37, 0xc5, 0xaa, 0xdf, 0xac, 0x98, 0x04, 0x36,
    0xed, 0x57, 0x42, 0x09, 0x26, 0x04, 0x9d, 0x0e, 0x3f, 0x2d, 0x0f, 0x99,
    0x2f, 0x2e, 0xf4, 0x9e, 0xc3, 0x28, 0x97, 0xad, 0xe5, 0x81, 0x9e, 0xee,
    0x00, 0x58, 0x16, 0xa6, 0x44, 0x92, 0x3b, 0x10, 0x10, 0x42, 0x13, 0xc1,
    0x12, 0xdc, 0xf0, 0xe8, 0x11, 0x47, 0xf3, 0x2d, 0x09, 0x06, 0x3d, 0x98,
    0x0b, 0xff, 0xa0, 0x4c, 0x19, 0xec, 0xdf, 0x51, 0xaf, 0x59, 0x26, 0xc5,
    0xfc, 0xf0, 0x1e, 0xe5, 0x81, 0x2d, 0x2d, 0x0a, 0x14, 0x3d, 0x8b, 0xfc,
    0x91, 0x60, 0xce, 0x16, 0xf9, 0x39, 0xe3, 0x0a, 0xab, 0x50, 0xfd, 0x55,
    0xa3, 0x34, 0xd9, 0xd2, 0xbe, 0x6b, 0xc7, 0x3c, 0x42, 0x9b, 0xfb, 0x3e,
    0xa6, 0xc0, 0xcd, 0x05, 0xee, 0xcf, 0x28, 0xfe, 0x24, 0xbf, 0xb4, 0x37,
    0x45, 0x34, 0xcd, 0x22, 0x9f, 0x24, 0xbd, 0xe1, 0xc9, 0xf7, 0xea, 0xd7,
    0x92, 0xc1, 0x1e, 0xaa, 0xf9, 0xcc, 0x59, 0xd1, 0xb6, 0xe1, 0x1f, 0x16,
    0xf0, 0xe7, 0x1d, 0xec, 0x5e, 0xd1, 0x0b, 0x37, 0xb7, 0xf5, 0xe3, 0xc2,
    0xda, 0x6a, 0xd7, 0x42, 0xa2, 0x13, 0xdc, 0x0d, 0xe4, 0x34, 0xc1, 0xc8,
    0x59, 0x10, 0x4c, 0x07, 0x44, 0xe0, 0xca, 0x16, 0x5c, 0x59, 0xa7, 0x00,
    0xe3, 0xcb, 0x43, 0xcf, 0x44, 0xae, 0xd9, 0xe0, 0xf0, 0x60, 0xb3, 0xf0,
    0xd4, 0xa9, 0x07, 0x43, 0x39, 0x4a, 0x65, 0x3e, 0x67, 0x47, 0x1e, 0x91,
    0x59, 0x34, 0x1e, 0xd8, 0x32, 0xb5, 0x3c, 0x43, 0xa5, 0x7a, 0x60, 0x13,
    0xdd, 0xf6, 0x6a, 0xa0, 0xc6, 0xb8, 0xc3, 0x55, 0x1a, 0xd8, 0x12, 0x6e,
    0x4a, 0xeb, 0xde, 0x11, 0x24, 0x2d, 0x24, 0x00, 0xf9, 0x65, 0x9c, 0x70,
    0x30, 0xe2, 0x71, 0x1c, 0xb0, 0xc2, 0xea, 0xe7, 0xf5, 0x53, 0x12, 0xba,
    0xfd, 0x6d, 0xe9, 0x2b, 0x9e, 0x45, 0xb1, 0xe0, 0xde, 0x2a, 0x08, 0xbc,
    0x4c, 0xd2, 0x01, 0x0a, 0x41, 0xfa, 0x0c, 0x00, 0x52, 0x43, 0xc4, 0x9c,
    0x09, 0xf5, 0xd2, 0x41, 0xdb, 0x42, 0x12, 0xaf, 0x40, 0x10, 0xfe, 0x6b,
    0xbb, 0x93, 0x21, 0x5b, 0x37, 0x0c, 0x11, 0xe2, 0xd0, 0x4b, 0x0a, 0x22,
    0x20, 0x35, 0xe3, 0xbc, 0xb4, 0x12, 0x10, 0x28, 0x12, 0xfd, 0x1d, 0x3d,
    0xf3, 0xae, 0x7f, 0x57, 0x05, 0x6e, 0xd3, 0x9e, 0x0a, 0x15, 0xe0, 0x48,
    0x4f, 0x01, 0x21, 0x45, 0x2c, 0x79, 0x1a, 0x16, 0x11, 0x9c, 0xa9, 0xd6,
    0x02, 0xc8, 0xdd, 0xbd, 0x1d, 0xce, 0xf7, 0x38, 0x5b, 0x47, 0x81, 0x99,
    0x40, 0xbf, 0x12, 0x31, 0xf3, 0xdd, 0x58, 0x3a, 0x19, 0x2b, 0x0e, 0xae,
    0x8f, 0x38, 0x36, 0xce, 0xde, 0xa5, 0xb1, 0x30, 0x42, 0x58, 0xe7, 0x31,
    0xb9, 0xee, 0xc4, 0x3b, 0x3d, 0xe4, 0xad, 0xc8, 0x3d, 0x15, 0x21, 0xb3,
    0xbd, 0x1a, 0x0a, 0x4f, 0xce, 0x36, 0xba, 0x79, 0x42, 0xbb, 0x38, 0x9f,
    0x10, 0x47, 0x46, 0xee, 0x0a, 0x34, 0x4d, 0x28, 0xe8, 0x20, 0x40, 0x33,
    0x87, 0x29, 0x36, 0x3d, 0x03, 0xd1, 0x12, 0x10, 0x27, 0xbb, 0xee, 0x35,
    0xd0, 0xf5, 0xab, 0xeb, 0x3d, 0x1c, 0x1c, 0x5d, 0x1a, 0xd5, 0xe9, 0xe1,
    0x15, 0x43, 0xe2, 0xb0, 0x95, 0xcc, 0xf4, 0x44, 0x04, 0x0b, 0x0c, 0x0e,
    0x47, 0x3f, 0x2b, 0x5b, 0xe9, 0xb1, 0x62, 0xe4, 0x54, 0x56, 0xa0, 0xd4,
    0xc7, 0x14, 0xcd, 0x1f, 0x5d, 0x6f, 0xcb, 0x13, 0x95, 0x16, 0xb9, 0x13,
    0xb6, 0xd9, 0xa4, 0x20, 0x32, 0xda, 0x47, 0xfb, 0x0d, 0x05, 0xef, 0xca,
    0x09, 0xec, 0xe6, 0xe5, 0x87, 0xa5, 0x0a, 0x59, 0x18, 0x31, 0x5d, 0x27,
    0x0e, 0x13, 0x81, 0xd8, 0x14, 0xa7, 0xda, 0x0a, 0x2e, 0x9b, 0x2d, 0xce,
    0xfd, 0xd8, 0x61, 0xfe, 0xfb, 0x17, 0x2c, 0xca, 0xee, 0x3a, 0x10, 0x20,
    0x8c, 0xb0, 0x0f, 0x54, 0xe8, 0x62, 0xca, 0x26, 0xc1, 0xd9, 0xc6, 0x02,
    0xb0, 0xaa, 0xc3, 0xd1, 0xea, 0xc5, 0x34, 0xad, 0xca, 0x4b, 0x09, 0x41,
    0xea, 0xee, 0xf2, 0x9b, 0x47, 0xaf, 0xe3, 0xb1, 0xb6, 0x20, 0x47, 0xca,
    0x46, 0xe4, 0xda, 0x48, 0xc3, 0x1a, 0xb2, 0xbd, 0x60, 0xbc, 0xf3, 0x2f,
    0x07, 0x37, 0x2a, 0xba, 0xce, 0xbd, 0xde, 0xc9, 0x35, 0xef, 0xc5, 0xfd,
    0x21, 0x42, 0x37, 0x39, 0x16, 0x4d, 0x4b, 0xeb, 0x2b, 0x67, 0x68, 0x2f,
    0xb0, 0x49, 0xdb, 0xce, 0xff, 0x24, 0x9a, 0x05, 0xf8, 0x1a, 0xed, 0xc3,
    0xe2, 0x4d, 0x40, 0xc5, 0x15, 0x03, 0xdd, 0x3e, 0x38, 0x14, 0xce, 0xcc,
    0xf5, 0xe6, 0x29, 0xfb, 0x54, 0x4f, 0x19, 0xc1, 0x33, 0xaa, 0x01, 0x29,
    0x09, 0xc5, 0xab, 0x06, 0x90, 0x2b, 0x31, 0xc8, 0xd7, 0x01, 0x74, 0x50,
    0xd8, 0xee, 0xbe, 0xe5, 0x0f, 0xd6, 0xfd, 0x35, 0x18, 0xe9, 0x03, 0xce,
    0x29, 0xd1, 0xbf, 0xa0, 0xd3, 0xda, 0x81, 0xcc, 0x1f, 0xd3, 0x11, 0x27,
    0x82, 0x4f, 0x1d, 0xd8, 0x12, 0x38, 0x5c, 0xfd, 0xc8, 0x69, 0xd6, 0x20,
    0x1c, 0x27, 0x1d, 0xf6, 0x22, 0x28, 0xee, 0x4d, 0x65, 0x2d, 0x22, 0xe7,
    0xaa, 0x37, 0xfc, 0x27, 0xda, 0xc0, 0x30, 0x5c, 0x81, 0x36, 0xd4, 0x49,
    0x64, 0x53, 0xc4, 0x17, 0xdc, 0x61, 0x94, 0x1d, 0x39, 0x2b, 0x09, 0xc0,
    0x1b, 0xf8, 0x41, 0x04, 0x22, 0xd0, 0xab, 0xd7, 0x22, 0x63, 0xc1, 0x46,
    0xcd, 0x28, 0xea, 0x0a, 0x8a, 0x08, 0x20, 0x58, 0xec, 0xc1, 0x5c, 0xa9,
    0xbe, 0x10, 0xd0, 0x09, 0xe8, 0x19, 0xfd, 0xb5, 0x2b, 0xbb, 0x2a, 0xcf,
    0xbc, 0x58, 0xfe, 0x1f, 0xeb, 0x55, 0x07, 0x3a, 0xca, 0xdb, 0x1e, 0x29,
    0xf7, 0xbe, 0x54, 0x11, 0xf1, 0x0c, 0x1a, 0x1f, 0xec, 0x03, 0x0f, 0x70,
    0xe2, 0xd4, 0xce, 0x5d, 0x9d, 0x1c, 0x54, 0x40, 0xdc, 0x60, 0x75, 0xe7,
    0xf1, 0x0c, 0xaa, 0x65, 0x01, 0x3c, 0x47, 0x2e, 0x31, 0xfd, 0x4e, 0xd1,
    0xfb, 0xed, 0x1f, 0x9a, 0xf6, 0xd0, 0xc1, 0x42, 0x00, 0x06, 0x3f, 0xf6,
    0x22, 0x33, 0x07, 0xd1, 0x5b, 0xe5, 0xdc, 0xba, 0x50, 0xd4, 0xb3, 0x62,
    0xef, 0x68, 0xfc, 0xe4, 0x4c, 0xb1, 0x06, 0xf7, 0xe1, 0xd3, 0x28, 0xbc,
    0x81, 0x33, 0x10, 0x67, 0xae, 0x67, 0xe5, 0xb2, 0x23, 0x63, 0x25, 0xf0,
    0x50, 0x5a, 0x4e, 0x0f, 0xbb, 0x1a, 0x1d, 0x08, 0xce, 0x15, 0xc3, 0xd6,
    0xfa, 0x48, 0x2e, 0xcd, 0xd7, 0x15, 0xdb, 0x9d, 0x45, 0xc4, 0xaa, 0x65,
    0x32, 0xc3, 0x31, 0x67, 0xb6, 0x0d, 0x34, 0xb6, 0xe8, 0x3f, 0x1f, 0xf3,
    0xb0, 0x53, 0xb1, 0x50, 0x32, 0xd9, 0x38, 0x46, 0x0e, 0xb2, 0xfc, 0x3b,
    0x0c, 0xa4, 0xea, 0xaf, 0xb4, 0x63, 0x92, 0xcd, 0xdd, 0xf7, 0x44, 0x3a,
    0x43, 0x03, 0x23, 0x03, 0xfe, 0x22, 0x5f, 0xc3, 0xb3, 0x4e, 0xa9, 0xb5,
    0xdb, 0xcd, 0xf4, 0x11, 0xc0, 0x40, 0x32, 0x35, 0x50, 0x2d, 0x29, 0xd6,
    0x0c, 0xf3, 0x43, 0xb6, 0xf5, 0xf4, 0xd3, 0x45, 0x0d, 0xce, 0x50, 0x2a,
    0x4d, 0xfa, 0x3d, 0x76, 0x89, 0xe3, 0xd1, 0xc4, 0x20, 0x31, 0x06, 0xff,
    0xb9, 0xa1, 0xc6, 0xc2, 0xd3, 0x25, 0xea, 0xaa, 0xdb, 0x61, 0xac, 0x02,
    0x44, 0xce, 0x11, 0xd2, 0x91, 0xe1, 0x01, 0xfc, 0x20, 0x43, 0x62, 0xd3,
    0xc3, 0x1b, 0xcc, 0x8b, 0x2f, 0x26, 0x40, 0x58, 0xff, 0xd1, 0x4f, 0x02,
    0x58, 0xdf, 0x69, 0x54, 0xce, 0x04, 0xd5, 0x92, 0x20, 0x07, 0x43, 0xaf,
    0xf5, 0x54, 0x56, 0x3d, 0xec, 0xac, 0xc1, 0xc6, 0xeb, 0x4c, 0xf5, 0xed,
    0x49, 0x08, 0xd9, 0x56, 0x41, 0x73, 0x3b, 0xcd, 0x04, 0x22, 0x4e, 0x25,
    0x34, 0xd4, 0xa3, 0x09, 0x25, 0x8c, 0x1a, 0xfd, 0x99, 0xbd, 0x40, 0xcb,
    0x0e, 0xbd, 0x5d, 0x5a, 0x91, 0xfb, 0x81, 0xb7, 0x58, 0x62, 0x15, 0xcf,
    0xfd, 0x03, 0x49, 0x16, 0x32, 0x33, 0x12, 0x9e, 0x20, 0x26, 0x61, 0x25,
    0x24, 0x0b, 0x56, 0x05, 0x51, 0xf2, 0xa2, 0xbd, 0x3b, 0x57, 0x03, 0x56,
    0x53, 0x2e, 0x6a, 0x53, 0x55, 0x25, 0xba, 0xee, 0x51, 0x45, 0x92, 0xc5,
    0xe9, 0x5c, 0x2b, 0x30, 0x1c, 0x61, 0x41, 0x41, 0x1c, 0x38, 0x50, 0x31,
    0xef, 0x19, 0xea, 0x55, 0xc1, 0xb9, 0xb3, 0x02, 0xb5, 0x60, 0xee, 0x5f,
    0xfe, 0xf9, 0xf2, 0xe9, 0xdf, 0xf6, 0x25, 0xab, 0x1b, 0x12, 0x38, 0x35,
    0x1e, 0xb4, 0x45, 0x27, 0x0d, 0xaf, 0x2a, 0xf5, 0x5b, 0x86, 0xfb, 0x34,
    0xf6, 0xf1, 0x18, 0x1c, 0x7f, 0x06, 0xb9, 0x18, 0xb4, 0x07, 0x17, 0x5c,
    0xd3, 0x49, 0x24, 0xc3, 0x52, 0xc0, 0x22, 0xe7, 0xe1, 0xfb, 0x68, 0x53,
    0x4b, 0xe6, 0xd9, 0x50, 0x23, 0xa3, 0xbf, 0xa5, 0xbd, 0xf8, 0x30, 0xac,
    0x01, 0xfd, 0xe2, 0x98, 0x4c, 0xd5, 0xc5, 0x3f, 0xc5, 0xb3, 0x23, 0x49,
    0x01, 0xff, 0xdf, 0x59, 0xf0, 0x9d, 0x54, 0xdf, 0xc6, 0x41, 0xc0, 0x93,
    0xea, 0x31, 0x05, 0xbd, 0x4d, 0x23, 0x05, 0x13, 0x45, 0x5d, 0x36, 0x17,
    0x0f, 0x4c, 0x69, 0xc2, 0x27, 0xce, 0xa0, 0x25, 0x37, 0x4a, 0x38, 0x6a,
    0x02, 0x2c, 0x3f, 0x42, 0x15, 0x20, 0xc3, 0x26, 0xcb, 0xd7, 0x36, 0xfc,
    0x27, 0x58, 0x47, 0x0a, 0x33, 0xff, 0x30, 0xd0, 0x50, 0xc4, 0xe5, 0x42,
    0xc8, 0x53, 0x1d, 0xe1, 0xfd, 0x22, 0x5d, 0x48, 0x17, 0xf1, 0x3a, 0x8b,
    0xf6, 0x33, 0x9c, 0xed, 0x1a, 0x61, 0x1d, 0x04, 0xd1, 0xe1, 0x5e, 0xef,
    0xf9, 0x5a, 0x01, 0xf7, 0x35, 0xab, 0x4b, 0x61, 0x4f, 0xef, 0x0d, 0xea,
    0xa6, 0xcd, 0x16, 0x2e, 0x32, 0x63, 0xb3, 0x13, 0x0e, 0x45, 0x2d, 0xc0,
    0x40, 0x54, 0xfa, 0x10, 0xea, 0xbc, 0xca, 0xc3, 0xdb, 0x65, 0x26, 0x10,
    0x00, 0xe4, 0xae, 0xf6, 0xc4, 0xed, 0xc9, 0x81, 0xaf, 0x1b, 0x1c, 0xe8,
    0xca, 0x43, 0xdf, 0x9c, 0xc9, 0xc5, 0xee, 0xf4, 0xb8, 0x29, 0x11, 0x05,
    0xbe, 0xf3, 0x01, 0x05, 0x1b, 0xce, 0xf4, 0x0a, 0x38, 0xc8, 0x2c, 0x2f,
    0xce, 0x4f, 0x06, 0x91, 0xd6, 0xeb, 0xb3, 0x31, 0x4f, 0x25, 0x2e, 0x3a,
    0xc0, 0x2e, 0xd6, 0xd9, 0x36, 0xcf, 0x21, 0x2c, 0x36, 0xa8, 0x2f, 0x7f,
    0xd2, 0x16, 0x43, 0xc7, 0x2b, 0xda, 0x46, 0x59, 0x29, 0x02, 0x8f, 0x12,
    0x23, 0x49, 0xf0, 0x06, 0xb5, 0xae, 0x20, 0x26, 0xda, 0x33, 0xf5, 0xeb,
    0xdd, 0xc3, 0xe3, 0xff, 0xc1, 0xd2, 0x50, 0x38, 0x67, 0xba, 0x18, 0xde,
    0xe2, 0x5a, 0xb9, 0xa8, 0x51, 0xfc, 0x13, 0xed, 0xda, 0x4c, 0xba, 0xc9,
    0x17, 0xb1, 0xfe, 0xe4, 0xb3, 0xf6, 0x65, 0x6a, 0xe3, 0xba, 0xcf, 0x30,
    0x15, 0x41, 0x0a, 0x79, 0x64, 0x36, 0x58, 0x2a, 0xca, 0x42, 0x0a, 0x2d,
    0x50, 0xc5, 0xbb, 0x00, 0x0b, 0xc1, 0xf4, 0x60, 0x2b, 0xe3, 0xbb, 0x60,
    0x13, 0xe6, 0x26, 0xfc, 0x10, 0xbb, 0xec, 0xf8, 0xf3, 0x14, 0x00, 0xc7,
    0x1b, 0x55, 0x44, 0xc6, 0x4a, 0x16, 0x22, 0xce, 0xea, 0xeb, 0xf2, 0xaa,
    0x5d, 0x1d, 0x97, 0xcb, 0xbc, 0x59, 0x54, 0xef, 0xbc, 0x37, 0xe2, 0x0a,
    0x10, 0xae, 0x1a, 0xd3, 0x0b, 0x9d, 0x1b, 0x0c, 0xdf, 0xb2, 0xc9, 0xea,
    0xf3, 0x59, 0x1f, 0xf6, 0xd3, 0x3f, 0xd2, 0x5c, 0xe1, 0x0e, 0x49, 0xa9,
    0xc3, 0xfd, 0x09, 0x26, 0x06, 0x4d, 0x06, 0x2c, 0xab, 0x68, 0x4b, 0xb6,
    0x0b, 0x23, 0x06, 0xc5, 0x0a, 0x32, 0x34, 0xac, 0x28, 0x1b, 0xc3, 0x0d,
    0xf0, 0xe7, 0x6c, 0x38, 0xc1, 0xd0, 0x79, 0x52, 0x38, 0xc5, 0xc9, 0xf1,
    0xc9, 0xf1, 0x2c, 0xc2, 0xdc, 0x08, 0xc4, 0x02, 0x70, 0xf1, 0xfb, 0xb6,
    0x06, 0x00, 0x36, 0x2a, 0x2b, 0xb9, 0x4a, 0xa6, 0x1c, 0x20, 0x64, 0xfa,
    0x02, 0x1e, 0x4d, 0x15, 0x19, 0xfc, 0x54, 0x94, 0x2f, 0xba, 0xfd, 0xf4,
    0xce, 0x27, 0x7a, 0xd8, 0x65, 0xcc, 0x62, 0x41, 0x02, 0x20, 0x83, 0x07,
    0x13, 0xec, 0x27, 0x40, 0xf5, 0x0c, 0xcb, 0x11, 0xf7, 0x21, 0xc6, 0xdc,
    0x8d, 0xc2, 0xa1, 0xb0, 0x54, 0x21, 0xba, 0x3f, 0xf6, 0xed, 0xcb, 0xc5,
    0x06, 0xeb, 0x7f, 0x00, 0x29, 0x13, 0xef, 0x8e, 0x45, 0xdd, 0xf8, 0x1f,
    0x30, 0x54, 0xcd, 0xa6, 0x58, 0x92, 0x0a, 0xce, 0x43, 0x02, 0xe3, 0x8c,
    0xe6, 0x51, 0x28, 0x54, 0xd8, 0xd3, 0xc4, 0xfe, 0xb8, 0xdb, 0x72, 0x21,
    0xce, 0x4b, 0x0b, 0xe9, 0x95, 0x24, 0x84, 0x91, 0xbf, 0xa1, 0x09, 0x3a,
    0xff, 0x88, 0x20, 0x25, 0x41, 0x2f, 0xe5, 0x15, 0xa6, 0xe3, 0x04, 0xec,
    0xad, 0xeb, 0xc7, 0x21, 0xc8, 0x0f, 0xfb, 0xff, 0x41, 0xe7, 0xfb, 0x33,
    0xed, 0x03, 0x2f, 0xa3, 0x36, 0xb2, 0xc1, 0x4a, 0xae, 0xc6, 0xbb, 0xa8,
    0xd5, 0x13, 0xdf, 0x41, 0xb1, 0xd9, 0xe8, 0x36, 0x41, 0x0c, 0xdc, 0xb3,
    0xbd, 0x41, 0xe1, 0xe9, 0xc1, 0x9b, 0x51, 0x4c, 0x05, 0x22, 0x9e, 0xc0,
    0xad, 0x38, 0x9e, 0xbe, 0xb0, 0x44, 0xba, 0xba, 0x25, 0x10, 0x0a, 0xf9,
    0x3e, 0xda, 0x88, 0x38, 0xc5, 0xcb, 0x08, 0x6a, 0xc9, 0x1a, 0xee, 0xbc,
    0x02, 0x1a, 0x16, 0x26, 0x2c, 0x35, 0xf8, 0x04, 0x23, 0x41, 0xa7, 0xee,
    0xbc, 0xc4, 0xd2, 0xe3, 0xc2, 0xd5, 0xab, 0xd1, 0x0f, 0xb8, 0xe4, 0xa8,
    0xba, 0x81, 0xbe, 0xbd, 0xb6, 0x8d, 0xd9, 0xbe, 0x23, 0x1b, 0xa5, 0x26,
    0xd8, 0x2b, 0x81, 0xfb, 0x9d, 0xbb, 0x69, 0x6a, 0xab, 0xec, 0x57, 0x8a,
    0xf8, 0xee, 0x26, 0xd7, 0xb8, 0xc5, 0x8b, 0xec, 0xad, 0xb5, 0xa1, 0x4c,
    0x6c, 0x45, 0x5c, 0x0c, 0x86, 0xe2, 0x2e, 0xbd, 0x37, 0x3f, 0x3c, 0x44,
    0xc0, 0x48, 0xe7, 0xe5, 0x07, 0xd4, 0xbd, 0xa5, 0x5d, 0xad, 0x50, 0x4a,
    0xe7, 0x88, 0xea, 0xff, 0xf1, 0x50, 0xce, 0x09, 0x58, 0x6f, 0x0a, 0x21,
    0x52, 0xd0, 0xcb, 0xcf, 0xd5, 0x2d, 0x33, 0xd4, 0x8e, 0xc6, 0xe5, 0x07,
    0xa7, 0x14, 0x25, 0xd6, 0x82, 0x30, 0xd4, 0x3f, 0xe1, 0x3d, 0x3f, 0x37,
    0xae, 0xdb, 0xc6, 0x63, 0xb2, 0xcf, 0x4b, 0xe9, 0x9f, 0xc0, 0xb6, 0x33,
    0x00, 0x0e, 0xc2, 0x6d, 0xce, 0xb2, 0xce, 0x1a, 0xf5, 0x6f, 0x39, 0x2c,
    0xc2, 0x29, 0x87, 0xc5, 0x6e, 0xa2, 0xcc, 0xe1, 0x14, 0x12, 0x49, 0x0b,
    0x57, 0x5b, 0xda, 0xe0, 0x63, 0xfb, 0xbe, 0x08, 0xf8, 0x31, 0xc4, 0xe4,
    0xaf, 0x55, 0x5d, 0x09, 0xbe, 0xf1, 0xff, 0xff, 0x04, 0x00, 0x00, 0x00,
    0x40, 0x00, 0x00, 0x00, 0x4d, 0xfa, 0xff, 0xff, 0xeb, 0x08, 0x00, 0x00,
    0xe3, 0xfd, 0xff, 0xff, 0x05, 0x00, 0x00, 0x00, 0x06, 0xfb, 0xff, 0xff,
    0xce, 0x0a, 0x00, 0x00, 0x5e, 0xf8, 0xff, 0xff, 0x2c, 0xfc, 0xff, 0xff,
    0x51, 0xf9, 0xff, 0xff, 0x85, 0x04, 0x00, 0x00, 0x6a, 0x02, 0x00, 0x00,
    0xa1, 0x04, 0x00, 0x00, 0x5b, 0x03, 0x00, 0x00, 0xb2, 0xfc, 0xff, 0xff,
    0x33, 0x00, 0x00, 0x00, 0x5a, 0xff, 0xff, 0xff, 0x0a, 0xf2, 0xff, 0xff,
    0x04, 0x00, 0x00, 0x00, 0x90, 0x00, 0x00, 0x00, 0x04, 0x3c, 0xcf, 0x3e,
    0x73, 0x82, 0x7f, 0x01, 0x6a, 0xbd, 0x06, 0x65, 0x86, 0x57, 0xf4, 0x00,
    0x22, 0x5c, 0x10, 0xbd, 0x4d, 0xc6, 0x17, 0x7f, 0x96, 0x12, 0xb4, 0xe1,
    0x88, 0x87, 0x3a, 0xc4, 0xab, 0x7f, 0x86, 0x4a, 0x94, 0xd6, 0x2e, 0x89,
    0x5b, 0xe6, 0x81, 0x68, 0x81, 0x03, 0xe1, 0x8a, 0x6f, 0x44, 0xa8, 0x38,
    0xd6, 0x66, 0xe5, 0x42, 0xc7, 0x7f, 0xcd, 0x04, 0xd6, 0x24, 0xb1, 0xfe,
    0x81, 0x58, 0xd5, 0xac, 0xf5, 0x52, 0x53, 0x50, 0xcc, 0x57, 0x94, 0x60,
    0xcb, 0x49, 0xd9, 0x81, 0xc5, 0xae, 0x6f, 0x64, 0x81, 0x7f, 0x68, 0x16,
    0xed, 0x49, 0xd8, 0x75, 0x31, 0x7f, 0xd7, 0xa6, 0x51, 0xe9, 0x81, 0x7f,
    0x48, 0x4d, 0xf8, 0xc9, 0xf4, 0x2e, 0x9a, 0x0c, 0xb6, 0x69, 0x81, 0x8d,
    0x37, 0x44, 0x0c, 0x9b, 0xf3, 0xed, 0x0d, 0x53, 0x06, 0xbc, 0x9a, 0x7f,
    0xa3, 0x71, 0xa5, 0xed, 0x33, 0xee, 0x68, 0x16, 0x43, 0x0d, 0xf2, 0x0b,
    0x81, 0x3f, 0x23, 0xe2, 0xbe, 0x0f, 0xf6, 0x00, 0xa6, 0xf2, 0xff, 0xff,
    0x04, 0x00, 0x00, 0x00, 0x40, 0x00, 0x00, 0x00, 0x92, 0xfd, 0xff, 0xff,
    0x0e, 0xfc, 0xff, 0xff, 0x7f, 0x00, 0x00, 0x00, 0xce, 0xfe, 0xff, 0xff,
    0x52, 0x00, 0x00, 0x00, 0xab, 0xfd, 0xff, 0xff, 0xf0, 0xfc, 0xff, 0xff,
    0x7b, 0xfc, 0xff, 0xff, 0xb8, 0x01, 0x00, 0x00, 0x9e, 0xfc, 0xff, 0xff,
    0x6a, 0x07, 0x00, 0x00, 0x9a, 0xf9, 0xff, 0xff, 0x70, 0x08, 0x00, 0x00,
    0x7f, 0xfb, 0xff, 0xff, 0x73, 0x02, 0x00, 0x00, 0x42, 0x05, 0x00, 0x00,
    0xf2, 0xf2, 0xff, 0xff, 0x04, 0x00, 0x00, 0x00, 0x00, 0x01, 0x00, 0x00,
    0xb9, 0x5f, 0xcf, 0xc3, 0xfc, 0x15, 0xb7, 0x20, 0x68, 0xd3, 0xf2, 0x34,
    0x81, 0x3d, 0x48, 0x6b, 0x63, 0xfc, 0xac, 0xef, 0x58, 0x76, 0x45, 0xa2,
    0x0c, 0xf6, 0x57, 0x47, 0x0a, 0xc4, 0x0a, 0x81, 0x33, 0xbf, 0x04, 0xeb,
    0x4f, 0x31, 0xc1, 0x4f, 0xee, 0xd0, 0x2a, 0x2f, 0x81, 0xaf, 0x63, 0x20,
    0x13, 0x5c, 0x46, 0x74, 0xdd, 0xd9, 0x61, 0xec, 0x49, 0x65, 0x67, 0xbe,
    0x7f, 0x4b, 0xd6, 0xb9, 0x36, 0x6f, 0xeb, 0x53, 0xf1, 0x40, 0x69, 0xfe,
    0xcc, 0xf7, 0x1d, 0x0f, 0xa2, 0xbb, 0x0f, 0x81, 0x76, 0x81, 0x56, 0xec,
    0x02, 0xe5, 0x96, 0x55, 0x7d, 0x4e, 0x44, 0x5c, 0x75, 0x72, 0xe6, 0x7c,
    0xc0, 0x81, 0x2b, 0x99, 0xef, 0x2d, 0x3d, 0x31, 0x14, 0x1c, 0xc7, 0x18,
    0x38, 0x12, 0x12, 0x4a, 0xfd, 0xbd, 0x09, 0xc8, 0xca, 0xbd, 0x1e, 0x7f,
    0x2c, 0xbc, 0x6c, 0xff, 0x6b, 0xf0, 0xa3, 0x9e, 0x53, 0x7c, 0xbe, 0x43,
    0x9a, 0x23, 0x7f, 0xdd, 0xa5, 0x7b, 0x4b, 0x0d, 0xc6, 0x2c, 0x3f, 0x20,
    0xaa, 0x87, 0x28, 0x0c, 0x37, 0x1c, 0xbb, 0xce, 0x58, 0x2f, 0x41, 0x7f,
    0xe1, 0x70, 0xe9, 0x91, 0x4d, 0xb4, 0xf9, 0x8f, 0xc5, 0x29, 0xc2, 0xee,
    0x24, 0x8f, 0x00, 0x64, 0x4a, 0xb5, 0x2c, 0x7f, 0x81, 0xf1, 0x35, 0xfa,
    0xe3, 0x11, 0x96, 0x91, 0x21, 0xe8, 0x13, 0x64, 0xda, 0x2b, 0x93, 0x70,
    0x33, 0x0f, 0xe8, 0x81, 0x0a, 0x4a, 0x88, 0xe4, 0x67, 0xe8, 0x97, 0x4d,
    0xd1, 0x45, 0xb5, 0x1d, 0xbb, 0x04, 0x4a, 0xb4, 0x9f, 0x69, 0x20, 0x8c,
    0xe1, 0xfa, 0x54, 0xbf, 0xf9, 0xcc, 0x34, 0x7f, 0xde, 0x81, 0xea, 0xae,
    0x2b, 0xab, 0xa2, 0x1d, 0xa2, 0x92, 0xc2, 0x42, 0xa6, 0x15, 0x47, 0x4e,
    0x11, 0xc1, 0x3e, 0xe8, 0xa9, 0x2b, 0x84, 0xd7, 0x1b, 0x2d, 0x29, 0x59,
    0x09, 0x81, 0xf3, 0x5a, 0xfe, 0xf3, 0xff, 0xff, 0x04, 0x00, 0x00, 0x00,
    0x40, 0x00, 0x00, 0x00, 0xaf, 0xfe, 0xff, 0xff, 0xd7, 0xf9, 0xff, 0xff,
    0x73, 0x00, 0x00, 0x00, 0x04, 0xe8, 0xff, 0xff, 0x1c, 0xfb, 0xff, 0xff,
    0x21, 0xe8, 0xff, 0xff, 0x2f, 0xfe, 0xff, 0xff, 0x3d, 0x01, 0x00, 0x00,
    0xb3, 0xee, 0xff, 0xff, 0x75, 0xfc, 0xff, 0xff, 0x49, 0x04, 0x00, 0x00,
    0xeb, 0x06, 0x00, 0x00, 0x20, 0x06, 0x00, 0x00, 0x60, 0x03, 0x00, 0x00,
    0xc4, 0x13, 0x00, 0x00, 0xac, 0x03, 0x00, 0x00, 0x4a, 0xf4, 0xff, 0xff,
    0x04, 0x00, 0x00, 0x00, 0x00, 0x08, 0x00, 0x00, 0x41, 0x5b, 0xaf, 0xdb,
    0x16, 0x47, 0xcf, 0x9e, 0x95, 0x98, 0x4d, 0x72, 0xd4, 0xc4, 0x72, 0x52,
    0xb2, 0x43, 0x48, 0xc4, 0xd1, 0xc3, 0xdd, 0xab, 0x27, 0xc0, 0x73, 0x4c,
    0x47, 0xe9, 0x07, 0x3c, 0x03, 0xbc, 0xb7, 0x10, 0x4a, 0x5e, 0x99, 0xe5,
    0x14, 0xa2, 0xdf, 0xbc, 0xde, 0xa0, 0x2b, 0x47, 0x06, 0xc7, 0x1a, 0x35,
    0x2e, 0x14, 0x26, 0x1c, 0x4c, 0x42, 0x49, 0xee, 0xd8, 0x8c, 0x3d, 0xc5,
    0x2d, 0x46, 0x33, 0x5b, 0x17, 0xb9, 0xdb, 0x31, 0xac, 0xc8, 0xbc, 0xdc,
    0xff, 0xe1, 0x16, 0xec, 0xdc, 0x6a, 0xeb, 0x99, 0x5f, 0xce, 0x13, 0x14,
    0x11, 0x3e, 0x42, 0xc8, 0x2f, 0xab, 0xaf, 0x44, 0xde, 0x0b, 0xb5, 0xb4,
    0x03, 0x0d, 0xe5, 0x46, 0x4d, 0xab, 0xc8, 0x4a, 0xb6, 0x48, 0x39, 0x38,
    0x8e, 0x38, 0xc8, 0x47, 0xae, 0x19, 0x2c, 0xe6, 0xe6, 0xd3, 0xa8, 0xa9,
    0x0e, 0x12, 0x1b, 0xb3, 0x5a, 0x18, 0xeb, 0x0d, 0xe4, 0x4c, 0x15, 0x57,
    0x3b, 0x27, 0xc0, 0x54, 0x4a, 0xf2, 0x0a, 0x3c, 0x57, 0xaf, 0x72, 0xf5,
    0x3a, 0x37, 0xb8, 0x2a, 0x58, 0xfc, 0x42, 0x1b, 0xc2, 0x40, 0xc2, 0xba,
    0xd2, 0x57, 0xc6, 0x5d, 0xd2, 0xe3, 0xbc, 0x5b, 0x45, 0x1f, 0xd2, 0x51,
    0x1d, 0x62, 0x4b, 0xda, 0x06, 0x2d, 0x4d, 0x92, 0xef, 0x24, 0x0b, 0x0b,
    0xf6, 0x13, 0x02, 0x52, 0xd1, 0x3c, 0x5b, 0x0f, 0x54, 0x5c, 0x40, 0x70,
    0x30, 0x14, 0x54, 0xe7, 0xc8, 0x12, 0xbc, 0x95, 0x2b, 0x18, 0xa8, 0x5a,
    0x16, 0x65, 0x24, 0xcb, 0x3c, 0xbb, 0x1d, 0x3c, 0x04, 0xb7, 0x46, 0x03,
    0x33, 0xc0, 0x41, 0x67, 0x3c, 0xde, 0xdd, 0xe5, 0xb0, 0xc8, 0x6c, 0x8f,
    0xa2, 0x15, 0x05, 0x64, 0xfe, 0xf1, 0x27, 0xc3, 0x35, 0x03, 0xb2, 0xb0,
    0xb2, 0xcf, 0x16, 0x0e, 0xcd, 0xf1, 0xa6, 0x43, 0xd2, 0x56, 0xba, 0x56,
    0xdf, 0xaf, 0xf5, 0x68, 0xde, 0xe0, 0xab, 0xc0, 0x1d, 0xfb, 0x8c, 0x97,
    0xdc, 0xfb, 0xd5, 0xf8, 0xc9, 0x5f, 0x53, 0x8b, 0x40, 0x0a, 0x71, 0x57,
    0x28, 0x4e, 0xe0, 0xb8, 0xc4, 0x40, 0x52, 0x4a, 0x13, 0x09, 0xb6, 0x57,
    0x27, 0x35, 0xba, 0xd6, 0xc3, 0xec, 0x56, 0xf1, 0x37, 0xe0, 0xc8, 0xe2,
    0x40, 0xdf, 0x15, 0x13, 0x4e, 0xb7, 0xc0, 0xe4, 0x6a, 0xed, 0x35, 0xc4,
    0x97, 0x1d, 0x4e, 0x92, 0x38, 0x00, 0xd5, 0xe9, 0x2b, 0x38, 0x92, 0x67,
    0x07, 0xfb, 0x46, 0x26, 0xbe, 0x16, 0x54, 0xfb, 0xde, 0xab, 0xf0, 0xb4,
    0x60, 0x9d, 0x08, 0x71, 0x33, 0xaf, 0x44, 0xec, 0x5e, 0xa4, 0x42, 0x25,
    0x04, 0x4e, 0x14, 0x4f, 0xfe, 0xbb, 0xa9, 0x5e, 0x24, 0x57, 0x3b, 0x1a,
    0x32, 0xc8, 0x92, 0x27, 0xcb, 0xe6, 0xe4, 0xbd, 0xe7, 0xd4, 0x37, 0x0c,
    0x4a, 0xde, 0x22, 0x00, 0x46, 0x64, 0xdf, 0x32, 0x1b, 0x4f, 0xc0, 0xe2,
    0xa6, 0xc6, 0x5e, 0xef, 0xe1, 0x06, 0xef, 0x3d, 0xb3, 0x91, 0x08, 0x28,
    0x59, 0xea, 0xaf, 0xab, 0x30, 0x22, 0x9d, 0xdf, 0x27, 0xd3, 0xaf, 0x4e,
    0x2d, 0x95, 0x3e, 0xd1, 0xff, 0x28, 0x98, 0xc3, 0xcc, 0x14, 0x04, 0x1f,
    0xd6, 0xb5, 0x53, 0xc6, 0xbf, 0x99, 0x23, 0xab, 0x6d, 0xbd, 0xff, 0xdf,
    0xd7, 0xd6, 0xf9, 0xd2, 0x23, 0xc2, 0x5b, 0x5b, 0x3d, 0x06, 0x27, 0xae,
    0x93, 0xbe, 0xe8, 0x2c, 0xb6, 0x94, 0xdd, 0x6a, 0xda, 0x54, 0x54, 0x37,
    0xd0, 0x0a, 0x0a, 0xd7, 0x28, 0xfb, 0x44, 0xb9, 0xdb, 0xef, 0xb1, 0xcc,
    0x46, 0x9c, 0xe1, 0x6c, 0x1e, 0x5d, 0xbb, 0x0e, 0xcb, 0xcb, 0xe2, 0x52,
    0xbb, 0x27, 0x11, 0x10, 0xc9, 0xc2, 0xe5, 0x45, 0x43, 0xc9, 0xc0, 0x13,
    0x4b, 0x55, 0xb7, 0x3c, 0xcc, 0xe3, 0x0a, 0x22, 0xa8, 0x23, 0x55, 0x05,
    0x64, 0xfd, 0x6d, 0x6e, 0x63, 0xf6, 0x29, 0x50, 0x50, 0x47, 0x74, 0xff,
    0xe2, 0x1b, 0x58, 0xe5, 0x69, 0xf9, 0x40, 0x1d, 0x96, 0x4e, 0x26, 0x04,
    0x42, 0x3f, 0x9f, 0x01, 0x32, 0x9a, 0xe0, 0x4f, 0xc2, 0x05, 0xb0, 0x3e,
    0x5c, 0xf7, 0x62, 0xa4, 0x54, 0x10, 0xcd, 0x36, 0x95, 0x1e, 0x2f, 0x5a,
    0x43, 0x5b, 0x5f, 0xb6, 0xc7, 0x40, 0x92, 0xb3, 0xf1, 0x9b, 0x07, 0x1b,
    0x12, 0xcd, 0xa8, 0x43, 0xd5, 0xe4, 0x53, 0x17, 0xaf, 0x34, 0xf4, 0xc4,
    0xfe, 0xb4, 0xe2, 0x36, 0x8a, 0xa3, 0x74, 0x6a, 0xb9, 0x7c, 0x79, 0x5e,
    0x20, 0xdf, 0xea, 0xa9, 0x4a, 0xcf, 0x20, 0x14, 0xe4, 0xfb, 0x5f, 0x00,
    0x1c, 0x52, 0xa6, 0x4f, 0x27, 0xa5, 0x0d, 0xd2, 0x54, 0xea, 0xbc, 0xac,
    0x23, 0x50, 0x2a, 0xe7, 0xc8, 0x15, 0xc0, 0x07, 0x94, 0xc5, 0xe3, 0x6e,
    0xc9, 0x59, 0x09, 0x0b, 0xca, 0x3a, 0x90, 0x15, 0x19, 0xeb, 0x99, 0x9a,
    0x18, 0x18, 0xea, 0x42, 0x57, 0x15, 0xa8, 0x4f, 0x2e, 0x1a, 0xe6, 0x96,
    0x16, 0x0d, 0x15, 0x59, 0xbd, 0x0d, 0xfb, 0xc9, 0xe4, 0x6c, 0x39, 0x25,
    0x13, 0x4a, 0xcc, 0x0b, 0x46, 0xec, 0x37, 0x3b, 0x29, 0x43, 0xf7, 0xdb,
    0xa1, 0x3c, 0x5d, 0xd4, 0xbf, 0x03, 0x16, 0x11, 0xbe, 0xcd, 0x39, 0x38,
    0xde, 0xa0, 0x9b, 0x68, 0xe2, 0xac, 0xa5, 0x5a, 0xf8, 0xce, 0xf3, 0xc6,
    0xd0, 0xb8, 0xee, 0x89, 0x98, 0x21, 0xd6, 0x36, 0x26, 0x42, 0xd9, 0xf0,
    0xc6, 0xd9, 0x03, 0xad, 0xe3, 0xd1, 0xb4, 0x2a, 0xb4, 0x46, 0x34, 0xec,
    0x61, 0xae, 0x48, 0x08, 0x90, 0x49, 0x19, 0xaf, 0x68, 0xbd, 0xe1, 0x3e,
    0xe0, 0xcc, 0x6a, 0xab, 0xf3, 0x50, 0xe5, 0x3e, 0xda, 0xdc, 0x43, 0x75,
    0x3d, 0xb4, 0x02, 0x1b, 0xc8, 0xda, 0xda, 0xcf, 0xb0, 0xfe, 0x4a, 0x09,
    0x9d, 0x08, 0xc7, 0x66, 0x69, 0x3d, 0xb8, 0x06, 0xd7, 0x22, 0x46, 0xa4,
    0xa6, 0x31, 0x07, 0x06, 0x72, 0xe7, 0xf6, 0xc0, 0xc2, 0x8f, 0x22, 0xf0,
    0x1b, 0x1f, 0x06, 0xce, 0x3e, 0xf4, 0x51, 0xe6, 0x92, 0xf2, 0xd3, 0x52,
    0x2d, 0x26, 0x67, 0x3e, 0xd6, 0x4f, 0xe5, 0x17, 0xcd, 0xee, 0x1f, 0xdb,
    0xf9, 0xee, 0xda, 0xd9, 0x47, 0x77, 0x34, 0x6f, 0x55, 0x38, 0xeb, 0x43,
    0x00, 0xf6, 0x2c, 0xda, 0x6c, 0x99, 0xc0, 0x9f, 0x42, 0x46, 0x38, 0xc6,
    0x31, 0xcb, 0x13, 0x57, 0x01, 0x14, 0x16, 0xa7, 0x22, 0xfe, 0x9c, 0xc1,
    0x01, 0xd8, 0x47, 0x1f, 0xe4, 0xf2, 0x40, 0x98, 0x4f, 0x44, 0x29, 0x49,
    0x92, 0x42, 0x51, 0xf0, 0xfe, 0x7a, 0xf6, 0xa9, 0xfa, 0xb3, 0xf6, 0xaf,
    0xc2, 0x40, 0x0f, 0x12, 0x81, 0x9f, 0x47, 0x03, 0x78, 0xf1, 0xb0, 0x37,
    0x63, 0x5f, 0xe8, 0xd3, 0xa9, 0xe5, 0x2c, 0x9b, 0xed, 0xd7, 0xd4, 0x75,
    0x50, 0x40, 0x55, 0x05, 0x2e, 0xb1, 0x6b, 0xde, 0xe5, 0xbd, 0x18, 0x54,
    0xd3, 0xaa, 0x3b, 0x39, 0x41, 0x68, 0x73, 0xc3, 0xc3, 0x0c, 0xc6, 0xa6,
    0xfd, 0xdb, 0x67, 0x4b, 0xfc, 0x46, 0xeb, 0x30, 0x6b, 0x38, 0xc7, 0x3b,
    0xc8, 0xb6, 0x00, 0x25, 0x42, 0x38, 0xfb, 0x71, 0x59, 0xc6, 0x4e, 0xb6,
    0x0d, 0xcf, 0xfa, 0xdd, 0xf2, 0x0b, 0x06, 0xa1, 0x16, 0xd4, 0xb6, 0xe6,
    0xbe, 0x9d, 0xe6, 0xf4, 0x57, 0x2b, 0x11, 0x6f, 0xd0, 0xa8, 0x31, 0xa7,
    0xbc, 0xbb, 0x43, 0x32, 0xbc, 0x3b, 0xf7, 0xd4, 0x6e, 0xed, 0x03, 0xac,
    0x4b, 0xe4, 0x8a, 0xbf, 0x55, 0xad, 0xe1, 0x0c, 0xec, 0x4e, 0x9b, 0xc7,
    0xb4, 0xb5, 0xc3, 0xdd, 0x5a, 0x27, 0xde, 0x21, 0xff, 0xeb, 0xaa, 0xf6,
    0x22, 0x05, 0x20, 0xa1, 0x51, 0x29, 0xcc, 0xe4, 0xb7, 0x1a, 0x0c, 0xe8,
    0x2b, 0x0a, 0xeb, 0x3c, 0x4d, 0x47, 0x20, 0x03, 0x06, 0x44, 0x3d, 0x1e,
    0x1d, 0x0d, 0x46, 0x72, 0x3e, 0x17, 0xf9, 0x5e, 0x6c, 0x0f, 0xa5, 0xdb,
    0x9b, 0x42, 0xdd, 0xbb, 0xaa, 0xc8, 0x8f, 0x62, 0x04, 0x3a, 0x38, 0xd6,
    0xe7, 0x1f, 0x26, 0x31, 0xed, 0xce, 0x21, 0x3f, 0x15, 0xff, 0xb4, 0x47,
    0xe3, 0xdd, 0xdd, 0xbe, 0xa9, 0xaa, 0x99, 0x97, 0x9a, 0xcb, 0xfd, 0xbe,
    0x09, 0x05, 0xbb, 0x0e, 0x18, 0xc0, 0xad, 0x1d, 0x5b, 0xf5, 0x08, 0x03,
    0x02, 0xe2, 0x26, 0x16, 0xbf, 0xc6, 0x02, 0x6d, 0x28, 0x03, 0x88, 0x4a,
    0xa9, 0xad, 0x43, 0xf1, 0x22, 0x8e, 0xbe, 0x96, 0xfe, 0xf8, 0xa7, 0x00,
    0x54, 0x55, 0xc1, 0xb7, 0xe0, 0xb6, 0xbc, 0x8f, 0xa8, 0x1b, 0x18, 0x1f,
    0x28, 0xe7, 0xff, 0x9c, 0x5d, 0x22, 0x71, 0x49, 0x43, 0xda, 0x37, 0x1f,
    0x69, 0x0a, 0x51, 0xf8, 0xf5, 0xe6, 0xfd, 0x51, 0xa5, 0x46, 0x3c, 0x43,
    0xfa, 0xcf, 0x17, 0xcf, 0x03, 0xfc, 0x39, 0xcb, 0x5f, 0x4b, 0xfe, 0xdc,
    0xe8, 0x4e, 0x38, 0x3d, 0xc5, 0x36, 0x69, 0xc9, 0xea, 0x1e, 0xf0, 0x1c,
    0x05, 0xb6, 0x70, 0xbe, 0xfd, 0xbb, 0xeb, 0x8a, 0xc3, 0xc5, 0x44, 0xfe,
    0x50, 0x3f, 0x42, 0x73, 0xcd, 0xbd, 0xe4, 0xa9, 0xf7, 0x3c, 0x89, 0x0a,
    0x64, 0xb7, 0x00, 0x8f, 0xef, 0xe2, 0x90, 0x13, 0xc6, 0xd6, 0xce, 0xa3,
    0xb4, 0xf0, 0xcb, 0xd3, 0x24, 0x2f, 0x52, 0xd5, 0x63, 0x11, 0x43, 0xa9,
    0x96, 0x3e, 0xc6, 0x3d, 0x3d, 0xa1, 0x48, 0x46, 0x41, 0xb4, 0xf6, 0x14,
    0xce, 0x38, 0xae, 0x1c, 0x47, 0x04, 0x1a, 0x4c, 0xd3, 0x4a, 0xe8, 0x1e,
    0x09, 0xdf, 0x56, 0xdb, 0xcb, 0x59, 0xe4, 0x2a, 0xdf, 0xfc, 0x63, 0x46,
    0xc1, 0x32, 0x6f, 0xbd, 0xff, 0xff, 0x0b, 0x3b, 0xe4, 0xdb, 0x5c, 0xf7,
    0xfb, 0xc5, 0x59, 0xcd, 0xb2, 0xe5, 0xdd, 0xe5, 0xdf, 0x37, 0x12, 0x23,
    0x18, 0x91, 0xb2, 0xab, 0x29, 0xbd, 0x0e, 0xf3, 0x0b, 0x48, 0xdb, 0x42,
    0x0e, 0x04, 0x02, 0xc9, 0xaf, 0x9b, 0xf0, 0xdf, 0xb0, 0xb0, 0x3e, 0xea,
    0x06, 0xb1, 0x75, 0x22, 0x21, 0xe1, 0x39, 0x2c, 0x04, 0x6e, 0x04, 0xfe,
    0x4f, 0x3f, 0x02, 0xae, 0x98, 0xf3, 0x09, 0x15, 0xa3, 0x37, 0x5f, 0xc6,
    0xe8, 0xb8, 0x6c, 0x70, 0x8e, 0x04, 0x98, 0xf9, 0x64, 0x1d, 0x1a, 0xaa,
    0x02, 0xd4, 0x09, 0xd6, 0x45, 0x21, 0xfc, 0xb7, 0x04, 0x1e, 0x1b, 0xf8,
    0xc5, 0xc7, 0x47, 0xe3, 0xe2, 0xe6, 0x61, 0x56, 0x26, 0x4d, 0x28, 0x36,
    0x53, 0x61, 0xa9, 0x22, 0x53, 0xe1, 0xcb, 0x36, 0x55, 0x23, 0x51, 0xb1,
    0xa5, 0x04, 0xd4, 0x3e, 0x16, 0x01, 0xea, 0xfe, 0x44, 0x1e, 0x73, 0xb4,
    0x98, 0x26, 0xbf, 0xc3, 0xd3, 0x1a, 0x2c, 0x49, 0x0a, 0xdd, 0xb1, 0xca,
    0xe7, 0x55, 0xbd, 0x26, 0xff, 0x01, 0x22, 0xee, 0x6d, 0xfc, 0xb6, 0x29,
    0xad, 0x59, 0x49, 0xea, 0xe8, 0xec, 0x27, 0x02, 0x15, 0x3a, 0xab, 0x98,
    0xc1, 0x22, 0x5c, 0xe9, 0x41, 0x3f, 0x12, 0xe7, 0xbc, 0xc3, 0xa2, 0xd3,
    0xc6, 0x0c, 0xd3, 0x32, 0x43, 0xa7, 0xc2, 0xa8, 0x98, 0xbd, 0x2c, 0x66,
    0x0e, 0x3b, 0xeb, 0xdc, 0x59, 0xe1, 0xef, 0xf1, 0x35, 0x58, 0x28, 0x5f,
    0xc3, 0xb4, 0xb0, 0x9c, 0x8f, 0xc5, 0x14, 0x51, 0x87, 0xc7, 0x04, 0xa9,
    0xf4, 0x55, 0x6d, 0x29, 0x0f, 0xed, 0xd1, 0xe5, 0x37, 0x48, 0xb3, 0x72,
    0xfd, 0xa9, 0x00, 0xe3, 0xd7, 0xfc, 0xa1, 0x98, 0x51, 0xe8, 0x41, 0x31,
    0x4d, 0x53, 0x4f, 0x67, 0x3b, 0xa6, 0xc8, 0x20, 0x53, 0x1b, 0x55, 0x42,
    0x3c, 0xf6, 0x30, 0xd4, 0xbe, 0xff, 0xa7, 0x2d, 0xa3, 0x2e, 0x1d, 0x1f,
    0x33, 0x2f, 0x05, 0xa8, 0xae, 0xe2, 0xb0, 0xde, 0x2e, 0x31, 0x22, 0xef,
    0xfa, 0xf6, 0x4a, 0xed, 0xb4, 0xcb, 0x52, 0xfb, 0xb1, 0x62, 0xbe, 0x4a,
    0xb2, 0x22, 0xac, 0xca, 0x4b, 0x2b, 0xf3, 0xea, 0xe7, 0x56, 0x58, 0xad,
    0x32, 0xa6, 0x49, 0x9d, 0xc9, 0xaf, 0x79, 0xe9, 0xfd, 0x22, 0x70, 0xd5,
    0x18, 0xb4, 0x62, 0x16, 0x92, 0x68, 0xd6, 0x53, 0x72, 0xdd, 0x1d, 0x73,
    0xd7, 0xf7, 0x00, 0x9a, 0x8b, 0xec, 0x29, 0xd2, 0xb4, 0xc0, 0x69, 0x99,
    0xda, 0x1c, 0x53, 0xdd, 0x31, 0xd6, 0x66, 0x72, 0xf9, 0x07, 0x5e, 0x73,
    0x19, 0xa3, 0xe1, 0x33, 0x09, 0x1a, 0x94, 0xb6, 0x04, 0x03, 0x25, 0xa7,
    0xa6, 0x94, 0xc3, 0x46, 0x51, 0xd8, 0x40, 0xa8, 0x0d, 0xc5, 0xf5, 0xaf,
    0x18, 0x0e, 0x31, 0xac, 0x0b, 0x0f, 0x39, 0xea, 0x5f, 0xd0, 0xbf, 0xfa,
    0xac, 0xc0, 0x5e, 0xfd, 0xc1, 0x0e, 0x2b, 0x49, 0x3b, 0x2f, 0xb0, 0x5a,
    0x5c, 0x59, 0x17, 0x56, 0xe9, 0xca, 0x4a, 0x93, 0x24, 0x1e, 0xcc, 0x40,
    0xf3, 0x5a, 0xd5, 0x4c, 0xcb, 0x06, 0xf3, 0x39, 0x2e, 0xf7, 0xa5, 0xf6,
    0xfc, 0x56, 0x2a, 0xff, 0xd2, 0x13, 0x3e, 0xd8, 0x5e, 0xda, 0xdc, 0xb1,
    0x4a, 0xb0, 0xd4, 0xa2, 0xda, 0xa3, 0x75, 0x04, 0x5a, 0x61, 0xed, 0x38,
    0xd7, 0x44, 0xd8, 0xf4, 0x54, 0xa0, 0xca, 0x15, 0xcb, 0xe1, 0x10, 0x4c,
    0x9e, 0x47, 0x94, 0xdc, 0x1c, 0x63, 0xd3, 0xbb, 0x5d, 0xb6, 0xcc, 0xf0,
    0xeb, 0xec, 0xe2, 0x33, 0x4c, 0x28, 0x3a, 0xfc, 0xec, 0xa6, 0x39, 0xb3,
    0x16, 0xc6, 0xb2, 0xad, 0x0e, 0x3d, 0xa8, 0x29, 0x62, 0xb2, 0xd1, 0x22,
    0x2c, 0x41, 0xab, 0x65, 0x04, 0x11, 0x55, 0x73, 0x36, 0x0b, 0xe8, 0x45,
    0xae, 0x5e, 0xd8, 0xe1, 0x55, 0xdd, 0xba, 0xc0, 0x4b, 0xd9, 0x3f, 0x43,
    0x9a, 0xca, 0xae, 0x0b, 0xc2, 0xb2, 0xe0, 0x34, 0x25, 0xb5, 0x38, 0xfb,
    0x4a, 0x46, 0xc7, 0xdc, 0xe3, 0xea, 0xdc, 0xd0, 0x4b, 0x43, 0x0c, 0x32,
    0xc9, 0x52, 0xdb, 0x37, 0x49, 0x11, 0xea, 0xec, 0xea, 0xa0, 0xd6, 0x31,
    0xbc, 0x9a, 0x99, 0x9b, 0x01, 0x50, 0xc9, 0x1c, 0x17, 0x4a, 0xc5, 0x3f,
    0x01, 0x58, 0xdb, 0x44, 0x4b, 0x56, 0xfa, 0xee, 0x8e, 0xee, 0xa1, 0x41,
    0x6e, 0x47, 0x30, 0x59, 0xcb, 0x10, 0xd4, 0x41, 0x08, 0x3a, 0x36, 0x9e,
    0xaf, 0x02, 0x8d, 0x70, 0xbf, 0x5a, 0xf2, 0x27, 0x40, 0x50, 0x23, 0xd2,
    0x11, 0xf1, 0x15, 0xca, 0x22, 0xc3, 0x6b, 0xcc, 0x90, 0xea, 0xd0, 0xad,
    0xcb, 0x2f, 0xc5, 0x3e, 0xb3, 0xfc, 0xd7, 0x1c, 0x90, 0x04, 0xa2, 0x55,
    0x09, 0x2e, 0xa3, 0x1c, 0x5d, 0x9b, 0xeb, 0xac, 0x58, 0xe2, 0xd4, 0x39,
    0xf7, 0x16, 0x94, 0x4c, 0x12, 0xc5, 0x48, 0x00, 0x70, 0x25, 0x46, 0xd4,
    0x97, 0xf4, 0x14, 0x0d, 0x63, 0x9e, 0xa9, 0x6a, 0x3c, 0x0b, 0x90, 0xad,
    0x6f, 0xb5, 0x62, 0xab, 0xfe, 0x1f, 0x28, 0xc4, 0x38, 0x40, 0x31, 0x4c,
    0x63, 0xb3, 0x45, 0x41, 0xbd, 0xf9, 0xc8, 0xcd, 0x5b, 0x91, 0x02, 0xb1,
    0x0f, 0xce, 0x2f, 0x88, 0xab, 0xc3, 0xdf, 0xbd, 0xb4, 0x4c, 0x51, 0x26,
    0xf4, 0x1b, 0x1e, 0xc1, 0x93, 0xcf, 0x8d, 0x16, 0x3b, 0x19, 0x0e, 0x19,
    0xdd, 0xe2, 0xcd, 0x2e, 0x93, 0xa7, 0x94, 0x13, 0x32, 0xe2, 0x21, 0xcd,
    0xaa, 0x61, 0x2e, 0xe3, 0x2d, 0x43, 0x2c, 0xd1, 0xcc, 0x44, 0x4b, 0x58,
    0x16, 0xfb, 0x6f, 0x31, 0x9e, 0xc2, 0xe1, 0xfc, 0x9f, 0xd5, 0x64, 0x1b,
    0x58, 0xd6, 0x22, 0xdc, 0xdd, 0xa5, 0x43, 0xbf, 0x03, 0xfe, 0xc4, 0x46,
    0x93, 0x67, 0xe3, 0x64, 0x52, 0xe3, 0x68, 0x16, 0x08, 0xf7, 0x13, 0xc0,
    0x01, 0xa4, 0x55, 0xa3, 0x13, 0x41, 0xf7, 0x42, 0x19, 0x10, 0x25, 0xb2,
    0x97, 0x14, 0xed, 0x72, 0x6e, 0x0f, 0x50, 0xaa, 0x6b, 0x05, 0xf5, 0x43,
    0xa1, 0xc1, 0x30, 0x19, 0x56, 0xfc, 0xff, 0xff, 0x04, 0x00, 0x00, 0x00,
    0x00, 0x02, 0x00, 0x00, 0xca, 0xf2, 0xff, 0xff, 0xf7, 0xff, 0xff, 0xff,
    0x4f, 0x11, 0x00, 0x00, 0x6f, 0x12, 0x00, 0x00, 0x03, 0xf7, 0xff, 0xff,
    0x5c, 0xfa, 0xff, 0xff, 0x4b, 0x09, 0x00, 0x00, 0x9e, 0xf7, 0xff, 0xff,
    0xb1, 0x16, 0x00, 0x00, 0xe9, 0x07, 0x00, 0x00, 0x58, 0x06, 0x00, 0x00,
    0x78, 0xf0, 0xff, 0xff, 0xfe, 0xf7, 0xff, 0xff, 0x61, 0xfd, 0xff, 0xff,
    0xf7, 0x09, 0x00, 0x00, 0xf8, 0x0e, 0x00, 0x00, 0xab, 0xfa, 0xff, 0xff,
    0xa5, 0x03, 0x00, 0x00, 0xdc, 0xf6, 0xff, 0xff, 0xc8, 0x08, 0x00, 0x00,
    0x18, 0xf6, 0xff, 0xff, 0x2a, 0x06, 0x00, 0x00, 0x54, 0x02, 0x00, 0x00,
    0xaa, 0x04, 0x00, 0x00, 0x68, 0x0a, 0x00, 0x00, 0x13, 0x04, 0x00, 0x00,
    0xf8, 0xec, 0xff, 0xff, 0x73, 0xf9, 0xff, 0xff, 0x8c, 0xfa, 0xff, 0xff,
    0x5a, 0x17, 0x00, 0x00, 0x8a, 0x12, 0x00, 0x00, 0x24, 0x11, 0x00, 0x00,
    0x09, 0xf7, 0xff, 0xff, 0x4c, 0x0d, 0x00, 0x00, 0x88, 0x06, 0x00, 0x00,
    0xfe, 0x04, 0x00, 0x00, 0xdc, 0x09, 0x00, 0x00, 0x73, 0x0b, 0x00, 0x00,
    0x0a, 0xf9, 0xff, 0xff, 0x75, 0xf6, 0xff, 0xff, 0x5a, 0xf9, 0xff, 0xff,
    0x14, 0xfe, 0xff, 0xff, 0x46, 0xf5, 0xff, 0xff, 0xe1, 0x0e, 0x00, 0x00,
    0x34, 0x0c, 0x00, 0x00, 0xb6, 0xef, 0xff, 0xff, 0x2e, 0x12, 0x00, 0x00,
    0x6a, 0x0f, 0x00, 0x00, 0x4f, 0xef, 0xff, 0xff, 0x21, 0x09, 0x00, 0x00,
    0x22, 0x07, 0x00, 0x00, 0x2e, 0xec, 0xff, 0xff, 0xfd, 0x0f, 0x00, 0x00,
    0x66, 0xfd, 0xff, 0xff, 0x91, 0x07, 0x00, 0x00, 0xbf, 0x03, 0x00, 0x00,
    0xfa, 0x0e, 0x00, 0x00, 0x30, 0xff, 0xff, 0xff, 0x65, 0x14, 0x00, 0x00,
    0x6c, 0x0a, 0x00, 0x00, 0x04, 0x0f, 0x00, 0x00, 0xfc, 0xf6, 0xff, 0xff,
    0xf4, 0xef, 0xff, 0xff, 0x24, 0x06, 0x00, 0x00, 0x31, 0x15, 0x00, 0x00,
    0xb7, 0xee, 0xff, 0xff, 0xab, 0xfe, 0xff, 0xff, 0xbe, 0x01, 0x00, 0x00,
    0x13, 0xf8, 0xff, 0xff, 0x29, 0x09, 0x00, 0x00, 0x86, 0x01, 0x00, 0x00,
    0x4d, 0x06, 0x00, 0x00, 0x49, 0x06, 0x00, 0x00, 0x82, 0x07, 0x00, 0x00,
    0x1d, 0xf4, 0xff, 0xff, 0x7d, 0xf9, 0xff, 0xff, 0x1f, 0x11, 0x00, 0x00,
    0xc9, 0x13, 0x00, 0x00, 0xce, 0xf1, 0xff, 0xff, 0x2e, 0xf5, 0xff, 0xff,
    0xb6, 0xef, 0xff, 0xff, 0x28, 0x10, 0x00, 0x00, 0xaf, 0xfe, 0xff, 0xff,
    0xe9, 0xf7, 0xff, 0xff, 0x77, 0xf1, 0xff, 0xff, 0xef, 0xf7, 0xff, 0xff,
    0x28, 0x08, 0x00, 0x00, 0x06, 0xfd, 0xff, 0xff, 0x27, 0x09, 0x00, 0x00,
    0xb6, 0xf7, 0xff, 0xff, 0x6e, 0x03, 0x00, 0x00, 0xc0, 0x06, 0x00, 0x00,
    0x88, 0x07, 0x00, 0x00, 0x03, 0xf6, 0xff, 0xff, 0x01, 0x09, 0x00, 0x00,
    0xa5, 0x0d, 0x00, 0x00, 0xda, 0xf5, 0xff, 0xff, 0xf5, 0x01, 0x00, 0x00,
    0x4b, 0x11, 0x00, 0x00, 0x6a, 0x02, 0x00, 0x00, 0x94, 0x0c, 0x00, 0x00,
    0xcd, 0xfb, 0xff, 0xff, 0x82, 0x00, 0x00, 0x00, 0x24, 0x09, 0x00, 0x00,
    0x78, 0xed, 0xff, 0xff, 0x59, 0x04, 0x00, 0x00, 0x17, 0x10, 0x00, 0x00,
    0x2e, 0xf2, 0xff, 0xff, 0x43, 0x12, 0x00, 0x00, 0x11, 0x0a, 0x00, 0x00,
    0x11, 0x03, 0x00, 0x00, 0xaa, 0xe9, 0xff, 0xff, 0xcd, 0x08, 0x00, 0x00,
    0x17, 0xf6, 0xff, 0xff, 0xc5, 0xf5, 0xff, 0xff, 0x2d, 0xf1, 0xff, 0xff,
    0xb8, 0xf2, 0xff, 0xff, 0xde, 0x00, 0x00, 0x00, 0xf6, 0x10, 0x00, 0x00,
    0x1f, 0xec, 0xff, 0xff, 0x71, 0xee, 0xff, 0xff, 0xc0, 0x05, 0x00, 0x00,
    0x69, 0x10, 0x00, 0x00, 0x30, 0xfd, 0xff, 0xff, 0x20, 0xff, 0xff, 0xff,
    0x1c, 0x18, 0x00, 0x00, 0xa4, 0x05, 0x00, 0x00, 0xd8, 0xfd, 0xff, 0xff,
    0x62, 0xfe, 0xff, 0xff, 0x04, 0x00, 0x00, 0x00, 0x00, 0x01, 0x00, 0x00,
    0x8f, 0x8a, 0xf5, 0x18, 0x69, 0xde, 0xb8, 0x58, 0xb8, 0xd2, 0xc7, 0x19,
    0x27, 0x07, 0xa6, 0x35, 0x63, 0xe7, 0xdc, 0x48, 0x32, 0x16, 0x43, 0xa0,
    0x18, 0x26, 0x45, 0xd5, 0x3a, 0xc0, 0xd5, 0xcd, 0xc6, 0x56, 0x9e, 0xd5,
    0xcb, 0xd6, 0x36, 0x15, 0xde, 0x28, 0x88, 0x0b, 0x6e, 0xc6, 0xa6, 0x87,
    0x6a, 0xc0, 0xfc, 0x15, 0x58, 0xc9, 0x04, 0x81, 0xf2, 0xac, 0x63, 0xeb,
    0xdc, 0x69, 0x49, 0x3c, 0x3d, 0x5a, 0x5c, 0x24, 0xf0, 0x5b, 0x28, 0xce,
    0x8f, 0xc4, 0x14, 0x9d, 0x4a, 0xe3, 0xfa, 0xef, 0x33, 0x8c, 0x10, 0x2a,
    0xec, 0x24, 0xb4, 0xa6, 0xf3, 0xb5, 0xc3, 0x9e, 0x7b, 0x3e, 0x29, 0xd1,
    0x39, 0xa3, 0x05, 0xe6, 0xf7, 0x05, 0xb7, 0x8e, 0x63, 0x8c, 0x0b, 0xc6,
    0xe0, 0x0b, 0xc9, 0xee, 0x7c, 0xc6, 0x0b, 0x7e, 0x8c, 0x78, 0x78, 0x18,
    0x3d, 0xef, 0x0d, 0xa6, 0xb5, 0x9f, 0x93, 0x60, 0xd2, 0x4d, 0xd9, 0xf2,
    0xe0, 0x43, 0x30, 0xfd, 0x42, 0x38, 0xf3, 0x43, 0xc0, 0x63, 0x53, 0x2c,
    0xcb, 0x7c, 0xf7, 0x03, 0xed, 0x07, 0xd1, 0x04, 0x0a, 0xbd, 0x0a, 0x48,
    0xb4, 0x21, 0xdd, 0x01, 0x57, 0xeb, 0x36, 0xab, 0x1e, 0x61, 0xf8, 0xc7,
    0x91, 0x6f, 0x43, 0xbc, 0x91, 0x1c, 0x34, 0x10, 0xe5, 0x75, 0x63, 0xa7,
    0x9b, 0x26, 0x4c, 0x08, 0x78, 0xdb, 0x87, 0x6e, 0x22, 0x9c, 0x08, 0x25,
    0xde, 0xf1, 0xeb, 0xc8, 0x87, 0xf4, 0x49, 0xe0, 0x4e, 0x77, 0x8d, 0x54,
    0xbe, 0x47, 0x5e, 0xc3, 0x90, 0x38, 0x65, 0xcb, 0x41, 0xcc, 0x59, 0x2d,
    0x9d, 0xcc, 0xbe, 0x05, 0xbe, 0x1c, 0x24, 0x23, 0x20, 0x3e, 0xc8, 0x51,
    0xc8, 0xe2, 0x78, 0x72, 0x9e, 0x7d, 0xc7, 0x61, 0x10, 0xc9, 0x01, 0xcb,
    0x8f, 0xb5, 0x81, 0x95, 0x3d, 0xad, 0xf8, 0xe4, 0xab, 0x66, 0x9f, 0x58,
    0xf1, 0xee, 0x3d, 0x92, 0x6e, 0xff, 0xff, 0xff, 0x04, 0x00, 0x00, 0x00,
    0x08, 0x00, 0x00, 0x00, 0x51, 0xeb, 0xff, 0xff, 0xa9, 0x00, 0x00, 0x00,
    0x82, 0xff, 0xff, 0xff, 0x04, 0x00, 0x00, 0x00, 0x08, 0x00, 0x00, 0x00,
    0x01, 0x00, 0x00, 0x00, 0x10, 0x00, 0x00, 0x00, 0x96, 0xff, 0xff, 0xff,
    0x04, 0x00, 0x00, 0x00, 0x08, 0x00, 0x00, 0x00, 0x02, 0x00, 0x00, 0x00,
    0x03, 0x00, 0x00, 0x00, 0xaa, 0xff, 0xff, 0xff, 0x04, 0x00, 0x00, 0x00,
    0x10, 0x00, 0x00, 0x00, 0x00, 0x00, 0x00, 0x00, 0x02, 0x00, 0x00, 0x00,
    0x03, 0x00, 0x00, 0x00, 0x01, 0x00, 0x00, 0x00, 0xc6, 0xff, 0xff, 0xff,
    0x04, 0x00, 0x00, 0x00, 0x10, 0x00, 0x00, 0x00, 0x00, 0x00, 0x00, 0x00,
    0x03, 0x00, 0x00, 0x00, 0x01, 0x00, 0x00, 0x00, 0x02, 0x00, 0x00, 0x00,
    0xe2, 0xff, 0xff, 0xff, 0x04, 0x00, 0x00, 0x00, 0x10, 0x00, 0x00, 0x00,
    0x01, 0x00, 0x00, 0x00, 0x2a, 0x00, 0x00, 0x00, 0x1c, 0x00, 0x00, 0x00,
    0x01, 0x00, 0x00, 0x00, 0x00, 0x00, 0x06, 0x00, 0x08, 0x00, 0x04, 0x00,
    0x06, 0x00, 0x00, 0x00, 0x04, 0x00, 0x00, 0x00, 0x20, 0x00, 0x00, 0x00,
    0x00, 0x00, 0x00, 0x00, 0x00, 0x00, 0x00, 0x00, 0x00, 0x00, 0x00, 0x00,
    0x00, 0x00, 0x00, 0x00, 0x01, 0x00, 0x00, 0x00, 0x01, 0x00, 0x00, 0x00,
    0x01, 0x00, 0x00, 0x00, 0x01, 0x00, 0x00, 0x00, 0x74, 0xd1, 0xff, 0xff,
    0x78, 0xd1, 0xff, 0xff, 0x0f, 0x00, 0x00, 0x00, 0x4d, 0x4c, 0x49, 0x52,
    0x20, 0x43, 0x6f, 0x6e, 0x76, 0x65, 0x72, 0x74, 0x65, 0x64, 0x2e, 0x00,
    0x01, 0x00, 0x00, 0x00, 0x14, 0x00, 0x00, 0x00, 0x00, 0x00, 0x0e, 0x00,
    0x18, 0x00, 0x14, 0x00, 0x10, 0x00, 0x0c, 0x00, 0x08, 0x00, 0x04, 0x00,
    0x0e, 0x00, 0x00, 0x00, 0x14, 0x00, 0x00, 0x00, 0x1c, 0x00, 0x00, 0x00,
    0x70, 0x08, 0x00, 0x00, 0x74, 0x08, 0x00, 0x00, 0x78, 0x08, 0x00, 0x00,
    0x04, 0x00, 0x00, 0x00, 0x6d, 0x61, 0x69, 0x6e, 0x00, 0x00, 0x00, 0x00,
    0x29, 0x00, 0x00, 0x00, 0x28, 0x08, 0x00, 0x00, 0xf0, 0x07, 0x00, 0x00,
    0x94, 0x07, 0x00, 0x00, 0x5c, 0x07, 0x00, 0x00, 0x28, 0x07, 0x00, 0x00,
    0xf4, 0x06, 0x00, 0x00, 0xcc, 0x06, 0x00, 0x00, 0xa8, 0x06, 0x00, 0x00,
    0x74, 0x06, 0x00, 0x00, 0x44, 0x06, 0x00, 0x00, 0x1c, 0x06, 0x00, 0x00,
    0xc8, 0x05, 0x00, 0x00, 0xa0, 0x05, 0x00, 0x00, 0x70, 0x05, 0x00, 0x00,
    0x48, 0x05, 0x00, 0x00, 0xec, 0x04, 0x00, 0x00, 0xa8, 0x04, 0x00, 0x00,
    0x80, 0x04, 0x00, 0x00, 0x50, 0x04, 0x00, 0x00, 0x28, 0x04, 0x00, 0x00,
    0xe4, 0x03, 0x00, 0x00, 0xbc, 0x03, 0x00, 0x00, 0x88, 0x03, 0x00, 0x00,
    0x54, 0x03, 0x00, 0x00, 0x2c, 0x03, 0x00, 0x00, 0x08, 0x03, 0x00, 0x00,
    0xd4, 0x02, 0x00, 0x00, 0xa4, 0x02, 0x00, 0x00, 0x7c, 0x02, 0x00, 0x00,
    0x30, 0x02, 0x00, 0x00, 0xec, 0x01, 0x00, 0x00, 0xc4, 0x01, 0x00, 0x00,
    0x84, 0x01, 0x00, 0x00, 0x5c, 0x01, 0x00, 0x00, 0x24, 0x01, 0x00, 0x00,
    0xf0, 0x00, 0x00, 0x00, 0xbc, 0x00, 0x00, 0x00, 0x94, 0x00, 0x00, 0x00,
    0x70, 0x00, 0x00, 0x00, 0x3c, 0x00, 0x00, 0x00, 0x04, 0x00, 0x00, 0x00,
    0x16, 0xf9, 0xff, 0xff, 0x14, 0x00, 0x00, 0x00, 0x00, 0x00, 0x00, 0x08,
    0x10, 0x00, 0x00, 0x00, 0x14, 0x00, 0x00, 0x00, 0x0a, 0x00, 0x00, 0x00,
    0x8c, 0xd2, 0xff, 0xff, 0x01, 0x00, 0x00, 0x00, 0x46, 0x00, 0x00, 0x00,
    0x03, 0x00, 0x00, 0x00, 0x45, 0x00, 0x00, 0x00, 0x08, 0x00, 0x00, 0x00,
    0x07, 0x00, 0x00, 0x00, 0x4a, 0xf9, 0xff, 0xff, 0x14, 0x00, 0x00, 0x00,
    0x00, 0x00, 0x00, 0x15, 0x10, 0x00, 0x00, 0x00, 0x14, 0x00, 0x00, 0x00,
    0x04, 0x00, 0x00, 0x00, 0xc0, 0xd2, 0xff, 0xff, 0x01, 0x00, 0x00, 0x00,
    0x45, 0x00, 0x00, 0x00, 0x02, 0x00, 0x00, 0x00, 0x40, 0x00, 0x00, 0x00,
    0x44, 0x00, 0x00, 0x00, 0x1e, 0xf9, 0xff, 0xff, 0x0c, 0x00, 0x00, 0x00,
    0x10, 0x00, 0x00, 0x00, 0x07, 0x00, 0x00, 0x00, 0x01, 0x00, 0x00, 0x00,
    0x44, 0x00, 0x00, 0x00, 0x01, 0x00, 0x00, 0x00, 0x43, 0x00, 0x00, 0x00,
    0x3e, 0xf9, 0xff, 0xff, 0x0c, 0x00, 0x00, 0x00, 0x10, 0x00, 0x00, 0x00,
    0x06, 0x00, 0x00, 0x00, 0x01, 0x00, 0x00, 0x00, 0x43, 0x00, 0x00, 0x00,
    0x02, 0x00, 0x00, 0x00, 0x42, 0x00, 0x00, 0x00, 0x19, 0x00, 0x00, 0x00,
    0xbe, 0xf9, 0xff, 0xff, 0x14, 0x00, 0x00, 0x00, 0x00, 0x00, 0x00, 0x0b,
    0x10, 0x00, 0x00, 0x00, 0x14, 0x00, 0x00, 0x00, 0x05, 0x00, 0x00, 0x00,
    0x34, 0xd3, 0xff, 0xff, 0x01, 0x00, 0x00, 0x00, 0x42, 0x00, 0x00, 0x00,
    0x02, 0x00, 0x00, 0x00, 0x41, 0x00, 0x00, 0x00, 0x1a, 0x00, 0x00, 0x00,
    0xee, 0xf9, 0xff, 0xff, 0x14, 0x00, 0x00, 0x00, 0x00, 0x00, 0x00, 0x15,
    0x10, 0x00, 0x00, 0x00, 0x14, 0x00, 0x00, 0x00, 0x04, 0x00, 0x00, 0x00,
    0x64, 0xd3, 0xff, 0xff, 0x01, 0x00, 0x00, 0x00, 0x41, 0x00, 0x00, 0x00,
    0x02, 0x00, 0x00, 0x00, 0x40, 0x00, 0x00, 0x00, 0x1b, 0x00, 0x00, 0x00,
    0x1e, 0xfa, 0xff, 0xff, 0x14, 0x00, 0x00, 0x00, 0x00, 0x00, 0x00, 0x08,
    0x10, 0x00, 0x00, 0x00, 0x14, 0x00, 0x00, 0x00, 0x0a, 0x00, 0x00, 0x00,
    0x94, 0xd3, 0xff, 0xff, 0x01, 0x00, 0x00, 0x00, 0x40, 0x00, 0x00, 0x00,
    0x03, 0x00, 0x00, 0x00, 0x3f, 0x00, 0x00, 0x00, 0x0a, 0x00, 0x00, 0x00,
    0x09, 0x00, 0x00, 0x00, 0xf6, 0xf9, 0xff, 0xff, 0x0c, 0x00, 0x00, 0x00,
    0x10, 0x00, 0x00, 0x00, 0x01, 0x00, 0x00, 0x00, 0x01, 0x00, 0x00, 0x00,
    0x3f, 0x00, 0x00, 0x00, 0x02, 0x00, 0x00, 0x00, 0x3e, 0x00, 0x00, 0x00,
    0x06, 0x00, 0x00, 0x00, 0x76, 0xfa, 0xff, 0xff, 0x1c, 0x00, 0x00, 0x00,
    0x00, 0x00, 0x00, 0x1b, 0x1c, 0x00, 0x00, 0x00, 0x20, 0x00, 0x00, 0x00,
    0x09, 0x00, 0x00, 0x00, 0x00, 0x00, 0x06, 0x00, 0x08, 0x00, 0x07, 0x00,
    0x06, 0x00, 0x00, 0x00, 0x00, 0x00, 0x00, 0x01, 0x01, 0x00, 0x00, 0x00,
    0x3e, 0x00, 0x00, 0x00, 0x02, 0x00, 0x00, 0x00, 0x3d, 0x00, 0x00, 0x00,
    0x05, 0x00, 0x00, 0x00, 0x56, 0xfa, 0xff, 0xff, 0x0c, 0x00, 0x00, 0x00,
    0x10, 0x00, 0x00, 0x00, 0x03, 0x00, 0x00, 0x00, 0x01, 0x00, 0x00, 0x00,
    0x3d, 0x00, 0x00, 0x00, 0x02, 0x00, 0x00, 0x00, 0x3c, 0x00, 0x00, 0x00,
    0x03, 0x00, 0x00, 0x00, 0xd6, 0xfa, 0xff, 0xff, 0x14, 0x00, 0x00, 0x00,
    0x00, 0x00, 0x00, 0x01, 0x1c, 0x00, 0x00, 0x00, 0x20, 0x00, 0x00, 0x00,
    0x02, 0x00, 0x00, 0x00, 0xc6, 0xfa, 0xff, 0xff, 0x01, 0x00, 0x00, 0x00,
    0x01, 0x00, 0x00, 0x00, 0x00, 0x00, 0x00, 0x01, 0x01, 0x00, 0x00, 0x00,
    0x3c, 0x00, 0x00, 0x00, 0x03, 0x00, 0x00, 0x00, 0x3b, 0x00, 0x00, 0x00,
    0x0c, 0x00, 0x00, 0x00, 0x0b, 0x00, 0x00, 0x00, 0x16, 0xfb, 0xff, 0xff,
    0x14, 0x00, 0x00, 0x00, 0x00, 0x00, 0x00, 0x02, 0x24, 0x00, 0x00, 0x00,
    0x28, 0x00, 0x00, 0x00, 0x08, 0x00, 0x00, 0x00, 0x7a, 0xfd, 0xff, 0xff,
    0x00, 0x00, 0x00, 0x01, 0x01, 0x00, 0x00, 0x00, 0x01, 0x00, 0x00, 0x00,
    0x01, 0x00, 0x00, 0x00, 0x00, 0x00, 0x00, 0x01, 0x01, 0x00, 0x00, 0x00,
    0x3b, 0x00, 0x00, 0x00, 0x03, 0x00, 0x00, 0x00, 0x3a, 0x00, 0x00, 0x00,
    0x0e, 0x00, 0x00, 0x00, 0x0d, 0x00, 0x00, 0x00, 0x02, 0xfb, 0xff, 0xff,
    0x0c, 0x00, 0x00, 0x00, 0x10, 0x00, 0x00, 0x00, 0x03, 0x00, 0x00, 0x00,
    0x01, 0x00, 0x00, 0x00, 0x3a, 0x00, 0x00, 0x00, 0x02, 0x00, 0x00, 0x00,
    0x39, 0x00, 0x00, 0x00, 0x04, 0x00, 0x00, 0x00, 0xf6, 0xfa, 0xff, 0xff,
    0x10, 0x00, 0x00, 0x00, 0x00, 0x00, 0x00, 0x16, 0x0c, 0x00, 0x00, 0x00,
    0x10, 0x00, 0x00, 0x00, 0xf4, 0xd4, 0xff, 0xff, 0x01, 0x00, 0x00, 0x00,
    0x39, 0x00, 0x00, 0x00, 0x02, 0x00, 0x00, 0x00, 0x38, 0x00, 0x00, 0x00,
    0x01, 0x00, 0x00, 0x00, 0xae, 0xfb, 0xff, 0xff, 0x14, 0x00, 0x00, 0x00,
    0x00, 0x00, 0x00, 0x15, 0x10, 0x00, 0x00, 0x00, 0x14, 0x00, 0x00, 0x00,
    0x04, 0x00, 0x00, 0x00, 0x24, 0xd5, 0xff, 0xff, 0x01, 0x00, 0x00, 0x00,
    0x38, 0x00, 0x00, 0x00, 0x02, 0x00, 0x00, 0x00, 0x33, 0x00, 0x00, 0x00,
    0x37, 0x00, 0x00, 0x00, 0x82, 0xfb, 0xff, 0xff, 0x0c, 0x00, 0x00, 0x00,
    0x10, 0x00, 0x00, 0x00, 0x07, 0x00, 0x00, 0x00, 0x01, 0x00, 0x00, 0x00,
    0x37, 0x00, 0x00, 0x00, 0x01, 0x00, 0x00, 0x00, 0x36, 0x00, 0x00, 0x00,
    0xa2, 0xfb, 0xff, 0xff, 0x0c, 0x00, 0x00, 0x00, 0x10, 0x00, 0x00, 0x00,
    0x06, 0x00, 0x00, 0x00, 0x01, 0x00, 0x00, 0x00, 0x36, 0x00, 0x00, 0x00,
    0x02, 0x00, 0x00, 0x00, 0x35, 0x00, 0x00, 0x00, 0x18, 0x00, 0x00, 0x00,
    0x22, 0xfc, 0xff, 0xff, 0x14, 0x00, 0x00, 0x00, 0x00, 0x00, 0x00, 0x0b,
    0x10, 0x00, 0x00, 0x00, 0x14, 0x00, 0x00, 0x00, 0x05, 0x00, 0x00, 0x00,
    0x98, 0xd5, 0xff, 0xff, 0x01, 0x00, 0x00, 0x00, 0x35, 0x00, 0x00, 0x00,
    0x02, 0x00, 0x00, 0x00, 0x34, 0x00, 0x00, 0x00, 0x1a, 0x00, 0x00, 0x00,
    0x52, 0xfc, 0xff, 0xff, 0x14, 0x00, 0x00, 0x00, 0x00, 0x00, 0x00, 0x15,
    0x10, 0x00, 0x00, 0x00, 0x14, 0x00, 0x00, 0x00, 0x04, 0x00, 0x00, 0x00,
    0xc8, 0xd5, 0xff, 0xff, 0x01, 0x00, 0x00, 0x00, 0x34, 0x00, 0x00, 0x00,
    0x02, 0x00, 0x00, 0x00, 0x33, 0x00, 0x00, 0x00, 0x1b, 0x00, 0x00, 0x00,
    0x26, 0xfc, 0xff, 0xff, 0x0c, 0x00, 0x00, 0x00, 0x10, 0x00, 0x00, 0x00,
    0x03, 0x00, 0x00, 0x00, 0x01, 0x00, 0x00, 0x00, 0x33, 0x00, 0x00, 0x00,
    0x02, 0x00, 0x00, 0x00, 0x32, 0x00, 0x00, 0x00, 0x03, 0x00, 0x00, 0x00,
    0xa6, 0xfc, 0xff, 0xff, 0x14, 0x00, 0x00, 0x00, 0x00, 0x00, 0x00, 0x01,
    0x1c, 0x00, 0x00, 0x00, 0x20, 0x00, 0x00, 0x00, 0x02, 0x00, 0x00, 0x00,
    0x96, 0xfc, 0xff, 0xff, 0x02, 0x00, 0x00, 0x00, 0x02, 0x00, 0x00, 0x00,
    0x00, 0x00, 0x00, 0x01, 0x01, 0x00, 0x00, 0x00, 0x32, 0x00, 0x00, 0x00,
    0x03, 0x00, 0x00, 0x00, 0x31, 0x00, 0x00, 0x00, 0x10, 0x00, 0x00, 0x00,
    0x0f, 0x00, 0x00, 0x00, 0x8a, 0xfc, 0xff, 0xff, 0x0c, 0x00, 0x00, 0x00,
    0x10, 0x00, 0x00, 0x00, 0x03, 0x00, 0x00, 0x00, 0x01, 0x00, 0x00, 0x00,
    0x31, 0x00, 0x00, 0x00, 0x02, 0x00, 0x00, 0x00, 0x30, 0x00, 0x00, 0x00,
    0x04, 0x00, 0x00, 0x00, 0x7e, 0xfc, 0xff, 0xff, 0x10, 0x00, 0x00, 0x00,
    0x00, 0x00, 0x00, 0x16, 0x0c, 0x00, 0x00, 0x00, 0x10, 0x00, 0x00, 0x00,
    0x7c, 0xd6, 0xff, 0xff, 0x01, 0x00, 0x00, 0x00, 0x30, 0x00, 0x00, 0x00,
    0x02, 0x00, 0x00, 0x00, 0x2f, 0x00, 0x00, 0x00, 0x01, 0x00, 0x00, 0x00,
    0xda, 0xfc, 0xff, 0xff, 0x0c, 0x00, 0x00, 0x00, 0x10, 0x00, 0x00, 0x00,
    0x03, 0x00, 0x00, 0x00, 0x01, 0x00, 0x00, 0x00, 0x2f, 0x00, 0x00, 0x00,
    0x02, 0x00, 0x00, 0x00, 0x2e, 0x00, 0x00, 0x00, 0x03, 0x00, 0x00, 0x00,
    0x5a, 0xfd, 0xff, 0xff, 0x14, 0x00, 0x00, 0x00, 0x00, 0x00, 0x00, 0x01,
    0x1c, 0x00, 0x00, 0x00, 0x20, 0x00, 0x00, 0x00, 0x02, 0x00, 0x00, 0x00,
    0x4a, 0xfd, 0xff, 0xff, 0x01, 0x00, 0x00, 0x00, 0x01, 0x00, 0x00, 0x00,
    0x00, 0x00, 0x00, 0x01, 0x01, 0x00, 0x00, 0x00, 0x2e, 0x00, 0x00, 0x00,
    0x03, 0x00, 0x00, 0x00, 0x2d, 0x00, 0x00, 0x00, 0x12, 0x00, 0x00, 0x00,
    0x11, 0x00, 0x00, 0x00, 0x9a, 0xfd, 0xff, 0xff, 0x24, 0x00, 0x00, 0x00,
    0x00, 0x00, 0x00, 0x02, 0x34, 0x00, 0x00, 0x00, 0x38, 0x00, 0x00, 0x00,
    0x08, 0x00, 0x00, 0x00, 0x00, 0x00, 0x0e, 0x00, 0x18, 0x00, 0x17, 0x00,
    0x10, 0x00, 0x0c, 0x00, 0x08, 0x00, 0x07, 0x00, 0x0e, 0x00, 0x00, 0x00,
    0x00, 0x00, 0x00, 0x01, 0x01, 0x00, 0x00, 0x00, 0x01, 0x00, 0x00, 0x00,
    0x01, 0x00, 0x00, 0x00, 0x00, 0x00, 0x00, 0x01, 0x01, 0x00, 0x00, 0x00,
    0x2d, 0x00, 0x00, 0x00, 0x03, 0x00, 0x00, 0x00, 0x2c, 0x00, 0x00, 0x00,
    0x14, 0x00, 0x00, 0x00, 0x13, 0x00, 0x00, 0x00, 0x96, 0xfd, 0xff, 0xff,
    0x0c, 0x00, 0x00, 0x00, 0x10, 0x00, 0x00, 0x00, 0x03, 0x00, 0x00, 0x00,
    0x01, 0x00, 0x00, 0x00, 0x2c, 0x00, 0x00, 0x00, 0x02, 0x00, 0x00, 0x00,
    0x2b, 0x00, 0x00, 0x00, 0x04, 0x00, 0x00, 0x00, 0x8a, 0xfd, 0xff, 0xff,
    0x10, 0x00, 0x00, 0x00, 0x00, 0x00, 0x00, 0x16, 0x0c, 0x00, 0x00, 0x00,
    0x10, 0x00, 0x00, 0x00, 0x88, 0xd7, 0xff, 0xff, 0x01, 0x00, 0x00, 0x00,
    0x2b, 0x00, 0x00, 0x00, 0x02, 0x00, 0x00, 0x00, 0x2a, 0x00, 0x00, 0x00,
    0x01, 0x00, 0x00, 0x00, 0xe6, 0xfd, 0xff, 0xff, 0x0c, 0x00, 0x00, 0x00,
    0x10, 0x00, 0x00, 0x00, 0x03, 0x00, 0x00, 0x00, 0x01, 0x00, 0x00, 0x00,
    0x2a, 0x00, 0x00, 0x00, 0x02, 0x00, 0x00, 0x00, 0x29, 0x00, 0x00, 0x00,
    0x03, 0x00, 0x00, 0x00, 0x66, 0xfe, 0xff, 0xff, 0x20, 0x00, 0x00, 0x00,
    0x00, 0x00, 0x00, 0x01, 0x2c, 0x00, 0x00, 0x00, 0x30, 0x00, 0x00, 0x00,
    0x02, 0x00, 0x00, 0x00, 0x0c, 0x00, 0x14, 0x00, 0x13, 0x00, 0x0c, 0x00,
    0x08, 0x00, 0x07, 0x00, 0x0c, 0x00, 0x00, 0x00, 0x00, 0x00, 0x00, 0x01,
    0x02, 0x00, 0x00, 0x00, 0x02, 0x00, 0x00, 0x00, 0x00, 0x00, 0x00, 0x01,
    0x01, 0x00, 0x00, 0x00, 0x29, 0x00, 0x00, 0x00, 0x03, 0x00, 0x00, 0x00,
    0x28, 0x00, 0x00, 0x00, 0x16, 0x00, 0x00, 0x00, 0x15, 0x00, 0x00, 0x00,
    0x5a, 0xfe, 0xff, 0xff, 0x0c, 0x00, 0x00, 0x00, 0x10, 0x00, 0x00, 0x00,
    0x03, 0x00, 0x00, 0x00, 0x01, 0x00, 0x00, 0x00, 0x28, 0x00, 0x00, 0x00,
    0x02, 0x00, 0x00, 0x00, 0x27, 0x00, 0x00, 0x00, 0x04, 0x00, 0x00, 0x00,
    0x4e, 0xfe, 0xff, 0xff, 0x10, 0x00, 0x00, 0x00, 0x00, 0x00, 0x00, 0x16,
    0x0c, 0x00, 0x00, 0x00, 0x10, 0x00, 0x00, 0x00, 0x4c, 0xd8, 0xff, 0xff,
    0x01, 0x00, 0x00, 0x00, 0x27, 0x00, 0x00, 0x00, 0x02, 0x00, 0x00, 0x00,
    0x26, 0x00, 0x00, 0x00, 0x01, 0x00, 0x00, 0x00, 0x06, 0xff, 0xff, 0xff,
    0x14, 0x00, 0x00, 0x00, 0x00, 0x00, 0x00, 0x15, 0x10, 0x00, 0x00, 0x00,
    0x14, 0x00, 0x00, 0x00, 0x04, 0x00, 0x00, 0x00, 0x7c, 0xd8, 0xff, 0xff,
    0x01, 0x00, 0x00, 0x00, 0x26, 0x00, 0x00, 0x00, 0x02, 0x00, 0x00, 0x00,
    0x21, 0x00, 0x00, 0x00, 0x25, 0x00, 0x00, 0x00, 0xda, 0xfe, 0xff, 0xff,
    0x0c, 0x00, 0x00, 0x00, 0x10, 0x00, 0x00, 0x00, 0x07, 0x00, 0x00, 0x00,
    0x01, 0x00, 0x00, 0x00, 0x25, 0x00, 0x00, 0x00, 0x01, 0x00, 0x00, 0x00,
    0x24, 0x00, 0x00, 0x00, 0xfa, 0xfe, 0xff, 0xff, 0x0c, 0x00, 0x00, 0x00,
    0x10, 0x00, 0x00, 0x00, 0x06, 0x00, 0x00, 0x00, 0x01, 0x00, 0x00, 0x00,
    0x24, 0x00, 0x00, 0x00, 0x02, 0x00, 0x00, 0x00, 0x23, 0x00, 0x00, 0x00,
    0x17, 0x00, 0x00, 0x00, 0x7a, 0xff, 0xff, 0xff, 0x14, 0x00, 0x00, 0x00,
    0x00, 0x00, 0x00, 0x0b, 0x10, 0x00, 0x00, 0x00, 0x14, 0x00, 0x00, 0x00,
    0x05, 0x00, 0x00, 0x00, 0xf0, 0xd8, 0xff, 0xff, 0x01, 0x00, 0x00, 0x00,
    0x23, 0x00, 0x00, 0x00, 0x02, 0x00, 0x00, 0x00, 0x22, 0x00, 0x00, 0x00,
    0x1a, 0x00, 0x00, 0x00, 0xaa, 0xff, 0xff, 0xff, 0x14, 0x00, 0x00, 0x00,
    0x00, 0x00, 0x00, 0x15, 0x10, 0x00, 0x00, 0x00, 0x14, 0x00, 0x00, 0x00,
    0x04, 0x00, 0x00, 0x00, 0x20, 0xd9, 0xff, 0xff, 0x01, 0x00, 0x00, 0x00,
    0x22, 0x00, 0x00, 0x00, 0x02, 0x00, 0x00, 0x00, 0x21, 0x00, 0x00, 0x00,
    0x1b, 0x00, 0x00, 0x00, 0x7e, 0xff, 0xff, 0xff, 0x0c, 0x00, 0x00, 0x00,
    0x10, 0x00, 0x00, 0x00, 0x03, 0x00, 0x00, 0x00, 0x01, 0x00, 0x00, 0x00,
    0x21, 0x00, 0x00, 0x00, 0x02, 0x00, 0x00, 0x00, 0x20, 0x00, 0x00, 0x00,
    0x03, 0x00, 0x00, 0x00, 0x00, 0x00, 0x0e, 0x00, 0x1a, 0x00, 0x14, 0x00,
    0x10, 0x00, 0x0c, 0x00, 0x0b, 0x00, 0x04, 0x00, 0x0e, 0x00, 0x00, 0x00,
    0x20, 0x00, 0x00, 0x00, 0x00, 0x00, 0x00, 0x01, 0x28, 0x00, 0x00, 0x00,
    0x2c, 0x00, 0x00, 0x00, 0x02, 0x00, 0x00, 0x00, 0x00, 0x00, 0x0a, 0x00,
    0x10, 0x00, 0x0f, 0x00, 0x08, 0x00, 0x04, 0x00, 0x0a, 0x00, 0x00, 0x00,
    0x02, 0x00, 0x00, 0x00, 0x02, 0x00, 0x00, 0x00, 0x00, 0x00, 0x00, 0x01,
    0x01, 0x00, 0x00, 0x00, 0x20, 0x00, 0x00, 0x00, 0x03, 0x00, 0x00, 0x00,
    0x1f, 0x00, 0x00, 0x00, 0x1d, 0x00, 0x00, 0x00, 0x1c, 0x00, 0x00, 0x00,
    0x00, 0x00, 0x0a, 0x00, 0x10, 0x00, 0x0c, 0x00, 0x08, 0x00, 0x04, 0x00,
    0x0a, 0x00, 0x00, 0x00, 0x0c, 0x00, 0x00, 0x00, 0x10, 0x00, 0x00, 0x00,
    0x01, 0x00, 0x00, 0x00, 0x01, 0x00, 0x00, 0x00, 0x1f, 0x00, 0x00, 0x00,
    0x02, 0x00, 0x00, 0x00, 0x1e, 0x00, 0x00, 0x00, 0x02, 0x00, 0x00, 0x00,
    0x00, 0x00, 0x0e, 0x00, 0x14, 0x00, 0x00, 0x00, 0x10, 0x00, 0x0c, 0x00,
    0x0b, 0x00, 0x04, 0x00, 0x0e, 0x00, 0x00, 0x00, 0x10, 0x00, 0x00, 0x00,
    0x00, 0x00, 0x00, 0x16, 0x0c, 0x00, 0x00, 0x00, 0x10, 0x00, 0x00, 0x00,
    0x0c, 0xda, 0xff, 0xff, 0x01, 0x00, 0x00, 0x00, 0x1e, 0x00, 0x00, 0x00,
    0x02, 0x00, 0x00, 0x00, 0x00, 0x00, 0x00, 0x00, 0x01, 0x00, 0x00, 0x00,
    0x01, 0x00, 0x00, 0x00, 0x46, 0x00, 0x00, 0x00, 0x01, 0x00, 0x00, 0x00,
    0x00, 0x00, 0x00, 0x00, 0x47, 0x00, 0x00, 0x00, 0x08, 0x26, 0x00, 0x00,
    0xa8, 0x25, 0x00, 0x00, 0x68, 0x25, 0x00, 0x00, 0x28, 0x25, 0x00, 0x00,
    0xe8, 0x24, 0x00, 0x00, 0xa8, 0x24, 0x00, 0x00, 0x68, 0x24, 0x00, 0x00,
    0x08, 0x24, 0x00, 0x00, 0xa4, 0x23, 0x00, 0x00, 0x40, 0x23, 0x00, 0x00,
    0xdc, 0x22, 0x00, 0x00, 0xc8, 0x21, 0x00, 0x00, 0xa4, 0x20, 0x00, 0x00,
    0x90, 0x1f, 0x00, 0x00, 0x54, 0x1e, 0x00, 0x00, 0x40, 0x1d, 0x00, 0x00,
    0x1c, 0x1c, 0x00, 0x00, 0x08, 0x1b, 0x00, 0x00, 0xe4, 0x19, 0x00, 0x00,
    0xd0, 0x18, 0x00, 0x00, 0xa8, 0x17, 0x00, 0x00, 0x90, 0x16, 0x00, 0x00,
    0x6c, 0x15, 0x00, 0x00, 0x10, 0x15, 0x00, 0x00, 0xb4, 0x14, 0x00, 0x00,
    0x58, 0x14, 0x00, 0x00, 0xfc, 0x13, 0x00, 0x00, 0xa0, 0x13, 0x00, 0x00,
    0x8c, 0x12, 0x00, 0x00, 0x68, 0x11, 0x00, 0x00, 0x0c, 0x11, 0x00, 0x00,
    0xa8, 0x10, 0x00, 0x00, 0x34, 0x10, 0x00, 0x00, 0xd0, 0x0f, 0x00, 0x00,
    0x74, 0x0f, 0x00, 0x00, 0x10, 0x0f, 0x00, 0x00, 0x9c, 0x0e, 0x00, 0x00,
    0x30, 0x0e, 0x00, 0x00, 0xb4, 0x0d, 0x00, 0x00, 0x50, 0x0d, 0x00, 0x00,
    0xec, 0x0c, 0x00, 0x00, 0x68, 0x0c, 0x00, 0x00, 0x04, 0x0c, 0x00, 0x00,
    0xa0, 0x0b, 0x00, 0x00, 0x3c, 0x0b, 0x00, 0x00, 0xa0, 0x0a, 0x00, 0x00,
    0x2c, 0x0a, 0x00, 0x00, 0xc0, 0x09, 0x00, 0x00, 0x5c, 0x09, 0x00, 0x00,
    0xf0, 0x08, 0x00, 0x00, 0x7c, 0x08, 0x00, 0x00, 0x10, 0x08, 0x00, 0x00,
    0xac, 0x07, 0x00, 0x00, 0x48, 0x07, 0x00, 0x00, 0xd4, 0x06, 0x00, 0x00,
    0x68, 0x06, 0x00, 0x00, 0xec, 0x05, 0x00, 0x00, 0x88, 0x05, 0x00, 0x00,
    0x1c, 0x05, 0x00, 0x00, 0x80, 0x04, 0x00, 0x00, 0x04, 0x04, 0x00, 0x00,
    0x98, 0x03, 0x00, 0x00, 0x34, 0x03, 0x00, 0x00, 0xd8, 0x02, 0x00, 0x00,
    0x74, 0x02, 0x00, 0x00, 0x18, 0x02, 0x00, 0x00, 0xbc, 0x01, 0x00, 0x00,
    0x50, 0x01, 0x00, 0x00, 0xec, 0x00, 0x00, 0x00, 0x68, 0x00, 0x00, 0x00,
    0x04, 0x00, 0x00, 0x00, 0x2a, 0xdb, 0xff, 0xff, 0x00, 0x00, 0x00, 0x01,
    0x14, 0x00, 0x00, 0x00, 0x34, 0x00, 0x00, 0x00, 0x47, 0x00, 0x00, 0x00,
    0x00, 0x00, 0x00, 0x09, 0x3c, 0x00, 0x00, 0x00, 0x14, 0xdb, 0xff, 0xff,
    0x08, 0x00, 0x00, 0x00, 0x14, 0x00, 0x00, 0x00, 0x01, 0x00, 0x00, 0x00,
    0xf7, 0xff, 0xff, 0xff, 0xff, 0xff, 0xff, 0xff, 0x00, 0x00, 0x00, 0x00,
    0x01, 0x00, 0x00, 0x00, 0x56, 0x4d, 0x16, 0x3d, 0x0f, 0x00, 0x00, 0x00,
    0x50, 0x61, 0x72, 0x74, 0x69, 0x74, 0x69, 0x6f, 0x6e, 0x65, 0x64, 0x43,
    0x61, 0x6c, 0x6c, 0x00, 0x02, 0x00, 0x00, 0x00, 0x01, 0x00, 0x00, 0x00,
    0x02, 0x00, 0x00, 0x00, 0x8a, 0xdb, 0xff, 0xff, 0x00, 0x00, 0x00, 0x01,
    0x14, 0x00, 0x00, 0x00, 0x30, 0x00, 0x00, 0x00, 0x46, 0x00, 0x00, 0x00,
    0x00, 0x00, 0x00, 0x09, 0x5c, 0x00, 0x00, 0x00, 0x74, 0xdb, 0xff, 0xff,
    0x08, 0x00, 0x00, 0x00, 0x10, 0x00, 0x00, 0x00, 0x01, 0x00, 0x00, 0x00,
    0x9c, 0xff, 0xff, 0xff, 0xff, 0xff, 0xff, 0xff, 0x01, 0x00, 0x00, 0x00,
    0x00, 0x66, 0x5a, 0x3c, 0x31, 0x00, 0x00, 0x00, 0x6f, 0x6e, 0x6e, 0x78,
    0x5f, 0x74, 0x66, 0x5f, 0x70, 0x72, 0x65, 0x66, 0x69, 0x78, 0x5f, 0x2f,
    0x63, 0x6c, 0x61, 0x73, 0x73, 0x69, 0x66, 0x5f, 0x62, 0x6c, 0x6f, 0x63,
    0x6b, 0x2f, 0x63, 0x6c, 0x61, 0x73, 0x73, 0x69, 0x66, 0x5f, 0x62, 0x6c,
    0x6f, 0x63, 0x6b, 0x2e, 0x31, 0x2f, 0x4d, 0x75, 0x6c, 0x00, 0x00, 0x00,
    0x02, 0x00, 0x00, 0x00, 0x01, 0x00, 0x00, 0x00, 0x80, 0x00, 0x00, 0x00,
    0x0a, 0xdc, 0xff, 0xff, 0x00, 0x00, 0x00, 0x01, 0x14, 0x00, 0x00, 0x00,
    0x34, 0x00, 0x00, 0x00, 0x45, 0x00, 0x00, 0x00, 0x00, 0x00, 0x00, 0x09,
    0x3c, 0x00, 0x00, 0x00, 0xf4, 0xdb, 0xff, 0xff, 0x08, 0x00, 0x00, 0x00,
    0x14, 0x00, 0x00, 0x00, 0x01, 0x00, 0x00, 0x00, 0x9c, 0xff, 0xff, 0xff,
    0xff, 0xff, 0xff, 0xff, 0x00, 0x00, 0x00, 0x00, 0x01, 0x00, 0x00, 0x00,
    0x00, 0x66, 0x5a, 0x3c, 0x0f, 0x00, 0x00, 0x00, 0x63, 0x6c, 0x69, 0x70,
    0x5f, 0x62, 0x79, 0x5f, 0x76, 0x61, 0x6c, 0x75, 0x65, 0x5f, 0x32, 0x00,
    0x02, 0x00, 0x00, 0x00, 0x01, 0x00, 0x00, 0x00, 0x80, 0x00, 0x00, 0x00,
    0x6a, 0xdc, 0xff, 0xff, 0x00, 0x00, 0x00, 0x01, 0x14, 0x00, 0x00, 0x00,
    0x34, 0x00, 0x00, 0x00, 0x44, 0x00, 0x00, 0x00, 0x00, 0x00, 0x00, 0x09,
    0x44, 0x00, 0x00, 0x00, 0x54, 0xdc, 0xff, 0xff, 0x08, 0x00, 0x00, 0x00,
    0x14, 0x00, 0x00, 0x00, 0x01, 0x00, 0x00, 0x00, 0x85, 0xff, 0xff, 0xff,
    0xff, 0xff, 0xff, 0xff, 0x00, 0x00, 0x00, 0x00, 0x01, 0x00, 0x00, 0x00,
    0xec, 0xfe, 0x82, 0x3b, 0x17, 0x00, 0x00, 0x00, 0x63, 0x6c, 0x69, 0x70,
    0x5f, 0x62, 0x79, 0x5f, 0x76, 0x61, 0x6c, 0x75, 0x65, 0x5f, 0x32, 0x2f,
    0x4d, 0x69, 0x6e, 0x69, 0x6d, 0x75, 0x6d, 0x00, 0x02, 0x00, 0x00, 0x00,
    0x01, 0x00, 0x00, 0x00, 0x80, 0x00, 0x00, 0x00, 0xd2, 0xdc, 0xff, 0xff,
    0x00, 0x00, 0x00, 0x01, 0x14, 0x00, 0x00, 0x00, 0x34, 0x00, 0x00, 0x00,
    0x43, 0x00, 0x00, 0x00, 0x00, 0x00, 0x00, 0x09, 0x34, 0x00, 0x00, 0x00,
    0xbc, 0xdc, 0xff, 0xff, 0x08, 0x00, 0x00, 0x00, 0x14, 0x00, 0x00, 0x00,
    0x01, 0x00, 0x00, 0x00, 0x85, 0xff, 0xff, 0xff, 0xff, 0xff, 0xff, 0xff,
    0x00, 0x00, 0x00, 0x00, 0x01, 0x00, 0x00, 0x00, 0xec, 0xfe, 0x82, 0x3b,
    0x05, 0x00, 0x00, 0x00, 0x61, 0x64, 0x64, 0x5f, 0x39, 0x00, 0x00, 0x00,
    0x02, 0x00, 0x00, 0x00, 0x01, 0x00, 0x00, 0x00, 0x80, 0x00, 0x00, 0x00,
    0x2a, 0xdd, 0xff, 0xff, 0x00, 0x00, 0x00, 0x01, 0x14, 0x00, 0x00, 0x00,
    0x34, 0x00, 0x00, 0x00, 0x42, 0x00, 0x00, 0x00, 0x00, 0x00, 0x00, 0x09,
    0x34, 0x00, 0x00, 0x00, 0x14, 0xdd, 0xff, 0xff, 0x08, 0x00, 0x00, 0x00,
    0x14, 0x00, 0x00, 0x00, 0x01, 0x00, 0x00, 0x00, 0xd7, 0xff, 0xff, 0xff,
    0xff, 0xff, 0xff, 0xff, 0x00, 0x00, 0x00, 0x00, 0x01, 0x00, 0x00, 0x00,
    0x8f, 0xc3, 0xc3, 0x3b, 0x05, 0x00, 0x00, 0x00, 0x6d, 0x75, 0x6c, 0x5f,
    0x34, 0x00, 0x00, 0x00, 0x02, 0x00, 0x00, 0x00, 0x01, 0x00, 0x00, 0x00,
    0x80, 0x00, 0x00, 0x00, 0x82, 0xdd, 0xff, 0xff, 0x00, 0x00, 0x00, 0x01,
    0x14, 0x00, 0x00, 0x00, 0x34, 0x00, 0x00, 0x00, 0x41, 0x00, 0x00, 0x00,
    0x00, 0x00, 0x00, 0x09, 0x3c, 0x00, 0x00, 0x00, 0x6c, 0xdd, 0xff, 0xff,
    0x08, 0x00, 0x00, 0x00, 0x14, 0x00, 0x00, 0x00, 0x01, 0x00, 0x00, 0x00,
    0x01, 0x00, 0x00, 0x00, 0x00, 0x00, 0x00, 0x00, 0x00, 0x00, 0x00, 0x00,
    0x01, 0x00, 0x00, 0x00, 0xf5, 0x44, 0xc5, 0x3c, 0x0c, 0x00, 0x00, 0x00,
    0x4d, 0x61, 0x74, 0x4d, 0x75, 0x6c, 0x3b, 0x61, 0x64, 0x64, 0x5f, 0x38,
    0x00, 0x00, 0x00, 0x00, 0x02, 0x00, 0x00, 0x00, 0x01, 0x00, 0x00, 0x00,
    0x80, 0x00, 0x00, 0x00, 0xe2, 0xdd, 0xff, 0xff, 0x00, 0x00, 0x00, 0x01,
    0x14, 0x00, 0x00, 0x00, 0x30, 0x00, 0x00, 0x00, 0x40, 0x00, 0x00, 0x00,
    0x00, 0x00, 0x00, 0x09, 0x34, 0x00, 0x00, 0x00, 0xcc, 0xdd, 0xff, 0xff,
    0x08, 0x00, 0x00, 0x00, 0x10, 0x00, 0x00, 0x00, 0x01, 0x00, 0x00, 0x00,
    0x08, 0x00, 0x00, 0x00, 0x00, 0x00, 0x00, 0x00, 0x01, 0x00, 0x00, 0x00,
    0x35, 0xca, 0xa3, 0x3c, 0x09, 0x00, 0x00, 0x00, 0x52, 0x65, 0x73, 0x68,
    0x61, 0x70, 0x65, 0x5f, 0x32, 0x00, 0x00, 0x00, 0x02, 0x00, 0x00, 0x00,
    0x01, 0x00, 0x00, 0x00, 0x10, 0x00, 0x00, 0x00, 0x3a, 0xde, 0xff, 0xff,
    0x00, 0x00, 0x00, 0x01, 0x14, 0x00, 0x00, 0x00, 0x34, 0x00, 0x00, 0x00,
    0x3f, 0x00, 0x00, 0x00, 0x00, 0x00, 0x00, 0x09, 0x34, 0x00, 0x00, 0x00,
    0x24, 0xde, 0xff, 0xff, 0x08, 0x00, 0x00, 0x00, 0x14, 0x00, 0x00, 0x00,
    0x01, 0x00, 0x00, 0x00, 0x08, 0x00, 0x00, 0x00, 0x00, 0x00, 0x00, 0x00,
    0x00, 0x00, 0x00, 0x00, 0x01, 0x00, 0x00, 0x00, 0x35, 0xca, 0xa3, 0x3c,
    0x04, 0x00, 0x00, 0x00, 0x4d, 0x65, 0x61, 0x6e, 0x00, 0x00, 0x00, 0x00,
    0x04, 0x00, 0x00, 0x00, 0x01, 0x00, 0x00, 0x00, 0x10, 0x00, 0x00, 0x00,
    0x01, 0x00, 0x00, 0x00, 0x01, 0x00, 0x00, 0x00, 0x9a, 0xde, 0xff, 0xff,
    0x00, 0x00, 0x00, 0x01, 0x14, 0x00, 0x00, 0x00, 0x34, 0x00, 0x00, 0x00,
    0x3e, 0x00, 0x00, 0x00, 0x00, 0x00, 0x00, 0x09, 0x3c, 0x00, 0x00, 0x00,
    0x84, 0xde, 0xff, 0xff, 0x08, 0x00, 0x00, 0x00, 0x14, 0x00, 0x00, 0x00,
    0x01, 0x00, 0x00, 0x00, 0x0f, 0x00, 0x00, 0x00, 0x00, 0x00, 0x00, 0x00,
    0x00, 0x00, 0x00, 0x00, 0x01, 0x00, 0x00, 0x00, 0xc9, 0xb1, 0x8a, 0x3d,
    0x0c, 0x00, 0x00, 0x00, 0x74, 0x72, 0x61, 0x6e, 0x73, 0x70, 0x6f, 0x73,
    0x65, 0x5f, 0x32, 0x30, 0x00, 0x00, 0x00, 0x00, 0x04, 0x00, 0x00, 0x00,
    0x01, 0x00, 0x00, 0x00, 0x10, 0x00, 0x00, 0x00, 0x05, 0x00, 0x00, 0x00,
    0x04, 0x00, 0x00, 0x00, 0x02, 0xdf, 0xff, 0xff, 0x00, 0x00, 0x00, 0x01,
    0x14, 0x00, 0x00, 0x00, 0x34, 0x00, 0x00, 0x00, 0x3d, 0x00, 0x00, 0x00,
    0x00, 0x00, 0x00, 0x09, 0x4c, 0x00, 0x00, 0x00, 0xec, 0xde, 0xff, 0xff,
    0x08, 0x00, 0x00, 0x00, 0x14, 0x00, 0x00, 0x00, 0x01, 0x00, 0x00, 0x00,
    0x0f, 0x00, 0x00, 0x00, 0x00, 0x00, 0x00, 0x00, 0x00, 0x00, 0x00, 0x00,
    0x01, 0x00, 0x00, 0x00, 0xc9, 0xb1, 0x8a, 0x3d, 0x1c, 0x00, 0x00, 0x00,
    0x41, 0x64, 0x64, 0x5f, 0x37, 0x3b, 0x63, 0x6f, 0x6e, 0x76, 0x6f, 0x6c,
    0x75, 0x74, 0x69, 0x6f, 0x6e, 0x5f, 0x34, 0x3b, 0x43, 0x6f, 0x6e, 0x73,
    0x74, 0x5f, 0x31, 0x32, 0x00, 0x00, 0x00, 0x00, 0x04, 0x00, 0x00, 0x00,
    0x01, 0x00, 0x00, 0x00, 0x05, 0x00, 0x00, 0x00, 0x04, 0x00, 0x00, 0x00,
    0x10, 0x00, 0x00, 0x00, 0x7a, 0xdf, 0xff, 0xff, 0x00, 0x00, 0x00, 0x01,
    0x14, 0x00, 0x00, 0x00, 0x34, 0x00, 0x00, 0x00, 0x3c, 0x00, 0x00, 0x00,
    0x00, 0x00, 0x00, 0x09, 0x6c, 0x00, 0x00, 0x00, 0x64, 0xdf, 0xff, 0xff,
    0x08, 0x00, 0x00, 0x00, 0x14, 0x00, 0x00, 0x00, 0x01, 0x00, 0x00, 0x00,
    0x80, 0xff, 0xff, 0xff, 0xff, 0xff, 0xff, 0xff, 0x00, 0x00, 0x00, 0x00,
    0x01, 0x00, 0x00, 0x00, 0x0b, 0xf3, 0x26, 0x3d, 0x3f, 0x00, 0x00, 0x00,
    0x6f, 0x6e, 0x6e, 0x78, 0x5f, 0x74, 0x66, 0x5f, 0x70, 0x72, 0x65, 0x66,
    0x69, 0x78, 0x5f, 0x2f, 0x62, 0x6c, 0x6f, 0x63, 0x6b, 0x32, 0x2f, 0x62,
    0x6c, 0x6f, 0x63, 0x6b, 0x32, 0x2e, 0x32, 0x2f, 0x52, 0x65, 0x6c, 0x75,
    0x3b, 0x41, 0x64, 0x64, 0x5f, 0x36, 0x3b, 0x64, 0x65, 0x70, 0x74, 0x68,
    0x77, 0x69, 0x73, 0x65, 0x5f, 0x31, 0x3b, 0x43, 0x6f, 0x6e, 0x73, 0x74,
    0x5f, 0x31, 0x30, 0x00, 0x04, 0x00, 0x00, 0x00, 0x01, 0x00, 0x00, 0x00,
    0x05, 0x00, 0x00, 0x00, 0x04, 0x00, 0x00, 0x00, 0x10, 0x00, 0x00, 0x00,
    0x12, 0xe0, 0xff, 0xff, 0x00, 0x00, 0x00, 0x01, 0x14, 0x00, 0x00, 0x00,
    0x34, 0x00, 0x00, 0x00, 0x3b, 0x00, 0x00, 0x00, 0x00, 0x00, 0x00, 0x09,
    0x3c, 0x00, 0x00, 0x00, 0xfc, 0xdf, 0xff, 0xff, 0x08, 0x00, 0x00, 0x00,
    0x14, 0x00, 0x00, 0x00, 0x01, 0x00, 0x00, 0x00, 0x89, 0xff, 0xff, 0xff,
    0xff, 0xff, 0xff, 0xff, 0x00, 0x00, 0x00, 0x00, 0x01, 0x00, 0x00, 0x00,
    0xbc, 0x05, 0x31, 0x3d, 0x0c, 0x00, 0x00, 0x00, 0x74, 0x72, 0x61, 0x6e,
    0x73, 0x70, 0x6f, 0x73, 0x65, 0x5f, 0x31, 0x36, 0x00, 0x00, 0x00, 0x00,
    0x04, 0x00, 0x00, 0x00, 0x01, 0x00, 0x00, 0x00, 0x07, 0x00, 0x00, 0x00,
    0x06, 0x00, 0x00, 0x00, 0x10, 0x00, 0x00, 0x00, 0x7a, 0xe0, 0xff, 0xff,
    0x00, 0x00, 0x00, 0x01, 0x14, 0x00, 0x00, 0x00, 0x34, 0x00, 0x00, 0x00,
    0x3a, 0x00, 0x00, 0x00, 0x00, 0x00, 0x00, 0x09, 0x34, 0x00, 0x00, 0x00,
    0x64, 0xe0, 0xff, 0xff, 0x08, 0x00, 0x00, 0x00, 0x14, 0x00, 0x00, 0x00,
    0x01, 0x00, 0x00, 0x00, 0x89, 0xff, 0xff, 0xff, 0xff, 0xff, 0xff, 0xff,
    0x00, 0x00, 0x00, 0x00, 0x01, 0x00, 0x00, 0x00, 0xbc, 0x05, 0x31, 0x3d,
    0x05, 0x00, 0x00, 0x00, 0x50, 0x61, 0x64, 0x5f, 0x34, 0x00, 0x00, 0x00,
    0x04, 0x00, 0x00, 0x00, 0x01, 0x00, 0x00, 0x00, 0x10, 0x00, 0x00, 0x00,
    0x07, 0x00, 0x00, 0x00, 0x06, 0x00, 0x00, 0x00, 0xda, 0xe0, 0xff, 0xff,
    0x00, 0x00, 0x00, 0x01, 0x14, 0x00, 0x00, 0x00, 0x34, 0x00, 0x00, 0x00,
    0x39, 0x00, 0x00, 0x00, 0x00, 0x00, 0x00, 0x09, 0x4c, 0x00, 0x00, 0x00,
    0xc4, 0xe0, 0xff, 0xff, 0x08, 0x00, 0x00, 0x00, 0x14, 0x00, 0x00, 0x00,
    0x01, 0x00, 0x00, 0x00, 0x89, 0xff, 0xff, 0xff, 0xff, 0xff, 0xff, 0xff,
    0x00, 0x00, 0x00, 0x00, 0x01, 0x00, 0x00, 0x00, 0xbc, 0x05, 0x31, 0x3d,
    0x1f, 0x00, 0x00, 0x00, 0x6f, 0x6e, 0x6e, 0x78, 0x5f, 0x74, 0x66, 0x5f,
    0x70, 0x72, 0x65, 0x66, 0x69, 0x78, 0x5f, 0x2f, 0x68, 0x61, 0x72, 0x64,
    0x73, 0x77, 0x69, 0x73, 0x68, 0x5f, 0x31, 0x2f, 0x4d, 0x75, 0x6c, 0x00,
    0x04, 0x00, 0x00, 0x00, 0x01, 0x00, 0x00, 0x00, 0x10, 0x00, 0x00, 0x00,
    0x05, 0x00, 0x00, 0x00, 0x04, 0x00, 0x00, 0x00, 0x52, 0xe1, 0xff, 0xff,
    0x00, 0x00, 0x00, 0x01, 0x14, 0x00, 0x00, 0x00, 0x34, 0x00, 0x00, 0x00,
    0x38, 0x00, 0x00, 0x00, 0x00, 0x00, 0x00, 0x09, 0x3c, 0x00, 0x00, 0x00,
    0x3c, 0xe1, 0xff, 0xff, 0x08, 0x00, 0x00, 0x00, 0x14, 0x00, 0x00, 0x00,
    0x01, 0x00, 0x00, 0x00, 0x89, 0xff, 0xff, 0xff, 0xff, 0xff, 0xff, 0xff,
    0x00, 0x00, 0x00, 0x00, 0x01, 0x00, 0x00, 0x00, 0xbc, 0x05, 0x31, 0x3d,
    0x0f, 0x00, 0x00, 0x00, 0x63, 0x6c, 0x69, 0x70, 0x5f, 0x62, 0x79, 0x5f,
    0x76, 0x61, 0x6c, 0x75, 0x65, 0x5f, 0x31, 0x00, 0x04, 0x00, 0x00, 0x00,
    0x01, 0x00, 0x00, 0x00, 0x10, 0x00, 0x00, 0x00, 0x05, 0x00, 0x00, 0x00,
    0x04, 0x00, 0x00, 0x00, 0xba, 0xe1, 0xff, 0xff, 0x00, 0x00, 0x00, 0x01,
    0x14, 0x00, 0x00, 0x00, 0x34, 0x00, 0x00, 0x00, 0x37, 0x00, 0x00, 0x00,
    0x00, 0x00, 0x00, 0x09, 0x44, 0x00, 0x00, 0x00, 0xa4, 0xe1, 0xff, 0xff,
    0x08, 0x00, 0x00, 0x00, 0x14, 0x00, 0x00, 0x00, 0x01, 0x00, 0x00, 0x00,
    0x16, 0x00, 0x00, 0x00, 0x00, 0x00, 0x00, 0x00, 0x00, 0x00, 0x00, 0x00,
    0x01, 0x00, 0x00, 0x00, 0xd5, 0xa3, 0x1b, 0x3c, 0x17, 0x00, 0x00, 0x00,
    0x63, 0x6c, 0x69, 0x70, 0x5f, 0x62, 0x79, 0x5f, 0x76, 0x61, 0x6c, 0x75,
    0x65, 0x5f, 0x31, 0x2f, 0x4d, 0x69, 0x6e, 0x69, 0x6d, 0x75, 0x6d, 0x00,
    0x04, 0x00, 0x00, 0x00, 0x01, 0x00, 0x00, 0x00, 0x10, 0x00, 0x00, 0x00,
    0x05, 0x00, 0x00, 0x00, 0x04, 0x00, 0x00, 0x00, 0x2a, 0xe2, 0xff, 0xff,
    0x00, 0x00, 0x00, 0x01, 0x14, 0x00, 0x00, 0x00, 0x34, 0x00, 0x00, 0x00,
    0x36, 0x00, 0x00, 0x00, 0x00, 0x00, 0x00, 0x09, 0x34, 0x00, 0x00, 0x00,
    0x14, 0xe2, 0xff, 0xff, 0x08, 0x00, 0x00, 0x00, 0x14, 0x00, 0x00, 0x00,
    0x01, 0x00, 0x00, 0x00, 0x16, 0x00, 0x00, 0x00, 0x00, 0x00, 0x00, 0x00,
    0x00, 0x00, 0x00, 0x00, 0x01, 0x00, 0x00, 0x00, 0xd5, 0xa3, 0x1b, 0x3c,
    0x05, 0x00, 0x00, 0x00, 0x61, 0x64, 0x64, 0x5f, 0x35, 0x00, 0x00, 0x00,
    0x04, 0x00, 0x00, 0x00, 0x01, 0x00, 0x00, 0x00, 0x10, 0x00, 0x00, 0x00,
    0x05, 0x00, 0x00, 0x00, 0x04, 0x00, 0x00, 0x00, 0x8a, 0xe2, 0xff, 0xff,
    0x00, 0x00, 0x00, 0x01, 0x14, 0x00, 0x00, 0x00, 0x34, 0x00, 0x00, 0x00,
    0x35, 0x00, 0x00, 0x00, 0x00, 0x00, 0x00, 0x09, 0x34, 0x00, 0x00, 0x00,
    0x74, 0xe2, 0xff, 0xff, 0x08, 0x00, 0x00, 0x00, 0x14, 0x00, 0x00, 0x00,
    0x01, 0x00, 0x00, 0x00, 0xf5, 0xff, 0xff, 0xff, 0xff, 0xff, 0xff, 0xff,
    0x00, 0x00, 0x00, 0x00, 0x01, 0x00, 0x00, 0x00, 0xd2, 0xd1, 0x86, 0x3c,
    0x05, 0x00, 0x00, 0x00, 0x6d, 0x75, 0x6c, 0x5f, 0x31, 0x00, 0x00, 0x00,
    0x04, 0x00, 0x00, 0x00, 0x01, 0x00, 0x00, 0x00, 0x10, 0x00, 0x00, 0x00,
    0x05, 0x00, 0x00, 0x00, 0x04, 0x00, 0x00, 0x00, 0xea, 0xe2, 0xff, 0xff,
    0x00, 0x00, 0x00, 0x01, 0x14, 0x00, 0x00, 0x00, 0x34, 0x00, 0x00, 0x00,
    0x34, 0x00, 0x00, 0x00, 0x00, 0x00, 0x00, 0x09, 0x3c, 0x00, 0x00, 0x00,
    0xd4, 0xe2, 0xff, 0xff, 0x08, 0x00, 0x00, 0x00, 0x14, 0x00, 0x00, 0x00,
    0x01, 0x00, 0x00, 0x00, 0x05, 0x00, 0x00, 0x00, 0x00, 0x00, 0x00, 0x00,
    0x00, 0x00, 0x00, 0x00, 0x01, 0x00, 0x00, 0x00, 0xa3, 0x22, 0xb2, 0x3d,
    0x0c, 0x00, 0x00, 0x00, 0x74, 0x72, 0x61, 0x6e, 0x73, 0x70, 0x6f, 0x73,
    0x65, 0x5f, 0x31, 0x34, 0x00, 0x00, 0x00, 0x00, 0x04, 0x00, 0x00, 0x00,
    0x01, 0x00, 0x00, 0x00, 0x10, 0x00, 0x00, 0x00, 0x05, 0x00, 0x00, 0x00,
    0x04, 0x00, 0x00, 0x00, 0x52, 0xe3, 0xff, 0xff, 0x00, 0x00, 0x00, 0x01,
    0x14, 0x00, 0x00, 0x00, 0x30, 0x00, 0x00, 0x00, 0x33, 0x00, 0x00, 0x00,
    0x00, 0x00, 0x00, 0x09, 0x44, 0x00, 0x00, 0x00, 0x3c, 0xe3, 0xff, 0xff,
    0x08, 0x00, 0x00, 0x00, 0x10, 0x00, 0x00, 0x00, 0x01, 0x00, 0x00, 0x00,
    0x05, 0x00, 0x00, 0x00, 0x00, 0x00, 0x00, 0x00, 0x01, 0x00, 0x00, 0x00,
    0xa3, 0x22, 0xb2, 0x3d, 0x1b, 0x00, 0x00, 0x00, 0x41, 0x64, 0x64, 0x5f,
    0x34, 0x3b, 0x63, 0x6f, 0x6e, 0x76, 0x6f, 0x6c, 0x75, 0x74, 0x69, 0x6f,
    0x6e, 0x5f, 0x33, 0x3b, 0x43, 0x6f, 0x6e, 0x73, 0x74, 0x5f, 0x38, 0x00,
    0x04, 0x00, 0x00, 0x00, 0x01, 0x00, 0x00, 0x00, 0x05, 0x00, 0x00, 0x00,
    0x04, 0x00, 0x00, 0x00, 0x10, 0x00, 0x00, 0x00, 0xc2, 0xe3, 0xff, 0xff,
    0x00, 0x00, 0x00, 0x01, 0x14, 0x00, 0x00, 0x00, 0x34, 0x00, 0x00, 0x00,
    0x32, 0x00, 0x00, 0x00, 0x00, 0x00, 0x00, 0x09, 0x3c, 0x00, 0x00, 0x00,
    0xac, 0xe3, 0xff, 0xff, 0x08, 0x00, 0x00, 0x00, 0x14, 0x00, 0x00, 0x00,
    0x01, 0x00, 0x00, 0x00, 0xf8, 0xff, 0xff, 0xff, 0xff, 0xff, 0xff, 0xff,
    0x00, 0x00, 0x00, 0x00, 0x01, 0x00, 0x00, 0x00, 0x21, 0x63, 0xc3, 0x3d,
    0x0c, 0x00, 0x00, 0x00, 0x74, 0x72, 0x61, 0x6e, 0x73, 0x70, 0x6f, 0x73,
    0x65, 0x5f, 0x31, 0x33, 0x00, 0x00, 0x00, 0x00, 0x04, 0x00, 0x00, 0x00,
    0x01, 0x00, 0x00, 0x00, 0x0c, 0x00, 0x00, 0x00, 0x09, 0x00, 0x00, 0x00,
    0x10, 0x00, 0x00, 0x00, 0x2a, 0xe4, 0xff, 0xff, 0x00, 0x00, 0x00, 0x01,
    0x14, 0x00, 0x00, 0x00, 0x34, 0x00, 0x00, 0x00, 0x31, 0x00, 0x00, 0x00,
    0x00, 0x00, 0x00, 0x09, 0x34, 0x00, 0x00, 0x00, 0x14, 0xe4, 0xff, 0xff,
    0x08, 0x00, 0x00, 0x00, 0x14, 0x00, 0x00, 0x00, 0x01, 0x00, 0x00, 0x00,
    0xf8, 0xff, 0xff, 0xff, 0xff, 0xff, 0xff, 0xff, 0x00, 0x00, 0x00, 0x00,
    0x01, 0x00, 0x00, 0x00, 0x21, 0x63, 0xc3, 0x3d, 0x05, 0x00, 0x00, 0x00,
    0x50, 0x61, 0x64, 0x5f, 0x33, 0x00, 0x00, 0x00, 0x04, 0x00, 0x00, 0x00,
    0x01, 0x00, 0x00, 0x00, 0x10, 0x00, 0x00, 0x00, 0x0c, 0x00, 0x00, 0x00,
    0x09, 0x00, 0x00, 0x00, 0x8a, 0xe4, 0xff, 0xff, 0x00, 0x00, 0x00, 0x01,
    0x14, 0x00, 0x00, 0x00, 0x34, 0x00, 0x00, 0x00, 0x30, 0x00, 0x00, 0x00,
    0x00, 0x00, 0x00, 0x09, 0x3c, 0x00, 0x00, 0x00, 0x74, 0xe4, 0xff, 0xff,
    0x08, 0x00, 0x00, 0x00, 0x14, 0x00, 0x00, 0x00, 0x01, 0x00, 0x00, 0x00,
    0xf8, 0xff, 0xff, 0xff, 0xff, 0xff, 0xff, 0xff, 0x00, 0x00, 0x00, 0x00,
    0x01, 0x00, 0x00, 0x00, 0x21, 0x63, 0xc3, 0x3d, 0x0c, 0x00, 0x00, 0x00,
    0x74, 0x72, 0x61, 0x6e, 0x73, 0x70, 0x6f, 0x73, 0x65, 0x5f, 0x31, 0x31,
    0x00, 0x00, 0x00, 0x00, 0x04, 0x00, 0x00, 0x00, 0x01, 0x00, 0x00, 0x00,
    0x10, 0x00, 0x00, 0x00, 0x0a, 0x00, 0x00, 0x00, 0x07, 0x00, 0x00, 0x00,
    0xf2, 0xe4, 0xff, 0xff, 0x00, 0x00, 0x00, 0x01, 0x14, 0x00, 0x00, 0x00,
    0x30, 0x00, 0x00, 0x00, 0x2f, 0x00, 0x00, 0x00, 0x00, 0x00, 0x00, 0x09,
    0x44, 0x00, 0x00, 0x00, 0xdc, 0xe4, 0xff, 0xff, 0x08, 0x00, 0x00, 0x00,
    0x10, 0x00, 0x00, 0x00, 0x01, 0x00, 0x00, 0x00, 0xf8, 0xff, 0xff, 0xff,
    0xff, 0xff, 0xff, 0xff, 0x01, 0x00, 0x00, 0x00, 0x21, 0x63, 0xc3, 0x3d,
    0x1b, 0x00, 0x00, 0x00, 0x41, 0x64, 0x64, 0x5f, 0x33, 0x3b, 0x63, 0x6f,
    0x6e, 0x76, 0x6f, 0x6c, 0x75, 0x74, 0x69, 0x6f, 0x6e, 0x5f, 0x32, 0x3b,
    0x43, 0x6f, 0x6e, 0x73, 0x74, 0x5f, 0x36, 0x00, 0x04, 0x00, 0x00, 0x00,
    0x01, 0x00, 0x00, 0x00, 0x0a, 0x00, 0x00, 0x00, 0x07, 0x00, 0x00, 0x00,
    0x10, 0x00, 0x00, 0x00, 0x62, 0xe5, 0xff, 0xff, 0x00, 0x00, 0x00, 0x01,
    0x14, 0x00, 0x00, 0x00, 0x34, 0x00, 0x00, 0x00, 0x2e, 0x00, 0x00, 0x00,
    0x00, 0x00, 0x00, 0x09, 0x6c, 0x00, 0x00, 0x00, 0x4c, 0xe5, 0xff, 0xff,
    0x08, 0x00, 0x00, 0x00, 0x14, 0x00, 0x00, 0x00, 0x01, 0x00, 0x00, 0x00,
    0x80, 0xff, 0xff, 0xff, 0xff, 0xff, 0xff, 0xff, 0x00, 0x00, 0x00, 0x00,
    0x01, 0x00, 0x00, 0x00, 0x58, 0x6a, 0x6c, 0x3d, 0x3c, 0x00, 0x00, 0x00,
    0x6f, 0x6e, 0x6e, 0x78, 0x5f, 0x74, 0x66, 0x5f, 0x70, 0x72, 0x65, 0x66,
    0x69, 0x78, 0x5f, 0x2f, 0x62, 0x6c, 0x6f, 0x63, 0x6b, 0x31, 0x2f, 0x62,
    0x6c, 0x6f, 0x63, 0x6b, 0x31, 0x2e, 0x32, 0x2f, 0x52, 0x65, 0x6c, 0x75,
    0x3b, 0x41, 0x64, 0x64, 0x5f, 0x32, 0x3b, 0x64, 0x65, 0x70, 0x74, 0x68,
    0x77, 0x69, 0x73, 0x65, 0x3b, 0x43, 0x6f, 0x6e, 0x73, 0x74, 0x5f, 0x34,
    0x00, 0x00, 0x00, 0x00, 0x04, 0x00, 0x00, 0x00, 0x01, 0x00, 0x00, 0x00,
    0x0a, 0x00, 0x00, 0x00, 0x07, 0x00, 0x00, 0x00, 0x10, 0x00, 0x00, 0x00,
    0xfa, 0xe5, 0xff, 0xff, 0x00, 0x00, 0x00, 0x01, 0x14, 0x00, 0x00, 0x00,
    0x30, 0x00, 0x00, 0x00, 0x2d, 0x00, 0x00, 0x00, 0x00, 0x00, 0x00, 0x09,
    0x34, 0x00, 0x00, 0x00, 0xe4, 0xe5, 0xff, 0xff, 0x08, 0x00, 0x00, 0x00,
    0x10, 0x00, 0x00, 0x00, 0x01, 0x00, 0x00, 0x00, 0x80, 0xff, 0xff, 0xff,
    0xff, 0xff, 0xff, 0xff, 0x01, 0x00, 0x00, 0x00, 0x93, 0xd0, 0x41, 0x3c,
    0x0b, 0x00, 0x00, 0x00, 0x74, 0x72, 0x61, 0x6e, 0x73, 0x70, 0x6f, 0x73,
    0x65, 0x5f, 0x37, 0x00, 0x04, 0x00, 0x00, 0x00, 0x01, 0x00, 0x00, 0x00,
    0x0c, 0x00, 0x00, 0x00, 0x09, 0x00, 0x00, 0x00, 0x10, 0x00, 0x00, 0x00,
    0x5a, 0xe6, 0xff, 0xff, 0x00, 0x00, 0x00, 0x01, 0x14, 0x00, 0x00, 0x00,
    0x34, 0x00, 0x00, 0x00, 0x2c, 0x00, 0x00, 0x00, 0x00, 0x00, 0x00, 0x09,
    0x34, 0x00, 0x00, 0x00, 0x44, 0xe6, 0xff, 0xff, 0x08, 0x00, 0x00, 0x00,
    0x14, 0x00, 0x00, 0x00, 0x01, 0x00, 0x00, 0x00, 0x80, 0xff, 0xff, 0xff,
    0xff, 0xff, 0xff, 0xff, 0x00, 0x00, 0x00, 0x00, 0x01, 0x00, 0x00, 0x00,
    0x93, 0xd0, 0x41, 0x3c, 0x05, 0x00, 0x00, 0x00, 0x50, 0x61, 0x64, 0x5f,
    0x32, 0x00, 0x00, 0x00, 0x04, 0x00, 0x00, 0x00, 0x01, 0x00, 0x00, 0x00,
    0x10, 0x00, 0x00, 0x00, 0x0c, 0x00, 0x00, 0x00, 0x09, 0x00, 0x00, 0x00,
    0xba, 0xe6, 0xff, 0xff, 0x00, 0x00, 0x00, 0x01, 0x14, 0x00, 0x00, 0x00,
    0x30, 0x00, 0x00, 0x00, 0x2b, 0x00, 0x00, 0x00, 0x00, 0x00, 0x00, 0x09,
    0x34, 0x00, 0x00, 0x00, 0xa4, 0xe6, 0xff, 0xff, 0x08, 0x00, 0x00, 0x00,
    0x10, 0x00, 0x00, 0x00, 0x01, 0x00, 0x00, 0x00, 0x80, 0xff, 0xff, 0xff,
    0xff, 0xff, 0xff, 0xff, 0x01, 0x00, 0x00, 0x00, 0x93, 0xd0, 0x41, 0x3c,
    0x0b, 0x00, 0x00, 0x00, 0x74, 0x72, 0x61, 0x6e, 0x73, 0x70, 0x6f, 0x73,
    0x65, 0x5f, 0x35, 0x00, 0x04, 0x00, 0x00, 0x00, 0x01, 0x00, 0x00, 0x00,
    0x10, 0x00, 0x00, 0x00, 0x0a, 0x00, 0x00, 0x00, 0x07, 0x00, 0x00, 0x00,
    0x1a, 0xe7, 0xff, 0xff, 0x00, 0x00, 0x00, 0x01, 0x14, 0x00, 0x00, 0x00,
    0x34, 0x00, 0x00, 0x00, 0x2a, 0x00, 0x00, 0x00, 0x00, 0x00, 0x00, 0x09,
    0x54, 0x00, 0x00, 0x00, 0x04, 0xe7, 0xff, 0xff, 0x08, 0x00, 0x00, 0x00,
    0x14, 0x00, 0x00, 0x00, 0x01, 0x00, 0x00, 0x00, 0x80, 0xff, 0xff, 0xff,
    0xff, 0xff, 0xff, 0xff, 0x00, 0x00, 0x00, 0x00, 0x01, 0x00, 0x00, 0x00,
    0x93, 0xd0, 0x41, 0x3c, 0x27, 0x00, 0x00, 0x00, 0x6f, 0x6e, 0x6e, 0x78,
    0x5f, 0x74, 0x66, 0x5f, 0x70, 0x72, 0x65, 0x66, 0x69, 0x78, 0x5f, 0x2f,
    0x52, 0x65, 0x4c, 0x55, 0x2f, 0x52, 0x65, 0x6c, 0x75, 0x3b, 0x63, 0x6f,
    0x6e, 0x76, 0x6f, 0x6c, 0x75, 0x74, 0x69, 0x6f, 0x6e, 0x5f, 0x31, 0x00,
    0x04, 0x00, 0x00, 0x00, 0x01, 0x00, 0x00, 0x00, 0x0a, 0x00, 0x00, 0x00,
    0x07, 0x00, 0x00, 0x00, 0x10, 0x00, 0x00, 0x00, 0x9a, 0xe7, 0xff, 0xff,
