#ifndef TONIC -CLONIC_H
#define TONIC -CLONIC_H

unsigned int tonicclonic_model_len = 22408;
unsigned char tonicclonic_model[] = {
    0x1c, 0x00, 0x00, 0x00, 0x54, 0x46, 0x4c, 0x33, 0x14, 0x00, 0x20, 0x00,
    0x1c, 0x00, 0x18, 0x00, 0x14, 0x00, 0x10, 0x00, 0x0c, 0x00, 0x00, 0x00,
    0x08, 0x00, 0x04, 0x00, 0x14, 0x00, 0x00, 0x00, 0x1c, 0x00, 0x00, 0x00,
    0x1c, 0x00, 0x00, 0x00, 0x9c, 0x00, 0x00, 0x00, 0x20, 0x27, 0x00, 0x00,
    0x30, 0x27, 0x00, 0x00, 0x54, 0x56, 0x00, 0x00, 0x03, 0x00, 0x00, 0x00,
    0x00, 0x00, 0x00, 0x00, 0x03, 0x00, 0x00, 0x00, 0x5c, 0x00, 0x00, 0x00,
    0x2c, 0x00, 0x00, 0x00, 0x04, 0x00, 0x00, 0x00, 0xb8, 0xff, 0xff, 0xff,
    0x4a, 0x00, 0x00, 0x00, 0x04, 0x00, 0x00, 0x00, 0x13, 0x00, 0x00, 0x00,
    0x43, 0x4f, 0x4e, 0x56, 0x45, 0x52, 0x53, 0x49, 0x4f, 0x4e, 0x5f, 0x4d,
    0x45, 0x54, 0x41, 0x44, 0x41, 0x54, 0x41, 0x00, 0xdc, 0xff, 0xff, 0xff,
    0x49, 0x00, 0x00, 0x00, 0x04, 0x00, 0x00, 0x00, 0x13, 0x00, 0x00, 0x00,
    0x6d, 0x69, 0x6e, 0x5f, 0x72, 0x75, 0x6e, 0x74, 0x69, 0x6d, 0x65, 0x5f,
    0x76, 0x65, 0x72, 0x73, 0x69, 0x6f, 0x6e, 0x00, 0x08, 0x00, 0x0c, 0x00,
    0x08, 0x00, 0x04, 0x00, 0x08, 0x00, 0x00, 0x00, 0x48, 0x00, 0x00, 0x00,
    0x04, 0x00, 0x00, 0x00, 0x13, 0x00, 0x00, 0x00, 0x6d, 0x69, 0x6e, 0x5f,
    0x72, 0x75, 0x6e, 0x74, 0x69, 0x6d, 0x65, 0x5f, 0x76, 0x65, 0x72, 0x73,
    0x69, 0x6f, 0x6e, 0x00, 0x4b, 0x00, 0x00, 0x00, 0x80, 0x26, 0x00, 0x00,
    0x78, 0x26, 0x00, 0x00, 0x48, 0x26, 0x00, 0x00, 0x20, 0x26, 0x00, 0x00,
    0x00, 0x26, 0x00, 0x00, 0xe0, 0x25, 0x00, 0x00, 0xc8, 0x25, 0x00, 0x00,
    0xb0, 0x25, 0x00, 0x00, 0x98, 0x25, 0x00, 0x00, 0x88, 0x24, 0x00, 0x00,
    0x78, 0x22, 0x00, 0x00, 0x68, 0x1a, 0x00, 0x00, 0x18, 0x1a, 0x00, 0x00,
    0x08, 0x19, 0x00, 0x00, 0xb8, 0x18, 0x00, 0x00, 0x18, 0x18, 0x00, 0x00,
    0xc8, 0x17, 0x00, 0x00, 0xb8, 0x0e, 0x00, 0x00, 0x68, 0x0e, 0x00, 0x00,
    0x58, 0x0d, 0x00, 0x00, 0x08, 0x0d, 0x00, 0x00, 0x68, 0x0c, 0x00, 0x00,
    0x18, 0x0c, 0x00, 0x00, 0x08, 0x03, 0x00, 0x00, 0xf4, 0x02, 0x00, 0x00,
    0xec, 0x02, 0x00, 0x00, 0xe4, 0x02, 0x00, 0x00, 0xdc, 0x02, 0x00, 0x00,
    0xd4, 0x02, 0x00, 0x00, 0x84, 0x02, 0x00, 0x00, 0xe4, 0x01, 0x00, 0x00,
    0xdc, 0x01, 0x00, 0x00, 0xd4, 0x01, 0x00, 0x00, 0xcc, 0x01, 0x00, 0x00,
    0xc4, 0x01, 0x00, 0x00, 0xbc, 0x01, 0x00, 0x00, 0xb4, 0x01, 0x00, 0x00,
    0xac, 0x01, 0x00, 0x00, 0xa4, 0x01, 0x00, 0x00, 0x9c, 0x01, 0x00, 0x00,
    0x94, 0x01, 0x00, 0x00, 0x8c, 0x01, 0x00, 0x00, 0x84, 0x01, 0x00, 0x00,
    0x7c, 0x01, 0x00, 0x00, 0x74, 0x01, 0x00, 0x00, 0x6c, 0x01, 0x00, 0x00,
    0x64, 0x01, 0x00, 0x00, 0x5c, 0x01, 0x00, 0x00, 0x54, 0x01, 0x00, 0x00,
    0x4c, 0x01, 0x00, 0x00, 0x44, 0x01, 0x00, 0x00, 0x3c, 0x01, 0x00, 0x00,
    0x34, 0x01, 0x00, 0x00, 0x2c, 0x01, 0x00, 0x00, 0x24, 0x01, 0x00, 0x00,
    0x1c, 0x01, 0x00, 0x00, 0x14, 0x01, 0x00, 0x00, 0x0c, 0x01, 0x00, 0x00,
    0x04, 0x01, 0x00, 0x00, 0xfc, 0x00, 0x00, 0x00, 0xf4, 0x00, 0x00, 0x00,
    0xec, 0x00, 0x00, 0x00, 0xe4, 0x00, 0x00, 0x00, 0xdc, 0x00, 0x00, 0x00,
    0xd4, 0x00, 0x00, 0x00, 0xcc, 0x00, 0x00, 0x00, 0xc4, 0x00, 0x00, 0x00,
    0xbc, 0x00, 0x00, 0x00, 0xb4, 0x00, 0x00, 0x00, 0xac, 0x00, 0x00, 0x00,
    0xa4, 0x00, 0x00, 0x00, 0x9c, 0x00, 0x00, 0x00, 0x7c, 0x00, 0x00, 0x00,
    0x5c, 0x00, 0x00, 0x00, 0x04, 0x00, 0x00, 0x00, 0xe2, 0xda, 0xff, 0xff,
    0x04, 0x00, 0x00, 0x00, 0x48, 0x00, 0x00, 0x00, 0x04, 0x00, 0x00, 0x00,
    0xdc, 0xff, 0xff, 0xff, 0x10, 0x00, 0x00, 0x00, 0x24, 0x00, 0x00, 0x00,
    0x00, 0x00, 0x06, 0x00, 0x08, 0x00, 0x04, 0x00, 0x06, 0x00, 0x00, 0x00,
    0x04, 0x00, 0x00, 0x00, 0x01, 0x00, 0x00, 0x00, 0xeb, 0x03, 0x00, 0x00,
    0x08, 0x00, 0x0c, 0x00, 0x08, 0x00, 0x04, 0x00, 0x08, 0x00, 0x00, 0x00,
    0x01, 0x00, 0x00, 0x00, 0x04, 0x00, 0x00, 0x00, 0x06, 0x00, 0x00, 0x00,
    0x32, 0x2e, 0x31, 0x36, 0x2e, 0x31, 0x00, 0x00, 0x36, 0xdb, 0xff, 0xff,
    0x04, 0x00, 0x00, 0x00, 0x10, 0x00, 0x00, 0x00, 0x00, 0x00, 0x00, 0x00,
    0x00, 0x00, 0x00, 0x00, 0x00, 0x00, 0x00, 0x00, 0x00, 0x00, 0x00, 0x00,
    0x52, 0xdb, 0xff, 0xff, 0x04, 0x00, 0x00, 0x00, 0x10, 0x00, 0x00, 0x00,
    0x32, 0x2e, 0x31, 0x2e, 0x30, 0x00, 0x00, 0x00, 0x00, 0x00, 0x00, 0x00,
    0x00, 0x00, 0x00, 0x00, 0xb0, 0xac, 0xff, 0xff, 0xb4, 0xac, 0xff, 0xff,
    0xb8, 0xac, 0xff, 0xff, 0xbc, 0xac, 0xff, 0xff, 0xc0, 0xac, 0xff, 0xff,
    0xc4, 0xac, 0xff, 0xff, 0xc8, 0xac, 0xff, 0xff, 0xcc, 0xac, 0xff, 0xff,
    0xd0, 0xac, 0xff, 0xff, 0xd4, 0xac, 0xff, 0xff, 0xd8, 0xac, 0xff, 0xff,
    0xdc, 0xac, 0xff, 0xff, 0xe0, 0xac, 0xff, 0xff, 0xe4, 0xac, 0xff, 0xff,
    0xe8, 0xac, 0xff, 0xff, 0xec, 0xac, 0xff, 0xff, 0xf0, 0xac, 0xff, 0xff,
    0xf4, 0xac, 0xff, 0xff, 0xf8, 0xac, 0xff, 0xff, 0xfc, 0xac, 0xff, 0xff,
    0x00, 0xad, 0xff, 0xff, 0x04, 0xad, 0xff, 0xff, 0x08, 0xad, 0xff, 0xff,
    0x0c, 0xad, 0xff, 0xff, 0x10, 0xad, 0xff, 0xff, 0x14, 0xad, 0xff, 0xff,
    0x18, 0xad, 0xff, 0xff, 0x1c, 0xad, 0xff, 0xff, 0x20, 0xad, 0xff, 0xff,
    0x24, 0xad, 0xff, 0xff, 0x28, 0xad, 0xff, 0xff, 0x2c, 0xad, 0xff, 0xff,
    0x30, 0xad, 0xff, 0xff, 0x34, 0xad, 0xff, 0xff, 0x38, 0xad, 0xff, 0xff,
    0x3c, 0xad, 0xff, 0xff, 0x40, 0xad, 0xff, 0xff, 0x44, 0xad, 0xff, 0xff,
    0x48, 0xad, 0xff, 0xff, 0x4c, 0xad, 0xff, 0xff, 0x50, 0xad, 0xff, 0xff,
    0x12, 0xdc, 0xff, 0xff, 0x04, 0x00, 0x00, 0x00, 0x90, 0x00, 0x00, 0x00,
    0x7f, 0xe1, 0x6d, 0x1b, 0x09, 0x84, 0x4e, 0xb6, 0x44, 0xc0, 0x89, 0x81,
    0xf4, 0x33, 0xf5, 0x94, 0x66, 0x39, 0xec, 0x5c, 0x53, 0x81, 0xe2, 0xbf,
    0x25, 0x10, 0x09, 0xde, 0x50, 0x64, 0x37, 0x81, 0xd7, 0x2b, 0x76, 0xcd,
    0x07, 0x11, 0xee, 0xe8, 0xf9, 0x7f, 0x7a, 0xff, 0x36, 0x7e, 0x39, 0x7f,
    0x34, 0x21, 0x35, 0xa6, 0x4d, 0x67, 0x48, 0xcd, 0x3d, 0x4a, 0x48, 0x07,
    0xb0, 0xf3, 0x81, 0x4a, 0x99, 0x36, 0x81, 0xf3, 0x16, 0x90, 0x60, 0x00,
    0x81, 0x54, 0xd6, 0x02, 0x40, 0x3a, 0x02, 0xed, 0xc0, 0x0f, 0xe9, 0x2d,
    0x7b, 0xaf, 0xbf, 0xd6, 0x7f, 0x13, 0x61, 0xf7, 0xc8, 0xdf, 0xa5, 0x6e,
    0xcf, 0x7f, 0x48, 0x5b, 0x51, 0xed, 0xbb, 0xbb, 0xac, 0x81, 0xbd, 0x25,
    0xdb, 0xc0, 0x1f, 0xae, 0xfe, 0x7f, 0x20, 0xef, 0xad, 0x81, 0x07, 0xa2,
    0xea, 0xb0, 0xe3, 0x4b, 0x7b, 0xff, 0x3b, 0x6b, 0xfa, 0x5a, 0xc6, 0xb9,
    0x78, 0x97, 0x7f, 0x85, 0x76, 0x3a, 0x46, 0x81, 0xc1, 0xff, 0x67, 0xc6,
    0xae, 0xdc, 0xff, 0xff, 0x04, 0x00, 0x00, 0x00, 0x40, 0x00, 0x00, 0x00,
    0x30, 0x84, 0xff, 0xff, 0x05, 0x99, 0x00, 0x00, 0xa2, 0x03, 0x00, 0x00,
    0x71, 0x9b, 0xff, 0xff, 0x6a, 0x30, 0xff, 0xff, 0x89, 0x73, 0xfe, 0xff,
    0x0e, 0xfd, 0xff, 0xff, 0x47, 0x4b, 0x00, 0x00, 0xd7, 0x14, 0x00, 0x00,
    0x78, 0xac, 0xff, 0xff, 0xce, 0x80, 0xff, 0xff, 0x9e, 0xad, 0x00, 0x00,
    0x5d, 0x40, 0x00, 0x00, 0x75, 0x64, 0x00, 0x00, 0xd9, 0x4a, 0xff, 0xff,
    0xa5, 0x10, 0x00, 0x00, 0x3c, 0xae, 0xff, 0xff, 0x40, 0xae, 0xff, 0xff,
    0x44, 0xae, 0xff, 0xff, 0x48, 0xae, 0xff, 0xff, 0x0a, 0xdd, 0xff, 0xff,
    0x04, 0x00, 0x00, 0x00, 0x01, 0x00, 0x00, 0x00, 0x7f, 0x00, 0x00, 0x00,
    0x1a, 0xdd, 0xff, 0xff, 0x04, 0x00, 0x00, 0x00, 0x00, 0x09, 0x00, 0x00,
    0xab, 0x18, 0xc5, 0x6d, 0x10, 0x7e, 0x88, 0xf1, 0xe2, 0xa2, 0xd9, 0xb6,
    0xac, 0x3a, 0x42, 0x62, 0xa4, 0xa8, 0x90, 0x78, 0xe6, 0x4e, 0xbb, 0xda,
    0xe0, 0xdd, 0x6e, 0x5e, 0x00, 0xec, 0x55, 0x02, 0xcb, 0xce, 0xe9, 0xb9,
    0xdf, 0x11, 0x6d, 0xcc, 0xab, 0x23, 0x29, 0x55, 0x37, 0xae, 0xc8, 0x4c,
    0x4f, 0x4c, 0x0e, 0xc8, 0x89, 0x5b, 0x50, 0xf7, 0xf3, 0x66, 0x88, 0x83,
    0x27, 0x7f, 0x1b, 0x77, 0xdd, 0x29, 0x16, 0xbc, 0xcb, 0xab, 0xa4, 0x00,
    0xb7, 0xa2, 0x0e, 0x37, 0xde, 0xc1, 0x03, 0x60, 0x9f, 0xfd, 0xfb, 0xc2,
    0x67, 0x22, 0x3d, 0x1f, 0xca, 0xd1, 0x6b, 0x43, 0x75, 0xf9, 0x90, 0x67,
    0x16, 0xbb, 0x00, 0x40, 0xde, 0xa7, 0x6a, 0x4c, 0x6a, 0x69, 0x52, 0xc6,
    0x44, 0x19, 0x59, 0xbd, 0xf6, 0xb2, 0x4a, 0xd1, 0x8e, 0xfd, 0x82, 0xce,
    0x04, 0xeb, 0x28, 0x4d, 0x45, 0xb2, 0xa7, 0xe1, 0xdf, 0x9f, 0x21, 0x13,
    0x1c, 0xfe, 0xde, 0x37, 0x46, 0x57, 0x46, 0xd5, 0x61, 0x8f, 0x49, 0x9a,
    0xec, 0xba, 0x28, 0xfa, 0xf3, 0xb8, 0x06, 0x4e, 0x43, 0xe0, 0x98, 0xbf,
    0x42, 0x5d, 0xf3, 0xea, 0x39, 0x00, 0x0f, 0x94, 0xec, 0xb8, 0xdd, 0xac,
    0x4a, 0x96, 0xd8, 0x1c, 0xf6, 0x16, 0x3f, 0xb3, 0x12, 0x6d, 0xad, 0xe2,
    0x23, 0xf4, 0xb8, 0xba, 0x46, 0xb5, 0xe6, 0xda, 0x05, 0xf7, 0x95, 0xcc,
    0x18, 0x1d, 0x81, 0x5b, 0x35, 0x3e, 0xc5, 0xf9, 0x41, 0xe8, 0xc7, 0x0d,
    0xf7, 0xd4, 0x06, 0x93, 0xbf, 0x0b, 0xa8, 0xff, 0xb1, 0xd3, 0x3f, 0x8a,
    0xbd, 0xc5, 0x39, 0x04, 0x99, 0x60, 0xf3, 0xb0, 0x26, 0x5e, 0x97, 0xb9,
    0x5a, 0x53, 0x21, 0xa9, 0x14, 0x2e, 0xb7, 0x15, 0x10, 0xca, 0x49, 0x1f,
    0x5f, 0x21, 0xc0, 0xd7, 0x4a, 0xde, 0x20, 0x33, 0x14, 0xc3, 0x0e, 0x02,
    0xe5, 0xea, 0xdc, 0xbf, 0xe8, 0x94, 0x08, 0xc1, 0x06, 0x36, 0x92, 0x92,
    0x32, 0xee, 0xe9, 0xdc, 0x31, 0xc9, 0x16, 0x19, 0xd3, 0xeb, 0x09, 0x50,
    0x26, 0xbc, 0xff, 0xf3, 0xd7, 0x1f, 0xd3, 0xa7, 0x0f, 0xd8, 0xc5, 0x54,
    0x64, 0x0f, 0x31, 0x3d, 0x30, 0x03, 0x42, 0x72, 0x98, 0xea, 0x9f, 0xd4,
    0x63, 0xc6, 0xe7, 0x40, 0x03, 0xcf, 0x45, 0x57, 0xd8, 0xd1, 0xa3, 0xc0,
    0x21, 0x36, 0xb3, 0xb7, 0xd6, 0xfc, 0x34, 0xe8, 0x61, 0xd9, 0xb7, 0xd9,
    0xd6, 0x36, 0xbe, 0x9a, 0xb1, 0xdc, 0x56, 0x2f, 0xbd, 0x92, 0x5c, 0x0a,
    0xe0, 0xd1, 0x33, 0x12, 0xed, 0x0e, 0x2b, 0x6e, 0xa0, 0x34, 0x56, 0x73,
    0x10, 0xd7, 0x3b, 0x95, 0x93, 0xf0, 0x38, 0xdc, 0xf7, 0xdc, 0x21, 0x27,
    0x60, 0xdd, 0xf1, 0xc7, 0x33, 0x13, 0xa7, 0xae, 0xbc, 0xa4, 0x5b, 0x62,
    0x4a, 0xf6, 0x0c, 0xa0, 0xfd, 0xc5, 0x5d, 0x5c, 0xfc, 0x17, 0xfb, 0xeb,
    0xa3, 0xdb, 0x14, 0xcb, 0xbb, 0x30, 0x5a, 0xab, 0xc5, 0xe7, 0x3f, 0x6a,
    0xf6, 0x40, 0x27, 0x98, 0x14, 0x4e, 0x19, 0x01, 0x97, 0x23, 0xde, 0x7f,
    0x40, 0x9a, 0xfe, 0x31, 0x5d, 0x0a, 0x26, 0x36, 0x18, 0xdb, 0xd1, 0x72,
    0x2e, 0xde, 0x62, 0x58, 0x2b, 0x99, 0x38, 0x2d, 0xfe, 0x1c, 0x09, 0x1f,
    0x33, 0xcd, 0x66, 0xab, 0x1f, 0x25, 0x16, 0x4d, 0xac, 0xb8, 0xae, 0x34,
    0xc3, 0x93, 0xc3, 0x3d, 0x9f, 0x00, 0xee, 0xfd, 0xe5, 0xe7, 0xa0, 0x3b,
    0x67, 0x10, 0x48, 0xf7, 0x6c, 0x2f, 0x26, 0x4a, 0xb5, 0xfe, 0xa6, 0xa0,
    0xea, 0x8f, 0xab, 0xd6, 0x5e, 0xc9, 0x2d, 0x5b, 0xbb, 0xc6, 0x14, 0x0c,
    0x85, 0x2c, 0xdd, 0xc9, 0xf6, 0x4a, 0xba, 0x99, 0xf4, 0x02, 0xd5, 0xbe,
    0xe6, 0xcb, 0xc4, 0xd9, 0x6a, 0xd2, 0x0b, 0x57, 0xeb, 0xec, 0xcb, 0x27,
    0xf5, 0xbd, 0x2f, 0x5a, 0xb5, 0x73, 0x4f, 0xbd, 0x92, 0xca, 0x28, 0x21,
    0x3e, 0xb2, 0x41, 0x5c, 0xbc, 0x35, 0x1b, 0xaa, 0xf4, 0x60, 0x55, 0xb6,
    0xf1, 0x17, 0xa6, 0x0d, 0x49, 0xe7, 0x9e, 0xde, 0x43, 0xc8, 0x04, 0xa1,
    0xca, 0x19, 0x92, 0x62, 0x94, 0x8f, 0xe4, 0xf7, 0xa8, 0x4f, 0x23, 0xda,
    0x09, 0xd8, 0x2a, 0xc0, 0x43, 0xd2, 0x81, 0x8e, 0x8c, 0xa1, 0xf9, 0x0e,
    0x3c, 0x33, 0xe8, 0xf1, 0x28, 0x89, 0x9a, 0xab, 0x90, 0xdc, 0xfb, 0xfc,
    0xbe, 0x2c, 0xbc, 0x96, 0xd3, 0x50, 0xeb, 0xcf, 0xdb, 0x44, 0x22, 0xe2,
    0xad, 0xa4, 0x3b, 0x0f, 0xee, 0xfc, 0x5a, 0xef, 0x40, 0xd4, 0x55, 0xa7,
    0xe9, 0xb2, 0xc6, 0x39, 0xb0, 0x3f, 0x9b, 0xca, 0x5a, 0x9d, 0x13, 0xb2,
    0xf4, 0x57, 0xa6, 0x99, 0xc3, 0xf5, 0xa8, 0xfb, 0x24, 0xe6, 0x0b, 0x00,
    0x9e, 0x5b, 0xfd, 0x1d, 0x2f, 0x57, 0x7f, 0xae, 0x18, 0x9c, 0xc3, 0x1f,
    0x2e, 0x0b, 0xd9, 0x97, 0xef, 0xa0, 0x4b, 0x5c, 0xef, 0x2b, 0xeb, 0xd8,
    0xe4, 0x61, 0xfa, 0xaa, 0xf9, 0xad, 0x22, 0x54, 0xa1, 0xf9, 0x01, 0x3a,
    0xa3, 0x5d, 0xa8, 0x33, 0x3e, 0xea, 0xdf, 0x13, 0xbd, 0xc2, 0x4d, 0xe7,
    0xf8, 0x53, 0x47, 0xab, 0xc0, 0x5a, 0x21, 0xec, 0x95, 0xe4, 0x3f, 0xa3,
    0x98, 0x17, 0xe0, 0x54, 0xc8, 0xc6, 0x6d, 0xfe, 0x08, 0x40, 0x44, 0x62,
    0xb7, 0xcf, 0x5a, 0xfd, 0xc4, 0xee, 0xde, 0xff, 0x40, 0x37, 0x12, 0xd2,
    0x9a, 0xe7, 0xc5, 0xef, 0xc7, 0x9d, 0x20, 0x41, 0xa7, 0x9a, 0x06, 0x4e,
    0xb8, 0xc5, 0xd9, 0x22, 0xca, 0xf9, 0xc1, 0x7f, 0x5b, 0x9d, 0x87, 0xea,
    0x1a, 0xc6, 0x39, 0x2f, 0xa8, 0xb2, 0x27, 0xcf, 0xf8, 0x35, 0xef, 0xed,
    0xab, 0x32, 0x47, 0x5e, 0xe0, 0x5f, 0x14, 0x9c, 0x1a, 0x95, 0x32, 0xb0,
    0x1b, 0x24, 0x03, 0x9d, 0xae, 0xd1, 0x2c, 0xd6, 0x35, 0xc0, 0x3c, 0x9a,
    0xe7, 0x5c, 0x58, 0x33, 0xe4, 0x13, 0xbf, 0xe8, 0x9f, 0x11, 0xd6, 0xf5,
    0xd2, 0xbe, 0x42, 0x25, 0x97, 0xbb, 0x57, 0x05, 0x0b, 0xd5, 0xca, 0x71,
    0x39, 0x29, 0x28, 0xda, 0x5f, 0x77, 0x92, 0xe7, 0xc4, 0x3c, 0x27, 0xc7,
    0x00, 0x05, 0xd1, 0x07, 0xca, 0xdb, 0x44, 0x31, 0x54, 0x2a, 0xb5, 0x64,
    0x11, 0xd2, 0xcd, 0x04, 0x9f, 0xe7, 0x01, 0xda, 0x12, 0xfa, 0xe9, 0xa9,
    0xa8, 0x68, 0x58, 0xc4, 0x31, 0xbe, 0x9b, 0x1f, 0x9d, 0xc6, 0x2f, 0x9c,
    0x21, 0x62, 0xe7, 0x94, 0x36, 0x3e, 0x63, 0x60, 0xca, 0x42, 0x4e, 0x53,
    0x9c, 0x58, 0x0c, 0xec, 0x34, 0x3a, 0x66, 0x48, 0xf6, 0xd5, 0x06, 0x4b,
    0x0b, 0x7f, 0x00, 0x2f, 0xc4, 0x4c, 0x8d, 0xff, 0x4c, 0xec, 0x49, 0xac,
    0x64, 0xc0, 0xd0, 0x04, 0x97, 0x24, 0xa0, 0xc2, 0xcb, 0x48, 0xe0, 0x45,
    0x4a, 0xf6, 0xfe, 0xc0, 0xe3, 0x25, 0xb4, 0xcb, 0x3d, 0x6c, 0xdb, 0xbe,
    0xac, 0xb2, 0x21, 0x1a, 0xa7, 0x0d, 0xe7, 0x28, 0xc1, 0x28, 0xce, 0xfd,
    0xe9, 0x00, 0x07, 0x40, 0x31, 0xc5, 0x4a, 0xdc, 0x3d, 0x9b, 0x4a, 0x04,
    0xe8, 0x0a, 0x49, 0x33, 0x3f, 0x42, 0xf2, 0xd9, 0x1d, 0xc4, 0x3d, 0xc0,
    0x47, 0xf9, 0xe4, 0x34, 0x2f, 0x28, 0xbb, 0xd3, 0xd4, 0xd1, 0xca, 0xef,
    0x16, 0x01, 0xd0, 0x0c, 0xe5, 0x45, 0xfd, 0xde, 0xae, 0x50, 0x32, 0xb7,
    0xde, 0xf9, 0x9c, 0x56, 0x24, 0x03, 0xdb, 0xa4, 0x3c, 0xe4, 0x41, 0x68,
    0x4a, 0xcd, 0x54, 0xb5, 0xfc, 0x5c, 0x0b, 0xd2, 0xdb, 0xec, 0xf4, 0x1b,
    0x37, 0xba, 0x28, 0x19, 0x6c, 0xa9, 0x3d, 0xa4, 0x04, 0x1e, 0xa7, 0x19,
    0x45, 0xa6, 0x05, 0xef, 0xf9, 0xf9, 0x0b, 0x06, 0x40, 0x3c, 0x06, 0xe9,
    0x12, 0x22, 0x02, 0x3a, 0xe6, 0x4a, 0x08, 0xf0, 0xfa, 0x40, 0xf6, 0xe6,
    0x42, 0xfc, 0xeb, 0xe7, 0xd5, 0x0b, 0xc3, 0x1e, 0x24, 0x46, 0xea, 0x54,
    0x00, 0x19, 0xa3, 0x48, 0xa9, 0x12, 0x3b, 0xf0, 0x4c, 0xad, 0xf5, 0xe8,
    0x57, 0xee, 0x34, 0xfe, 0x2d, 0x5e, 0xa3, 0x23, 0x3a, 0x5b, 0x07, 0xd1,
    0x4b, 0x11, 0x48, 0xa7, 0x9f, 0xa8, 0x26, 0x35, 0xa0, 0x49, 0xb1, 0xa9,
    0xba, 0xc8, 0x39, 0xad, 0x1f, 0xb8, 0x99, 0xcd, 0xc8, 0x3c, 0xf1, 0xd5,
    0xa2, 0xa8, 0xdf, 0x50, 0x9c, 0xbf, 0xed, 0x8f, 0xae, 0x3a, 0x2d, 0x19,
    0xbb, 0xa9, 0x2d, 0xcd, 0xd1, 0x5e, 0x65, 0x9c, 0x49, 0x55, 0x64, 0x0d,
    0x3f, 0xc8, 0xa8, 0x08, 0xc5, 0x30, 0x57, 0xae, 0xf1, 0xde, 0x22, 0x52,
    0xdc, 0x43, 0xc0, 0x19, 0xd4, 0xee, 0x9a, 0x28, 0x60, 0xe0, 0x2d, 0x02,
    0xa2, 0x05, 0x19, 0x81, 0x0d, 0xe6, 0xd7, 0xe8, 0xfb, 0xb5, 0x8b, 0xaf,
    0xe0, 0xab, 0xbf, 0xe6, 0xb1, 0xb8, 0x51, 0x1e, 0xde, 0x25, 0x5b, 0x02,
    0x1c, 0x21, 0x26, 0xf6, 0x29, 0xdd, 0x19, 0xb4, 0x51, 0xd7, 0x30, 0xf3,
    0x68, 0xa4, 0xdf, 0x2d, 0xf9, 0xe5, 0x0c, 0xcc, 0x45, 0xcf, 0x55, 0x94,
    0xc6, 0xa7, 0x16, 0x2a, 0x31, 0x69, 0xc2, 0xbe, 0xfb, 0x05, 0x90, 0x2c,
    0x81, 0x1b, 0xce, 0xae, 0x27, 0x0c, 0x3e, 0x34, 0x0e, 0xdc, 0x53, 0x8f,
    0xce, 0x3c, 0x47, 0x4b, 0xb4, 0xd1, 0x97, 0xa7, 0x57, 0x4d, 0xb8, 0x31,
    0x1c, 0x8e, 0x5b, 0xe4, 0x36, 0xfd, 0xbe, 0x24, 0x6a, 0x4a, 0x43, 0x09,
    0xbf, 0x0e, 0xab, 0xc3, 0xe0, 0xde, 0x36, 0xbc, 0xb8, 0x11, 0xc0, 0x26,
    0xd8, 0x21, 0xab, 0x1b, 0xb0, 0x1f, 0xcd, 0xdc, 0x32, 0xe6, 0xeb, 0xe0,
    0x3b, 0xb2, 0xcf, 0x1b, 0x3b, 0x10, 0x91, 0x58, 0xce, 0x28, 0x36, 0xf0,
    0xea, 0x4a, 0x23, 0x0c, 0xe7, 0xdf, 0x55, 0xc8, 0x5f, 0xf3, 0xe6, 0xbd,
    0x97, 0xbf, 0x5e, 0x87, 0xeb, 0xbe, 0xb5, 0x29, 0x4b, 0xf2, 0x4a, 0x98,
    0xf9, 0x28, 0xe2, 0x26, 0x14, 0xca, 0x1d, 0xe2, 0xdc, 0xeb, 0xcd, 0xab,
    0xde, 0x3c, 0x4a, 0xb0, 0x55, 0x3d, 0x4e, 0x5a, 0xa4, 0xa6, 0x5f, 0x08,
    0x5e, 0xa6, 0xaf, 0x49, 0x1f, 0xa7, 0x05, 0x6a, 0xd8, 0x01, 0xaf, 0xa3,
    0xe0, 0x28, 0x96, 0x2e, 0x48, 0xcc, 0xdc, 0x48, 0x1e, 0x5c, 0xb1, 0x54,
    0x3f, 0x28, 0xb0, 0xae, 0x1a, 0xa1, 0x92, 0x1c, 0x49, 0x47, 0xb2, 0xa9,
    0x86, 0x4d, 0x9b, 0xf5, 0xfd, 0xd1, 0x24, 0xde, 0x11, 0x87, 0xab, 0xd5,
    0xcc, 0x59, 0x17, 0x4b, 0xb9, 0xd5, 0x60, 0x35, 0x5b, 0xc4, 0x28, 0x37,
    0x10, 0x24, 0xdc, 0x17, 0x50, 0x22, 0xf9, 0xb0, 0xe8, 0x6f, 0xe3, 0xcb,
    0x0d, 0x42, 0x7f, 0xec, 0xb8, 0x28, 0x47, 0x1b, 0x42, 0x12, 0xbc, 0xd2,
    0x35, 0x2d, 0x62, 0x59, 0xa0, 0xa4, 0xb9, 0x5f, 0x1c, 0xe0, 0x40, 0x28,
    0xd0, 0x68, 0x48, 0x01, 0x36, 0x50, 0xef, 0xad, 0x0e, 0xbf, 0xf6, 0xd6,
    0x32, 0x56, 0x5f, 0x22, 0xc7, 0x5b, 0xba, 0x10, 0xe1, 0x18, 0xd8, 0x35,
    0xba, 0x15, 0x74, 0xba, 0xdb, 0x05, 0xe4, 0x4a, 0xec, 0x08, 0x91, 0xfa,
    0x26, 0xe9, 0xe3, 0x2b, 0xa0, 0x0e, 0xe0, 0x2d, 0xe8, 0xdc, 0xdb, 0xa4,
    0x29, 0xc5, 0x11, 0xf5, 0x43, 0xf8, 0xfc, 0x24, 0x32, 0x9c, 0xbf, 0x38,
    0xf1, 0xa3, 0x90, 0x1b, 0xef, 0xaf, 0xf0, 0x3a, 0x17, 0x12, 0xcd, 0xa0,
    0xe3, 0x9c, 0xc6, 0x3c, 0x4c, 0xd5, 0x0c, 0x53, 0x07, 0xf7, 0xff, 0xb4,
    0x54, 0x51, 0x46, 0x6b, 0x51, 0xdf, 0xcf, 0x49, 0xe9, 0xac, 0x16, 0xe7,
    0xff, 0xc9, 0xec, 0xb0, 0x22, 0x2e, 0x83, 0xd4, 0xcd, 0xed, 0x32, 0x25,
    0x4e, 0x39, 0x17, 0x1a, 0x95, 0xc1, 0xf7, 0x2d, 0xb6, 0x21, 0x22, 0xe7,
    0xde, 0x69, 0xa5, 0x4d, 0xd5, 0x08, 0xf9, 0x1d, 0xbb, 0xaf, 0xc5, 0xa7,
    0x07, 0xaa, 0xea, 0x17, 0x5f, 0x31, 0x53, 0xb3, 0xc0, 0x09, 0xff, 0xa4,
    0x53, 0x01, 0xad, 0xc5, 0xc9, 0x28, 0x07, 0x35, 0x03, 0x3b, 0x20, 0xc8,
    0xbd, 0x39, 0x44, 0xdc, 0x42, 0x0c, 0x60, 0xb6, 0x3d, 0xea, 0xa7, 0xac,
    0x01, 0xb7, 0xa3, 0x7f, 0x24, 0x98, 0x03, 0x6e, 0x7b, 0x9c, 0xb8, 0xd4,
    0xc0, 0xa2, 0xe0, 0xab, 0xf7, 0x12, 0xb3, 0x4a, 0xb3, 0x25, 0x3e, 0xdd,
    0x04, 0x1f, 0xd3, 0xe2, 0x25, 0xe8, 0xe7, 0x00, 0x27, 0x14, 0x1a, 0x10,
    0xca, 0x30, 0xa8, 0x0c, 0xdd, 0xaa, 0x8e, 0xed, 0x28, 0x9d, 0xac, 0x27,
    0x3e, 0x35, 0xfc, 0x06, 0xd1, 0x58, 0x0a, 0x45, 0x44, 0xa3, 0x21, 0xf6,
    0x66, 0xd2, 0xfc, 0xec, 0x5d, 0xd3, 0x37, 0x51, 0xc2, 0xbf, 0x36, 0x5e,
    0x34, 0x7f, 0x2a, 0x47, 0xc6, 0xdf, 0x1e, 0x95, 0xc3, 0xfa, 0x2c, 0xc6,
    0xb7, 0x01, 0x55, 0xfc, 0x1c, 0x1d, 0x1b, 0x10, 0xe4, 0x1d, 0xbd, 0x02,
    0xd9, 0xb5, 0xd8, 0x5f, 0x66, 0xb8, 0x06, 0xae, 0x0c, 0x0b, 0xf9, 0xfb,
    0xf3, 0x11, 0xfa, 0x1c, 0xf2, 0x56, 0x32, 0xe2, 0x42, 0xe2, 0xff, 0x0b,
    0xd4, 0x47, 0x1c, 0x13, 0xad, 0x49, 0xa5, 0xf8, 0xdc, 0x39, 0xdf, 0xf5,
    0xb5, 0xb5, 0xdd, 0x3f, 0xe9, 0x38, 0x62, 0xe2, 0xad, 0xc8, 0x51, 0xd5,
    0xee, 0xc6, 0xd4, 0xdc, 0x07, 0xb2, 0xdd, 0xa7, 0xe8, 0x6a, 0xa2, 0xe6,
    0xc4, 0xe0, 0x48, 0xb0, 0x3f, 0xd8, 0x9d, 0x46, 0xa7, 0xdb, 0x01, 0x11,
    0xb9, 0xc9, 0x3b, 0xec, 0xc1, 0x2c, 0xb3, 0x37, 0x97, 0xd6, 0xfd, 0x65,
    0xea, 0xa9, 0xf8, 0xb9, 0x42, 0x6f, 0xbf, 0x46, 0x2a, 0xb8, 0xcb, 0x31,
    0xc2, 0x29, 0x81, 0xd0, 0xd0, 0xda, 0xe8, 0x25, 0xc8, 0xd8, 0x0e, 0x01,
    0x52, 0x52, 0xd7, 0xd2, 0x14, 0x32, 0xfd, 0x05, 0xe3, 0xee, 0x23, 0x51,
    0xb0, 0xca, 0xbb, 0xf6, 0x31, 0xaa, 0x37, 0xf9, 0xab, 0x2e, 0xa5, 0xeb,
    0xfd, 0xba, 0x9c, 0xe3, 0x38, 0xeb, 0x38, 0xcd, 0xea, 0xd7, 0x5f, 0x10,
    0xfd, 0xf9, 0x39, 0x65, 0xea, 0xe3, 0x1c, 0x38, 0xa3, 0xf7, 0xaa, 0x66,
    0x5b, 0xa5, 0xd4, 0x14, 0x09, 0xd2, 0x1d, 0x02, 0xf3, 0x0d, 0xfc, 0x53,
    0xf5, 0x1e, 0xf3, 0xce, 0x09, 0x52, 0x09, 0xa8, 0xae, 0x1a, 0xf6, 0xe4,
    0x36, 0x31, 0x16, 0x64, 0x33, 0xb7, 0x96, 0x46, 0xdb, 0x9f, 0x57, 0x0c,
    0x24, 0x2a, 0xe0, 0xc3, 0x22, 0x17, 0xa8, 0x5f, 0xf2, 0x28, 0xf4, 0xa3,
    0xd2, 0xe5, 0x39, 0x72, 0x14, 0xb6, 0xbc, 0x5c, 0x3c, 0x60, 0x42, 0xa5,
    0xd7, 0x18, 0x08, 0x57, 0x5f, 0xf7, 0x0c, 0x68, 0xc3, 0x12, 0xfa, 0x66,
    0xb6, 0x9f, 0xe7, 0xc5, 0x07, 0xaa, 0x33, 0x5a, 0xcd, 0xac, 0x5c, 0xb3,
    0x81, 0xbf, 0x3e, 0x6d, 0xf0, 0x0a, 0xdb, 0x98, 0x5d, 0x1d, 0x4c, 0x24,
    0x38, 0x0f, 0x95, 0x9e, 0xf1, 0xac, 0xa5, 0xdb, 0xac, 0x68, 0x22, 0x4d,
    0x11, 0xd2, 0x23, 0xe8, 0x12, 0x0b, 0xd9, 0x41, 0xe5, 0xd2, 0x26, 0xfe,
    0x97, 0xd9, 0x47, 0x1b, 0xaa, 0x7f, 0x49, 0xf1, 0xb3, 0x3a, 0xd9, 0xcd,
    0xbe, 0xe0, 0xa4, 0x2a, 0x34, 0x9a, 0x27, 0xaa, 0x36, 0xe5, 0xac, 0xa5,
    0x38, 0x5d, 0x50, 0xe1, 0xba, 0x58, 0x57, 0xae, 0x0c, 0x73, 0x20, 0x82,
    0x06, 0xd2, 0xb0, 0x45, 0xb4, 0x2b, 0xad, 0x3a, 0x50, 0x58, 0x86, 0x18,
    0x6b, 0x3c, 0x2f, 0x2a, 0x05, 0x24, 0xf7, 0x6a, 0xdb, 0xc1, 0xb2, 0x41,
    0x3f, 0xb7, 0x1f, 0x0b, 0x3f, 0x3a, 0xaa, 0xca, 0x59, 0xdb, 0x3c, 0x55,
    0x8e, 0xba, 0x2c, 0x6c, 0x50, 0x9b, 0xc6, 0x53, 0x8f, 0xcf, 0xd7, 0x0a,
    0x87, 0xf1, 0x0b, 0x63, 0xcf, 0x49, 0x50, 0xda, 0x20, 0x81, 0x88, 0xa1,
    0x6f, 0x6c, 0xfd, 0xe9, 0xbc, 0xbd, 0x8c, 0x48, 0xe7, 0x45, 0xd1, 0xf9,
    0xb6, 0xf7, 0x46, 0xf6, 0x6f, 0xb8, 0x09, 0x54, 0xae, 0xc7, 0xe8, 0x89,
    0x9b, 0xf4, 0x0c, 0x54, 0xcc, 0x5c, 0x2a, 0x06, 0xf4, 0xed, 0xdf, 0xab,
    0x02, 0x2b, 0xac, 0x09, 0x18, 0x0b, 0x4d, 0xb0, 0x82, 0x17, 0x36, 0x1a,
    0x60, 0x59, 0xc0, 0xa3, 0xa1, 0x22, 0xd4, 0xfc, 0xfe, 0x9e, 0x69, 0x79,
    0x37, 0x3a, 0xba, 0x7c, 0x8e, 0x4c, 0x19, 0xde, 0x9a, 0x2f, 0xd5, 0xac,
    0x9d, 0xea, 0xb7, 0xe2, 0x19, 0xe8, 0xff, 0xd4, 0x9b, 0xd2, 0xac, 0x8c,
    0xb0, 0x3a, 0xbf, 0xd9, 0x11, 0x95, 0xe1, 0x3c, 0xed, 0x2f, 0x25, 0xcb,
    0xea, 0x14, 0x04, 0x5b, 0x15, 0x6d, 0xcd, 0xad, 0x58, 0xb6, 0x98, 0x2d,
    0x21, 0x06, 0x4d, 0x72, 0xee, 0x47, 0x1f, 0x1d, 0xfa, 0xe5, 0x4a, 0x99,
    0xcf, 0x6b, 0xc2, 0xb2, 0x55, 0xa0, 0x66, 0x7f, 0xc3, 0x7e, 0x62, 0xfd,
    0x6e, 0x02, 0x27, 0xc5, 0xfc, 0x8f, 0x74, 0xce, 0x4c, 0x29, 0x3c, 0x79,
    0xc8, 0x0e, 0x6b, 0x9c, 0x46, 0x0d, 0x2f, 0xcd, 0xc4, 0x7a, 0x64, 0x03,
    0xf7, 0x2d, 0xed, 0xee, 0x22, 0xef, 0xc3, 0x46, 0xd0, 0xeb, 0x95, 0x99,
    0xa9, 0x99, 0xc1, 0x21, 0xbb, 0x4d, 0x34, 0xf0, 0x1a, 0xf9, 0xba, 0x03,
    0x65, 0xe1, 0xaa, 0x3c, 0x8d, 0xcc, 0xdb, 0x99, 0xe5, 0xd2, 0x35, 0x17,
    0x2f, 0x6e, 0x0a, 0x9f, 0x07, 0x3a, 0x2b, 0x51, 0x34, 0x78, 0xbd, 0x6e,
    0x64, 0xfe, 0x21, 0xe2, 0x11, 0x5e, 0x27, 0x2e, 0x42, 0xad, 0xda, 0xe1,
    0x10, 0xa0, 0x04, 0x94, 0xc3, 0x9f, 0x32, 0x98, 0x84, 0xe5, 0x07, 0x3e,
    0x74, 0x8a, 0xe3, 0x91, 0x95, 0x36, 0xc3, 0x64, 0x4f, 0xee, 0x7e, 0x6b,
    0xd6, 0x54, 0xc9, 0xee, 0x25, 0x0d, 0x2c, 0x28, 0x5b, 0xe4, 0x19, 0x45,
    0x30, 0x33, 0x6b, 0xe3, 0xcc, 0x37, 0xf3, 0xdd, 0x8c, 0x8d, 0x7b, 0xeb,
    0x26, 0xe6, 0xff, 0xff, 0x04, 0x00, 0x00, 0x00, 0x40, 0x00, 0x00, 0x00,
    0x00, 0x00, 0x00, 0x00, 0x00, 0x00, 0x00, 0x00, 0x00, 0x00, 0x00, 0x00,
    0x00, 0x00, 0x00, 0x00, 0x00, 0x00, 0x00, 0x00, 0x00, 0x00, 0x00, 0x00,
    0x00, 0x00, 0x00, 0x00, 0x00, 0x00, 0x00, 0x00, 0x00, 0x00, 0x00, 0x00,
    0x00, 0x00, 0x00, 0x00, 0x00, 0x00, 0x00, 0x00, 0x00, 0x00, 0x00, 0x00,
    0x00, 0x00, 0x00, 0x00, 0x00, 0x00, 0x00, 0x00, 0x00, 0x00, 0x00, 0x00,
    0x00, 0x00, 0x00, 0x00, 0x72, 0xe6, 0xff, 0xff, 0x04, 0x00, 0x00, 0x00,
    0x90, 0x00, 0x00, 0x00, 0xc8, 0x06, 0x30, 0x1b, 0xe0, 0x44, 0x81, 0xcb,
    0x5c, 0xcd, 0xcd, 0xc9, 0xae, 0x81, 0xd3, 0x3c, 0x36, 0x0e, 0x27, 0xe2,
    0xa8, 0xf6, 0xc1, 0x8b, 0xc7, 0xae, 0x2f, 0xd9, 0x3f, 0xca, 0xa1, 0x3b,
    0x79, 0x7f, 0x86, 0x6d, 0x6a, 0x2b, 0x5b, 0x2e, 0x0d, 0xec, 0x35, 0x7f,
    0x81, 0x70, 0x7f, 0x7f, 0xf3, 0x1b, 0xb5, 0x81, 0xb9, 0xce, 0xf4, 0x51,
    0xc5, 0xb5, 0x7f, 0xdd, 0xb9, 0xdb, 0x20, 0x1c, 0x7b, 0x49, 0x81, 0x33,
    0x3e, 0xfb, 0x19, 0xe6, 0xc3, 0x7f, 0x06, 0x61, 0x14, 0x10, 0x69, 0x00,
    0xf7, 0x01, 0xbe, 0x4b, 0x6a, 0x42, 0xfb, 0xc4, 0x81, 0x44, 0xf8, 0x08,
    0x68, 0x5c, 0x6f, 0x82, 0x81, 0x19, 0x81, 0x83, 0x7f, 0x88, 0x1e, 0x92,
    0x1a, 0x42, 0x7a, 0x29, 0x75, 0x33, 0x33, 0xe0, 0x44, 0x4e, 0xcd, 0xd0,
    0xc7, 0x7f, 0xa3, 0x7f, 0xa0, 0x77, 0x04, 0x10, 0xd8, 0x87, 0x82, 0xef,
    0xd0, 0x5e, 0x60, 0xea, 0x33, 0x67, 0xff, 0xe9, 0xe4, 0xaf, 0xb4, 0xa7,
    0xbc, 0xdb, 0x1a, 0xf1, 0x0e, 0xe7, 0xff, 0xff, 0x04, 0x00, 0x00, 0x00,
    0x40, 0x00, 0x00, 0x00, 0x7c, 0xfd, 0xff, 0xff, 0x7d, 0xfa, 0xff, 0xff,
    0xbd, 0x19, 0x00, 0x00, 0xea, 0x01, 0x00, 0x00, 0xb5, 0xfb, 0xff, 0xff,
    0x52, 0xfc, 0xff, 0xff, 0x9e, 0x08, 0x00, 0x00, 0xdd, 0x03, 0x00, 0x00,
    0x3d, 0x0c, 0x00, 0x00, 0xa0, 0xfc, 0xff, 0xff, 0x80, 0xfd, 0xff, 0xff,
    0x7c, 0xfd, 0xff, 0xff, 0x97, 0x01, 0x00, 0x00, 0x0c, 0x02, 0x00, 0x00,
    0x61, 0xff, 0xff, 0xff, 0x01, 0xfc, 0xff, 0xff, 0x5a, 0xe7, 0xff, 0xff,
    0x04, 0x00, 0x00, 0x00, 0x00, 0x01, 0x00, 0x00, 0xda, 0x81, 0x52, 0x6b,
    0xac, 0xbc, 0x13, 0x66, 0x41, 0xb1, 0x50, 0x34, 0x46, 0x38, 0xd7, 0x1c,
    0xdc, 0x58, 0x79, 0x45, 0x03, 0xcb, 0x81, 0xf8, 0x66, 0x42, 0xb6, 0x76,
    0xd0, 0x64, 0xb8, 0xed, 0xaf, 0xef, 0xa7, 0xbd, 0x9c, 0x81, 0x9e, 0x09,
    0x98, 0xfe, 0x36, 0xf0, 0x1d, 0xc3, 0x16, 0x37, 0xca, 0x60, 0x4b, 0x6f,
    0x0e, 0x43, 0x57, 0xd5, 0x7a, 0x0e, 0xbe, 0x97, 0xc1, 0x3a, 0x7f, 0xf7,
    0xab, 0xa2, 0xdf, 0x96, 0x4a, 0x7f, 0x59, 0x10, 0x69, 0xd7, 0x05, 0xfc,
    0x37, 0xf3, 0x1c, 0x43, 0x72, 0xa9, 0x36, 0xbf, 0xc5, 0xfd, 0xc6, 0x09,
    0x3f, 0xf1, 0x7f, 0x43, 0x8c, 0x3e, 0x4b, 0xe7, 0xd9, 0x48, 0xcd, 0x81,
    0x0a, 0xd2, 0x1e, 0x9d, 0x25, 0xb7, 0x4c, 0x03, 0x28, 0x5c, 0x2c, 0xe2,
    0x78, 0xd3, 0x15, 0xea, 0x8f, 0xef, 0xb3, 0x81, 0x74, 0xa2, 0xe1, 0xd1,
    0x66, 0x1e, 0x22, 0xc9, 0x8f, 0xe7, 0x65, 0xc5, 0x0d, 0xf6, 0x2d, 0x33,
    0x7f, 0x44, 0xa1, 0x26, 0x1c, 0xc6, 0x16, 0xf3, 0xa4, 0x1a, 0x0f, 0xe3,
    0x54, 0x18, 0x84, 0xed, 0x92, 0x07, 0x95, 0x3e, 0x8f, 0x81, 0x16, 0xe7,
    0xba, 0xa3, 0xe8, 0x6b, 0x0c, 0x81, 0xf2, 0xd8, 0x9c, 0xb5, 0x60, 0x89,
    0x67, 0x88, 0x08, 0xd3, 0x1e, 0xfd, 0xf6, 0xaf, 0x14, 0xa7, 0x81, 0x52,
    0x24, 0x23, 0x1f, 0xfa, 0x5e, 0xbf, 0x9e, 0x0a, 0x48, 0x92, 0xbb, 0x14,
    0x8d, 0x73, 0x9e, 0x64, 0x2f, 0x6b, 0x6f, 0x84, 0x5c, 0x81, 0x5c, 0x4c,
    0x18, 0x03, 0xb1, 0xbc, 0x7b, 0x45, 0x56, 0x27, 0xed, 0x65, 0x22, 0x5c,
    0x13, 0x81, 0xd3, 0x2a, 0xa8, 0x35, 0x9e, 0xd7, 0x97, 0x72, 0x46, 0x25,
    0x02, 0x36, 0xdb, 0xf4, 0xb4, 0x90, 0x81, 0xe8, 0xe3, 0x22, 0xdf, 0x8f,
    0x4d, 0x71, 0x5c, 0x50, 0x01, 0x4e, 0x6b, 0x03, 0xb2, 0x9a, 0x43, 0x7f,
    0x66, 0xe8, 0xff, 0xff, 0x04, 0x00, 0x00, 0x00, 0x40, 0x00, 0x00, 0x00,
    0x99, 0xfa, 0xff, 0xff, 0xfb, 0xf9, 0xff, 0xff, 0x42, 0x0e, 0x00, 0x00,
    0xb9, 0xf4, 0xff, 0xff, 0xa1, 0xfa, 0xff, 0xff, 0x3d, 0xfd, 0xff, 0xff,
    0x04, 0x01, 0x00, 0x00, 0x34, 0x04, 0x00, 0x00, 0x06, 0xfb, 0xff, 0xff,
    0x8f, 0x0b, 0x00, 0x00, 0x90, 0x0b, 0x00, 0x00, 0x43, 0x03, 0x00, 0x00,
    0x29, 0xfd, 0xff, 0xff, 0x5b, 0xf9, 0xff, 0xff, 0x43, 0x08, 0x00, 0x00,
    0x02, 0xf6, 0xff, 0xff, 0xb2, 0xe8, 0xff, 0xff, 0x04, 0x00, 0x00, 0x00,
    0x00, 0x09, 0x00, 0x00, 0x71, 0x62, 0xb2, 0x9d, 0xa4, 0x18, 0x26, 0x79,
    0xc3, 0xbd, 0x9c, 0x00, 0xdc, 0x4e, 0xe9, 0xff, 0x1f, 0x45, 0x51, 0x2c,
    0x58, 0x06, 0x0d, 0x2c, 0xb2, 0x57, 0x88, 0x0a, 0xb8, 0xf4, 0xaa, 0xaf,
    0x38, 0x08, 0x18, 0x3a, 0x2e, 0x2c, 0xf2, 0x4c, 0x65, 0x4e, 0xd5, 0xf9,
    0x64, 0x3a, 0x94, 0xe3, 0x61, 0x5d, 0xed, 0x60, 0x0c, 0xb7, 0x9d, 0x33,
    0x1c, 0x67, 0x1e, 0x8c, 0xd6, 0x57, 0x11, 0x3b, 0x46, 0xdf, 0xea, 0xfd,
    0xea, 0xd0, 0x8d, 0x94, 0xbc, 0x9f, 0x49, 0x3f, 0x05, 0xd1, 0x8e, 0x05,
    0xf2, 0xf1, 0xf3, 0x77, 0xb4, 0x5a, 0x9e, 0xa0, 0x34, 0x61, 0x06, 0xd5,
    0x08, 0xbd, 0xb9, 0x19, 0x3f, 0x4c, 0x63, 0xdc, 0xf7, 0x67, 0xb4, 0x9f,
    0x03, 0xf9, 0x74, 0x8e, 0xda, 0xd9, 0xd1, 0x81, 0xd9, 0x31, 0xd7, 0x41,
    0x8d, 0xeb, 0x2a, 0xd3, 0x4f, 0xe5, 0xc7, 0x18, 0x96, 0x18, 0x4c, 0xca,
    0x05, 0xb2, 0xdd, 0x1b, 0xaa, 0x32, 0x3a, 0xd1, 0xd5, 0x3f, 0x25, 0xe2,
    0xfa, 0x1b, 0xdd, 0xf5, 0x4b, 0x7b, 0x42, 0xed, 0xc7, 0xc0, 0xed, 0xda,
    0xd5, 0x2a, 0x26, 0xa3, 0x31, 0x4d, 0xe5, 0xe4, 0xb6, 0x09, 0x53, 0xe4,
    0xd1, 0x31, 0xe1, 0xb4, 0xb0, 0x76, 0x35, 0xc8, 0x1a, 0x58, 0xd6, 0xf5,
    0xa0, 0x35, 0xb9, 0x55, 0x0d, 0x1d, 0xb6, 0xb5, 0xec, 0x13, 0x4b, 0x11,
    0x0c, 0xfa, 0xbb, 0xc7, 0xbb, 0x66, 0xdc, 0xd0, 0x00, 0x3b, 0xe7, 0x1a,
    0x66, 0x41, 0xce, 0x54, 0xcc, 0xb5, 0xb0, 0xce, 0x81, 0xbe, 0xdd, 0x65,
    0x43, 0x91, 0x61, 0xd7, 0x4b, 0x63, 0xe5, 0xc6, 0xae, 0xde, 0x0e, 0xcf,
    0xff, 0xa8, 0xf3, 0x33, 0xb5, 0x05, 0x64, 0xc3, 0x36, 0x51, 0x42, 0x00,
    0xf2, 0xe7, 0x24, 0x28, 0x1d, 0x5b, 0xfa, 0x34, 0x02, 0xc1, 0xee, 0x24,
    0xdd, 0x3f, 0x4b, 0xb3, 0x94, 0xea, 0x43, 0xbe, 0xe3, 0xff, 0x50, 0x10,
    0x1f, 0x44, 0xc6, 0xd9, 0xc4, 0x3c, 0x0b, 0x39, 0xcd, 0x6d, 0xd8, 0x31,
    0xb8, 0x31, 0x3c, 0x1f, 0xa9, 0xc5, 0xf6, 0x30, 0x41, 0x7c, 0x22, 0x33,
    0xb6, 0x31, 0x47, 0xd1, 0x09, 0x30, 0x9f, 0xfe, 0x14, 0x27, 0x22, 0xdd,
    0x3a, 0x4a, 0xc2, 0x81, 0xd9, 0xae, 0xc5, 0xd9, 0x42, 0x17, 0xe5, 0x32,
    0x0a, 0xa8, 0x3c, 0x06, 0x07, 0x04, 0x0d, 0x35, 0x07, 0xa2, 0xd8, 0xd7,
    0xbd, 0x48, 0x4d, 0xf1, 0xb9, 0x38, 0xcb, 0xec, 0xd9, 0xd9, 0xe7, 0x9b,
    0xda, 0x0f, 0x21, 0xfb, 0xdd, 0x14, 0xb4, 0xd6, 0xf1, 0x2f, 0xac, 0xb7,
    0x49, 0x16, 0xba, 0x48, 0xa7, 0xe0, 0xae, 0x34, 0x11, 0xc2, 0x4f, 0x09,
    0xfc, 0x1e, 0xbd, 0x10, 0x5f, 0x46, 0x31, 0xd1, 0xca, 0x22, 0xf4, 0x16,
    0x53, 0xcb, 0xed, 0x12, 0x43, 0xb0, 0xe1, 0x5d, 0xc3, 0xd3, 0x53, 0x9e,
    0x00, 0x1c, 0x02, 0xb0, 0x9a, 0xbc, 0xb2, 0xbd, 0xda, 0xa5, 0x60, 0xda,
    0x1f, 0x6b, 0xe2, 0xb3, 0xee, 0xaf, 0xe1, 0xf2, 0x47, 0x09, 0x2a, 0x6c,
    0xed, 0x05, 0x9a, 0xfe, 0x34, 0x33, 0xaf, 0x2b, 0x1e, 0x27, 0xa6, 0x2c,
    0xb5, 0xe0, 0x3f, 0x49, 0x35, 0x2b, 0x2c, 0xf7, 0x57, 0x13, 0x3b, 0xed,
    0x4d, 0x32, 0x41, 0xbe, 0x0a, 0xf0, 0x16, 0x45, 0x5d, 0x00, 0xc1, 0x3d,
    0xe9, 0x5f, 0xea, 0x53, 0xcb, 0xcd, 0xd7, 0xe7, 0x21, 0x4d, 0x3a, 0x12,
    0x13, 0x0a, 0x47, 0xd0, 0xd7, 0xeb, 0x66, 0x06, 0xae, 0xb4, 0x3f, 0x43,
    0x0a, 0xa5, 0xcf, 0x63, 0x88, 0xe2, 0x23, 0x42, 0xc9, 0x45, 0xa8, 0xc9,
    0x10, 0x37, 0xdb, 0x12, 0x19, 0xf4, 0x0b, 0xa3, 0xd8, 0x57, 0xf5, 0x3a,
    0x7f, 0x45, 0x43, 0x5e, 0x93, 0xee, 0x35, 0x11, 0x61, 0xb1, 0x87, 0x66,
    0x5f, 0xb3, 0xa7, 0xea, 0xbf, 0xce, 0x9a, 0x58, 0xbe, 0x2f, 0x1b, 0xfc,
    0xfc, 0xe9, 0xa6, 0x67, 0xa5, 0xd5, 0x18, 0xeb, 0x3b, 0xac, 0x2a, 0xcc,
    0x00, 0x2c, 0xed, 0xab, 0xb7, 0x53, 0xf1, 0xde, 0x16, 0x04, 0x4e, 0x2c,
    0x15, 0x70, 0xb1, 0x49, 0x0e, 0xa7, 0xe4, 0x29, 0xc0, 0xae, 0x55, 0x1e,
    0xbd, 0x5f, 0xc0, 0x4a, 0xef, 0x7a, 0xa0, 0x0a, 0x9e, 0xcd, 0xb2, 0xa5,
    0xbb, 0x6c, 0xb4, 0xa1, 0x03, 0x1c, 0xc5, 0x31, 0xad, 0xd2, 0x27, 0x53,
    0x99, 0x57, 0xc1, 0xe8, 0xf2, 0xe9, 0xca, 0x57, 0xdf, 0x2b, 0x17, 0xee,
    0xcb, 0x03, 0x14, 0x05, 0x39, 0xc9, 0x88, 0xc2, 0xa9, 0xf5, 0xdc, 0xf0,
    0x29, 0x06, 0xa4, 0x0b, 0xdb, 0x41, 0x2d, 0x9c, 0xef, 0x33, 0x15, 0xb7,
    0xcb, 0x0a, 0xb5, 0x0d, 0x22, 0x21, 0x2b, 0xf5, 0xc5, 0xdb, 0xe1, 0xe7,
    0xc9, 0xa7, 0xe4, 0x18, 0x33, 0x39, 0x44, 0x5f, 0x6f, 0x01, 0xe2, 0xf8,
    0xc2, 0x66, 0xa2, 0xea, 0x37, 0xa9, 0x1f, 0x0f, 0x6d, 0x10, 0x27, 0xd0,
    0x9d, 0xf4, 0x02, 0xbe, 0xd3, 0xa5, 0x1f, 0xc5, 0x20, 0xcf, 0x9c, 0x90,
    0xec, 0xd3, 0x28, 0x02, 0xb0, 0x03, 0x29, 0x52, 0x9e, 0xb7, 0xa5, 0xc1,
    0xc9, 0xf0, 0x56, 0x9a, 0xca, 0x3b, 0xcf, 0x59, 0xac, 0x8f, 0x3b, 0x57,
    0xd6, 0x35, 0xee, 0x22, 0xaf, 0x3c, 0xc0, 0x8f, 0xbf, 0x3a, 0x46, 0x42,
    0xea, 0xbf, 0x43, 0x5a, 0xfa, 0xdb, 0x07, 0xf4, 0xb0, 0x23, 0x41, 0xf8,
    0x45, 0x50, 0xfa, 0x6b, 0x15, 0xef, 0x56, 0xd2, 0xf8, 0xbc, 0x00, 0x81,
    0xb9, 0x41, 0x1d, 0xef, 0x20, 0xdc, 0xd2, 0x14, 0x3b, 0x91, 0x5f, 0xd8,
    0xb9, 0xcb, 0x38, 0xc3, 0xdb, 0x3e, 0xa7, 0x06, 0x02, 0xf7, 0xbd, 0x46,
    0xeb, 0x4e, 0x40, 0xf1, 0x24, 0x4f, 0xea, 0x12, 0x1b, 0x96, 0x32, 0x3c,
    0x35, 0xb7, 0x61, 0xc9, 0xa9, 0xd9, 0x28, 0xff, 0x89, 0xe7, 0xbd, 0x45,
    0x34, 0x09, 0xb8, 0xa5, 0x24, 0xae, 0xb9, 0xce, 0x51, 0xea, 0xe8, 0xc7,
    0xef, 0xe0, 0xd7, 0x1f, 0x98, 0x8c, 0xc3, 0xa0, 0x2d, 0xfd, 0x2c, 0x36,
    0xfd, 0x26, 0x51, 0xb3, 0xd5, 0x7f, 0x12, 0x1d, 0xf1, 0xae, 0x05, 0x2a,
    0x75, 0xa8, 0x2d, 0x23, 0x2b, 0x6d, 0x37, 0xde, 0xc3, 0x44, 0x11, 0x2b,
    0x21, 0xff, 0x08, 0x12, 0xff, 0x19, 0xbb, 0xc6, 0xd5, 0x17, 0x25, 0xb9,
    0xd6, 0x37, 0xc5, 0xe7, 0x08, 0x54, 0x4c, 0xf0, 0x9c, 0xe2, 0x08, 0x93,
    0xf0, 0xe5, 0xd6, 0x25, 0x35, 0x30, 0xe9, 0x0f, 0x51, 0xd1, 0x58, 0xa3,
    0x4b, 0xe5, 0xf0, 0xbe, 0x1f, 0x28, 0x75, 0xb7, 0x82, 0x9d, 0x02, 0x43,
    0x3d, 0xf9, 0xc6, 0xff, 0xf0, 0x1f, 0x5a, 0x35, 0xdf, 0xd6, 0xff, 0xcc,
    0x50, 0x3e, 0x0d, 0xca, 0x0b, 0x87, 0xa0, 0xf2, 0x52, 0xf4, 0x58, 0xd6,
    0x00, 0xe4, 0x32, 0x35, 0x3a, 0x2e, 0x6a, 0x0a, 0x9e, 0x0a, 0xe1, 0xed,
    0x54, 0x40, 0x13, 0x4f, 0xe4, 0xda, 0xc9, 0xb0, 0xdf, 0x52, 0x64, 0xd5,
    0xa7, 0x81, 0xc7, 0x1c, 0xe5, 0x45, 0xf2, 0x49, 0x35, 0xf7, 0x37, 0xeb,
    0x5d, 0x4b, 0x17, 0x30, 0xc6, 0x36, 0xd2, 0xff, 0x3c, 0xe4, 0xd2, 0x33,
    0xba, 0xb0, 0xbe, 0x19, 0x4e, 0xec, 0xda, 0x00, 0xe0, 0x20, 0x39, 0xc3,
    0xd3, 0x06, 0x16, 0x31, 0x0e, 0x35, 0xd7, 0x1b, 0x70, 0xf6, 0x2c, 0x19,
    0x8c, 0x3b, 0xbd, 0x0c, 0x71, 0x11, 0x5e, 0x97, 0x24, 0x11, 0xac, 0x07,
    0xe6, 0xb2, 0x9c, 0xcf, 0x25, 0xa0, 0xd4, 0x2e, 0x54, 0xb8, 0xa9, 0xed,
    0x4c, 0x0a, 0x0c, 0x09, 0x31, 0x0f, 0x20, 0x11, 0xa7, 0xd0, 0x47, 0xeb,
    0xd2, 0xed, 0x2d, 0x09, 0x59, 0xf6, 0xd3, 0xbf, 0x12, 0x03, 0xe4, 0xc1,
    0x27, 0xe6, 0x4d, 0xa8, 0x6c, 0xb2, 0x58, 0x7c, 0x4c, 0xd3, 0x84, 0x06,
    0x11, 0x3d, 0x0f, 0x42, 0x79, 0xc1, 0x47, 0x25, 0x6d, 0xaf, 0xd9, 0x61,
    0x5b, 0x7f, 0xea, 0x32, 0x31, 0x75, 0x07, 0x36, 0x1c, 0x3c, 0x90, 0xd4,
    0xef, 0xcd, 0x63, 0xe6, 0xbf, 0x96, 0x25, 0x18, 0xb0, 0x68, 0xc7, 0x32,
    0xdd, 0xab, 0x6a, 0x22, 0x7d, 0xec, 0xda, 0x52, 0x1a, 0x44, 0xed, 0x60,
    0x41, 0xa2, 0x40, 0xa7, 0xab, 0x62, 0x6d, 0x2e, 0x1a, 0x5a, 0x42, 0xb5,
    0x61, 0xe1, 0x2d, 0xf6, 0x37, 0x40, 0x94, 0x8d, 0x95, 0xbc, 0x2a, 0x11,
    0xf5, 0x60, 0x6f, 0x3d, 0xa0, 0x55, 0xa6, 0x5a, 0x75, 0x9a, 0x71, 0x00,
    0x07, 0xfa, 0xb4, 0xc5, 0x0a, 0x2d, 0xa0, 0xae, 0x16, 0x3b, 0xf7, 0xfb,
    0x1e, 0x3b, 0xd5, 0xb4, 0xf4, 0xf7, 0x44, 0xb6, 0xec, 0xc3, 0x20, 0xd9,
    0x22, 0xdd, 0xa8, 0xa5, 0x50, 0xfc, 0x83, 0x96, 0x44, 0xc8, 0x51, 0xc9,
    0x66, 0x6f, 0xb0, 0xef, 0xc7, 0x06, 0x2c, 0x35, 0x53, 0xa6, 0xdf, 0xcd,
    0x4a, 0x34, 0x14, 0xd3, 0x3b, 0x19, 0x48, 0x5f, 0x12, 0xaa, 0x0a, 0xa9,
    0x59, 0x67, 0x5f, 0x32, 0x3f, 0x32, 0x20, 0xa6, 0x0f, 0xc7, 0xac, 0x59,
    0x4d, 0xd5, 0x4b, 0x5f, 0x01, 0x53, 0x3f, 0x31, 0x49, 0x97, 0xcc, 0xfb,
    0xf9, 0x27, 0x4d, 0xce, 0x03, 0xe5, 0x59, 0x4a, 0xca, 0x49, 0x1f, 0x89,
    0xfb, 0xf9, 0xb0, 0xa4, 0x6a, 0xb6, 0x3f, 0x1b, 0xa6, 0xd4, 0xab, 0xfb,
    0x5d, 0xb8, 0x20, 0xde, 0x94, 0x99, 0x69, 0x25, 0xbb, 0x8a, 0xde, 0x1a,
    0x3c, 0x11, 0xfc, 0x2d, 0xe1, 0xb5, 0xcc, 0x0b, 0x50, 0x8e, 0x9e, 0xd2,
    0x78, 0xef, 0xfa, 0x3b, 0xd4, 0xee, 0x06, 0xcd, 0x25, 0x22, 0xf9, 0x1c,
    0xbb, 0x9a, 0x5f, 0x0c, 0xff, 0x13, 0x1f, 0x70, 0x34, 0x4d, 0xde, 0xa4,
    0x7f, 0xc3, 0x0e, 0x22, 0xec, 0x32, 0x15, 0xf4, 0xfe, 0xea, 0xd9, 0xc9,
    0x26, 0x33, 0xd5, 0xd7, 0x43, 0xe3, 0xfd, 0x28, 0x81, 0xe1, 0xb1, 0x3a,
    0xd3, 0x45, 0x0a, 0xce, 0xa8, 0x0f, 0x0d, 0x27, 0xe8, 0x29, 0x99, 0x46,
    0xb3, 0x24, 0xfd, 0x35, 0x4c, 0xb3, 0x61, 0x0a, 0xd3, 0x26, 0x1a, 0x0f,
    0xde, 0x5e, 0x5d, 0x07, 0xfd, 0xb3, 0xb0, 0x4b, 0xff, 0x17, 0xc9, 0x33,
    0xae, 0xd4, 0x26, 0xf2, 0xfb, 0xd5, 0x0c, 0x44, 0x05, 0x3c, 0x29, 0xe3,
    0xeb, 0xe3, 0x78, 0xae, 0xf7, 0x51, 0xd3, 0x52, 0xb5, 0x9d, 0x44, 0x4b,
    0x48, 0x1d, 0x09, 0x45, 0xb1, 0x15, 0x3d, 0xb3, 0x11, 0xb8, 0x55, 0x3f,
    0xc4, 0xab, 0xc3, 0x36, 0xee, 0x96, 0xec, 0x49, 0x0a, 0x4b, 0x78, 0xcc,
    0xe0, 0xf7, 0xd8, 0xbe, 0x5f, 0xf9, 0xd4, 0xda, 0xb5, 0x04, 0x28, 0xdf,
    0xc3, 0xf7, 0xdf, 0x02, 0x81, 0xfb, 0xcd, 0x4a, 0xfe, 0xf9, 0xb9, 0x28,
    0xcc, 0x55, 0x0a, 0xb9, 0xf8, 0x46, 0x02, 0x0f, 0xa3, 0xc3, 0xff, 0xbf,
    0x2e, 0x0d, 0x0b, 0xcb, 0xdc, 0x2b, 0xfe, 0x24, 0xe7, 0x40, 0x04, 0xe6,
    0x13, 0xec, 0x3f, 0x3f, 0x30, 0x49, 0x5b, 0x2f, 0x54, 0x90, 0x5b, 0xcf,
    0x4d, 0x10, 0x14, 0xd9, 0xd7, 0xec, 0x40, 0xcf, 0xbc, 0x35, 0x10, 0xe4,
    0xb8, 0x1d, 0x35, 0x1b, 0xb5, 0x45, 0x2e, 0xf2, 0x92, 0x2a, 0xf7, 0xab,
    0xaf, 0xb6, 0xbd, 0x60, 0x32, 0xd2, 0xf1, 0x31, 0x32, 0x98, 0x05, 0xee,
    0xd5, 0xee, 0xf7, 0xc7, 0xca, 0xf7, 0x10, 0x18, 0x22, 0x1f, 0x9f, 0x4e,
    0x9e, 0x3d, 0x5e, 0x81, 0x3a, 0xa1, 0x04, 0xfe, 0xcb, 0x57, 0x68, 0x24,
    0xf8, 0x97, 0xa2, 0x5c, 0xc9, 0x3a, 0x21, 0x38, 0xa2, 0x30, 0xec, 0xb5,
    0xf7, 0x3a, 0x75, 0x73, 0x01, 0x8a, 0x5d, 0xaf, 0xcc, 0x1f, 0xf3, 0xef,
    0xe6, 0xe4, 0x04, 0xf2, 0x22, 0x1f, 0xdf, 0x1c, 0xac, 0xfb, 0xf0, 0x23,
    0x29, 0x4b, 0xf6, 0xfc, 0x89, 0xd4, 0x1d, 0x29, 0xb5, 0x37, 0x6c, 0x14,
    0x50, 0x12, 0x41, 0x2f, 0xdc, 0xc9, 0x53, 0x95, 0x4e, 0x51, 0xe0, 0x6a,
    0xd4, 0x36, 0xd0, 0x12, 0x03, 0xf6, 0x17, 0xfe, 0xf2, 0x89, 0x71, 0xcc,
    0xa6, 0xa2, 0xd5, 0x01, 0xf1, 0x9d, 0x4f, 0x67, 0x08, 0x3b, 0xf4, 0x2d,
    0x20, 0xcb, 0xfa, 0x96, 0x9b, 0x0a, 0x19, 0xec, 0x38, 0x99, 0x2a, 0x6c,
    0x4d, 0x18, 0x3d, 0xaf, 0x3e, 0xd6, 0xff, 0x35, 0x2c, 0xe5, 0xec, 0x0b,
    0xbb, 0x0d, 0x35, 0x2b, 0xb0, 0x2b, 0x5f, 0x2a, 0xa8, 0x5b, 0x0b, 0x89,
    0x4a, 0xca, 0x0a, 0x40, 0xb7, 0x07, 0x35, 0xe9, 0x03, 0xf8, 0x14, 0x03,
    0xe8, 0xb8, 0x0f, 0x85, 0xb5, 0x13, 0x49, 0xf6, 0x0d, 0xf6, 0x52, 0x48,
    0xbe, 0xb3, 0x17, 0xe0, 0x0d, 0x32, 0x04, 0x02, 0x03, 0x39, 0xa7, 0xd1,
    0xfa, 0xea, 0x42, 0xfb, 0xdd, 0xb9, 0x1e, 0x07, 0x8c, 0x59, 0x7f, 0x34,
    0x93, 0x5e, 0x0a, 0xbe, 0xf6, 0xc6, 0x39, 0xf8, 0xed, 0x2f, 0x3b, 0xae,
    0xa1, 0x10, 0x30, 0xdb, 0xc8, 0x43, 0x57, 0x44, 0xf5, 0xc7, 0xe2, 0x0f,
    0xcc, 0xd6, 0x17, 0xb5, 0xed, 0x70, 0x37, 0xd1, 0xd3, 0x1e, 0xfd, 0x56,
    0xa8, 0x6c, 0x4d, 0xec, 0x50, 0xd6, 0x2c, 0xad, 0x02, 0xe7, 0xe5, 0x1c,
    0xb7, 0x63, 0x61, 0x42, 0x35, 0x01, 0xd2, 0x27, 0xaf, 0xe3, 0xeb, 0xff,
    0x38, 0x1e, 0x42, 0x25, 0xfe, 0x51, 0x42, 0x5e, 0xec, 0x20, 0xfb, 0xe3,
    0xeb, 0xc2, 0x0e, 0xac, 0x3d, 0x1d, 0xd3, 0x17, 0xd1, 0xf0, 0xe3, 0x31,
    0x21, 0x4e, 0x35, 0xb8, 0xa2, 0xd8, 0xc2, 0x49, 0xd6, 0xc9, 0xa3, 0xb8,
    0x61, 0x0e, 0xcd, 0x30, 0x2a, 0x12, 0x38, 0xbd, 0x86, 0x87, 0x3e, 0xc4,
    0xe2, 0x17, 0xf6, 0x35, 0xaf, 0xdc, 0x94, 0x40, 0x40, 0x47, 0x69, 0xd6,
    0xa5, 0x81, 0xcf, 0xd2, 0xc3, 0x4f, 0xbb, 0xdd, 0xca, 0x26, 0x09, 0xca,
    0xf7, 0xbc, 0x22, 0xa0, 0x33, 0xe7, 0xde, 0xcb, 0x04, 0xd8, 0xeb, 0xcd,
    0xf3, 0xfe, 0x22, 0x22, 0x4f, 0xe8, 0xc0, 0x90, 0xaa, 0xf0, 0x4d, 0x14,
    0xde, 0xe3, 0x5c, 0x38, 0xf3, 0x09, 0xd5, 0x42, 0x05, 0x45, 0x2b, 0xfe,
    0xe6, 0x26, 0xfb, 0xb4, 0x56, 0xd9, 0xcb, 0x4a, 0x38, 0x39, 0xee, 0xf5,
    0x7f, 0x13, 0xbf, 0x45, 0x4a, 0x4d, 0x4f, 0x31, 0xd1, 0x43, 0xa4, 0xd8,
    0x47, 0x3b, 0x95, 0xbc, 0x46, 0xf1, 0xad, 0xe6, 0x1f, 0xd8, 0x2f, 0x43,
    0x1d, 0x0c, 0xd5, 0x0f, 0xc9, 0xd5, 0xbc, 0xe0, 0x1f, 0x04, 0xb1, 0xa1,
    0x95, 0x0a, 0xb7, 0x35, 0xca, 0x27, 0xde, 0x30, 0xa8, 0xc4, 0xd7, 0x1f,
    0x54, 0xcf, 0x04, 0x53, 0x0c, 0x4c, 0xc1, 0x31, 0x0a, 0x25, 0xcc, 0x3e,
    0x38, 0x5f, 0x38, 0x29, 0xd2, 0xfc, 0xa4, 0x2b, 0xe7, 0xc0, 0xea, 0x44,
    0x3c, 0xd1, 0xf0, 0xa9, 0x0a, 0x46, 0xf8, 0x2e, 0x0a, 0x0b, 0x08, 0xf9,
    0x1a, 0x69, 0x1c, 0x5e, 0xf7, 0x0d, 0xc0, 0x1d, 0x45, 0xb8, 0x7f, 0x4c,
    0x01, 0x4f, 0x95, 0x63, 0x0c, 0xa0, 0x6a, 0x1f, 0xa6, 0xdc, 0x3b, 0xb7,
    0xee, 0xf9, 0x26, 0x0f, 0xaf, 0x02, 0x4b, 0x5d, 0xf0, 0xa4, 0x11, 0xcc,
    0xe0, 0xb5, 0x2a, 0x43, 0x34, 0x16, 0x00, 0xf4, 0x29, 0x22, 0x0d, 0x14,
    0x22, 0x37, 0xda, 0x23, 0xb9, 0x51, 0xa6, 0x9b, 0xdd, 0x61, 0xaf, 0x4d,
    0xd0, 0x28, 0x05, 0x15, 0xf4, 0x1d, 0x1d, 0xcd, 0xa5, 0xd9, 0x44, 0xd2,
    0x32, 0xcd, 0x26, 0xdb, 0xe0, 0x04, 0xc5, 0xad, 0xc9, 0x14, 0xe6, 0xb6,
    0x4c, 0xe1, 0xb4, 0x50, 0x4e, 0xa5, 0x00, 0x0f, 0xe0, 0x2f, 0xc5, 0x4d,
    0x44, 0x1c, 0x3d, 0x76, 0x91, 0x64, 0x0f, 0xfd, 0x33, 0xe2, 0xd4, 0x3e,
    0xf1, 0xea, 0x40, 0x5e, 0xd7, 0x38, 0x2f, 0xfb, 0x3d, 0x1b, 0x5d, 0xbe,
    0xa7, 0xc9, 0x57, 0x07, 0xf3, 0x29, 0x4f, 0xb4, 0x1f, 0xbf, 0x73, 0x12,
    0x27, 0x2d, 0x9b, 0x2a, 0x4a, 0x23, 0xdc, 0xe8, 0x58, 0xbf, 0x2c, 0xee,
    0x1f, 0xdc, 0xd3, 0x37, 0x28, 0x19, 0x1b, 0x62, 0xd6, 0x4f, 0xbf, 0x28,
    0x37, 0x1f, 0x81, 0xb3, 0xe6, 0x27, 0xaf, 0x11, 0xba, 0xdf, 0xe9, 0xe6,
    0xe5, 0xaa, 0xd3, 0xf0, 0x02, 0xfc, 0x06, 0xf0, 0x18, 0x07, 0x64, 0xd3,
    0x98, 0xc4, 0x57, 0x18, 0xa1, 0x28, 0x47, 0xa6, 0x02, 0x53, 0xeb, 0x20,
    0xa9, 0xd6, 0xd2, 0x67, 0xd7, 0x29, 0xd0, 0xca, 0x55, 0x10, 0xa6, 0xff,
    0x46, 0xc2, 0xed, 0xd7, 0x32, 0xb7, 0xcd, 0x25, 0xf7, 0xda, 0xc7, 0xfb,
    0xa5, 0x2f, 0xa6, 0x25, 0xa2, 0x9c, 0xd8, 0xc0, 0x33, 0x30, 0x5f, 0x46,
    0x40, 0x39, 0x56, 0xa4, 0x4e, 0xfe, 0xd6, 0xa8, 0x41, 0x8b, 0xb0, 0xd3,
    0xbf, 0x38, 0xaa, 0xfe, 0x1c, 0xc3, 0x16, 0xe9, 0x0c, 0xff, 0x04, 0x34,
    0xc6, 0x59, 0x5d, 0x6a, 0x0a, 0xcb, 0x21, 0xf9, 0x24, 0x53, 0x35, 0x3f,
    0x0c, 0x16, 0x02, 0xde, 0x00, 0xd9, 0x6f, 0xef, 0xf3, 0x0a, 0x53, 0xea,
    0x75, 0x2c, 0x4a, 0x34, 0xd3, 0x36, 0x5b, 0xfa, 0xec, 0x1b, 0xe8, 0xcc,
    0xc8, 0x47, 0x4b, 0x06, 0xf0, 0x17, 0xca, 0x28, 0xc8, 0x01, 0x2c, 0x1b,
    0x49, 0x3b, 0x41, 0x2d, 0xea, 0xf0, 0x21, 0x03, 0x0b, 0xb8, 0x62, 0x2d,
    0x81, 0xdf, 0xd8, 0xa3, 0xbf, 0xff, 0xbe, 0x57, 0x2e, 0xf6, 0xd5, 0x11,
    0x05, 0x08, 0xc2, 0xc7, 0xd6, 0xb5, 0x29, 0x37, 0xcf, 0x32, 0xaa, 0xd7,
    0xc5, 0xf3, 0xf7, 0xe6, 0x20, 0x04, 0x25, 0x29, 0xd7, 0x08, 0xce, 0x0f,
    0x02, 0x95, 0x1d, 0x12, 0xb6, 0x50, 0x5d, 0xb0, 0x4a, 0xec, 0x65, 0x90,
    0xda, 0x06, 0xfc, 0x07, 0x49, 0xd3, 0xb1, 0xf5, 0x57, 0xb8, 0x2a, 0x9f,
    0xfd, 0x40, 0x42, 0xa8, 0x0c, 0xec, 0x1e, 0xe9, 0x47, 0x81, 0x70, 0x32,
    0xf5, 0x06, 0x38, 0x0e, 0xbe, 0xf1, 0xff, 0xff, 0x04, 0x00, 0x00, 0x00,
    0x40, 0x00, 0x00, 0x00, 0x7e, 0xff, 0xff, 0xff, 0xe4, 0x02, 0x00, 0x00,
    0x97, 0x02, 0x00, 0x00, 0xc6, 0xff, 0xff, 0xff, 0x1e, 0x03, 0x00, 0x00,
    0x7e, 0x00, 0x00, 0x00, 0xa7, 0xf8, 0xff, 0xff, 0xa3, 0x04, 0x00, 0x00,
    0xa7, 0x05, 0x00, 0x00, 0x64, 0xfc, 0xff, 0xff, 0x30, 0xfe, 0xff, 0xff,
    0x86, 0xfe, 0xff, 0xff, 0x34, 0x02, 0x00, 0x00, 0x8d, 0x02, 0x00, 0x00,
    0x09, 0xfc, 0xff, 0xff, 0x77, 0x00, 0x00, 0x00, 0x0a, 0xf2, 0xff, 0xff,
    0x04, 0x00, 0x00, 0x00, 0x90, 0x00, 0x00, 0x00, 0x7f, 0x03, 0x6c, 0x54,
    0x88, 0x8d, 0x96, 0xfe, 0x68, 0x6f, 0xd4, 0x81, 0xa3, 0xa0, 0x81, 0xe1,
    0xdf, 0x06, 0x99, 0x81, 0x36, 0x89, 0x9b, 0x08, 0x52, 0x3a, 0x81, 0xf5,
    0xad, 0x50, 0xd7, 0x89, 0x63, 0x55, 0x88, 0x39, 0x7e, 0x65, 0xf6, 0x9e,
    0xce, 0x90, 0xe0, 0x1d, 0x8f, 0x8e, 0xd3, 0xde, 0x2a, 0x9c, 0xe2, 0x25,
    0x81, 0x7f, 0x0f, 0x3c, 0x04, 0x7f, 0xce, 0x01, 0x81, 0x81, 0x27, 0x81,
    0x15, 0xfa, 0x40, 0x49, 0xf0, 0x9c, 0x3e, 0x7f, 0x34, 0x62, 0x37, 0x9d,
    0xcb, 0x6e, 0x19, 0xec, 0x30, 0x1b, 0xac, 0x49, 0xbd, 0x57, 0x49, 0x75,
    0xcd, 0x29, 0x83, 0x36, 0xe6, 0x99, 0xd8, 0x0c, 0xd3, 0xd9, 0x32, 0x16,
    0x73, 0x53, 0x7f, 0xa2, 0x0c, 0xa5, 0x34, 0x88, 0x53, 0xfa, 0xd5, 0x48,
    0xf0, 0x81, 0x81, 0x0d, 0x28, 0xae, 0xaa, 0x63, 0x81, 0xd0, 0xc4, 0xa6,
    0xa1, 0xa2, 0xe1, 0xcc, 0x84, 0xfd, 0xdf, 0x4e, 0x2b, 0x96, 0x22, 0x44,
    0x78, 0xad, 0x19, 0x12, 0xa5, 0xfb, 0xd2, 0xb1, 0xa6, 0xf2, 0xff, 0xff,
    0x04, 0x00, 0x00, 0x00, 0x40, 0x00, 0x00, 0x00, 0x4f, 0xff, 0xff, 0xff,
    0x51, 0x01, 0x00, 0x00, 0x30, 0x04, 0x00, 0x00, 0x0c, 0xfd, 0xff, 0xff,
    0xbe, 0xfe, 0xff, 0xff, 0xfb, 0x01, 0x00, 0x00, 0x59, 0xff, 0xff, 0xff,
    0x0a, 0xfd, 0xff, 0xff, 0x04, 0xff, 0xff, 0xff, 0xfa, 0xfc, 0xff, 0xff,
    0x80, 0x02, 0x00, 0x00, 0x89, 0x03, 0x00, 0x00, 0x41, 0x06, 0x00, 0x00,
    0x16, 0x02, 0x00, 0x00, 0xfb, 0x01, 0x00, 0x00, 0x01, 0x03, 0x00, 0x00,
    0xf2, 0xf2, 0xff, 0xff, 0x04, 0x00, 0x00, 0x00, 0x00, 0x01, 0x00, 0x00,
    0x5f, 0x11, 0x94, 0x2e, 0x44, 0xbf, 0x53, 0x33, 0xfc, 0x3f, 0x11, 0x5d,
    0x81, 0xca, 0x20, 0x5a, 0xaf, 0xc0, 0x11, 0xcf, 0xd3, 0x24, 0x81, 0xee,
    0xd1, 0x18, 0x25, 0xa4, 0x74, 0xe4, 0x3b, 0x52, 0x4c, 0xb6, 0x3a, 0xbe,
    0xd6, 0xfa, 0xb1, 0xfc, 0x98, 0xab, 0xa7, 0x0b, 0x7d, 0x69, 0x45, 0x81,
    0x5e, 0x08, 0x55, 0x4c, 0x24, 0x24, 0x54, 0x37, 0xf4, 0x94, 0x7f, 0xbf,
    0xdb, 0x30, 0xf0, 0x4a, 0x0d, 0xbe, 0xd0, 0xfe, 0xfb, 0xf1, 0x54, 0x7f,
    0x63, 0x4e, 0x4e, 0xf4, 0x9f, 0x22, 0x6e, 0x67, 0x71, 0xee, 0x9c, 0xd2,
    0x1d, 0x28, 0x4a, 0x22, 0xa0, 0x32, 0x16, 0x6f, 0xf6, 0x4d, 0x7f, 0x08,
    0xb5, 0x14, 0xbb, 0xc2, 0xbb, 0xb1, 0xf4, 0x02, 0x06, 0xc8, 0x81, 0xae,
    0x63, 0xa4, 0xd9, 0x1d, 0xe8, 0x82, 0xaf, 0xde, 0xda, 0x23, 0x32, 0x50,
    0xe6, 0x9c, 0xea, 0x7f, 0xd0, 0xca, 0xee, 0x30, 0x3a, 0xf1, 0xe2, 0x54,
    0x08, 0x9a, 0x9d, 0x27, 0xad, 0xaf, 0x39, 0xc1, 0x15, 0x04, 0xc1, 0x7f,
    0x89, 0x89, 0x3d, 0xce, 0x2e, 0xa2, 0x1e, 0x49, 0x8f, 0xf1, 0x7f, 0x6f,
    0x26, 0x3b, 0x67, 0x98, 0x82, 0x61, 0x60, 0x81, 0x84, 0x4a, 0x46, 0xe3,
    0xd1, 0x27, 0xe5, 0x9d, 0xa3, 0x32, 0xdb, 0x89, 0xba, 0x9b, 0x3d, 0xd5,
    0x63, 0x1b, 0x06, 0x81, 0x9b, 0xeb, 0xe9, 0x8d, 0xc6, 0xcf, 0x36, 0xc7,
    0x3f, 0xf7, 0xbb, 0xdf, 0xe0, 0xd3, 0xb6, 0xb2, 0x81, 0xe3, 0x8b, 0x64,
    0x07, 0x9b, 0x50, 0xa7, 0x7f, 0x0e, 0xbc, 0x58, 0x61, 0xbc, 0xa2, 0x15,
    0x4f, 0xc6, 0x2b, 0xc5, 0xe7, 0x24, 0x5e, 0x06, 0xc8, 0xa2, 0x96, 0x43,
    0xd9, 0xee, 0x79, 0x68, 0x56, 0xc6, 0x30, 0xf0, 0x0c, 0x18, 0x61, 0x7f,
    0xe8, 0xbb, 0xa7, 0x54, 0x2b, 0xe4, 0xa9, 0x69, 0x0c, 0x96, 0x7f, 0xfc,
    0x45, 0x1a, 0xc3, 0xfa, 0xfe, 0xf3, 0xff, 0xff, 0x04, 0x00, 0x00, 0x00,
    0x40, 0x00, 0x00, 0x00, 0x84, 0xf9, 0xff, 0xff, 0x34, 0x03, 0x00, 0x00,
    0xcc, 0x06, 0x00, 0x00, 0x2a, 0xf4, 0xff, 0xff, 0x91, 0xf5, 0xff, 0xff,
    0xbf, 0xf7, 0xff, 0xff, 0xb3, 0x0d, 0x00, 0x00, 0xf1, 0x04, 0x00, 0x00,
    0xc3, 0x01, 0x00, 0x00, 0x9b, 0xfe, 0xff, 0xff, 0xca, 0x09, 0x00, 0x00,
    0xab, 0x0c, 0x00, 0x00, 0x7d, 0x0d, 0x00, 0x00, 0xf5, 0xfb, 0xff, 0xff,
    0x32, 0xf9, 0xff, 0xff, 0x13, 0xff, 0xff, 0xff, 0x4a, 0xf4, 0xff, 0xff,
    0x04, 0x00, 0x00, 0x00, 0x00, 0x08, 0x00, 0x00, 0x07, 0x18, 0xe4, 0x9f,
    0x49, 0xb2, 0x67, 0x0c, 0x87, 0x3c, 0x71, 0x42, 0x17, 0xe9, 0x87, 0xd6,
    0x33, 0x24, 0x3c, 0x25, 0x76, 0xb3, 0xda, 0x07, 0x3e, 0x12, 0x8f, 0xe3,
    0x48, 0x21, 0x10, 0x70, 0x21, 0x06, 0x39, 0x70, 0xa5, 0x69, 0x50, 0xb4,
    0xf7, 0xba, 0xc0, 0x47, 0x28, 0xc4, 0x32, 0xdc, 0xdf, 0x4d, 0xcb, 0x05,
    0x56, 0xeb, 0xee, 0x0e, 0x04, 0xfe, 0xa5, 0x34, 0x93, 0x0d, 0x35, 0x6c,
    0xfb, 0xfa, 0x2c, 0xa2, 0xbe, 0x20, 0x22, 0x9f, 0x3f, 0xcd, 0xc9, 0xce,
    0x49, 0xa3, 0x03, 0xb0, 0x09, 0xe4, 0x27, 0x46, 0xf1, 0x2b, 0x73, 0xd5,
    0xa8, 0xa7, 0xa4, 0x36, 0x33, 0xf5, 0x22, 0x26, 0x2f, 0x24, 0x3a, 0x19,
    0x18, 0x24, 0xa8, 0xff, 0x06, 0x25, 0x0c, 0x52, 0x4a, 0xe9, 0x49, 0x43,
    0xc1, 0xbc, 0xfe, 0x99, 0xa9, 0x88, 0x09, 0x0c, 0x0a, 0xcd, 0x2d, 0x40,
    0xe7, 0xc4, 0xa6, 0x8f, 0x6e, 0x9b, 0xc2, 0xc0, 0x2e, 0x30, 0x8d, 0xd7,
    0xe9, 0x54, 0x8b, 0xb5, 0x4a, 0xe6, 0x31, 0xbc, 0xf8, 0x59, 0x50, 0xfa,
    0x0c, 0x1c, 0xc9, 0x42, 0xc6, 0xe8, 0xc1, 0x59, 0xed, 0xba, 0x40, 0x0d,
    0x44, 0x95, 0xa2, 0x54, 0xf6, 0x48, 0x3e, 0x22, 0x43, 0x25, 0x4c, 0x9c,
    0xe1, 0x2a, 0xfe, 0x38, 0x04, 0x4c, 0x9f, 0xfd, 0x44, 0xf4, 0x30, 0x4f,
    0xcc, 0x60, 0xf9, 0x44, 0x0c, 0x52, 0x47, 0x4c, 0xfe, 0x33, 0xbe, 0xae,
    0x70, 0x34, 0xc6, 0x50, 0x5b, 0xb9, 0x51, 0x5e, 0xe3, 0xd5, 0x07, 0x58,
    0xe6, 0xda, 0x0f, 0x20, 0x53, 0xc7, 0x90, 0xcd, 0xdc, 0x33, 0x30, 0xd8,
    0x34, 0x51, 0x6c, 0x59, 0x4e, 0xa6, 0x98, 0x29, 0xf7, 0xd8, 0x1f, 0xb7,
    0x56, 0x2a, 0x3a, 0x16, 0x58, 0x57, 0x41, 0x4b, 0x2b, 0xd2, 0x10, 0xac,
    0x3d, 0x03, 0x8d, 0x4a, 0xeb, 0xe2, 0xed, 0x57, 0x13, 0x5d, 0x5b, 0xc5,
    0x42, 0x3d, 0x5c, 0x39, 0x6f, 0xeb, 0xf9, 0x70, 0x73, 0xd0, 0xf8, 0xff,
    0xa2, 0x55, 0x73, 0x71, 0xc1, 0xbb, 0xcd, 0xc6, 0x60, 0x12, 0x8a, 0x4a,
    0x5c, 0x27, 0x32, 0x1f, 0xc8, 0xbe, 0x37, 0xda, 0xd4, 0xf1, 0x70, 0x2a,
    0xd3, 0x61, 0x3e, 0x14, 0x64, 0xdc, 0xa5, 0x3f, 0x0a, 0x5b, 0x61, 0x9e,
    0xcd, 0x08, 0xc1, 0x6e, 0xf9, 0x53, 0xad, 0x39, 0xcc, 0xb6, 0x22, 0x36,
    0x14, 0xd5, 0x30, 0x73, 0xe3, 0x49, 0xdd, 0x4d, 0xda, 0x55, 0xdb, 0x48,
    0x15, 0xb8, 0x4f, 0xd0, 0x47, 0x2e, 0xd2, 0x4f, 0x76, 0x0a, 0x43, 0x42,
    0x54, 0x4b, 0xdc, 0x75, 0x6e, 0xf2, 0xd0, 0xab, 0xe1, 0x4e, 0xf5, 0x18,
    0xb0, 0x1c, 0x00, 0x1c, 0xbb, 0x2e, 0x10, 0x0e, 0x56, 0xbe, 0x60, 0x5f,
    0xad, 0x27, 0xb6, 0xc0, 0xec, 0xda, 0xc6, 0x1d, 0x45, 0x01, 0x0f, 0x56,
    0xb5, 0x64, 0x98, 0xf5, 0x19, 0x7c, 0xfd, 0x58, 0xf9, 0x54, 0x39, 0x65,
    0x47, 0xcb, 0x56, 0x31, 0x24, 0xdb, 0xb4, 0x31, 0x8b, 0x76, 0x1d, 0x6b,
    0xb5, 0x5c, 0x1f, 0x9a, 0x9b, 0x88, 0xdc, 0x1f, 0x3d, 0x9f, 0xab, 0x49,
    0x62, 0xb6, 0xf6, 0x90, 0xa9, 0x90, 0xd4, 0xc5, 0x33, 0xde, 0x5d, 0x6b,
    0xcc, 0x2c, 0x2d, 0x34, 0xfe, 0xb4, 0x3a, 0x65, 0x58, 0x09, 0xe8, 0xee,
    0xee, 0x12, 0x4b, 0x22, 0xcd, 0xbe, 0x6d, 0x15, 0x41, 0x32, 0xf9, 0x8c,
    0xdd, 0xa7, 0xf0, 0xe2, 0xe7, 0x66, 0x8c, 0xb1, 0xbf, 0xb9, 0x9c, 0x94,
    0xc6, 0xeb, 0x31, 0x36, 0xc0, 0xcc, 0xd6, 0xb9, 0xc5, 0xc0, 0x59, 0x23,
    0x30, 0xbe, 0xd5, 0x1b, 0x45, 0xaa, 0x04, 0x53, 0x37, 0xe5, 0xbf, 0x1b,
    0x05, 0xcf, 0x55, 0x2d, 0xc7, 0x28, 0xc2, 0x98, 0xee, 0x1f, 0x45, 0xea,
    0xa9, 0x97, 0x9c, 0x1b, 0x30, 0xad, 0xcc, 0xac, 0xce, 0x34, 0xe9, 0xcc,
    0xf6, 0x7a, 0x53, 0x37, 0x98, 0x33, 0x3e, 0xc9, 0xbf, 0x4e, 0xad, 0xc3,
    0x3c, 0xaa, 0x5d, 0x60, 0xa8, 0x5a, 0x01, 0xf8, 0x36, 0xf8, 0xe1, 0xac,
    0xb4, 0x2c, 0x18, 0x70, 0x0b, 0xef, 0xd1, 0x5c, 0x0c, 0x3f, 0xdc, 0x18,
    0x2c, 0x1e, 0x17, 0x53, 0x2e, 0xe7, 0x1e, 0xa1, 0xe2, 0x39, 0x51, 0xd1,
    0x16, 0x09, 0x08, 0x0c, 0xd5, 0x7e, 0x2a, 0x12, 0x18, 0xe6, 0x44, 0xac,
    0x85, 0x41, 0xf1, 0xc7, 0x33, 0xc3, 0xff, 0x9b, 0xeb, 0xdf, 0x2c, 0x85,
    0xfb, 0x2a, 0x3e, 0x2e, 0x85, 0x52, 0x51, 0x2e, 0x06, 0x24, 0xa8, 0x95,
    0xc0, 0xa9, 0x1e, 0xa8, 0x4a, 0xc1, 0x11, 0x45, 0x26, 0xdc, 0x47, 0x27,
    0xbf, 0xa7, 0x78, 0x52, 0x3a, 0x4e, 0x04, 0x61, 0x39, 0xf0, 0x89, 0x41,
    0x30, 0x5b, 0x91, 0x52, 0x96, 0x64, 0x15, 0x4e, 0x17, 0x2a, 0xd3, 0xc3,
    0x34, 0xcc, 0x0c, 0xd5, 0xec, 0xc7, 0xe4, 0xb4, 0xf0, 0x03, 0x96, 0xfc,
    0xa9, 0xbf, 0xd3, 0xb2, 0x6c, 0xd3, 0x2b, 0x1f, 0x66, 0x3b, 0xca, 0xb8,
    0x4a, 0x57, 0x21, 0x75, 0xeb, 0xe8, 0xe1, 0x47, 0xb1, 0xca, 0xba, 0xf3,
    0xba, 0x38, 0x5a, 0xed, 0xe5, 0xdf, 0x2a, 0xc1, 0x8f, 0x27, 0xeb, 0x0d,
    0x20, 0xc5, 0x4a, 0xa6, 0xb7, 0x1c, 0x41, 0x04, 0xb9, 0x46, 0x3c, 0xa3,
    0x21, 0x37, 0x4c, 0xbb, 0xf8, 0xf8, 0x59, 0x13, 0x3d, 0x29, 0x3e, 0xe6,
    0x01, 0x58, 0x2f, 0xe0, 0xf6, 0xc1, 0xba, 0xf0, 0xd4, 0x30, 0x61, 0x08,
    0x1d, 0x5c, 0x47, 0x58, 0xc7, 0x1c, 0xaf, 0x22, 0xf2, 0xdd, 0x5e, 0xbf,
    0x01, 0x0f, 0x15, 0x45, 0xc9, 0xff, 0x3f, 0xf1, 0x3d, 0x05, 0x26, 0xfe,
    0xcb, 0xc4, 0xed, 0x05, 0x2a, 0x7a, 0xe1, 0x56, 0x6b, 0x67, 0xcc, 0xe7,
    0xb8, 0x50, 0x41, 0x05, 0xf1, 0x69, 0x64, 0xe7, 0xff, 0xa6, 0xe9, 0xf1,
    0xd7, 0xe4, 0xd6, 0x6b, 0x39, 0xec, 0xdb, 0xfd, 0xf5, 0x0b, 0x02, 0xa2,
    0x35, 0xc1, 0x7b, 0x3c, 0xeb, 0xf4, 0x5b, 0xd6, 0xaa, 0x14, 0xd4, 0xb5,
    0xb3, 0x99, 0xc0, 0xca, 0x22, 0x57, 0xd0, 0x25, 0xc1, 0xe6, 0x39, 0x35,
    0x28, 0x44, 0x71, 0xd6, 0xac, 0x18, 0xaa, 0xde, 0xd0, 0xfa, 0x40, 0xfc,
    0x25, 0x47, 0x60, 0xdf, 0xdc, 0x28, 0x0d, 0xf4, 0x68, 0x16, 0xf1, 0x05,
    0x3e, 0x03, 0x8c, 0x6b, 0x5d, 0x37, 0xb8, 0x52, 0x24, 0xb1, 0x52, 0x29,
    0xc7, 0x0c, 0x21, 0xe4, 0x24, 0xd0, 0x43, 0xca, 0x19, 0x2a, 0xe8, 0x0a,
    0x6c, 0xa8, 0x17, 0x9d, 0x73, 0x0d, 0xcc, 0xa9, 0x09, 0x07, 0xe1, 0xae,
    0x61, 0x17, 0x3b, 0x5e, 0x3e, 0x74, 0x70, 0x5f, 0x46, 0x96, 0x38, 0x73,
    0x0e, 0xd5, 0xae, 0x16, 0x5c, 0xa2, 0x1c, 0x07, 0x0c, 0x59, 0xc3, 0xf5,
    0x2c, 0xed, 0xa1, 0x3a, 0xed, 0x1e, 0x8a, 0x34, 0x00, 0x68, 0x45, 0x45,
    0xe1, 0x5f, 0xfc, 0xc0, 0x8a, 0x60, 0xc6, 0xd1, 0xb4, 0xd0, 0x7c, 0x97,
    0x40, 0x1e, 0xdb, 0xb9, 0x39, 0xee, 0xf2, 0x47, 0x00, 0xcb, 0xe1, 0xf3,
    0xf5, 0x2a, 0x14, 0x47, 0x56, 0xda, 0xb0, 0x93, 0x15, 0xb3, 0x3b, 0x57,
    0x10, 0xdf, 0x39, 0xc5, 0x03, 0xb5, 0x75, 0x1e, 0x25, 0x28, 0xb3, 0xf9,
    0xf3, 0xa1, 0xf5, 0x9e, 0x6d, 0xf1, 0xd7, 0xcb, 0x09, 0xcb, 0x88, 0x32,
    0x1f, 0xa5, 0x3b, 0x48, 0x84, 0xbd, 0x36, 0x17, 0x11, 0xec, 0xcf, 0x3e,
    0x18, 0xe4, 0x27, 0xc9, 0xe1, 0xb5, 0x3c, 0xad, 0xe9, 0x27, 0x1e, 0x38,
    0xcd, 0x3e, 0xa0, 0x5a, 0x51, 0xe8, 0x2a, 0x29, 0xd3, 0x04, 0xe6, 0x9e,
    0x32, 0xec, 0xa6, 0x3d, 0x26, 0xce, 0x42, 0x1b, 0x15, 0xf6, 0x04, 0x7b,
    0x0f, 0xd8, 0xb2, 0x33, 0x92, 0x12, 0x3e, 0xc9, 0xf0, 0x41, 0x6d, 0x20,
    0x58, 0xb3, 0x4c, 0xde, 0x01, 0xa9, 0x14, 0xca, 0xa8, 0x1e, 0x2f, 0x38,
    0x42, 0x3e, 0x2b, 0x5a, 0x5c, 0xf1, 0x20, 0x57, 0x2f, 0xd8, 0xe0, 0x35,
    0xac, 0xce, 0x68, 0x10, 0x1e, 0x7a, 0x55, 0x0a, 0xc7, 0xe6, 0xee, 0xcb,
    0xda, 0x10, 0xc8, 0x44, 0x3d, 0xe2, 0xee, 0x39, 0x6b, 0xc2, 0xe5, 0xe2,
    0x53, 0xe6, 0xeb, 0xf4, 0x44, 0xb5, 0x92, 0xa4, 0xab, 0xc9, 0x1d, 0xd1,
    0xe9, 0xac, 0xc8, 0xd2, 0xf0, 0x30, 0xac, 0x4c, 0x30, 0xc9, 0x17, 0x1e,
    0x28, 0x09, 0xb5, 0x3d, 0xa4, 0x43, 0x61, 0x0c, 0xcf, 0x55, 0xc1, 0xc5,
    0x62, 0xbd, 0x24, 0xed, 0x4a, 0x52, 0x23, 0x2f, 0xad, 0xb3, 0x5e, 0xb7,
    0x08, 0xc0, 0xc3, 0x27, 0x1f, 0x60, 0xce, 0xf4, 0xf1, 0x90, 0x0e, 0xa5,
    0x26, 0x11, 0x15, 0x03, 0xd0, 0xb5, 0xf7, 0xcf, 0x1f, 0x24, 0x35, 0xac,
    0xb1, 0x6f, 0xac, 0xb2, 0xb9, 0x76, 0x01, 0x29, 0x43, 0xcd, 0xe9, 0xc5,
    0x93, 0xba, 0xf7, 0xa9, 0xf7, 0xbc, 0xc0, 0x08, 0x02, 0x97, 0x31, 0x22,
    0xc8, 0xde, 0xcc, 0xe7, 0x2a, 0xd4, 0xa9, 0xc8, 0xf2, 0x2b, 0xea, 0x66,
    0x67, 0x01, 0x11, 0x58, 0xed, 0xe2, 0xd4, 0x4f, 0x29, 0xf4, 0x43, 0xed,
    0xd1, 0x1e, 0x75, 0x28, 0x5b, 0x20, 0x5a, 0x51, 0xe5, 0x6f, 0xee, 0x6d,
    0x1c, 0xad, 0xb8, 0x26, 0x08, 0x3a, 0x0c, 0x0d, 0x7d, 0x29, 0xc5, 0x27,
    0xf1, 0x71, 0x2b, 0xd4, 0xaf, 0xb3, 0xa3, 0xa3, 0xa8, 0xf6, 0x79, 0x50,
    0x74, 0x1a, 0xb2, 0xcf, 0xce, 0xea, 0xd5, 0x63, 0x3d, 0xbc, 0x43, 0xcd,
    0xe2, 0x0e, 0xe6, 0xe4, 0x3d, 0x31, 0xff, 0x66, 0xfe, 0x68, 0xe3, 0x17,
    0x72, 0x9a, 0x14, 0x2a, 0xbc, 0xee, 0x03, 0x30, 0xb4, 0x54, 0x6a, 0x8f,
    0x1e, 0x26, 0x3a, 0x96, 0xd9, 0xb0, 0x16, 0x53, 0xc6, 0xa9, 0x25, 0xd9,
    0xe8, 0xa9, 0xea, 0x8a, 0xb5, 0x58, 0x16, 0x01, 0xa1, 0xd5, 0x5d, 0xeb,
    0xac, 0x52, 0x05, 0x25, 0x88, 0x68, 0xf4, 0xfc, 0x9e, 0x22, 0x4d, 0xab,
    0x3b, 0xf6, 0x04, 0x28, 0x0d, 0x3a, 0xeb, 0x97, 0xbb, 0x6d, 0xfc, 0x1a,
    0x12, 0x21, 0xb8, 0xad, 0xb2, 0xd5, 0x77, 0xa9, 0x53, 0xf5, 0xb0, 0xda,
    0xac, 0x02, 0xd3, 0xdc, 0x04, 0x3f, 0xf1, 0xb7, 0xe2, 0xfe, 0x3f, 0xed,
    0x6f, 0xbe, 0x16, 0x1b, 0xd3, 0x0b, 0x7a, 0x04, 0x93, 0xdf, 0x4b, 0xc3,
    0x92, 0x0e, 0xe9, 0xb5, 0xe7, 0xc1, 0xf8, 0xea, 0x21, 0xbc, 0x13, 0xa4,
    0xf3, 0xc0, 0xb5, 0xbd, 0x99, 0xb1, 0xf7, 0xcb, 0x26, 0x9f, 0x8a, 0x87,
    0x53, 0x84, 0x07, 0xc3, 0xb0, 0xfc, 0x17, 0x43, 0xf9, 0x4c, 0x88, 0xb0,
    0x81, 0xf5, 0x54, 0xed, 0x4f, 0x12, 0x2b, 0x5c, 0x4b, 0xdf, 0x39, 0x4b,
    0x3e, 0xc9, 0x9e, 0x1e, 0xad, 0x01, 0x33, 0x39, 0x95, 0x14, 0xcd, 0xde,
    0x8b, 0x0f, 0x1d, 0xd5, 0x3c, 0xf9, 0x0a, 0xac, 0xb2, 0xb4, 0x9c, 0x29,
    0xad, 0x29, 0x55, 0xc5, 0x0f, 0xf6, 0x22, 0xeb, 0x12, 0x31, 0xe1, 0x90,
    0xd0, 0xbf, 0xec, 0xa5, 0x8d, 0x2c, 0x21, 0xba, 0x19, 0x87, 0x4f, 0x09,
    0x54, 0x20, 0xb9, 0x37, 0xf5, 0x19, 0x3f, 0x5a, 0x27, 0xc5, 0xd0, 0x40,
    0x08, 0x6d, 0x2c, 0xe5, 0x4c, 0x63, 0x8e, 0x30, 0x56, 0x5b, 0x2b, 0xd3,
    0x88, 0x11, 0x75, 0xb4, 0xfa, 0xcb, 0xb6, 0xc5, 0x29, 0x52, 0x04, 0x00,
    0xfa, 0x0b, 0xcd, 0x9b, 0x29, 0x3e, 0x31, 0x4f, 0xce, 0xcc, 0xf4, 0xae,
    0x1c, 0xe6, 0x76, 0x4d, 0x12, 0xa2, 0x0b, 0x0c, 0x3c, 0x16, 0x5d, 0x93,
    0xf5, 0xaa, 0x6e, 0x0e, 0xb5, 0x9c, 0xfb, 0x56, 0x65, 0xa0, 0x15, 0x41,
    0xd6, 0x0d, 0xbe, 0x1c, 0xd5, 0x57, 0x61, 0xba, 0xa2, 0xfb, 0x69, 0xe5,
    0xcb, 0xe8, 0xdc, 0xe3, 0x0a, 0x32, 0x55, 0x1a, 0x46, 0x37, 0xa7, 0xdb,
    0x0d, 0xa0, 0x58, 0xb4, 0xeb, 0xb5, 0xb9, 0x34, 0xb7, 0xca, 0xe3, 0x9b,
    0x45, 0xc1, 0x30, 0x96, 0xc6, 0x14, 0x6f, 0xc9, 0xc5, 0xed, 0x00, 0x2a,
    0x00, 0xb4, 0xfc, 0x5a, 0xec, 0xed, 0xa6, 0x20, 0x06, 0x2d, 0xd2, 0x26,
    0xd7, 0x8b, 0x1f, 0xe8, 0xb3, 0x1d, 0xef, 0x3b, 0x2c, 0x9f, 0x27, 0x00,
    0x17, 0x4f, 0x47, 0x46, 0x48, 0xa4, 0xd5, 0x84, 0xb9, 0xe4, 0xef, 0x03,
    0xf6, 0x4c, 0x96, 0x6e, 0x38, 0x54, 0xc3, 0x47, 0x3b, 0xc6, 0x35, 0x40,
    0xac, 0xb4, 0x9b, 0x3a, 0x4c, 0xf4, 0x57, 0x44, 0xb7, 0x52, 0x00, 0xb2,
    0x2e, 0xdb, 0x74, 0x6c, 0xcf, 0x15, 0x5e, 0x20, 0xf5, 0xeb, 0x57, 0x0b,
    0xf7, 0x2b, 0x1e, 0x2f, 0x2d, 0xd6, 0x98, 0x09, 0xd3, 0xf5, 0x77, 0xac,
    0x4f, 0x15, 0x6d, 0xe4, 0x87, 0x1e, 0x72, 0xd6, 0xf6, 0x55, 0x24, 0xe6,
    0x1a, 0xab, 0x1a, 0xe4, 0x08, 0x0f, 0xeb, 0x3d, 0xef, 0xfe, 0xff, 0x9d,
    0xf1, 0x70, 0x15, 0xfd, 0xc3, 0x00, 0xbc, 0xe3, 0x1b, 0xd9, 0xeb, 0x04,
    0x37, 0x06, 0x5a, 0x5e, 0x53, 0x0e, 0xf9, 0x08, 0x73, 0x94, 0x50, 0x51,
    0xa4, 0xe6, 0x0a, 0xb5, 0xdc, 0x27, 0x42, 0x5a, 0x03, 0x18, 0x2e, 0x20,
    0xd0, 0xcf, 0x03, 0x06, 0x22, 0x38, 0xd9, 0x34, 0xf0, 0xc5, 0x2f, 0xf5,
    0x10, 0xec, 0xdb, 0xc4, 0x0e, 0x2f, 0x45, 0x4f, 0xc1, 0xaf, 0x73, 0x43,
    0x94, 0xfa, 0x51, 0x02, 0xda, 0x96, 0xf1, 0xd4, 0x08, 0x1e, 0x6f, 0x89,
    0x99, 0x8b, 0x2e, 0xfb, 0xd1, 0x2c, 0x72, 0xc1, 0xc4, 0xf2, 0x9d, 0xbe,
    0x0d, 0xa2, 0xb0, 0x03, 0xae, 0x07, 0xa2, 0x22, 0xfc, 0x43, 0x6e, 0x6f,
    0xde, 0xc8, 0xc5, 0x33, 0xa3, 0x4c, 0x6e, 0x32, 0x07, 0xac, 0xaa, 0xaf,
    0xa6, 0x38, 0x5f, 0x62, 0xe1, 0xed, 0xac, 0xe0, 0x90, 0x2c, 0x1d, 0x04,
    0xb6, 0x4e, 0xbd, 0xba, 0x99, 0x19, 0x23, 0xca, 0x65, 0x24, 0x9b, 0xb3,
    0xd7, 0xa7, 0xff, 0x52, 0xcb, 0x66, 0xbb, 0x74, 0xdc, 0xb1, 0x9f, 0xfb,
    0xf9, 0x0a, 0xbd, 0x33, 0xc7, 0xc1, 0xa3, 0x35, 0x4c, 0xa8, 0xf2, 0x97,
    0x32, 0x63, 0x19, 0xee, 0x25, 0xf5, 0x39, 0xcc, 0xc5, 0xb6, 0x4b, 0xb6,
    0xc5, 0xdf, 0x1f, 0xfc, 0x8d, 0x32, 0x7d, 0xf2, 0xa6, 0xa3, 0x51, 0x90,
    0x39, 0xf9, 0x33, 0x50, 0xf6, 0x74, 0xf9, 0xd7, 0xef, 0x27, 0xc1, 0xc6,
    0x17, 0x4e, 0xfc, 0x59, 0xba, 0x6d, 0x1a, 0xf8, 0x40, 0xa2, 0x6c, 0xcc,
    0x4f, 0xf8, 0xd2, 0xb9, 0x06, 0xf8, 0xcb, 0x4b, 0xc0, 0xe5, 0x1a, 0xae,
    0x4e, 0xe3, 0xbc, 0xe3, 0x0a, 0x57, 0xa1, 0xbf, 0xba, 0x21, 0x57, 0x3b,
    0x47, 0x32, 0xcc, 0xa9, 0xb3, 0x6b, 0x97, 0x75, 0xfc, 0xea, 0xb8, 0xf1,
    0x25, 0x61, 0x28, 0x4d, 0xdb, 0x47, 0xdb, 0x34, 0x99, 0x4d, 0x5b, 0xc2,
    0xec, 0x13, 0x65, 0xb9, 0xba, 0xb9, 0xa7, 0x4b, 0xba, 0x6f, 0x45, 0x09,
    0xd3, 0xc8, 0x7a, 0x8b, 0xe6, 0xf3, 0xd8, 0xbf, 0xbf, 0xf6, 0xa3, 0x12,
    0xd1, 0x14, 0xf0, 0x96, 0x16, 0x07, 0x06, 0xd3, 0x49, 0x22, 0xcd, 0xe2,
    0x64, 0x3b, 0xc0, 0x58, 0x4f, 0xd0, 0x19, 0x03, 0x4e, 0x3a, 0x34, 0x1d,
    0x47, 0xfc, 0xc5, 0x55, 0xb2, 0x5b, 0x4f, 0x1a, 0xfa, 0xee, 0xfd, 0xbe,
    0x33, 0x40, 0xa4, 0xe4, 0x1f, 0x56, 0x9d, 0x55, 0x0e, 0xbf, 0x26, 0x29,
    0x1d, 0x13, 0x69, 0xed, 0xd9, 0x97, 0x37, 0x35, 0xe7, 0xbb, 0x68, 0xfe,
    0x29, 0x37, 0x0c, 0xae, 0x0a, 0x16, 0x3a, 0x4c, 0xee, 0xed, 0xcf, 0xe1,
    0xf3, 0xc9, 0x0c, 0xa6, 0x10, 0x4b, 0xeb, 0xf0, 0x8f, 0x26, 0x49, 0xdb,
    0xc1, 0xf4, 0x5a, 0x3b, 0x91, 0xb4, 0x5f, 0xcc, 0x66, 0x3b, 0xaa, 0x3c,
    0xb4, 0x66, 0xa5, 0x21, 0x04, 0x8e, 0x2e, 0xae, 0xc3, 0x59, 0x0e, 0x12,
    0x0a, 0x4c, 0x24, 0xad, 0x56, 0xfc, 0xff, 0xff, 0x04, 0x00, 0x00, 0x00,
    0x00, 0x02, 0x00, 0x00, 0xec, 0xf9, 0xff, 0xff, 0x6a, 0x0f, 0x00, 0x00,
    0xbe, 0xf1, 0xff, 0xff, 0xe0, 0x00, 0x00, 0x00, 0xe3, 0xf2, 0xff, 0xff,
    0xad, 0xfa, 0xff, 0xff, 0x9d, 0xfb, 0xff, 0xff, 0xed, 0xf5, 0xff, 0xff,
    0x24, 0xff, 0xff, 0xff, 0x34, 0x0b, 0x00, 0x00, 0xf4, 0xfd, 0xff, 0xff,
    0xf3, 0x02, 0x00, 0x00, 0x21, 0xf6, 0xff, 0xff, 0xa2, 0xf1, 0xff, 0xff,
    0x29, 0xfc, 0xff, 0xff, 0xff, 0xf8, 0xff, 0xff, 0x17, 0x08, 0x00, 0x00,
    0xcf, 0x06, 0x00, 0x00, 0xcd, 0x01, 0x00, 0x00, 0x62, 0xf9, 0xff, 0xff,
    0x3c, 0x05, 0x00, 0x00, 0x72, 0x09, 0x00, 0x00, 0x62, 0xff, 0xff, 0xff,
    0x72, 0xf9, 0xff, 0xff, 0x0b, 0x0f, 0x00, 0x00, 0x75, 0xf4, 0xff, 0xff,
    0xeb, 0xf7, 0xff, 0xff, 0x28, 0xfc, 0xff, 0xff, 0xf6, 0xf4, 0xff, 0xff,
    0x41, 0xf5, 0xff, 0xff, 0x8d, 0xf6, 0xff, 0xff, 0xd4, 0x08, 0x00, 0x00,
    0xb6, 0xff, 0xff, 0xff, 0x5e, 0xf7, 0xff, 0xff, 0x1e, 0x04, 0x00, 0x00,
    0xa3, 0xf4, 0xff, 0xff, 0x3d, 0xff, 0xff, 0xff, 0x9f, 0xf3, 0xff, 0xff,
    0x3d, 0xff, 0xff, 0xff, 0x97, 0xf1, 0xff, 0xff, 0x1d, 0xff, 0xff, 0xff,
    0xc3, 0x04, 0x00, 0x00, 0xa5, 0xf5, 0xff, 0xff, 0xdf, 0x02, 0x00, 0x00,
    0x7a, 0xf0, 0xff, 0xff, 0x9f, 0xf9, 0xff, 0xff, 0x8a, 0x0a, 0x00, 0x00,
    0xca, 0xfc, 0xff, 0xff, 0x2e, 0xfe, 0xff, 0xff, 0xd4, 0x0c, 0x00, 0x00,
    0x21, 0x0f, 0x00, 0x00, 0x8a, 0xfd, 0xff, 0xff, 0x46, 0x0f, 0x00, 0x00,
    0x58, 0x0c, 0x00, 0x00, 0x2d, 0x00, 0x00, 0x00, 0x63, 0xfe, 0xff, 0xff,
    0x5c, 0x05, 0x00, 0x00, 0x83, 0xff, 0xff, 0xff, 0x0c, 0x0b, 0x00, 0x00,
    0x0c, 0x0d, 0x00, 0x00, 0x1f, 0x07, 0x00, 0x00, 0x36, 0xf7, 0xff, 0xff,
    0xa3, 0xff, 0xff, 0xff, 0xf4, 0xef, 0xff, 0xff, 0xf2, 0xf4, 0xff, 0xff,
    0x94, 0xf2, 0xff, 0xff, 0x44, 0xf4, 0xff, 0xff, 0x4a, 0xf5, 0xff, 0xff,
    0xaa, 0xff, 0xff, 0xff, 0xbf, 0xf4, 0xff, 0xff, 0xb1, 0x05, 0x00, 0x00,
    0xdd, 0xf8, 0xff, 0xff, 0x91, 0x04, 0x00, 0x00, 0x8e, 0x08, 0x00, 0x00,
    0xa7, 0x04, 0x00, 0x00, 0xc1, 0xff, 0xff, 0xff, 0x9c, 0xf8, 0xff, 0xff,
    0x85, 0x0f, 0x00, 0x00, 0xea, 0xf7, 0xff, 0xff, 0x6e, 0xf0, 0xff, 0xff,
    0x56, 0xf7, 0xff, 0xff, 0x13, 0x10, 0x00, 0x00, 0x47, 0xfb, 0xff, 0xff,
    0xb6, 0x06, 0x00, 0x00, 0x16, 0xfc, 0xff, 0xff, 0x68, 0xff, 0xff, 0xff,
    0x01, 0x04, 0x00, 0x00, 0x75, 0xf1, 0xff, 0xff, 0xbc, 0xff, 0xff, 0xff,
    0x36, 0x0d, 0x00, 0x00, 0x60, 0x00, 0x00, 0x00, 0xe9, 0xf2, 0xff, 0xff,
    0xd8, 0xf4, 0xff, 0xff, 0xaa, 0x09, 0x00, 0x00, 0xdf, 0xf5, 0xff, 0xff,
    0x93, 0x0d, 0x00, 0x00, 0xf2, 0xfc, 0xff, 0xff, 0xca, 0xf5, 0xff, 0xff,
    0xd6, 0xf8, 0xff, 0xff, 0xee, 0xf5, 0xff, 0xff, 0x5f, 0x10, 0x00, 0x00,
    0x23, 0x09, 0x00, 0x00, 0xbf, 0xf6, 0xff, 0xff, 0xa0, 0x04, 0x00, 0x00,
    0x3a, 0xf2, 0xff, 0xff, 0x30, 0x03, 0x00, 0x00, 0xa3, 0x04, 0x00, 0x00,
    0xa1, 0x0e, 0x00, 0x00, 0x85, 0x08, 0x00, 0x00, 0x6b, 0xf9, 0xff, 0xff,
    0x93, 0xfd, 0xff, 0xff, 0xd2, 0x0e, 0x00, 0x00, 0xf1, 0x08, 0x00, 0x00,
    0xd0, 0x0d, 0x00, 0x00, 0xda, 0xf8, 0xff, 0xff, 0xff, 0xf5, 0xff, 0xff,
    0x21, 0x04, 0x00, 0x00, 0xcb, 0x0e, 0x00, 0x00, 0xff, 0x06, 0x00, 0x00,
    0x98, 0xf5, 0xff, 0xff, 0x00, 0x00, 0x00, 0x00, 0xce, 0x0a, 0x00, 0x00,
    0x07, 0x03, 0x00, 0x00, 0x3c, 0x03, 0x00, 0x00, 0xd4, 0xfc, 0xff, 0xff,
    0x2f, 0xff, 0xff, 0xff, 0x45, 0x03, 0x00, 0x00, 0x04, 0x0f, 0x00, 0x00,
    0x62, 0xfe, 0xff, 0xff, 0x04, 0x00, 0x00, 0x00, 0x00, 0x01, 0x00, 0x00,
    0x6d, 0x9b, 0x20, 0xd9, 0x03, 0x3c, 0xd1, 0x60, 0xcb, 0xbf, 0x86, 0x2b,
    0xf3, 0x9e, 0x04, 0x9f, 0xc8, 0xa5, 0xe5, 0xe2, 0xaa, 0x21, 0x54, 0xb6,
    0xef, 0x42, 0xe9, 0x0c, 0xbb, 0x5b, 0xe8, 0xf8, 0x6c, 0xc7, 0xf7, 0xe9,
    0x10, 0x00, 0xa2, 0x5b, 0xa5, 0xfb, 0x34, 0x5d, 0x1f, 0x2c, 0xae, 0x12,
    0x68, 0xfe, 0x3b, 0x13, 0x41, 0xf0, 0xfe, 0x86, 0x05, 0x93, 0x34, 0xf5,
    0x94, 0xb2, 0xc7, 0x19, 0xbf, 0x4c, 0x9e, 0xfa, 0xc1, 0x65, 0xce, 0x3f,
    0x01, 0xc6, 0xa3, 0xf9, 0xe3, 0xf5, 0x6f, 0x1f, 0xf7, 0xed, 0x71, 0x18,
    0x55, 0x0c, 0x8f, 0x53, 0xcb, 0x2b, 0xa1, 0x2e, 0x0b, 0x5f, 0x3c, 0xe0,
    0x0a, 0x31, 0x7c, 0xb9, 0x8f, 0xd3, 0x2a, 0x9c, 0x57, 0xcf, 0x32, 0x5d,
    0x5f, 0x1c, 0x5e, 0x2c, 0xef, 0xee, 0x08, 0x94, 0xfd, 0xaa, 0x99, 0x49,
    0x09, 0x06, 0xa5, 0x31, 0x50, 0xb9, 0x67, 0x6f, 0x24, 0xdd, 0x27, 0x36,
    0xb4, 0xc0, 0x2e, 0x15, 0x0f, 0x18, 0x68, 0x53, 0x3b, 0x5e, 0x62, 0x02,
    0x76, 0x30, 0xf3, 0x35, 0x45, 0x66, 0x8b, 0x12, 0x4f, 0xc8, 0x23, 0xa6,
    0x32, 0x94, 0x04, 0x52, 0xac, 0xe4, 0xc1, 0x9f, 0xbd, 0x3e, 0x3f, 0x1a,
    0xe5, 0xf8, 0xbf, 0x3b, 0xc2, 0x26, 0x63, 0x81, 0x20, 0x31, 0xf0, 0x52,
    0x9f, 0x18, 0x66, 0xe6, 0xa9, 0x43, 0xde, 0x35, 0xdf, 0x3a, 0x21, 0x10,
    0xdd, 0xf4, 0x3a, 0xfe, 0xcf, 0xf1, 0x25, 0xa9, 0x43, 0xfd, 0x55, 0x3f,
    0x16, 0x40, 0xb7, 0xf8, 0xb9, 0xb3, 0xb2, 0xc8, 0xe5, 0x63, 0x30, 0x18,
    0xde, 0x0c, 0x76, 0x9f, 0x97, 0x0e, 0xde, 0xbe, 0xd5, 0xd1, 0x22, 0x0d,
    0x03, 0x9f, 0xa4, 0x12, 0xb4, 0x48, 0xea, 0x2b, 0x8c, 0xfb, 0xac, 0xc0,
    0x3f, 0xe6, 0xb7, 0x15, 0xdd, 0x25, 0xdc, 0xb1, 0xba, 0xe3, 0x74, 0x49,
    0xc5, 0x0e, 0xa7, 0xb6, 0x6e, 0xff, 0xff, 0xff, 0x04, 0x00, 0x00, 0x00,
    0x08, 0x00, 0x00, 0x00, 0xea, 0x05, 0x00, 0x00, 0x1f, 0xfb, 0xff, 0xff,
    0x82, 0xff, 0xff, 0xff, 0x04, 0x00, 0x00, 0x00, 0x08, 0x00, 0x00, 0x00,
    0x01, 0x00, 0x00, 0x00, 0x10, 0x00, 0x00, 0x00, 0x96, 0xff, 0xff, 0xff,
    0x04, 0x00, 0x00, 0x00, 0x08, 0x00, 0x00, 0x00, 0x02, 0x00, 0x00, 0x00,
    0x03, 0x00, 0x00, 0x00, 0xaa, 0xff, 0xff, 0xff, 0x04, 0x00, 0x00, 0x00,
    0x10, 0x00, 0x00, 0x00, 0x00, 0x00, 0x00, 0x00, 0x02, 0x00, 0x00, 0x00,
    0x03, 0x00, 0x00, 0x00, 0x01, 0x00, 0x00, 0x00, 0xc6, 0xff, 0xff, 0xff,
    0x04, 0x00, 0x00, 0x00, 0x10, 0x00, 0x00, 0x00, 0x00, 0x00, 0x00, 0x00,
    0x03, 0x00, 0x00, 0x00, 0x01, 0x00, 0x00, 0x00, 0x02, 0x00, 0x00, 0x00,
    0xe2, 0xff, 0xff, 0xff, 0x04, 0x00, 0x00, 0x00, 0x10, 0x00, 0x00, 0x00,
    0x01, 0x00, 0x00, 0x00, 0x2a, 0x00, 0x00, 0x00, 0x1c, 0x00, 0x00, 0x00,
    0x01, 0x00, 0x00, 0x00, 0x00, 0x00, 0x06, 0x00, 0x08, 0x00, 0x04, 0x00,
    0x06, 0x00, 0x00, 0x00, 0x04, 0x00, 0x00, 0x00, 0x20, 0x00, 0x00, 0x00,
    0x00, 0x00, 0x00, 0x00, 0x00, 0x00, 0x00, 0x00, 0x00, 0x00, 0x00, 0x00,
    0x00, 0x00, 0x00, 0x00, 0x01, 0x00, 0x00, 0x00, 0x01, 0x00, 0x00, 0x00,
    0x01, 0x00, 0x00, 0x00, 0x01, 0x00, 0x00, 0x00, 0x74, 0xd1, 0xff, 0xff,
    0x78, 0xd1, 0xff, 0xff, 0x0f, 0x00, 0x00, 0x00, 0x4d, 0x4c, 0x49, 0x52,
    0x20, 0x43, 0x6f, 0x6e, 0x76, 0x65, 0x72, 0x74, 0x65, 0x64, 0x2e, 0x00,
    0x01, 0x00, 0x00, 0x00, 0x14, 0x00, 0x00, 0x00, 0x00, 0x00, 0x0e, 0x00,
    0x18, 0x00, 0x14, 0x00, 0x10, 0x00, 0x0c, 0x00, 0x08, 0x00, 0x04, 0x00,
    0x0e, 0x00, 0x00, 0x00, 0x14, 0x00, 0x00, 0x00, 0x1c, 0x00, 0x00, 0x00,
    0x70, 0x08, 0x00, 0x00, 0x74, 0x08, 0x00, 0x00, 0x78, 0x08, 0x00, 0x00,
    0x04, 0x00, 0x00, 0x00, 0x6d, 0x61, 0x69, 0x6e, 0x00, 0x00, 0x00, 0x00,
    0x29, 0x00, 0x00, 0x00, 0x28, 0x08, 0x00, 0x00, 0xf0, 0x07, 0x00, 0x00,
    0x94, 0x07, 0x00, 0x00, 0x5c, 0x07, 0x00, 0x00, 0x28, 0x07, 0x00, 0x00,
    0xf4, 0x06, 0x00, 0x00, 0xcc, 0x06, 0x00, 0x00, 0xa8, 0x06, 0x00, 0x00,
    0x74, 0x06, 0x00, 0x00, 0x44, 0x06, 0x00, 0x00, 0x1c, 0x06, 0x00, 0x00,
    0xc8, 0x05, 0x00, 0x00, 0xa0, 0x05, 0x00, 0x00, 0x70, 0x05, 0x00, 0x00,
    0x48, 0x05, 0x00, 0x00, 0xec, 0x04, 0x00, 0x00, 0xa8, 0x04, 0x00, 0x00,
    0x80, 0x04, 0x00, 0x00, 0x50, 0x04, 0x00, 0x00, 0x28, 0x04, 0x00, 0x00,
    0xe4, 0x03, 0x00, 0x00, 0xbc, 0x03, 0x00, 0x00, 0x88, 0x03, 0x00, 0x00,
    0x54, 0x03, 0x00, 0x00, 0x2c, 0x03, 0x00, 0x00, 0x08, 0x03, 0x00, 0x00,
    0xd4, 0x02, 0x00, 0x00, 0xa4, 0x02, 0x00, 0x00, 0x7c, 0x02, 0x00, 0x00,
    0x30, 0x02, 0x00, 0x00, 0xec, 0x01, 0x00, 0x00, 0xc4, 0x01, 0x00, 0x00,
    0x84, 0x01, 0x00, 0x00, 0x5c, 0x01, 0x00, 0x00, 0x24, 0x01, 0x00, 0x00,
    0xf0, 0x00, 0x00, 0x00, 0xbc, 0x00, 0x00, 0x00, 0x94, 0x00, 0x00, 0x00,
    0x70, 0x00, 0x00, 0x00, 0x3c, 0x00, 0x00, 0x00, 0x04, 0x00, 0x00, 0x00,
    0x16, 0xf9, 0xff, 0xff, 0x14, 0x00, 0x00, 0x00, 0x00, 0x00, 0x00, 0x08,
    0x10, 0x00, 0x00, 0x00, 0x14, 0x00, 0x00, 0x00, 0x0a, 0x00, 0x00, 0x00,
    0x8c, 0xd2, 0xff, 0xff, 0x01, 0x00, 0x00, 0x00, 0x46, 0x00, 0x00, 0x00,
    0x03, 0x00, 0x00, 0x00, 0x45, 0x00, 0x00, 0x00, 0x08, 0x00, 0x00, 0x00,
    0x07, 0x00, 0x00, 0x00, 0x4a, 0xf9, 0xff, 0xff, 0x14, 0x00, 0x00, 0x00,
    0x00, 0x00, 0x00, 0x15, 0x10, 0x00, 0x00, 0x00, 0x14, 0x00, 0x00, 0x00,
    0x04, 0x00, 0x00, 0x00, 0xc0, 0xd2, 0xff, 0xff, 0x01, 0x00, 0x00, 0x00,
    0x45, 0x00, 0x00, 0x00, 0x02, 0x00, 0x00, 0x00, 0x40, 0x00, 0x00, 0x00,
    0x44, 0x00, 0x00, 0x00, 0x1e, 0xf9, 0xff, 0xff, 0x0c, 0x00, 0x00, 0x00,
    0x10, 0x00, 0x00, 0x00, 0x07, 0x00, 0x00, 0x00, 0x01, 0x00, 0x00, 0x00,
    0x44, 0x00, 0x00, 0x00, 0x01, 0x00, 0x00, 0x00, 0x43, 0x00, 0x00, 0x00,
    0x3e, 0xf9, 0xff, 0xff, 0x0c, 0x00, 0x00, 0x00, 0x10, 0x00, 0x00, 0x00,
    0x06, 0x00, 0x00, 0x00, 0x01, 0x00, 0x00, 0x00, 0x43, 0x00, 0x00, 0x00,
    0x02, 0x00, 0x00, 0x00, 0x42, 0x00, 0x00, 0x00, 0x19, 0x00, 0x00, 0x00,
    0xbe, 0xf9, 0xff, 0xff, 0x14, 0x00, 0x00, 0x00, 0x00, 0x00, 0x00, 0x0b,
    0x10, 0x00, 0x00, 0x00, 0x14, 0x00, 0x00, 0x00, 0x05, 0x00, 0x00, 0x00,
    0x34, 0xd3, 0xff, 0xff, 0x01, 0x00, 0x00, 0x00, 0x42, 0x00, 0x00, 0x00,
    0x02, 0x00, 0x00, 0x00, 0x41, 0x00, 0x00, 0x00, 0x1a, 0x00, 0x00, 0x00,
    0xee, 0xf9, 0xff, 0xff, 0x14, 0x00, 0x00, 0x00, 0x00, 0x00, 0x00, 0x15,
    0x10, 0x00, 0x00, 0x00, 0x14, 0x00, 0x00, 0x00, 0x04, 0x00, 0x00, 0x00,
    0x64, 0xd3, 0xff, 0xff, 0x01, 0x00, 0x00, 0x00, 0x41, 0x00, 0x00, 0x00,
    0x02, 0x00, 0x00, 0x00, 0x40, 0x00, 0x00, 0x00, 0x1b, 0x00, 0x00, 0x00,
    0x1e, 0xfa, 0xff, 0xff, 0x14, 0x00, 0x00, 0x00, 0x00, 0x00, 0x00, 0x08,
    0x10, 0x00, 0x00, 0x00, 0x14, 0x00, 0x00, 0x00, 0x0a, 0x00, 0x00, 0x00,
    0x94, 0xd3, 0xff, 0xff, 0x01, 0x00, 0x00, 0x00, 0x40, 0x00, 0x00, 0x00,
    0x03, 0x00, 0x00, 0x00, 0x3f, 0x00, 0x00, 0x00, 0x0a, 0x00, 0x00, 0x00,
    0x09, 0x00, 0x00, 0x00, 0xf6, 0xf9, 0xff, 0xff, 0x0c, 0x00, 0x00, 0x00,
    0x10, 0x00, 0x00, 0x00, 0x01, 0x00, 0x00, 0x00, 0x01, 0x00, 0x00, 0x00,
    0x3f, 0x00, 0x00, 0x00, 0x02, 0x00, 0x00, 0x00, 0x3e, 0x00, 0x00, 0x00,
    0x06, 0x00, 0x00, 0x00, 0x76, 0xfa, 0xff, 0xff, 0x1c, 0x00, 0x00, 0x00,
    0x00, 0x00, 0x00, 0x1b, 0x1c, 0x00, 0x00, 0x00, 0x20, 0x00, 0x00, 0x00,
    0x09, 0x00, 0x00, 0x00, 0x00, 0x00, 0x06, 0x00, 0x08, 0x00, 0x07, 0x00,
    0x06, 0x00, 0x00, 0x00, 0x00, 0x00, 0x00, 0x01, 0x01, 0x00, 0x00, 0x00,
    0x3e, 0x00, 0x00, 0x00, 0x02, 0x00, 0x00, 0x00, 0x3d, 0x00, 0x00, 0x00,
    0x05, 0x00, 0x00, 0x00, 0x56, 0xfa, 0xff, 0xff, 0x0c, 0x00, 0x00, 0x00,
    0x10, 0x00, 0x00, 0x00, 0x03, 0x00, 0x00, 0x00, 0x01, 0x00, 0x00, 0x00,
    0x3d, 0x00, 0x00, 0x00, 0x02, 0x00, 0x00, 0x00, 0x3c, 0x00, 0x00, 0x00,
    0x03, 0x00, 0x00, 0x00, 0xd6, 0xfa, 0xff, 0xff, 0x14, 0x00, 0x00, 0x00,
    0x00, 0x00, 0x00, 0x01, 0x1c, 0x00, 0x00, 0x00, 0x20, 0x00, 0x00, 0x00,
    0x02, 0x00, 0x00, 0x00, 0xc6, 0xfa, 0xff, 0xff, 0x01, 0x00, 0x00, 0x00,
    0x01, 0x00, 0x00, 0x00, 0x00, 0x00, 0x00, 0x01, 0x01, 0x00, 0x00, 0x00,
    0x3c, 0x00, 0x00, 0x00, 0x03, 0x00, 0x00, 0x00, 0x3b, 0x00, 0x00, 0x00,
    0x0c, 0x00, 0x00, 0x00, 0x0b, 0x00, 0x00, 0x00, 0x16, 0xfb, 0xff, 0xff,
    0x14, 0x00, 0x00, 0x00, 0x00, 0x00, 0x00, 0x02, 0x24, 0x00, 0x00, 0x00,
    0x28, 0x00, 0x00, 0x00, 0x08, 0x00, 0x00, 0x00, 0x7a, 0xfd, 0xff, 0xff,
    0x00, 0x00, 0x00, 0x01, 0x01, 0x00, 0x00, 0x00, 0x01, 0x00, 0x00, 0x00,
    0x01, 0x00, 0x00, 0x00, 0x00, 0x00, 0x00, 0x01, 0x01, 0x00, 0x00, 0x00,
    0x3b, 0x00, 0x00, 0x00, 0x03, 0x00, 0x00, 0x00, 0x3a, 0x00, 0x00, 0x00,
    0x0e, 0x00, 0x00, 0x00, 0x0d, 0x00, 0x00, 0x00, 0x02, 0xfb, 0xff, 0xff,
    0x0c, 0x00, 0x00, 0x00, 0x10, 0x00, 0x00, 0x00, 0x03, 0x00, 0x00, 0x00,
    0x01, 0x00, 0x00, 0x00, 0x3a, 0x00, 0x00, 0x00, 0x02, 0x00, 0x00, 0x00,
    0x39, 0x00, 0x00, 0x00, 0x04, 0x00, 0x00, 0x00, 0xf6, 0xfa, 0xff, 0xff,
    0x10, 0x00, 0x00, 0x00, 0x00, 0x00, 0x00, 0x16, 0x0c, 0x00, 0x00, 0x00,
    0x10, 0x00, 0x00, 0x00, 0xf4, 0xd4, 0xff, 0xff, 0x01, 0x00, 0x00, 0x00,
    0x39, 0x00, 0x00, 0x00, 0x02, 0x00, 0x00, 0x00, 0x38, 0x00, 0x00, 0x00,
    0x01, 0x00, 0x00, 0x00, 0xae, 0xfb, 0xff, 0xff, 0x14, 0x00, 0x00, 0x00,
    0x00, 0x00, 0x00, 0x15, 0x10, 0x00, 0x00, 0x00, 0x14, 0x00, 0x00, 0x00,
    0x04, 0x00, 0x00, 0x00, 0x24, 0xd5, 0xff, 0xff, 0x01, 0x00, 0x00, 0x00,
    0x38, 0x00, 0x00, 0x00, 0x02, 0x00, 0x00, 0x00, 0x33, 0x00, 0x00, 0x00,
    0x37, 0x00, 0x00, 0x00, 0x82, 0xfb, 0xff, 0xff, 0x0c, 0x00, 0x00, 0x00,
    0x10, 0x00, 0x00, 0x00, 0x07, 0x00, 0x00, 0x00, 0x01, 0x00, 0x00, 0x00,
    0x37, 0x00, 0x00, 0x00, 0x01, 0x00, 0x00, 0x00, 0x36, 0x00, 0x00, 0x00,
    0xa2, 0xfb, 0xff, 0xff, 0x0c, 0x00, 0x00, 0x00, 0x10, 0x00, 0x00, 0x00,
    0x06, 0x00, 0x00, 0x00, 0x01, 0x00, 0x00, 0x00, 0x36, 0x00, 0x00, 0x00,
    0x02, 0x00, 0x00, 0x00, 0x35, 0x00, 0x00, 0x00, 0x18, 0x00, 0x00, 0x00,
    0x22, 0xfc, 0xff, 0xff, 0x14, 0x00, 0x00, 0x00, 0x00, 0x00, 0x00, 0x0b,
    0x10, 0x00, 0x00, 0x00, 0x14, 0x00, 0x00, 0x00, 0x05, 0x00, 0x00, 0x00,
    0x98, 0xd5, 0xff, 0xff, 0x01, 0x00, 0x00, 0x00, 0x35, 0x00, 0x00, 0x00,
    0x02, 0x00, 0x00, 0x00, 0x34, 0x00, 0x00, 0x00, 0x1a, 0x00, 0x00, 0x00,
    0x52, 0xfc, 0xff, 0xff, 0x14, 0x00, 0x00, 0x00, 0x00, 0x00, 0x00, 0x15,
    0x10, 0x00, 0x00, 0x00, 0x14, 0x00, 0x00, 0x00, 0x04, 0x00, 0x00, 0x00,
    0xc8, 0xd5, 0xff, 0xff, 0x01, 0x00, 0x00, 0x00, 0x34, 0x00, 0x00, 0x00,
    0x02, 0x00, 0x00, 0x00, 0x33, 0x00, 0x00, 0x00, 0x1b, 0x00, 0x00, 0x00,
    0x26, 0xfc, 0xff, 0xff, 0x0c, 0x00, 0x00, 0x00, 0x10, 0x00, 0x00, 0x00,
    0x03, 0x00, 0x00, 0x00, 0x01, 0x00, 0x00, 0x00, 0x33, 0x00, 0x00, 0x00,
    0x02, 0x00, 0x00, 0x00, 0x32, 0x00, 0x00, 0x00, 0x03, 0x00, 0x00, 0x00,
    0xa6, 0xfc, 0xff, 0xff, 0x14, 0x00, 0x00, 0x00, 0x00, 0x00, 0x00, 0x01,
    0x1c, 0x00, 0x00, 0x00, 0x20, 0x00, 0x00, 0x00, 0x02, 0x00, 0x00, 0x00,
    0x96, 0xfc, 0xff, 0xff, 0x02, 0x00, 0x00, 0x00, 0x02, 0x00, 0x00, 0x00,
    0x00, 0x00, 0x00, 0x01, 0x01, 0x00, 0x00, 0x00, 0x32, 0x00, 0x00, 0x00,
    0x03, 0x00, 0x00, 0x00, 0x31, 0x00, 0x00, 0x00, 0x10, 0x00, 0x00, 0x00,
    0x0f, 0x00, 0x00, 0x00, 0x8a, 0xfc, 0xff, 0xff, 0x0c, 0x00, 0x00, 0x00,
    0x10, 0x00, 0x00, 0x00, 0x03, 0x00, 0x00, 0x00, 0x01, 0x00, 0x00, 0x00,
    0x31, 0x00, 0x00, 0x00, 0x02, 0x00, 0x00, 0x00, 0x30, 0x00, 0x00, 0x00,
    0x04, 0x00, 0x00, 0x00, 0x7e, 0xfc, 0xff, 0xff, 0x10, 0x00, 0x00, 0x00,
    0x00, 0x00, 0x00, 0x16, 0x0c, 0x00, 0x00, 0x00, 0x10, 0x00, 0x00, 0x00,
    0x7c, 0xd6, 0xff, 0xff, 0x01, 0x00, 0x00, 0x00, 0x30, 0x00, 0x00, 0x00,
    0x02, 0x00, 0x00, 0x00, 0x2f, 0x00, 0x00, 0x00, 0x01, 0x00, 0x00, 0x00,
    0xda, 0xfc, 0xff, 0xff, 0x0c, 0x00, 0x00, 0x00, 0x10, 0x00, 0x00, 0x00,
    0x03, 0x00, 0x00, 0x00, 0x01, 0x00, 0x00, 0x00, 0x2f, 0x00, 0x00, 0x00,
    0x02, 0x00, 0x00, 0x00, 0x2e, 0x00, 0x00, 0x00, 0x03, 0x00, 0x00, 0x00,
    0x5a, 0xfd, 0xff, 0xff, 0x14, 0x00, 0x00, 0x00, 0x00, 0x00, 0x00, 0x01,
    0x1c, 0x00, 0x00, 0x00, 0x20, 0x00, 0x00, 0x00, 0x02, 0x00, 0x00, 0x00,
    0x4a, 0xfd, 0xff, 0xff, 0x01, 0x00, 0x00, 0x00, 0x01, 0x00, 0x00, 0x00,
    0x00, 0x00, 0x00, 0x01, 0x01, 0x00, 0x00, 0x00, 0x2e, 0x00, 0x00, 0x00,
    0x03, 0x00, 0x00, 0x00, 0x2d, 0x00, 0x00, 0x00, 0x12, 0x00, 0x00, 0x00,
    0x11, 0x00, 0x00, 0x00, 0x9a, 0xfd, 0xff, 0xff, 0x24, 0x00, 0x00, 0x00,
    0x00, 0x00, 0x00, 0x02, 0x34, 0x00, 0x00, 0x00, 0x38, 0x00, 0x00, 0x00,
    0x08, 0x00, 0x00, 0x00, 0x00, 0x00, 0x0e, 0x00, 0x18, 0x00, 0x17, 0x00,
    0x10, 0x00, 0x0c, 0x00, 0x08, 0x00, 0x07, 0x00, 0x0e, 0x00, 0x00, 0x00,
    0x00, 0x00, 0x00, 0x01, 0x01, 0x00, 0x00, 0x00, 0x01, 0x00, 0x00, 0x00,
    0x01, 0x00, 0x00, 0x00, 0x00, 0x00, 0x00, 0x01, 0x01, 0x00, 0x00, 0x00,
    0x2d, 0x00, 0x00, 0x00, 0x03, 0x00, 0x00, 0x00, 0x2c, 0x00, 0x00, 0x00,
    0x14, 0x00, 0x00, 0x00, 0x13, 0x00, 0x00, 0x00, 0x96, 0xfd, 0xff, 0xff,
    0x0c, 0x00, 0x00, 0x00, 0x10, 0x00, 0x00, 0x00, 0x03, 0x00, 0x00, 0x00,
    0x01, 0x00, 0x00, 0x00, 0x2c, 0x00, 0x00, 0x00, 0x02, 0x00, 0x00, 0x00,
    0x2b, 0x00, 0x00, 0x00, 0x04, 0x00, 0x00, 0x00, 0x8a, 0xfd, 0xff, 0xff,
    0x10, 0x00, 0x00, 0x00, 0x00, 0x00, 0x00, 0x16, 0x0c, 0x00, 0x00, 0x00,
    0x10, 0x00, 0x00, 0x00, 0x88, 0xd7, 0xff, 0xff, 0x01, 0x00, 0x00, 0x00,
    0x2b, 0x00, 0x00, 0x00, 0x02, 0x00, 0x00, 0x00, 0x2a, 0x00, 0x00, 0x00,
    0x01, 0x00, 0x00, 0x00, 0xe6, 0xfd, 0xff, 0xff, 0x0c, 0x00, 0x00, 0x00,
    0x10, 0x00, 0x00, 0x00, 0x03, 0x00, 0x00, 0x00, 0x01, 0x00, 0x00, 0x00,
    0x2a, 0x00, 0x00, 0x00, 0x02, 0x00, 0x00, 0x00, 0x29, 0x00, 0x00, 0x00,
    0x03, 0x00, 0x00, 0x00, 0x66, 0xfe, 0xff, 0xff, 0x20, 0x00, 0x00, 0x00,
    0x00, 0x00, 0x00, 0x01, 0x2c, 0x00, 0x00, 0x00, 0x30, 0x00, 0x00, 0x00,
    0x02, 0x00, 0x00, 0x00, 0x0c, 0x00, 0x14, 0x00, 0x13, 0x00, 0x0c, 0x00,
    0x08, 0x00, 0x07, 0x00, 0x0c, 0x00, 0x00, 0x00, 0x00, 0x00, 0x00, 0x01,
    0x02, 0x00, 0x00, 0x00, 0x02, 0x00, 0x00, 0x00, 0x00, 0x00, 0x00, 0x01,
    0x01, 0x00, 0x00, 0x00, 0x29, 0x00, 0x00, 0x00, 0x03, 0x00, 0x00, 0x00,
    0x28, 0x00, 0x00, 0x00, 0x16, 0x00, 0x00, 0x00, 0x15, 0x00, 0x00, 0x00,
    0x5a, 0xfe, 0xff, 0xff, 0x0c, 0x00, 0x00, 0x00, 0x10, 0x00, 0x00, 0x00,
    0x03, 0x00, 0x00, 0x00, 0x01, 0x00, 0x00, 0x00, 0x28, 0x00, 0x00, 0x00,
    0x02, 0x00, 0x00, 0x00, 0x27, 0x00, 0x00, 0x00, 0x04, 0x00, 0x00, 0x00,
    0x4e, 0xfe, 0xff, 0xff, 0x10, 0x00, 0x00, 0x00, 0x00, 0x00, 0x00, 0x16,
    0x0c, 0x00, 0x00, 0x00, 0x10, 0x00, 0x00, 0x00, 0x4c, 0xd8, 0xff, 0xff,
    0x01, 0x00, 0x00, 0x00, 0x27, 0x00, 0x00, 0x00, 0x02, 0x00, 0x00, 0x00,
    0x26, 0x00, 0x00, 0x00, 0x01, 0x00, 0x00, 0x00, 0x06, 0xff, 0xff, 0xff,
    0x14, 0x00, 0x00, 0x00, 0x00, 0x00, 0x00, 0x15, 0x10, 0x00, 0x00, 0x00,
    0x14, 0x00, 0x00, 0x00, 0x04, 0x00, 0x00, 0x00, 0x7c, 0xd8, 0xff, 0xff,
    0x01, 0x00, 0x00, 0x00, 0x26, 0x00, 0x00, 0x00, 0x02, 0x00, 0x00, 0x00,
    0x21, 0x00, 0x00, 0x00, 0x25, 0x00, 0x00, 0x00, 0xda, 0xfe, 0xff, 0xff,
    0x0c, 0x00, 0x00, 0x00, 0x10, 0x00, 0x00, 0x00, 0x07, 0x00, 0x00, 0x00,
    0x01, 0x00, 0x00, 0x00, 0x25, 0x00, 0x00, 0x00, 0x01, 0x00, 0x00, 0x00,
    0x24, 0x00, 0x00, 0x00, 0xfa, 0xfe, 0xff, 0xff, 0x0c, 0x00, 0x00, 0x00,
    0x10, 0x00, 0x00, 0x00, 0x06, 0x00, 0x00, 0x00, 0x01, 0x00, 0x00, 0x00,
    0x24, 0x00, 0x00, 0x00, 0x02, 0x00, 0x00, 0x00, 0x23, 0x00, 0x00, 0x00,
    0x17, 0x00, 0x00, 0x00, 0x7a, 0xff, 0xff, 0xff, 0x14, 0x00, 0x00, 0x00,
    0x00, 0x00, 0x00, 0x0b, 0x10, 0x00, 0x00, 0x00, 0x14, 0x00, 0x00, 0x00,
    0x05, 0x00, 0x00, 0x00, 0xf0, 0xd8, 0xff, 0xff, 0x01, 0x00, 0x00, 0x00,
    0x23, 0x00, 0x00, 0x00, 0x02, 0x00, 0x00, 0x00, 0x22, 0x00, 0x00, 0x00,
    0x1a, 0x00, 0x00, 0x00, 0xaa, 0xff, 0xff, 0xff, 0x14, 0x00, 0x00, 0x00,
    0x00, 0x00, 0x00, 0x15, 0x10, 0x00, 0x00, 0x00, 0x14, 0x00, 0x00, 0x00,
    0x04, 0x00, 0x00, 0x00, 0x20, 0xd9, 0xff, 0xff, 0x01, 0x00, 0x00, 0x00,
    0x22, 0x00, 0x00, 0x00, 0x02, 0x00, 0x00, 0x00, 0x21, 0x00, 0x00, 0x00,
    0x1b, 0x00, 0x00, 0x00, 0x7e, 0xff, 0xff, 0xff, 0x0c, 0x00, 0x00, 0x00,
    0x10, 0x00, 0x00, 0x00, 0x03, 0x00, 0x00, 0x00, 0x01, 0x00, 0x00, 0x00,
    0x21, 0x00, 0x00, 0x00, 0x02, 0x00, 0x00, 0x00, 0x20, 0x00, 0x00, 0x00,
    0x03, 0x00, 0x00, 0x00, 0x00, 0x00, 0x0e, 0x00, 0x1a, 0x00, 0x14, 0x00,
    0x10, 0x00, 0x0c, 0x00, 0x0b, 0x00, 0x04, 0x00, 0x0e, 0x00, 0x00, 0x00,
    0x20, 0x00, 0x00, 0x00, 0x00, 0x00, 0x00, 0x01, 0x28, 0x00, 0x00, 0x00,
    0x2c, 0x00, 0x00, 0x00, 0x02, 0x00, 0x00, 0x00, 0x00, 0x00, 0x0a, 0x00,
    0x10, 0x00, 0x0f, 0x00, 0x08, 0x00, 0x04, 0x00, 0x0a, 0x00, 0x00, 0x00,
    0x02, 0x00, 0x00, 0x00, 0x02, 0x00, 0x00, 0x00, 0x00, 0x00, 0x00, 0x01,
    0x01, 0x00, 0x00, 0x00, 0x20, 0x00, 0x00, 0x00, 0x03, 0x00, 0x00, 0x00,
    0x1f, 0x00, 0x00, 0x00, 0x1d, 0x00, 0x00, 0x00, 0x1c, 0x00, 0x00, 0x00,
    0x00, 0x00, 0x0a, 0x00, 0x10, 0x00, 0x0c, 0x00, 0x08, 0x00, 0x04, 0x00,
    0x0a, 0x00, 0x00, 0x00, 0x0c, 0x00, 0x00, 0x00, 0x10, 0x00, 0x00, 0x00,
    0x01, 0x00, 0x00, 0x00, 0x01, 0x00, 0x00, 0x00, 0x1f, 0x00, 0x00, 0x00,
    0x02, 0x00, 0x00, 0x00, 0x1e, 0x00, 0x00, 0x00, 0x02, 0x00, 0x00, 0x00,
    0x00, 0x00, 0x0e, 0x00, 0x14, 0x00, 0x00, 0x00, 0x10, 0x00, 0x0c, 0x00,
    0x0b, 0x00, 0x04, 0x00, 0x0e, 0x00, 0x00, 0x00, 0x10, 0x00, 0x00, 0x00,
    0x00, 0x00, 0x00, 0x16, 0x0c, 0x00, 0x00, 0x00, 0x10, 0x00, 0x00, 0x00,
    0x0c, 0xda, 0xff, 0xff, 0x01, 0x00, 0x00, 0x00, 0x1e, 0x00, 0x00, 0x00,
    0x02, 0x00, 0x00, 0x00, 0x00, 0x00, 0x00, 0x00, 0x01, 0x00, 0x00, 0x00,
    0x01, 0x00, 0x00, 0x00, 0x46, 0x00, 0x00, 0x00, 0x01, 0x00, 0x00, 0x00,
    0x00, 0x00, 0x00, 0x00, 0x47, 0x00, 0x00, 0x00, 0x08, 0x26, 0x00, 0x00,
    0xa8, 0x25, 0x00, 0x00, 0x68, 0x25, 0x00, 0x00, 0x28, 0x25, 0x00, 0x00,
    0xe8, 0x24, 0x00, 0x00, 0xa8, 0x24, 0x00, 0x00, 0x68, 0x24, 0x00, 0x00,
    0x08, 0x24, 0x00, 0x00, 0xa4, 0x23, 0x00, 0x00, 0x40, 0x23, 0x00, 0x00,
    0xdc, 0x22, 0x00, 0x00, 0xc8, 0x21, 0x00, 0x00, 0xa4, 0x20, 0x00, 0x00,
    0x90, 0x1f, 0x00, 0x00, 0x54, 0x1e, 0x00, 0x00, 0x40, 0x1d, 0x00, 0x00,
    0x1c, 0x1c, 0x00, 0x00, 0x08, 0x1b, 0x00, 0x00, 0xe4, 0x19, 0x00, 0x00,
    0xd0, 0x18, 0x00, 0x00, 0xa8, 0x17, 0x00, 0x00, 0x90, 0x16, 0x00, 0x00,
    0x6c, 0x15, 0x00, 0x00, 0x10, 0x15, 0x00, 0x00, 0xb4, 0x14, 0x00, 0x00,
    0x58, 0x14, 0x00, 0x00, 0xfc, 0x13, 0x00, 0x00, 0xa0, 0x13, 0x00, 0x00,
    0x8c, 0x12, 0x00, 0x00, 0x68, 0x11, 0x00, 0x00, 0x0c, 0x11, 0x00, 0x00,
    0xa8, 0x10, 0x00, 0x00, 0x34, 0x10, 0x00, 0x00, 0xd0, 0x0f, 0x00, 0x00,
    0x74, 0x0f, 0x00, 0x00, 0x10, 0x0f, 0x00, 0x00, 0x9c, 0x0e, 0x00, 0x00,
    0x30, 0x0e, 0x00, 0x00, 0xb4, 0x0d, 0x00, 0x00, 0x50, 0x0d, 0x00, 0x00,
    0xec, 0x0c, 0x00, 0x00, 0x68, 0x0c, 0x00, 0x00, 0x04, 0x0c, 0x00, 0x00,
    0xa0, 0x0b, 0x00, 0x00, 0x3c, 0x0b, 0x00, 0x00, 0xa0, 0x0a, 0x00, 0x00,
    0x2c, 0x0a, 0x00, 0x00, 0xc0, 0x09, 0x00, 0x00, 0x5c, 0x09, 0x00, 0x00,
    0xf0, 0x08, 0x00, 0x00, 0x7c, 0x08, 0x00, 0x00, 0x10, 0x08, 0x00, 0x00,
    0xac, 0x07, 0x00, 0x00, 0x48, 0x07, 0x00, 0x00, 0xd4, 0x06, 0x00, 0x00,
    0x68, 0x06, 0x00, 0x00, 0xec, 0x05, 0x00, 0x00, 0x88, 0x05, 0x00, 0x00,
    0x1c, 0x05, 0x00, 0x00, 0x80, 0x04, 0x00, 0x00, 0x04, 0x04, 0x00, 0x00,
    0x98, 0x03, 0x00, 0x00, 0x34, 0x03, 0x00, 0x00, 0xd8, 0x02, 0x00, 0x00,
    0x74, 0x02, 0x00, 0x00, 0x18, 0x02, 0x00, 0x00, 0xbc, 0x01, 0x00, 0x00,
    0x50, 0x01, 0x00, 0x00, 0xec, 0x00, 0x00, 0x00, 0x68, 0x00, 0x00, 0x00,
    0x04, 0x00, 0x00, 0x00, 0x2a, 0xdb, 0xff, 0xff, 0x00, 0x00, 0x00, 0x01,
    0x14, 0x00, 0x00, 0x00, 0x34, 0x00, 0x00, 0x00, 0x47, 0x00, 0x00, 0x00,
    0x00, 0x00, 0x00, 0x09, 0x3c, 0x00, 0x00, 0x00, 0x14, 0xdb, 0xff, 0xff,
    0x08, 0x00, 0x00, 0x00, 0x14, 0x00, 0x00, 0x00, 0x01, 0x00, 0x00, 0x00,
    0x03, 0x00, 0x00, 0x00, 0x00, 0x00, 0x00, 0x00, 0x00, 0x00, 0x00, 0x00,
    0x01, 0x00, 0x00, 0x00, 0xb9, 0xf0, 0x53, 0x3d, 0x0f, 0x00, 0x00, 0x00,
    0x50, 0x61, 0x72, 0x74, 0x69, 0x74, 0x69, 0x6f, 0x6e, 0x65, 0x64, 0x43,
    0x61, 0x6c, 0x6c, 0x00, 0x02, 0x00, 0x00, 0x00, 0x01, 0x00, 0x00, 0x00,
    0x02, 0x00, 0x00, 0x00, 0x8a, 0xdb, 0xff, 0xff, 0x00, 0x00, 0x00, 0x01,
    0x14, 0x00, 0x00, 0x00, 0x30, 0x00, 0x00, 0x00, 0x46, 0x00, 0x00, 0x00,
    0x00, 0x00, 0x00, 0x09, 0x5c, 0x00, 0x00, 0x00, 0x74, 0xdb, 0xff, 0xff,
    0x08, 0x00, 0x00, 0x00, 0x10, 0x00, 0x00, 0x00, 0x01, 0x00, 0x00, 0x00,
    0x94, 0xff, 0xff, 0xff, 0xff, 0xff, 0xff, 0xff, 0x01, 0x00, 0x00, 0x00,
    0x45, 0xec, 0x9a, 0x3c, 0x31, 0x00, 0x00, 0x00, 0x6f, 0x6e, 0x6e, 0x78,
    0x5f, 0x74, 0x66, 0x5f, 0x70, 0x72, 0x65, 0x66, 0x69, 0x78, 0x5f, 0x2f,
    0x63, 0x6c, 0x61, 0x73, 0x73, 0x69, 0x66, 0x5f, 0x62, 0x6c, 0x6f, 0x63,
    0x6b, 0x2f, 0x63, 0x6c, 0x61, 0x73, 0x73, 0x69, 0x66, 0x5f, 0x62, 0x6c,
    0x6f, 0x63, 0x6b, 0x2e, 0x31, 0x2f, 0x4d, 0x75, 0x6c, 0x00, 0x00, 0x00,
    0x02, 0x00, 0x00, 0x00, 0x01, 0x00, 0x00, 0x00, 0x80, 0x00, 0x00, 0x00,
    0x0a, 0xdc, 0xff, 0xff, 0x00, 0x00, 0x00, 0x01, 0x14, 0x00, 0x00, 0x00,
    0x34, 0x00, 0x00, 0x00, 0x45, 0x00, 0x00, 0x00, 0x00, 0x00, 0x00, 0x09,
    0x3c, 0x00, 0x00, 0x00, 0xf4, 0xdb, 0xff, 0xff, 0x08, 0x00, 0x00, 0x00,
    0x14, 0x00, 0x00, 0x00, 0x01, 0x00, 0x00, 0x00, 0x94, 0xff, 0xff, 0xff,
    0xff, 0xff, 0xff, 0xff, 0x00, 0x00, 0x00, 0x00, 0x01, 0x00, 0x00, 0x00,
    0x45, 0xec, 0x9a, 0x3c, 0x0f, 0x00, 0x00, 0x00, 0x63, 0x6c, 0x69, 0x70,
    0x5f, 0x62, 0x79, 0x5f, 0x76, 0x61, 0x6c, 0x75, 0x65, 0x5f, 0x32, 0x00,
    0x02, 0x00, 0x00, 0x00, 0x01, 0x00, 0x00, 0x00, 0x80, 0x00, 0x00, 0x00,
    0x6a, 0xdc, 0xff, 0xff, 0x00, 0x00, 0x00, 0x01, 0x14, 0x00, 0x00, 0x00,
    0x34, 0x00, 0x00, 0x00, 0x44, 0x00, 0x00, 0x00, 0x00, 0x00, 0x00, 0x09,
    0x44, 0x00, 0x00, 0x00, 0x54, 0xdc, 0xff, 0xff, 0x08, 0x00, 0x00, 0x00,
    0x14, 0x00, 0x00, 0x00, 0x01, 0x00, 0x00, 0x00, 0xb3, 0xff, 0xff, 0xff,
    0xff, 0xff, 0xff, 0xff, 0x00, 0x00, 0x00, 0x00, 0x01, 0x00, 0x00, 0x00,
    0x68, 0xb1, 0xa0, 0x3b, 0x17, 0x00, 0x00, 0x00, 0x63, 0x6c, 0x69, 0x70,
    0x5f, 0x62, 0x79, 0x5f, 0x76, 0x61, 0x6c, 0x75, 0x65, 0x5f, 0x32, 0x2f,
    0x4d, 0x69, 0x6e, 0x69, 0x6d, 0x75, 0x6d, 0x00, 0x02, 0x00, 0x00, 0x00,
    0x01, 0x00, 0x00, 0x00, 0x80, 0x00, 0x00, 0x00, 0xd2, 0xdc, 0xff, 0xff,
    0x00, 0x00, 0x00, 0x01, 0x14, 0x00, 0x00, 0x00, 0x34, 0x00, 0x00, 0x00,
    0x43, 0x00, 0x00, 0x00, 0x00, 0x00, 0x00, 0x09, 0x34, 0x00, 0x00, 0x00,
    0xbc, 0xdc, 0xff, 0xff, 0x08, 0x00, 0x00, 0x00, 0x14, 0x00, 0x00, 0x00,
    0x01, 0x00, 0x00, 0x00, 0xb3, 0xff, 0xff, 0xff, 0xff, 0xff, 0xff, 0xff,
    0x00, 0x00, 0x00, 0x00, 0x01, 0x00, 0x00, 0x00, 0x68, 0xb1, 0xa0, 0x3b,
    0x05, 0x00, 0x00, 0x00, 0x61, 0x64, 0x64, 0x5f, 0x39, 0x00, 0x00, 0x00,
    0x02, 0x00, 0x00, 0x00, 0x01, 0x00, 0x00, 0x00, 0x80, 0x00, 0x00, 0x00,
    0x2a, 0xdd, 0xff, 0xff, 0x00, 0x00, 0x00, 0x01, 0x14, 0x00, 0x00, 0x00,
    0x34, 0x00, 0x00, 0x00, 0x42, 0x00, 0x00, 0x00, 0x00, 0x00, 0x00, 0x09,
    0x34, 0x00, 0x00, 0x00, 0x14, 0xdd, 0xff, 0xff, 0x08, 0x00, 0x00, 0x00,
    0x14, 0x00, 0x00, 0x00, 0x01, 0x00, 0x00, 0x00, 0xe0, 0xff, 0xff, 0xff,
    0xff, 0xff, 0xff, 0xff, 0x00, 0x00, 0x00, 0x00, 0x01, 0x00, 0x00, 0x00,
    0x8f, 0xf1, 0xff, 0x3b, 0x05, 0x00, 0x00, 0x00, 0x6d, 0x75, 0x6c, 0x5f,
    0x34, 0x00, 0x00, 0x00, 0x02, 0x00, 0x00, 0x00, 0x01, 0x00, 0x00, 0x00,
    0x80, 0x00, 0x00, 0x00, 0x82, 0xdd, 0xff, 0xff, 0x00, 0x00, 0x00, 0x01,
    0x14, 0x00, 0x00, 0x00, 0x34, 0x00, 0x00, 0x00, 0x41, 0x00, 0x00, 0x00,
    0x00, 0x00, 0x00, 0x09, 0x3c, 0x00, 0x00, 0x00, 0x6c, 0xdd, 0xff, 0xff,
    0x08, 0x00, 0x00, 0x00, 0x14, 0x00, 0x00, 0x00, 0x01, 0x00, 0x00, 0x00,
    0x00, 0x00, 0x00, 0x00, 0x00, 0x00, 0x00, 0x00, 0x00, 0x00, 0x00, 0x00,
    0x01, 0x00, 0x00, 0x00, 0xfb, 0xc4, 0x0f, 0x3d, 0x0c, 0x00, 0x00, 0x00,
    0x4d, 0x61, 0x74, 0x4d, 0x75, 0x6c, 0x3b, 0x61, 0x64, 0x64, 0x5f, 0x38,
    0x00, 0x00, 0x00, 0x00, 0x02, 0x00, 0x00, 0x00, 0x01, 0x00, 0x00, 0x00,
    0x80, 0x00, 0x00, 0x00, 0xe2, 0xdd, 0xff, 0xff, 0x00, 0x00, 0x00, 0x01,
    0x14, 0x00, 0x00, 0x00, 0x30, 0x00, 0x00, 0x00, 0x40, 0x00, 0x00, 0x00,
    0x00, 0x00, 0x00, 0x09, 0x34, 0x00, 0x00, 0x00, 0xcc, 0xdd, 0xff, 0xff,
    0x08, 0x00, 0x00, 0x00, 0x10, 0x00, 0x00, 0x00, 0x01, 0x00, 0x00, 0x00,
    0xfb, 0xff, 0xff, 0xff, 0xff, 0xff, 0xff, 0xff, 0x01, 0x00, 0x00, 0x00,
    0xa9, 0x7b, 0xd9, 0x3c, 0x09, 0x00, 0x00, 0x00, 0x52, 0x65, 0x73, 0x68,
    0x61, 0x70, 0x65, 0x5f, 0x32, 0x00, 0x00, 0x00, 0x02, 0x00, 0x00, 0x00,
    0x01, 0x00, 0x00, 0x00, 0x10, 0x00, 0x00, 0x00, 0x3a, 0xde, 0xff, 0xff,
    0x00, 0x00, 0x00, 0x01, 0x14, 0x00, 0x00, 0x00, 0x34, 0x00, 0x00, 0x00,
    0x3f, 0x00, 0x00, 0x00, 0x00, 0x00, 0x00, 0x09, 0x34, 0x00, 0x00, 0x00,
    0x24, 0xde, 0xff, 0xff, 0x08, 0x00, 0x00, 0x00, 0x14, 0x00, 0x00, 0x00,
    0x01, 0x00, 0x00, 0x00, 0xfb, 0xff, 0xff, 0xff, 0xff, 0xff, 0xff, 0xff,
    0x00, 0x00, 0x00, 0x00, 0x01, 0x00, 0x00, 0x00, 0xa9, 0x7b, 0xd9, 0x3c,
    0x04, 0x00, 0x00, 0x00, 0x4d, 0x65, 0x61, 0x6e, 0x00, 0x00, 0x00, 0x00,
    0x04, 0x00, 0x00, 0x00, 0x01, 0x00, 0x00, 0x00, 0x10, 0x00, 0x00, 0x00,
    0x01, 0x00, 0x00, 0x00, 0x01, 0x00, 0x00, 0x00, 0x9a, 0xde, 0xff, 0xff,
    0x00, 0x00, 0x00, 0x01, 0x14, 0x00, 0x00, 0x00, 0x34, 0x00, 0x00, 0x00,
    0x3e, 0x00, 0x00, 0x00, 0x00, 0x00, 0x00, 0x09, 0x3c, 0x00, 0x00, 0x00,
    0x84, 0xde, 0xff, 0xff, 0x08, 0x00, 0x00, 0x00, 0x14, 0x00, 0x00, 0x00,
    0x01, 0x00, 0x00, 0x00, 0xfe, 0xff, 0xff, 0xff, 0xff, 0xff, 0xff, 0xff,
    0x00, 0x00, 0x00, 0x00, 0x01, 0x00, 0x00, 0x00, 0x53, 0x96, 0xc5, 0x3d,
    0x0c, 0x00, 0x00, 0x00, 0x74, 0x72, 0x61, 0x6e, 0x73, 0x70, 0x6f, 0x73,
    0x65, 0x5f, 0x32, 0x30, 0x00, 0x00, 0x00, 0x00, 0x04, 0x00, 0x00, 0x00,
    0x01, 0x00, 0x00, 0x00, 0x10, 0x00, 0x00, 0x00, 0x05, 0x00, 0x00, 0x00,
    0x04, 0x00, 0x00, 0x00, 0x02, 0xdf, 0xff, 0xff, 0x00, 0x00, 0x00, 0x01,
    0x14, 0x00, 0x00, 0x00, 0x34, 0x00, 0x00, 0x00, 0x3d, 0x00, 0x00, 0x00,
    0x00, 0x00, 0x00, 0x09, 0x4c, 0x00, 0x00, 0x00, 0xec, 0xde, 0xff, 0xff,
    0x08, 0x00, 0x00, 0x00, 0x14, 0x00, 0x00, 0x00, 0x01, 0x00, 0x00, 0x00,
    0xfe, 0xff, 0xff, 0xff, 0xff, 0xff, 0xff, 0xff, 0x00, 0x00, 0x00, 0x00,
    0x01, 0x00, 0x00, 0x00, 0x53, 0x96, 0xc5, 0x3d, 0x1c, 0x00, 0x00, 0x00,
    0x41, 0x64, 0x64, 0x5f, 0x37, 0x3b, 0x63, 0x6f, 0x6e, 0x76, 0x6f, 0x6c,
    0x75, 0x74, 0x69, 0x6f, 0x6e, 0x5f, 0x34, 0x3b, 0x43, 0x6f, 0x6e, 0x73,
    0x74, 0x5f, 0x31, 0x32, 0x00, 0x00, 0x00, 0x00, 0x04, 0x00, 0x00, 0x00,
    0x01, 0x00, 0x00, 0x00, 0x05, 0x00, 0x00, 0x00, 0x04, 0x00, 0x00, 0x00,
    0x10, 0x00, 0x00, 0x00, 0x7a, 0xdf, 0xff, 0xff, 0x00, 0x00, 0x00, 0x01,
    0x14, 0x00, 0x00, 0x00, 0x34, 0x00, 0x00, 0x00, 0x3c, 0x00, 0x00, 0x00,
    0x00, 0x00, 0x00, 0x09, 0x6c, 0x00, 0x00, 0x00, 0x64, 0xdf, 0xff, 0xff,
    0x08, 0x00, 0x00, 0x00, 0x14, 0x00, 0x00, 0x00, 0x01, 0x00, 0x00, 0x00,
    0x80, 0xff, 0xff, 0xff, 0xff, 0xff, 0xff, 0xff, 0x00, 0x00, 0x00, 0x00,
    0x01, 0x00, 0x00, 0x00, 0x7f, 0x27, 0x70, 0x3d, 0x3f, 0x00, 0x00, 0x00,
    0x6f, 0x6e, 0x6e, 0x78, 0x5f, 0x74, 0x66, 0x5f, 0x70, 0x72, 0x65, 0x66,
    0x69, 0x78, 0x5f, 0x2f, 0x62, 0x6c, 0x6f, 0x63, 0x6b, 0x32, 0x2f, 0x62,
    0x6c, 0x6f, 0x63, 0x6b, 0x32, 0x2e, 0x32, 0x2f, 0x52, 0x65, 0x6c, 0x75,
    0x3b, 0x41, 0x64, 0x64, 0x5f, 0x36, 0x3b, 0x64, 0x65, 0x70, 0x74, 0x68,
    0x77, 0x69, 0x73, 0x65, 0x5f, 0x31, 0x3b, 0x43, 0x6f, 0x6e, 0x73, 0x74,
    0x5f, 0x31, 0x30, 0x00, 0x04, 0x00, 0x00, 0x00, 0x01, 0x00, 0x00, 0x00,
    0x05, 0x00, 0x00, 0x00, 0x04, 0x00, 0x00, 0x00, 0x10, 0x00, 0x00, 0x00,
    0x12, 0xe0, 0xff, 0xff, 0x00, 0x00, 0x00, 0x01, 0x14, 0x00, 0x00, 0x00,
    0x34, 0x00, 0x00, 0x00, 0x3b, 0x00, 0x00, 0x00, 0x00, 0x00, 0x00, 0x09,
    0x3c, 0x00, 0x00, 0x00, 0xfc, 0xdf, 0xff, 0xff, 0x08, 0x00, 0x00, 0x00,
    0x14, 0x00, 0x00, 0x00, 0x01, 0x00, 0x00, 0x00, 0x87, 0xff, 0xff, 0xff,
    0xff, 0xff, 0xff, 0xff, 0x00, 0x00, 0x00, 0x00, 0x01, 0x00, 0x00, 0x00,
    0xfa, 0x7b, 0x58, 0x3d, 0x0c, 0x00, 0x00, 0x00, 0x74, 0x72, 0x61, 0x6e,
    0x73, 0x70, 0x6f, 0x73, 0x65, 0x5f, 0x31, 0x36, 0x00, 0x00, 0x00, 0x00,
    0x04, 0x00, 0x00, 0x00, 0x01, 0x00, 0x00, 0x00, 0x07, 0x00, 0x00, 0x00,
    0x06, 0x00, 0x00, 0x00, 0x10, 0x00, 0x00, 0x00, 0x7a, 0xe0, 0xff, 0xff,
    0x00, 0x00, 0x00, 0x01, 0x14, 0x00, 0x00, 0x00, 0x34, 0x00, 0x00, 0x00,
    0x3a, 0x00, 0x00, 0x00, 0x00, 0x00, 0x00, 0x09, 0x34, 0x00, 0x00, 0x00,
    0x64, 0xe0, 0xff, 0xff, 0x08, 0x00, 0x00, 0x00, 0x14, 0x00, 0x00, 0x00,
    0x01, 0x00, 0x00, 0x00, 0x87, 0xff, 0xff, 0xff, 0xff, 0xff, 0xff, 0xff,
    0x00, 0x00, 0x00, 0x00, 0x01, 0x00, 0x00, 0x00, 0xfa, 0x7b, 0x58, 0x3d,
    0x05, 0x00, 0x00, 0x00, 0x50, 0x61, 0x64, 0x5f, 0x34, 0x00, 0x00, 0x00,
    0x04, 0x00, 0x00, 0x00, 0x01, 0x00, 0x00, 0x00, 0x10, 0x00, 0x00, 0x00,
    0x07, 0x00, 0x00, 0x00, 0x06, 0x00, 0x00, 0x00, 0xda, 0xe0, 0xff, 0xff,
    0x00, 0x00, 0x00, 0x01, 0x14, 0x00, 0x00, 0x00, 0x34, 0x00, 0x00, 0x00,
    0x39, 0x00, 0x00, 0x00, 0x00, 0x00, 0x00, 0x09, 0x4c, 0x00, 0x00, 0x00,
    0xc4, 0xe0, 0xff, 0xff, 0x08, 0x00, 0x00, 0x00, 0x14, 0x00, 0x00, 0x00,
    0x01, 0x00, 0x00, 0x00, 0x87, 0xff, 0xff, 0xff, 0xff, 0xff, 0xff, 0xff,
    0x00, 0x00, 0x00, 0x00, 0x01, 0x00, 0x00, 0x00, 0xfa, 0x7b, 0x58, 0x3d,
    0x1f, 0x00, 0x00, 0x00, 0x6f, 0x6e, 0x6e, 0x78, 0x5f, 0x74, 0x66, 0x5f,
    0x70, 0x72, 0x65, 0x66, 0x69, 0x78, 0x5f, 0x2f, 0x68, 0x61, 0x72, 0x64,
    0x73, 0x77, 0x69, 0x73, 0x68, 0x5f, 0x31, 0x2f, 0x4d, 0x75, 0x6c, 0x00,
    0x04, 0x00, 0x00, 0x00, 0x01, 0x00, 0x00, 0x00, 0x10, 0x00, 0x00, 0x00,
    0x05, 0x00, 0x00, 0x00, 0x04, 0x00, 0x00, 0x00, 0x52, 0xe1, 0xff, 0xff,
    0x00, 0x00, 0x00, 0x01, 0x14, 0x00, 0x00, 0x00, 0x34, 0x00, 0x00, 0x00,
    0x38, 0x00, 0x00, 0x00, 0x00, 0x00, 0x00, 0x09, 0x3c, 0x00, 0x00, 0x00,
    0x3c, 0xe1, 0xff, 0xff, 0x08, 0x00, 0x00, 0x00, 0x14, 0x00, 0x00, 0x00,
    0x01, 0x00, 0x00, 0x00, 0x87, 0xff, 0xff, 0xff, 0xff, 0xff, 0xff, 0xff,
    0x00, 0x00, 0x00, 0x00, 0x01, 0x00, 0x00, 0x00, 0xfa, 0x7b, 0x58, 0x3d,
    0x0f, 0x00, 0x00, 0x00, 0x63, 0x6c, 0x69, 0x70, 0x5f, 0x62, 0x79, 0x5f,
    0x76, 0x61, 0x6c, 0x75, 0x65, 0x5f, 0x31, 0x00, 0x04, 0x00, 0x00, 0x00,
    0x01, 0x00, 0x00, 0x00, 0x10, 0x00, 0x00, 0x00, 0x05, 0x00, 0x00, 0x00,
    0x04, 0x00, 0x00, 0x00, 0xba, 0xe1, 0xff, 0xff, 0x00, 0x00, 0x00, 0x01,
    0x14, 0x00, 0x00, 0x00, 0x34, 0x00, 0x00, 0x00, 0x37, 0x00, 0x00, 0x00,
    0x00, 0x00, 0x00, 0x09, 0x44, 0x00, 0x00, 0x00, 0xa4, 0xe1, 0xff, 0xff,
    0x08, 0x00, 0x00, 0x00, 0x14, 0x00, 0x00, 0x00, 0x01, 0x00, 0x00, 0x00,
    0x1e, 0x00, 0x00, 0x00, 0x00, 0x00, 0x00, 0x00, 0x00, 0x00, 0x00, 0x00,
    0x01, 0x00, 0x00, 0x00, 0xd3, 0x62, 0x28, 0x3c, 0x17, 0x00, 0x00, 0x00,
    0x63, 0x6c, 0x69, 0x70, 0x5f, 0x62, 0x79, 0x5f, 0x76, 0x61, 0x6c, 0x75,
    0x65, 0x5f, 0x31, 0x2f, 0x4d, 0x69, 0x6e, 0x69, 0x6d, 0x75, 0x6d, 0x00,
    0x04, 0x00, 0x00, 0x00, 0x01, 0x00, 0x00, 0x00, 0x10, 0x00, 0x00, 0x00,
    0x05, 0x00, 0x00, 0x00, 0x04, 0x00, 0x00, 0x00, 0x2a, 0xe2, 0xff, 0xff,
    0x00, 0x00, 0x00, 0x01, 0x14, 0x00, 0x00, 0x00, 0x34, 0x00, 0x00, 0x00,
    0x36, 0x00, 0x00, 0x00, 0x00, 0x00, 0x00, 0x09, 0x34, 0x00, 0x00, 0x00,
    0x14, 0xe2, 0xff, 0xff, 0x08, 0x00, 0x00, 0x00, 0x14, 0x00, 0x00, 0x00,
    0x01, 0x00, 0x00, 0x00, 0x1e, 0x00, 0x00, 0x00, 0x00, 0x00, 0x00, 0x00,
    0x00, 0x00, 0x00, 0x00, 0x01, 0x00, 0x00, 0x00, 0xd3, 0x62, 0x28, 0x3c,
    0x05, 0x00, 0x00, 0x00, 0x61, 0x64, 0x64, 0x5f, 0x35, 0x00, 0x00, 0x00,
    0x04, 0x00, 0x00, 0x00, 0x01, 0x00, 0x00, 0x00, 0x10, 0x00, 0x00, 0x00,
    0x05, 0x00, 0x00, 0x00, 0x04, 0x00, 0x00, 0x00, 0x8a, 0xe2, 0xff, 0xff,
    0x00, 0x00, 0x00, 0x01, 0x14, 0x00, 0x00, 0x00, 0x34, 0x00, 0x00, 0x00,
    0x35, 0x00, 0x00, 0x00, 0x00, 0x00, 0x00, 0x09, 0x34, 0x00, 0x00, 0x00,
    0x74, 0xe2, 0xff, 0xff, 0x08, 0x00, 0x00, 0x00, 0x14, 0x00, 0x00, 0x00,
    0x01, 0x00, 0x00, 0x00, 0xf1, 0xff, 0xff, 0xff, 0xff, 0xff, 0xff, 0xff,
    0x00, 0x00, 0x00, 0x00, 0x01, 0x00, 0x00, 0x00, 0xbb, 0x58, 0x9a, 0x3c,
    0x05, 0x00, 0x00, 0x00, 0x6d, 0x75, 0x6c, 0x5f, 0x31, 0x00, 0x00, 0x00,
    0x04, 0x00, 0x00, 0x00, 0x01, 0x00, 0x00, 0x00, 0x10, 0x00, 0x00, 0x00,
    0x05, 0x00, 0x00, 0x00, 0x04, 0x00, 0x00, 0x00, 0xea, 0xe2, 0xff, 0xff,
    0x00, 0x00, 0x00, 0x01, 0x14, 0x00, 0x00, 0x00, 0x34, 0x00, 0x00, 0x00,
    0x34, 0x00, 0x00, 0x00, 0x00, 0x00, 0x00, 0x09, 0x3c, 0x00, 0x00, 0x00,
    0xd4, 0xe2, 0xff, 0xff, 0x08, 0x00, 0x00, 0x00, 0x14, 0x00, 0x00, 0x00,
    0x01, 0x00, 0x00, 0x00, 0xfe, 0xff, 0xff, 0xff, 0xff, 0xff, 0xff, 0xff,
    0x00, 0x00, 0x00, 0x00, 0x01, 0x00, 0x00, 0x00, 0xff, 0x6c, 0xcf, 0x3d,
    0x0c, 0x00, 0x00, 0x00, 0x74, 0x72, 0x61, 0x6e, 0x73, 0x70, 0x6f, 0x73,
    0x65, 0x5f, 0x31, 0x34, 0x00, 0x00, 0x00, 0x00, 0x04, 0x00, 0x00, 0x00,
    0x01, 0x00, 0x00, 0x00, 0x10, 0x00, 0x00, 0x00, 0x05, 0x00, 0x00, 0x00,
    0x04, 0x00, 0x00, 0x00, 0x52, 0xe3, 0xff, 0xff, 0x00, 0x00, 0x00, 0x01,
    0x14, 0x00, 0x00, 0x00, 0x30, 0x00, 0x00, 0x00, 0x33, 0x00, 0x00, 0x00,
    0x00, 0x00, 0x00, 0x09, 0x44, 0x00, 0x00, 0x00, 0x3c, 0xe3, 0xff, 0xff,
    0x08, 0x00, 0x00, 0x00, 0x10, 0x00, 0x00, 0x00, 0x01, 0x00, 0x00, 0x00,
    0xfe, 0xff, 0xff, 0xff, 0xff, 0xff, 0xff, 0xff, 0x01, 0x00, 0x00, 0x00,
    0xff, 0x6c, 0xcf, 0x3d, 0x1b, 0x00, 0x00, 0x00, 0x41, 0x64, 0x64, 0x5f,
    0x34, 0x3b, 0x63, 0x6f, 0x6e, 0x76, 0x6f, 0x6c, 0x75, 0x74, 0x69, 0x6f,
    0x6e, 0x5f, 0x33, 0x3b, 0x43, 0x6f, 0x6e, 0x73, 0x74, 0x5f, 0x38, 0x00,
    0x04, 0x00, 0x00, 0x00, 0x01, 0x00, 0x00, 0x00, 0x05, 0x00, 0x00, 0x00,
    0x04, 0x00, 0x00, 0x00, 0x10, 0x00, 0x00, 0x00, 0xc2, 0xe3, 0xff, 0xff,
    0x00, 0x00, 0x00, 0x01, 0x14, 0x00, 0x00, 0x00, 0x34, 0x00, 0x00, 0x00,
    0x32, 0x00, 0x00, 0x00, 0x00, 0x00, 0x00, 0x09, 0x3c, 0x00, 0x00, 0x00,
    0xac, 0xe3, 0xff, 0xff, 0x08, 0x00, 0x00, 0x00, 0x14, 0x00, 0x00, 0x00,
    0x01, 0x00, 0x00, 0x00, 0x06, 0x00, 0x00, 0x00, 0x00, 0x00, 0x00, 0x00,
    0x00, 0x00, 0x00, 0x00, 0x01, 0x00, 0x00, 0x00, 0xa4, 0xe1, 0xe1, 0x3d,
    0x0c, 0x00, 0x00, 0x00, 0x74, 0x72, 0x61, 0x6e, 0x73, 0x70, 0x6f, 0x73,
    0x65, 0x5f, 0x31, 0x33, 0x00, 0x00, 0x00, 0x00, 0x04, 0x00, 0x00, 0x00,
    0x01, 0x00, 0x00, 0x00, 0x0c, 0x00, 0x00, 0x00, 0x09, 0x00, 0x00, 0x00,
    0x10, 0x00, 0x00, 0x00, 0x2a, 0xe4, 0xff, 0xff, 0x00, 0x00, 0x00, 0x01,
    0x14, 0x00, 0x00, 0x00, 0x34, 0x00, 0x00, 0x00, 0x31, 0x00, 0x00, 0x00,
    0x00, 0x00, 0x00, 0x09, 0x34, 0x00, 0x00, 0x00, 0x14, 0xe4, 0xff, 0xff,
    0x08, 0x00, 0x00, 0x00, 0x14, 0x00, 0x00, 0x00, 0x01, 0x00, 0x00, 0x00,
    0x06, 0x00, 0x00, 0x00, 0x00, 0x00, 0x00, 0x00, 0x00, 0x00, 0x00, 0x00,
    0x01, 0x00, 0x00, 0x00, 0xa4, 0xe1, 0xe1, 0x3d, 0x05, 0x00, 0x00, 0x00,
    0x50, 0x61, 0x64, 0x5f, 0x33, 0x00, 0x00, 0x00, 0x04, 0x00, 0x00, 0x00,
    0x01, 0x00, 0x00, 0x00, 0x10, 0x00, 0x00, 0x00, 0x0c, 0x00, 0x00, 0x00,
    0x09, 0x00, 0x00, 0x00, 0x8a, 0xe4, 0xff, 0xff, 0x00, 0x00, 0x00, 0x01,
    0x14, 0x00, 0x00, 0x00, 0x34, 0x00, 0x00, 0x00, 0x30, 0x00, 0x00, 0x00,
    0x00, 0x00, 0x00, 0x09, 0x3c, 0x00, 0x00, 0x00, 0x74, 0xe4, 0xff, 0xff,
    0x08, 0x00, 0x00, 0x00, 0x14, 0x00, 0x00, 0x00, 0x01, 0x00, 0x00, 0x00,
    0x06, 0x00, 0x00, 0x00, 0x00, 0x00, 0x00, 0x00, 0x00, 0x00, 0x00, 0x00,
    0x01, 0x00, 0x00, 0x00, 0xa4, 0xe1, 0xe1, 0x3d, 0x0c, 0x00, 0x00, 0x00,
    0x74, 0x72, 0x61, 0x6e, 0x73, 0x70, 0x6f, 0x73, 0x65, 0x5f, 0x31, 0x31,
    0x00, 0x00, 0x00, 0x00, 0x04, 0x00, 0x00, 0x00, 0x01, 0x00, 0x00, 0x00,
    0x10, 0x00, 0x00, 0x00, 0x0a, 0x00, 0x00, 0x00, 0x07, 0x00, 0x00, 0x00,
    0xf2, 0xe4, 0xff, 0xff, 0x00, 0x00, 0x00, 0x01, 0x14, 0x00, 0x00, 0x00,
    0x30, 0x00, 0x00, 0x00, 0x2f, 0x00, 0x00, 0x00, 0x00, 0x00, 0x00, 0x09,
    0x44, 0x00, 0x00, 0x00, 0xdc, 0xe4, 0xff, 0xff, 0x08, 0x00, 0x00, 0x00,
    0x10, 0x00, 0x00, 0x00, 0x01, 0x00, 0x00, 0x00, 0x06, 0x00, 0x00, 0x00,
    0x00, 0x00, 0x00, 0x00, 0x01, 0x00, 0x00, 0x00, 0xa4, 0xe1, 0xe1, 0x3d,
    0x1b, 0x00, 0x00, 0x00, 0x41, 0x64, 0x64, 0x5f, 0x33, 0x3b, 0x63, 0x6f,
    0x6e, 0x76, 0x6f, 0x6c, 0x75, 0x74, 0x69, 0x6f, 0x6e, 0x5f, 0x32, 0x3b,
    0x43, 0x6f, 0x6e, 0x73, 0x74, 0x5f, 0x36, 0x00, 0x04, 0x00, 0x00, 0x00,
    0x01, 0x00, 0x00, 0x00, 0x0a, 0x00, 0x00, 0x00, 0x07, 0x00, 0x00, 0x00,
    0x10, 0x00, 0x00, 0x00, 0x62, 0xe5, 0xff, 0xff, 0x00, 0x00, 0x00, 0x01,
    0x14, 0x00, 0x00, 0x00, 0x34, 0x00, 0x00, 0x00, 0x2e, 0x00, 0x00, 0x00,
    0x00, 0x00, 0x00, 0x09, 0x6c, 0x00, 0x00, 0x00, 0x4c, 0xe5, 0xff, 0xff,
    0x08, 0x00, 0x00, 0x00, 0x14, 0x00, 0x00, 0x00, 0x01, 0x00, 0x00, 0x00,
    0x80, 0xff, 0xff, 0xff, 0xff, 0xff, 0xff, 0xff, 0x00, 0x00, 0x00, 0x00,
    0x01, 0x00, 0x00, 0x00, 0xa8, 0xb3, 0x62, 0x3d, 0x3c, 0x00, 0x00, 0x00,
    0x6f, 0x6e, 0x6e, 0x78, 0x5f, 0x74, 0x66, 0x5f, 0x70, 0x72, 0x65, 0x66,
    0x69, 0x78, 0x5f, 0x2f, 0x62, 0x6c, 0x6f, 0x63, 0x6b, 0x31, 0x2f, 0x62,
    0x6c, 0x6f, 0x63, 0x6b, 0x31, 0x2e, 0x32, 0x2f, 0x52, 0x65, 0x6c, 0x75,
    0x3b, 0x41, 0x64, 0x64, 0x5f, 0x32, 0x3b, 0x64, 0x65, 0x70, 0x74, 0x68,
    0x77, 0x69, 0x73, 0x65, 0x3b, 0x43, 0x6f, 0x6e, 0x73, 0x74, 0x5f, 0x34,
    0x00, 0x00, 0x00, 0x00, 0x04, 0x00, 0x00, 0x00, 0x01, 0x00, 0x00, 0x00,
    0x0a, 0x00, 0x00, 0x00, 0x07, 0x00, 0x00, 0x00, 0x10, 0x00, 0x00, 0x00,
    0xfa, 0xe5, 0xff, 0xff, 0x00, 0x00, 0x00, 0x01, 0x14, 0x00, 0x00, 0x00,
    0x30, 0x00, 0x00, 0x00, 0x2d, 0x00, 0x00, 0x00, 0x00, 0x00, 0x00, 0x09,
    0x34, 0x00, 0x00, 0x00, 0xe4, 0xe5, 0xff, 0xff, 0x08, 0x00, 0x00, 0x00,
    0x10, 0x00, 0x00, 0x00, 0x01, 0x00, 0x00, 0x00, 0x80, 0xff, 0xff, 0xff,
    0xff, 0xff, 0xff, 0xff, 0x01, 0x00, 0x00, 0x00, 0x3f, 0xd8, 0x33, 0x3c,
    0x0b, 0x00, 0x00, 0x00, 0x74, 0x72, 0x61, 0x6e, 0x73, 0x70, 0x6f, 0x73,
    0x65, 0x5f, 0x37, 0x00, 0x04, 0x00, 0x00, 0x00, 0x01, 0x00, 0x00, 0x00,
    0x0c, 0x00, 0x00, 0x00, 0x09, 0x00, 0x00, 0x00, 0x10, 0x00, 0x00, 0x00,
    0x5a, 0xe6, 0xff, 0xff, 0x00, 0x00, 0x00, 0x01, 0x14, 0x00, 0x00, 0x00,
    0x34, 0x00, 0x00, 0x00, 0x2c, 0x00, 0x00, 0x00, 0x00, 0x00, 0x00, 0x09,
    0x34, 0x00, 0x00, 0x00, 0x44, 0xe6, 0xff, 0xff, 0x08, 0x00, 0x00, 0x00,
    0x14, 0x00, 0x00, 0x00, 0x01, 0x00, 0x00, 0x00, 0x80, 0xff, 0xff, 0xff,
    0xff, 0xff, 0xff, 0xff, 0x00, 0x00, 0x00, 0x00, 0x01, 0x00, 0x00, 0x00,
    0x3f, 0xd8, 0x33, 0x3c, 0x05, 0x00, 0x00, 0x00, 0x50, 0x61, 0x64, 0x5f,
    0x32, 0x00, 0x00, 0x00, 0x04, 0x00, 0x00, 0x00, 0x01, 0x00, 0x00, 0x00,
    0x10, 0x00, 0x00, 0x00, 0x0c, 0x00, 0x00, 0x00, 0x09, 0x00, 0x00, 0x00,
    0xba, 0xe6, 0xff, 0xff, 0x00, 0x00, 0x00, 0x01, 0x14, 0x00, 0x00, 0x00,
    0x30, 0x00, 0x00, 0x00, 0x2b, 0x00, 0x00, 0x00, 0x00, 0x00, 0x00, 0x09,
    0x34, 0x00, 0x00, 0x00, 0xa4, 0xe6, 0xff, 0xff, 0x08, 0x00, 0x00, 0x00,
    0x10, 0x00, 0x00, 0x00, 0x01, 0x00, 0x00, 0x00, 0x80, 0xff, 0xff, 0xff,
    0xff, 0xff, 0xff, 0xff, 0x01, 0x00, 0x00, 0x00, 0x3f, 0xd8, 0x33, 0x3c,
    0x0b, 0x00, 0x00, 0x00, 0x74, 0x72, 0x61, 0x6e, 0x73, 0x70, 0x6f, 0x73,
    0x65, 0x5f, 0x35, 0x00, 0x04, 0x00, 0x00, 0x00, 0x01, 0x00, 0x00, 0x00,
    0x10, 0x00, 0x00, 0x00, 0x0a, 0x00, 0x00, 0x00, 0x07, 0x00, 0x00, 0x00,
    0x1a, 0xe7, 0xff, 0xff, 0x00, 0x00, 0x00, 0x01, 0x14, 0x00, 0x00, 0x00,
    0x34, 0x00, 0x00, 0x00, 0x2a, 0x00, 0x00, 0x00, 0x00, 0x00, 0x00, 0x09,
    0x54, 0x00, 0x00, 0x00, 0x04, 0xe7, 0xff, 0xff, 0x08, 0x00, 0x00, 0x00,
    0x14, 0x00, 0x00, 0x00, 0x01, 0x00, 0x00, 0x00, 0x80, 0xff, 0xff, 0xff,
    0xff, 0xff, 0xff, 0xff, 0x00, 0x00, 0x00, 0x00, 0x01, 0x00, 0x00, 0x00,
    0x3f, 0xd8, 0x33, 0x3c, 0x27, 0x00, 0x00, 0x00, 0x6f, 0x6e, 0x6e, 0x78,
    0x5f, 0x74, 0x66, 0x5f, 0x70, 0x72, 0x65, 0x66, 0x69, 0x78, 0x5f, 0x2f,
    0x52, 0x65, 0x4c, 0x55, 0x2f, 0x52, 0x65, 0x6c, 0x75, 0x3b, 0x63, 0x6f,
    0x6e, 0x76, 0x6f, 0x6c, 0x75, 0x74, 0x69, 0x6f, 0x6e, 0x5f, 0x31, 0x00,
    0x04, 0x00, 0x00, 0x00, 0x01, 0x00, 0x00, 0x00, 0x0a, 0x00, 0x00, 0x00,
    0x07, 0x00, 0x00, 0x00, 0x10, 0x00, 0x00, 0x00, 0x9a, 0xe7, 0xff, 0xff,
