#ifndef ABSENCE_H
#define ABSENCE_H

unsigned int absence_len = 22728;
unsigned char absence_model[] = {
    0x1c, 0x00, 0x00, 0x00, 0x54, 0x46, 0x4c, 0x33, 0x14, 0x00, 0x20, 0x00,
    0x1c, 0x00, 0x18, 0x00, 0x14, 0x00, 0x10, 0x00, 0x0c, 0x00, 0x00, 0x00,
    0x08, 0x00, 0x04, 0x00, 0x14, 0x00, 0x00, 0x00, 0x1c, 0x00, 0x00, 0x00,
    0x1c, 0x00, 0x00, 0x00, 0x9c, 0x00, 0x00, 0x00, 0x30, 0x27, 0x00, 0x00,
    0x40, 0x27, 0x00, 0x00, 0x84, 0x57, 0x00, 0x00, 0x03, 0x00, 0x00, 0x00,
    0x00, 0x00, 0x00, 0x00, 0x03, 0x00, 0x00, 0x00, 0x5c, 0x00, 0x00, 0x00,
    0x2c, 0x00, 0x00, 0x00, 0x04, 0x00, 0x00, 0x00, 0xb8, 0xff, 0xff, 0xff,
    0x4c, 0x00, 0x00, 0x00, 0x04, 0x00, 0x00, 0x00, 0x13, 0x00, 0x00, 0x00,
    0x43, 0x4f, 0x4e, 0x56, 0x45, 0x52, 0x53, 0x49, 0x4f, 0x4e, 0x5f, 0x4d,
    0x45, 0x54, 0x41, 0x44, 0x41, 0x54, 0x41, 0x00, 0xdc, 0xff, 0xff, 0xff,
    0x4b, 0x00, 0x00, 0x00, 0x04, 0x00, 0x00, 0x00, 0x13, 0x00, 0x00, 0x00,
    0x6d, 0x69, 0x6e, 0x5f, 0x72, 0x75, 0x6e, 0x74, 0x69, 0x6d, 0x65, 0x5f,
    0x76, 0x65, 0x72, 0x73, 0x69, 0x6f, 0x6e, 0x00, 0x08, 0x00, 0x0c, 0x00,
    0x08, 0x00, 0x04, 0x00, 0x08, 0x00, 0x00, 0x00, 0x4a, 0x00, 0x00, 0x00,
    0x04, 0x00, 0x00, 0x00, 0x13, 0x00, 0x00, 0x00, 0x6d, 0x69, 0x6e, 0x5f,
    0x72, 0x75, 0x6e, 0x74, 0x69, 0x6d, 0x65, 0x5f, 0x76, 0x65, 0x72, 0x73,
    0x69, 0x6f, 0x6e, 0x00, 0x4d, 0x00, 0x00, 0x00, 0x90, 0x26, 0x00, 0x00,
    0x88, 0x26, 0x00, 0x00, 0x58, 0x26, 0x00, 0x00, 0x30, 0x26, 0x00, 0x00,
    0x10, 0x26, 0x00, 0x00, 0xf0, 0x25, 0x00, 0x00, 0xd8, 0x25, 0x00, 0x00,
    0xc0, 0x25, 0x00, 0x00, 0xa8, 0x25, 0x00, 0x00, 0x98, 0x24, 0x00, 0x00,
    0x88, 0x22, 0x00, 0x00, 0x78, 0x1a, 0x00, 0x00, 0x28, 0x1a, 0x00, 0x00,
    0x18, 0x19, 0x00, 0x00, 0xc8, 0x18, 0x00, 0x00, 0x28, 0x18, 0x00, 0x00,
    0xd8, 0x17, 0x00, 0x00, 0xc8, 0x0e, 0x00, 0x00, 0x78, 0x0e, 0x00, 0x00,
    0x68, 0x0d, 0x00, 0x00, 0x18, 0x0d, 0x00, 0x00, 0x78, 0x0c, 0x00, 0x00,
    0x28, 0x0c, 0x00, 0x00, 0x18, 0x03, 0x00, 0x00, 0x04, 0x03, 0x00, 0x00,
    0xfc, 0x02, 0x00, 0x00, 0xf4, 0x02, 0x00, 0x00, 0xec, 0x02, 0x00, 0x00,
    0xe4, 0x02, 0x00, 0x00, 0x94, 0x02, 0x00, 0x00, 0xf4, 0x01, 0x00, 0x00,
    0xec, 0x01, 0x00, 0x00, 0xe4, 0x01, 0x00, 0x00, 0xdc, 0x01, 0x00, 0x00,
    0xd4, 0x01, 0x00, 0x00, 0xcc, 0x01, 0x00, 0x00, 0xc4, 0x01, 0x00, 0x00,
    0xbc, 0x01, 0x00, 0x00, 0xb4, 0x01, 0x00, 0x00, 0xac, 0x01, 0x00, 0x00,
    0xa4, 0x01, 0x00, 0x00, 0x9c, 0x01, 0x00, 0x00, 0x94, 0x01, 0x00, 0x00,
    0x8c, 0x01, 0x00, 0x00, 0x84, 0x01, 0x00, 0x00, 0x7c, 0x01, 0x00, 0x00,
    0x74, 0x01, 0x00, 0x00, 0x6c, 0x01, 0x00, 0x00, 0x64, 0x01, 0x00, 0x00,
    0x5c, 0x01, 0x00, 0x00, 0x54, 0x01, 0x00, 0x00, 0x4c, 0x01, 0x00, 0x00,
    0x44, 0x01, 0x00, 0x00, 0x3c, 0x01, 0x00, 0x00, 0x34, 0x01, 0x00, 0x00,
    0x2c, 0x01, 0x00, 0x00, 0x24, 0x01, 0x00, 0x00, 0x1c, 0x01, 0x00, 0x00,
    0x14, 0x01, 0x00, 0x00, 0x0c, 0x01, 0x00, 0x00, 0x04, 0x01, 0x00, 0x00,
    0xfc, 0x00, 0x00, 0x00, 0xf4, 0x00, 0x00, 0x00, 0xec, 0x00, 0x00, 0x00,
    0xe4, 0x00, 0x00, 0x00, 0xdc, 0x00, 0x00, 0x00, 0xd4, 0x00, 0x00, 0x00,
    0xcc, 0x00, 0x00, 0x00, 0xc4, 0x00, 0x00, 0x00, 0xbc, 0x00, 0x00, 0x00,
    0xb4, 0x00, 0x00, 0x00, 0xac, 0x00, 0x00, 0x00, 0xa4, 0x00, 0x00, 0x00,
    0x9c, 0x00, 0x00, 0x00, 0x7c, 0x00, 0x00, 0x00, 0x5c, 0x00, 0x00, 0x00,
    0x04, 0x00, 0x00, 0x00, 0xda, 0xda, 0xff, 0xff, 0x04, 0x00, 0x00, 0x00,
    0x48, 0x00, 0x00, 0x00, 0x04, 0x00, 0x00, 0x00, 0xdc, 0xff, 0xff, 0xff,
    0x10, 0x00, 0x00, 0x00, 0x24, 0x00, 0x00, 0x00, 0x00, 0x00, 0x06, 0x00,
    0x08, 0x00, 0x04, 0x00, 0x06, 0x00, 0x00, 0x00, 0x04, 0x00, 0x00, 0x00,
    0x01, 0x00, 0x00, 0x00, 0xeb, 0x03, 0x00, 0x00, 0x08, 0x00, 0x0c, 0x00,
    0x08, 0x00, 0x04, 0x00, 0x08, 0x00, 0x00, 0x00, 0x01, 0x00, 0x00, 0x00,
    0x04, 0x00, 0x00, 0x00, 0x06, 0x00, 0x00, 0x00, 0x32, 0x2e, 0x31, 0x36,
    0x2e, 0x31, 0x00, 0x00, 0x2e, 0xdb, 0xff, 0xff, 0x04, 0x00, 0x00, 0x00,
    0x10, 0x00, 0x00, 0x00, 0x00, 0x00, 0x00, 0x00, 0x00, 0x00, 0x00, 0x00,
    0x00, 0x00, 0x00, 0x00, 0x00, 0x00, 0x00, 0x00, 0x4a, 0xdb, 0xff, 0xff,
    0x04, 0x00, 0x00, 0x00, 0x10, 0x00, 0x00, 0x00, 0x32, 0x2e, 0x31, 0x2e,
    0x30, 0x00, 0x00, 0x00, 0x00, 0x00, 0x00, 0x00, 0x00, 0x00, 0x00, 0x00,
    0x88, 0xab, 0xff, 0xff, 0x8c, 0xab, 0xff, 0xff, 0x90, 0xab, 0xff, 0xff,
    0x94, 0xab, 0xff, 0xff, 0x98, 0xab, 0xff, 0xff, 0x9c, 0xab, 0xff, 0xff,
    0xa0, 0xab, 0xff, 0xff, 0xa4, 0xab, 0xff, 0xff, 0xa8, 0xab, 0xff, 0xff,
    0xac, 0xab, 0xff, 0xff, 0xb0, 0xab, 0xff, 0xff, 0xb4, 0xab, 0xff, 0xff,
    0xb8, 0xab, 0xff, 0xff, 0xbc, 0xab, 0xff, 0xff, 0xc0, 0xab, 0xff, 0xff,
    0xc4, 0xab, 0xff, 0xff, 0xc8, 0xab, 0xff, 0xff, 0xcc, 0xab, 0xff, 0xff,
    0xd0, 0xab, 0xff, 0xff, 0xd4, 0xab, 0xff, 0xff, 0xd8, 0xab, 0xff, 0xff,
    0xdc, 0xab, 0xff, 0xff, 0xe0, 0xab, 0xff, 0xff, 0xe4, 0xab, 0xff, 0xff,
    0xe8, 0xab, 0xff, 0xff, 0xec, 0xab, 0xff, 0xff, 0xf0, 0xab, 0xff, 0xff,
    0xf4, 0xab, 0xff, 0xff, 0xf8, 0xab, 0xff, 0xff, 0xfc, 0xab, 0xff, 0xff,
    0x00, 0xac, 0xff, 0xff, 0x04, 0xac, 0xff, 0xff, 0x08, 0xac, 0xff, 0xff,
    0x0c, 0xac, 0xff, 0xff, 0x10, 0xac, 0xff, 0xff, 0x14, 0xac, 0xff, 0xff,
    0x18, 0xac, 0xff, 0xff, 0x1c, 0xac, 0xff, 0xff, 0x20, 0xac, 0xff, 0xff,
    0x24, 0xac, 0xff, 0xff, 0x28, 0xac, 0xff, 0xff, 0x2c, 0xac, 0xff, 0xff,
    0x30, 0xac, 0xff, 0xff, 0x12, 0xdc, 0xff, 0xff, 0x04, 0x00, 0x00, 0x00,
    0x90, 0x00, 0x00, 0x00, 0x5a, 0xa5, 0x97, 0xb7, 0x7f, 0x86, 0x9d, 0x09,
    0xb0, 0xf7, 0x03, 0x44, 0x4b, 0xb5, 0x87, 0xbb, 0x81, 0x27, 0xeb, 0xd9,
    0xba, 0xbe, 0x37, 0x02, 0x34, 0x81, 0x43, 0x7f, 0x2a, 0x82, 0xa1, 0xfd,
    0x20, 0xc9, 0xa5, 0x7f, 0xe8, 0x00, 0x77, 0x62, 0x7f, 0xe7, 0x6c, 0x36,
    0xcb, 0x4d, 0x14, 0x11, 0x9a, 0x26, 0x12, 0xd8, 0x9a, 0x7f, 0xf7, 0x60,
    0xb1, 0x90, 0x4f, 0x9d, 0x51, 0xc9, 0x7f, 0x2e, 0xd3, 0x2f, 0xfe, 0x7f,
    0xe1, 0x11, 0xe8, 0x68, 0x81, 0x13, 0x35, 0x33, 0x6e, 0x93, 0x9d, 0x6f,
    0xc3, 0xca, 0x0e, 0xd1, 0x1f, 0xa7, 0x58, 0x21, 0x74, 0x81, 0x58, 0x81,
    0x52, 0x94, 0xea, 0x25, 0x56, 0x1a, 0xaa, 0xc3, 0x6b, 0x00, 0xc3, 0x84,
    0xec, 0x40, 0x7f, 0x05, 0x55, 0x57, 0x00, 0xeb, 0x43, 0xb6, 0xd2, 0xfa,
    0x7f, 0x39, 0x5e, 0x81, 0xaf, 0x38, 0xc6, 0x7d, 0xca, 0x6a, 0xa0, 0x39,
    0x81, 0x9b, 0x99, 0x2b, 0xc2, 0x30, 0x2d, 0x7c, 0x64, 0x3b, 0x93, 0x85,
    0xc9, 0x81, 0x36, 0x41, 0xae, 0xdc, 0xff, 0xff, 0x04, 0x00, 0x00, 0x00,
    0x40, 0x00, 0x00, 0x00, 0x74, 0x02, 0x01, 0x00, 0x5f, 0xac, 0x00, 0x00,
    0x8c, 0x6b, 0x00, 0x00, 0x41, 0x21, 0x00, 0x00, 0x63, 0xd3, 0xfe, 0xff,
    0x81, 0xd7, 0xff, 0xff, 0x2f, 0xe7, 0xff, 0xff, 0x11, 0x4b, 0xff, 0xff,
    0x0b, 0x1c, 0x00, 0x00, 0xc9, 0x17, 0x00, 0x00, 0xd9, 0x18, 0x00, 0x00,
    0xc2, 0xe2, 0xff, 0xff, 0xaa, 0x5c, 0xff, 0xff, 0xc3, 0xa9, 0xff, 0xff,
    0xa1, 0xd0, 0x00, 0x00, 0x8c, 0x0e, 0x00, 0x00, 0x1c, 0xad, 0xff, 0xff,
    0x20, 0xad, 0xff, 0xff, 0x24, 0xad, 0xff, 0xff, 0x28, 0xad, 0xff, 0xff,
    0x0a, 0xdd, 0xff, 0xff, 0x04, 0x00, 0x00, 0x00, 0x01, 0x00, 0x00, 0x00,
    0x7f, 0x00, 0x00, 0x00, 0x1a, 0xdd, 0xff, 0xff, 0x04, 0x00, 0x00, 0x00,
    0x00, 0x09, 0x00, 0x00, 0x35, 0xe7, 0x30, 0x62, 0x4e, 0xbb, 0xc6, 0xcb,
    0xf3, 0x35, 0x22, 0x3c, 0x52, 0xcc, 0xfb, 0x81, 0x14, 0xfd, 0xef, 0x52,
    0xff, 0x17, 0x46, 0xc0, 0xc4, 0xc1, 0xe3, 0xb5, 0xbf, 0x30, 0xc4, 0xc9,
    0xd0, 0x44, 0xd7, 0x26, 0x47, 0x06, 0x64, 0x9f, 0x2d, 0xcf, 0xe6, 0x05,
    0x26, 0x08, 0xaf, 0xcd, 0x0b, 0xf8, 0x07, 0x3c, 0x40, 0x47, 0x3b, 0x2a,
    0x9b, 0xdb, 0xea, 0x43, 0xbe, 0xd6, 0xd9, 0xe8, 0x3f, 0xb6, 0x01, 0x6a,
    0xb4, 0xd4, 0xae, 0xbf, 0xa1, 0x32, 0xeb, 0xec, 0x2f, 0x19, 0x17, 0x56,
    0x3e, 0xc7, 0x97, 0xa2, 0x49, 0xa5, 0xc1, 0x55, 0xd5, 0xb3, 0xdb, 0x2f,
    0xb3, 0xf9, 0xd6, 0xde, 0x9f, 0x50, 0x30, 0x13, 0xb2, 0x35, 0xfe, 0xb4,
    0x08, 0x1a, 0xe0, 0x4a, 0x55, 0x49, 0x9d, 0xed, 0x17, 0xd5, 0xb5, 0x09,
    0x0e, 0x2c, 0xca, 0xd7, 0xb0, 0x66, 0xd3, 0x3d, 0x30, 0xb4, 0x4d, 0xf3,
    0x1b, 0x46, 0x32, 0x29, 0xd8, 0x9d, 0x37, 0xae, 0xed, 0x58, 0x23, 0x11,
    0xd8, 0x68, 0xc3, 0x3d, 0xcb, 0xc8, 0x16, 0xd5, 0x38, 0xb0, 0xc5, 0x37,
    0x6e, 0xff, 0xdb, 0xa1, 0xae, 0xbd, 0x4a, 0x3b, 0xec, 0x68, 0xda, 0xac,
    0xd7, 0x2b, 0x46, 0xfb, 0xae, 0xe9, 0x4f, 0xcb, 0xfb, 0xb5, 0x42, 0x73,
    0x02, 0x7f, 0xee, 0x45, 0x06, 0x58, 0x84, 0x27, 0x1b, 0xd2, 0xec, 0xb6,
    0xf0, 0x5f, 0x34, 0x6c, 0xad, 0x11, 0xae, 0x2c, 0xb2, 0x0f, 0x28, 0x32,
    0x18, 0xe7, 0x64, 0x59, 0x58, 0xb4, 0x28, 0x0a, 0xe5, 0xfb, 0xd4, 0xe2,
    0xe4, 0x33, 0xa9, 0xfe, 0xe7, 0xe3, 0x25, 0xa1, 0xe4, 0xdd, 0x26, 0xfc,
    0xf6, 0x37, 0x44, 0xb1, 0x05, 0xa0, 0x4b, 0x37, 0xbb, 0xaf, 0x47, 0x0b,
    0x32, 0xc9, 0x25, 0x22, 0xd5, 0x39, 0xf1, 0xc4, 0x08, 0x5f, 0x54, 0x39,
    0xea, 0x40, 0x47, 0x49, 0xcb, 0xf4, 0x60, 0xff, 0xe1, 0xac, 0x07, 0xee,
    0xe0, 0x5a, 0x20, 0xaf, 0x44, 0xd4, 0x09, 0x60, 0x71, 0x2b, 0xad, 0xdd,
    0x04, 0x32, 0x33, 0x17, 0x3c, 0x34, 0xbb, 0x19, 0xea, 0x4b, 0x2c, 0x0c,
    0xd0, 0xc1, 0xc1, 0xa5, 0x48, 0x4b, 0xef, 0xa6, 0x27, 0xec, 0xe6, 0x06,
    0x19, 0xbb, 0xeb, 0xe0, 0x1a, 0xdc, 0x8a, 0x16, 0x0b, 0xd7, 0x33, 0xec,
    0xa6, 0xb6, 0x26, 0xb6, 0x02, 0xc2, 0x38, 0x43, 0xaf, 0xe9, 0x10, 0xf4,
    0x64, 0xd4, 0xfd, 0x96, 0x25, 0x12, 0x03, 0xc2, 0xbe, 0xaa, 0xa2, 0x2c,
    0xcf, 0x18, 0xf6, 0x4b, 0x2e, 0xb9, 0x4a, 0x9b, 0xca, 0xf0, 0x04, 0x30,
    0x32, 0xd0, 0x27, 0x97, 0xc4, 0xea, 0x15, 0x27, 0xd2, 0x06, 0x38, 0x0c,
    0x16, 0x40, 0xea, 0x3f, 0x6a, 0xd4, 0xdd, 0x03, 0xce, 0xe5, 0xdc, 0xd7,
    0x18, 0x8e, 0xa5, 0x3b, 0xc8, 0x2d, 0xe8, 0xd1, 0xe5, 0xc2, 0xfe, 0xdc,
    0xf9, 0xc8, 0x15, 0xeb, 0xd8, 0x8c, 0xfd, 0xb5, 0x51, 0xf9, 0xc8, 0x74,
    0xd0, 0x43, 0x08, 0xfd, 0x7f, 0x6d, 0xdf, 0x04, 0xb6, 0xfc, 0xd2, 0x89,
    0xcd, 0x60, 0x05, 0x62, 0xbf, 0xc9, 0xd5, 0x4a, 0x01, 0x04, 0x50, 0xa5,
    0x5d, 0x06, 0xa1, 0x9a, 0x3c, 0xf8, 0xf7, 0x32, 0xd7, 0x1f, 0xa4, 0x5d,
    0xf0, 0x0a, 0x2c, 0xd8, 0x22, 0xa2, 0xf0, 0xc5, 0xe2, 0xdd, 0xca, 0x51,
    0x02, 0x35, 0x0e, 0x4f, 0xd0, 0xc0, 0x59, 0xf6, 0x03, 0xb9, 0x32, 0x21,
    0x1e, 0x20, 0x34, 0xfe, 0x2a, 0x01, 0xe3, 0x37, 0x53, 0x23, 0xfc, 0xeb,
    0x47, 0x3f, 0xf5, 0x40, 0xbc, 0x26, 0xb6, 0x1d, 0x1f, 0x39, 0x13, 0x35,
    0xd6, 0x2e, 0x38, 0xb4, 0x2e, 0x45, 0x02, 0x42, 0xea, 0x21, 0x1d, 0x6c,
    0xce, 0x03, 0xd7, 0xf3, 0xe3, 0x05, 0x1d, 0x9e, 0xa2, 0xd0, 0xde, 0x3a,
    0x0d, 0xdb, 0xcd, 0x38, 0x46, 0xc5, 0xea, 0x0d, 0x66, 0xf8, 0x32, 0xba,
    0xa3, 0x1e, 0x31, 0x3a, 0x43, 0xc6, 0x48, 0xfb, 0xf7, 0xbb, 0x81, 0xe8,
    0x45, 0xef, 0x44, 0x3e, 0xcd, 0xef, 0x96, 0xaa, 0xa4, 0xec, 0x52, 0x51,
    0xed, 0x09, 0xce, 0x60, 0x4f, 0xee, 0xbe, 0x0b, 0xfe, 0x0a, 0xb2, 0xec,
    0x4a, 0xc0, 0x0b, 0xf5, 0x1c, 0xdb, 0xe8, 0x2f, 0x28, 0xea, 0xf0, 0x00,
    0x19, 0xb0, 0xb2, 0xf3, 0x29, 0x7c, 0x1b, 0xc7, 0xf9, 0xef, 0x9d, 0x25,
    0xe7, 0xea, 0xd9, 0xce, 0x06, 0xd0, 0x03, 0x14, 0x90, 0x50, 0xb8, 0xee,
    0xdc, 0x07, 0xd9, 0x7f, 0x0d, 0x3c, 0xab, 0x38, 0xcf, 0xfd, 0xa5, 0x14,
    0x10, 0xf8, 0xc4, 0xc5, 0x14, 0x2f, 0xc5, 0x12, 0xb6, 0xd0, 0x53, 0xbe,
    0xda, 0x1c, 0xa5, 0x3c, 0x1a, 0xcf, 0xfc, 0x21, 0x33, 0xd4, 0x0a, 0x34,
    0xf3, 0x3b, 0x5b, 0xbc, 0xfa, 0x0b, 0x73, 0xfb, 0xe0, 0x6a, 0x69, 0x8c,
    0x38, 0x4b, 0x1f, 0xac, 0x03, 0x10, 0x5c, 0x27, 0x55, 0xf2, 0x14, 0x25,
    0xa6, 0x9e, 0x3f, 0x98, 0xa0, 0x15, 0xc7, 0x48, 0xf4, 0xe0, 0xff, 0x28,
    0xe8, 0xc9, 0xfe, 0xd7, 0xac, 0x31, 0xce, 0xdd, 0x30, 0xe5, 0x4e, 0xa5,
    0x1e, 0x9b, 0xef, 0xd7, 0x46, 0x2e, 0x9e, 0x30, 0xa7, 0xc2, 0x71, 0x23,
    0x2b, 0x19, 0xeb, 0x1e, 0x49, 0x2e, 0xa8, 0x3e, 0x11, 0x64, 0x1f, 0x70,
    0xb7, 0x19, 0xdb, 0xeb, 0x8a, 0x3c, 0xf7, 0x33, 0x54, 0x73, 0x0e, 0xb1,
    0xb7, 0xa9, 0x66, 0xf5, 0x16, 0x24, 0xe9, 0x5d, 0xdd, 0x44, 0xe6, 0xb2,
    0x69, 0x11, 0xd3, 0x91, 0x61, 0x3c, 0x0b, 0xeb, 0x09, 0xa8, 0xf6, 0xc1,
    0x3f, 0xc2, 0x27, 0x3e, 0xde, 0x29, 0x14, 0xdb, 0xe0, 0xb5, 0x22, 0x38,
    0xfe, 0xba, 0x47, 0xd1, 0x55, 0x14, 0x1f, 0x50, 0x3c, 0xd4, 0xcf, 0x0b,
    0x13, 0x23, 0x09, 0x44, 0x38, 0xb3, 0x34, 0xd7, 0xc4, 0x23, 0xff, 0x0f,
    0xa6, 0xc6, 0xba, 0xac, 0xb6, 0x12, 0x0c, 0x46, 0x1f, 0x31, 0xce, 0x4a,
    0xcd, 0x29, 0xbc, 0xd0, 0x3c, 0xda, 0x4c, 0x24, 0xe8, 0x2c, 0x26, 0x53,
    0xd7, 0x27, 0xd5, 0x45, 0x9d, 0x81, 0x00, 0x2c, 0xc0, 0xdb, 0xa6, 0x14,
    0x3c, 0x42, 0xd0, 0xa9, 0x32, 0x47, 0x02, 0xab, 0xac, 0xb5, 0x12, 0x16,
    0x23, 0x2c, 0xfe, 0x32, 0x0b, 0xd8, 0xeb, 0xb0, 0x54, 0xbf, 0x43, 0xd5,
    0xb1, 0x25, 0xdc, 0x90, 0x4a, 0xdd, 0xbd, 0xab, 0xea, 0xdb, 0x1a, 0xfb,
    0x33, 0xa5, 0x18, 0xc2, 0xaf, 0x25, 0x03, 0xbb, 0xd8, 0xbf, 0x35, 0xab,
    0xf5, 0xa7, 0x06, 0xe0, 0x5c, 0xb5, 0x6a, 0xed, 0xff, 0x02, 0x2a, 0xf3,
    0x24, 0xcc, 0xd1, 0xbb, 0x23, 0x4d, 0xb3, 0x2f, 0x15, 0x24, 0x2b, 0x28,
    0x46, 0x70, 0x4d, 0xe2, 0x5b, 0xb1, 0x30, 0x3a, 0x54, 0xe9, 0xb8, 0x38,
    0x51, 0xfd, 0xce, 0x55, 0xed, 0xf4, 0xf1, 0x0a, 0xfc, 0x2f, 0xc6, 0x0a,
    0xb2, 0x2a, 0xd9, 0x39, 0xf8, 0xde, 0x39, 0x70, 0x44, 0x23, 0xbe, 0x12,
    0xc5, 0xf4, 0xc0, 0x94, 0x57, 0x3f, 0xec, 0x2e, 0x20, 0xc1, 0xfa, 0xe8,
    0x1e, 0x58, 0x12, 0xbb, 0xde, 0xfc, 0xaa, 0xfb, 0xcc, 0x53, 0xdb, 0x40,
    0x65, 0xb7, 0xd7, 0xbc, 0x4c, 0xc1, 0xff, 0x17, 0x5e, 0xc3, 0x3c, 0xc9,
    0x50, 0xa7, 0xaf, 0xac, 0x03, 0x13, 0x4e, 0x69, 0xf5, 0xcb, 0x2c, 0xc3,
    0x33, 0xf0, 0x49, 0x55, 0x92, 0xf6, 0x2b, 0x12, 0xea, 0x4c, 0x06, 0xc8,
    0xce, 0x6c, 0x56, 0x1d, 0x54, 0x07, 0x38, 0xa8, 0xe6, 0xef, 0x06, 0x22,
    0x2c, 0x25, 0x42, 0x4b, 0xb1, 0x4a, 0xaf, 0xe8, 0xf6, 0x1c, 0xa7, 0xcb,
    0x30, 0x3c, 0xa7, 0x4c, 0x56, 0x42, 0xe8, 0x7f, 0x0c, 0x11, 0x4d, 0xb0,
    0x00, 0x51, 0x9f, 0xf0, 0x5f, 0xf0, 0xf4, 0xf8, 0x5b, 0xf6, 0xbc, 0xf5,
    0x55, 0xdc, 0x3e, 0xe2, 0x2a, 0x18, 0xfb, 0x6b, 0x23, 0x65, 0x53, 0x6c,
    0x8c, 0xda, 0xfc, 0x1a, 0xe8, 0xf9, 0x64, 0x65, 0x01, 0x0e, 0x6c, 0xc0,
    0x41, 0xfb, 0x16, 0xe3, 0xcb, 0x0e, 0x9f, 0xb0, 0x95, 0x4b, 0x58, 0xae,
    0x11, 0x25, 0xb2, 0x1f, 0xca, 0xd5, 0x1a, 0x57, 0xa6, 0xf9, 0x22, 0xeb,
    0xba, 0x94, 0x0e, 0xa3, 0x3b, 0x2f, 0x4f, 0xec, 0x4e, 0x17, 0xfa, 0xbf,
    0x82, 0x47, 0xac, 0xe7, 0x37, 0x61, 0x4c, 0xfa, 0x54, 0xb7, 0x34, 0x4d,
    0xf8, 0x30, 0xb6, 0x0a, 0x34, 0x1d, 0xa7, 0xb6, 0x04, 0xd0, 0x3e, 0xb0,
    0x9f, 0x3e, 0xea, 0xa9, 0x7f, 0x24, 0x1f, 0x4c, 0x22, 0xc1, 0xf8, 0x8b,
    0xc2, 0xaf, 0x04, 0x19, 0xf1, 0xa2, 0xc8, 0xd4, 0x05, 0x17, 0x59, 0xaa,
    0x54, 0x13, 0x04, 0x17, 0x08, 0x60, 0x19, 0xd8, 0xd1, 0x10, 0xb3, 0x55,
    0xfb, 0x4e, 0x30, 0x05, 0x20, 0xaa, 0xc7, 0x0a, 0xc8, 0xeb, 0xf4, 0xbd,
    0x92, 0x51, 0xdb, 0x55, 0x1c, 0xa0, 0x7e, 0xf0, 0x12, 0xbb, 0xdd, 0xa6,
    0x39, 0xb9, 0xf9, 0xdd, 0xae, 0xd7, 0x6c, 0x93, 0x25, 0x1a, 0x6f, 0xa9,
    0x60, 0x49, 0xbc, 0xc1, 0x40, 0x18, 0xf7, 0xba, 0x44, 0xa0, 0xcc, 0x5b,
    0x43, 0xbe, 0x4e, 0xbd, 0x27, 0xda, 0xb5, 0xb5, 0x8f, 0xd7, 0xff, 0x20,
    0xc8, 0x35, 0x4d, 0x22, 0x94, 0x8d, 0x17, 0xc8, 0x42, 0xd4, 0x43, 0xf3,
    0xe6, 0xd3, 0x2f, 0x02, 0x1d, 0xc7, 0xd1, 0xef, 0x13, 0xbd, 0xa6, 0xcb,
    0xf9, 0x4c, 0x8e, 0xdb, 0x51, 0xcb, 0xcc, 0xf7, 0xe5, 0x2a, 0x16, 0xb3,
    0x90, 0xbb, 0x36, 0x0d, 0x0d, 0xc6, 0x41, 0x6d, 0xe6, 0x3c, 0x48, 0x08,
    0x4d, 0xc0, 0xd9, 0x3a, 0x1d, 0x54, 0x12, 0x0d, 0x30, 0xf6, 0xaa, 0x70,
    0x17, 0x0f, 0x54, 0x6d, 0xaa, 0x44, 0x90, 0xb3, 0x2d, 0xde, 0xfc, 0x07,
    0x66, 0x4f, 0x3e, 0xd3, 0xca, 0x9a, 0x2b, 0x47, 0xdf, 0xb0, 0xfe, 0xe6,
    0x43, 0xf9, 0x81, 0x8d, 0x1a, 0x18, 0xcb, 0xaf, 0x8f, 0x0f, 0xa9, 0x40,
    0x2e, 0xe6, 0xec, 0x3f, 0xf7, 0x40, 0x47, 0x52, 0x30, 0x1b, 0x13, 0xf3,
    0xe3, 0x20, 0x4e, 0x2a, 0x3c, 0x2f, 0xf8, 0xd7, 0x02, 0x8a, 0x0c, 0x2e,
    0xbe, 0x41, 0xb5, 0x76, 0x58, 0x34, 0xea, 0xe3, 0xc8, 0x26, 0xeb, 0xbc,
    0x67, 0x17, 0x4a, 0x00, 0x3d, 0xa7, 0x47, 0xe8, 0xc7, 0x5f, 0xc7, 0xf4,
    0x98, 0xca, 0x2c, 0x53, 0xe3, 0x15, 0x01, 0xd5, 0x33, 0x0e, 0x29, 0xb6,
    0xeb, 0xc3, 0xe6, 0xfc, 0x2c, 0xcf, 0x53, 0x46, 0xd6, 0x43, 0x26, 0x94,
    0xe7, 0x41, 0xb9, 0xe5, 0xfb, 0xd0, 0x53, 0xdd, 0x5c, 0x2d, 0x1b, 0x3f,
    0xcc, 0x29, 0xec, 0xe9, 0xea, 0x00, 0xfa, 0xee, 0x1a, 0x02, 0x1c, 0x01,
    0xb3, 0xa8, 0x7f, 0x08, 0xa9, 0x10, 0x2c, 0xab, 0xee, 0x0a, 0xda, 0x10,
    0xe5, 0x51, 0xbf, 0xc6, 0x05, 0x4e, 0xe6, 0x79, 0x02, 0xfb, 0x4b, 0x1a,
    0xb7, 0x12, 0x1b, 0x22, 0x43, 0xce, 0xef, 0xf8, 0xf3, 0xe1, 0xe8, 0x32,
    0xcf, 0xd7, 0x76, 0x4d, 0xb9, 0xc1, 0x96, 0xf6, 0x2a, 0xc1, 0x51, 0xc0,
    0x0a, 0xa2, 0xc5, 0xb3, 0x45, 0xbe, 0xb6, 0xde, 0xb0, 0xf1, 0xef, 0x2a,
    0xe9, 0xd5, 0xef, 0xec, 0x9b, 0xbc, 0xf0, 0xcf, 0x3d, 0x2d, 0x3f, 0xcc,
    0xa1, 0x0a, 0x04, 0x9d, 0xad, 0xcf, 0x2d, 0x53, 0xc7, 0xaf, 0x1a, 0xe0,
    0x06, 0x44, 0x45, 0x03, 0xbe, 0xd1, 0x22, 0x11, 0x17, 0x64, 0x35, 0x4f,
    0x02, 0x6d, 0xbe, 0x23, 0xb3, 0x3b, 0xf0, 0x6f, 0x38, 0xb0, 0x39, 0x2a,
    0xb6, 0x42, 0x70, 0x38, 0xf5, 0xc5, 0xf6, 0x39, 0xbc, 0xef, 0xda, 0xb1,
    0xae, 0x48, 0x2b, 0xcb, 0x25, 0xc6, 0x72, 0x35, 0xdf, 0x34, 0x10, 0x52,
    0xc8, 0x35, 0xc7, 0x3d, 0xe8, 0xb8, 0x14, 0x29, 0x06, 0xd1, 0x50, 0x34,
    0x29, 0x08, 0x0a, 0x21, 0x45, 0x53, 0x25, 0xf0, 0x08, 0x17, 0x1d, 0xa4,
    0x2d, 0xc1, 0x0f, 0xfc, 0x25, 0x95, 0xc6, 0x42, 0xd8, 0xd2, 0x3c, 0xdc,
    0x23, 0x43, 0x44, 0xb2, 0xeb, 0x18, 0x58, 0x27, 0xa3, 0xaa, 0xba, 0xe8,
    0xd8, 0x7f, 0x03, 0x66, 0x55, 0xbd, 0xf9, 0xc5, 0x18, 0x4b, 0x65, 0x13,
    0xb8, 0x16, 0x3e, 0x12, 0xf6, 0x74, 0xdc, 0x44, 0xa2, 0xd7, 0xb8, 0x6d,
    0x3c, 0xca, 0x68, 0xb1, 0xe2, 0x0a, 0xda, 0x1a, 0xf0, 0xf2, 0xf4, 0x68,
    0x69, 0x56, 0x2e, 0x8e, 0x28, 0x4a, 0x42, 0xf2, 0x38, 0x19, 0xf9, 0xb8,
    0xca, 0x3a, 0x9e, 0x00, 0xbf, 0x5c, 0x65, 0xa8, 0x4b, 0xdc, 0xc1, 0xc2,
    0xc8, 0x3c, 0x47, 0x32, 0x74, 0xbf, 0xc1, 0x88, 0xe2, 0x93, 0x16, 0x65,
    0x24, 0x32, 0xcf, 0xcb, 0xdc, 0x0c, 0xba, 0x18, 0x8d, 0x40, 0xdb, 0xdb,
    0xb2, 0x17, 0x28, 0xb0, 0xd9, 0xd8, 0xdc, 0x3e, 0xc4, 0x04, 0x37, 0xd2,
    0x3b, 0xc6, 0xbe, 0x47, 0x3a, 0x40, 0xb6, 0xc7, 0x83, 0x76, 0xf8, 0xe2,
    0x0f, 0x16, 0x50, 0x30, 0xe8, 0x95, 0x0f, 0xa0, 0xd5, 0xad, 0xd6, 0x09,
    0xda, 0x21, 0x2d, 0x8c, 0xad, 0x5b, 0xe4, 0x42, 0x5e, 0xfc, 0xea, 0x4b,
    0xe7, 0x4f, 0x5c, 0x2f, 0xc2, 0xac, 0xad, 0xf5, 0x34, 0x1a, 0xb7, 0xc5,
    0x27, 0xc5, 0xfc, 0xd8, 0xab, 0xc7, 0xee, 0xbc, 0x81, 0xeb, 0xd8, 0x12,
    0xa7, 0xc3, 0xbd, 0x18, 0x26, 0x12, 0x0e, 0xef, 0x55, 0xbe, 0xff, 0xdf,
    0xe1, 0xdd, 0x27, 0x24, 0x3b, 0xe4, 0xe6, 0xfe, 0x51, 0xda, 0x1a, 0xe6,
    0x31, 0xb0, 0x61, 0x05, 0xb6, 0x0c, 0xe2, 0xf9, 0x61, 0x5a, 0xdc, 0x7f,
    0x4e, 0x44, 0xfb, 0x34, 0xfd, 0x98, 0xfb, 0x4b, 0xc9, 0xe2, 0xa5, 0xeb,
    0xc5, 0xf4, 0x2e, 0x32, 0xe1, 0x1c, 0xea, 0x9b, 0xf6, 0xc4, 0xb6, 0x8f,
    0x98, 0xfd, 0xbc, 0xbb, 0x64, 0xf0, 0xe1, 0x1f, 0xd4, 0x0e, 0x4b, 0xbe,
    0x9f, 0x2f, 0x18, 0xea, 0x7a, 0x3e, 0xf0, 0x34, 0x06, 0xa9, 0x62, 0x70,
    0xd2, 0xd8, 0xb3, 0xa2, 0xbc, 0x93, 0x1d, 0x02, 0xfe, 0x0e, 0xd7, 0x51,
    0xb3, 0x99, 0xa6, 0x03, 0x49, 0x46, 0x42, 0xce, 0x2d, 0xd8, 0xbd, 0x20,
    0xba, 0xc8, 0xbb, 0xc1, 0xfa, 0xaa, 0x19, 0xd3, 0xc6, 0xa5, 0x3d, 0x2d,
    0x35, 0x60, 0xc8, 0xbf, 0x18, 0xb8, 0x22, 0x65, 0x2d, 0xbe, 0x58, 0xeb,
    0x11, 0x37, 0xb4, 0x1d, 0x1c, 0x4c, 0x45, 0x4e, 0x1e, 0xdb, 0x46, 0x2f,
    0x5a, 0x61, 0x50, 0x4d, 0xa6, 0xa0, 0x81, 0xdb, 0xd6, 0x24, 0x4d, 0x53,
    0x34, 0xc7, 0x9d, 0x50, 0xc2, 0xb3, 0xc6, 0xdb, 0x0c, 0x96, 0x54, 0x16,
    0xc8, 0x05, 0xb1, 0x10, 0xbf, 0x0d, 0x0d, 0xf0, 0xb9, 0x26, 0xa0, 0xd5,
    0x1c, 0xdb, 0xb0, 0xf3, 0x65, 0xfb, 0x21, 0xba, 0xdf, 0x1b, 0x90, 0x09,
    0x62, 0x03, 0x7e, 0x9a, 0x3d, 0xd2, 0x0e, 0xf3, 0xe4, 0x4d, 0xe5, 0x59,
    0x13, 0xd3, 0x87, 0x14, 0xa9, 0x3f, 0xa4, 0x32, 0xb8, 0x37, 0x4d, 0x53,
    0x31, 0x24, 0xbf, 0x38, 0x26, 0xd5, 0x16, 0x60, 0x95, 0x89, 0x40, 0x54,
    0x67, 0xcc, 0xe8, 0x04, 0xde, 0x86, 0x3b, 0x06, 0x39, 0xb9, 0xe3, 0xad,
    0xd9, 0xb8, 0xda, 0x9a, 0x1c, 0xbf, 0xcd, 0x30, 0x60, 0xf0, 0x39, 0xc3,
    0xc6, 0x1f, 0xc7, 0x8a, 0xbd, 0x20, 0x26, 0x9e, 0x61, 0x95, 0xf7, 0xe5,
    0x28, 0x4b, 0x37, 0xa3, 0x49, 0x29, 0xa7, 0xc7, 0x3d, 0x0e, 0x69, 0x5c,
    0xa6, 0xba, 0xd4, 0x94, 0xc2, 0x8a, 0x27, 0x4b, 0xa7, 0x03, 0xb8, 0x44,
    0x0d, 0x1c, 0x04, 0x2e, 0xa1, 0xc3, 0x37, 0xba, 0x0c, 0x15, 0x3c, 0xad,
    0xec, 0xf7, 0x17, 0xeb, 0xa0, 0xfc, 0x92, 0x01, 0x42, 0x06, 0x30, 0x66,
    0xdc, 0xc5, 0x45, 0x4d, 0xda, 0xa7, 0x2b, 0x15, 0xe9, 0xf1, 0x88, 0x30,
    0x21, 0x1c, 0x8e, 0x32, 0xb6, 0xe3, 0x05, 0xda, 0xe4, 0x55, 0xd5, 0xf5,
    0xb7, 0x7f, 0x02, 0x9f, 0x13, 0xbd, 0x35, 0xa0, 0x18, 0x37, 0x50, 0x21,
    0xc7, 0x38, 0x58, 0xb5, 0x3e, 0x5d, 0x4e, 0xaa, 0xd8, 0x53, 0x4c, 0xf7,
    0xbe, 0x64, 0x68, 0xa5, 0xfb, 0xf8, 0x30, 0x97, 0xdb, 0xf8, 0xba, 0xb8,
    0xc4, 0x03, 0xd0, 0xe4, 0x62, 0xd3, 0x3f, 0x14, 0x57, 0x0c, 0x1d, 0x49,
    0x9d, 0x38, 0x51, 0xc0, 0x18, 0xb2, 0x36, 0xc9, 0x3e, 0x56, 0xf1, 0xba,
    0x45, 0xa0, 0xbe, 0x3b, 0x64, 0xd6, 0xdd, 0x27, 0x49, 0xd1, 0x16, 0xf9,
    0x4d, 0x02, 0x9b, 0xd4, 0xf9, 0x4d, 0x23, 0xf6, 0xa1, 0x11, 0xf6, 0x29,
    0xb7, 0xee, 0xab, 0x17, 0x8c, 0xe6, 0x44, 0xe0, 0x0a, 0x6b, 0xc5, 0x3e,
    0x43, 0x3c, 0xbe, 0x9d, 0x3d, 0xbe, 0x09, 0xd8, 0x9b, 0xc0, 0xe2, 0x2e,
    0xc2, 0x45, 0x00, 0xdf, 0x02, 0x29, 0xd8, 0xe5, 0x4e, 0x32, 0x5d, 0xa0,
    0xd1, 0x47, 0xf7, 0x27, 0xde, 0x30, 0x1b, 0xc1, 0xd1, 0xa7, 0x38, 0xfa,
    0x35, 0x0e, 0x63, 0x11, 0x46, 0xcf, 0xe1, 0xb8, 0xcd, 0x36, 0xcd, 0xf2,
    0x2c, 0x9d, 0xef, 0xc0, 0x4e, 0xf4, 0xc0, 0x81, 0x49, 0x84, 0x0e, 0xfd,
    0xe2, 0xd1, 0x31, 0xcb, 0x2c, 0xac, 0x00, 0xe5, 0xc8, 0x31, 0xf8, 0xbf,
    0xd0, 0xc9, 0x04, 0x5b, 0x0a, 0xb0, 0x0f, 0x2a, 0xb1, 0x35, 0xa4, 0xd1,
    0xb4, 0x0a, 0x04, 0x23, 0x40, 0x96, 0x90, 0x36, 0xef, 0x34, 0xd7, 0xb3,
    0x09, 0xd4, 0xb2, 0x2f, 0xf8, 0xca, 0xe7, 0xd7, 0xee, 0xe6, 0x9f, 0xed,
    0x38, 0x09, 0xf6, 0x4b, 0x3d, 0xc0, 0xde, 0x10, 0xc7, 0x04, 0xf3, 0xbe,
    0xaf, 0xe6, 0xb0, 0x23, 0xc5, 0xc0, 0x4c, 0x26, 0x12, 0x46, 0xcb, 0x28,
    0x23, 0x0d, 0x36, 0xd6, 0x37, 0x29, 0x8f, 0x29, 0x1b, 0x03, 0x3e, 0x96,
    0x5e, 0xea, 0xf6, 0x37, 0x26, 0xe6, 0xff, 0xff, 0x04, 0x00, 0x00, 0x00,
    0x40, 0x00, 0x00, 0x00, 0x00, 0x00, 0x00, 0x00, 0x00, 0x00, 0x00, 0x00,
    0x00, 0x00, 0x00, 0x00, 0x00, 0x00, 0x00, 0x00, 0x00, 0x00, 0x00, 0x00,
    0x00, 0x00, 0x00, 0x00, 0x00, 0x00, 0x00, 0x00, 0x00, 0x00, 0x00, 0x00,
    0x00, 0x00, 0x00, 0x00, 0x00, 0x00, 0x00, 0x00, 0x00, 0x00, 0x00, 0x00,
    0x00, 0x00, 0x00, 0x00, 0x00, 0x00, 0x00, 0x00, 0x00, 0x00, 0x00, 0x00,
    0x00, 0x00, 0x00, 0x00, 0x00, 0x00, 0x00, 0x00, 0x72, 0xe6, 0xff, 0xff,
    0x04, 0x00, 0x00, 0x00, 0x90, 0x00, 0x00, 0x00, 0xe6, 0x5a, 0x57, 0x50,
    0xa0, 0xea, 0x94, 0xb8, 0x15, 0xe4, 0x32, 0x0a, 0xed, 0xff, 0x4f, 0x90,
    0xb0, 0x81, 0x8e, 0x55, 0x7f, 0x81, 0x50, 0x22, 0x7f, 0x33, 0x73, 0xed,
    0x2c, 0x6d, 0xdb, 0x64, 0x81, 0xae, 0x28, 0x7f, 0xff, 0x35, 0x7f, 0x34,
    0x61, 0x88, 0x0f, 0x19, 0x2f, 0xd6, 0x7f, 0x81, 0xec, 0x17, 0x10, 0x46,
    0x50, 0x20, 0xbb, 0x52, 0xae, 0xa9, 0x7f, 0x31, 0x83, 0x60, 0xc1, 0xd6,
    0x09, 0xbb, 0xcb, 0xe5, 0x67, 0x9e, 0xe1, 0x5e, 0xa1, 0x53, 0xcc, 0x3d,
    0x3e, 0x72, 0xf3, 0x42, 0xc7, 0x29, 0x26, 0x36, 0xd8, 0xf8, 0x50, 0x73,
    0x61, 0xe9, 0x70, 0xe5, 0x53, 0xdf, 0x41, 0x5a, 0xcc, 0x5b, 0x7f, 0xff,
    0x19, 0xe8, 0x89, 0xee, 0xb0, 0x81, 0xba, 0x81, 0x81, 0x58, 0xa6, 0xad,
    0xdd, 0x6e, 0x7f, 0xf0, 0x2c, 0x85, 0x6b, 0x84, 0x49, 0xec, 0x42, 0xc0,
    0x0b, 0xe5, 0xb5, 0x9d, 0xaa, 0xa3, 0x10, 0x9a, 0x4b, 0xd3, 0xfe, 0x7f,
    0x0c, 0xbe, 0x58, 0x4e, 0x16, 0x81, 0xf4, 0x02, 0x0e, 0xe7, 0xff, 0xff,
    0x04, 0x00, 0x00, 0x00, 0x40, 0x00, 0x00, 0x00, 0xa0, 0x06, 0x00, 0x00,
    0x36, 0xff, 0xff, 0xff, 0x2e, 0xf9, 0xff, 0xff, 0x47, 0xf6, 0xff, 0xff,
    0x6e, 0xf7, 0xff, 0xff, 0xa2, 0x06, 0x00, 0x00, 0x52, 0xfb, 0xff, 0xff,
    0xfe, 0xf1, 0xff, 0xff, 0x5e, 0xfd, 0xff, 0xff, 0x07, 0x09, 0x00, 0x00,
    0x07, 0xeb, 0xff, 0xff, 0x06, 0x00, 0x00, 0x00, 0x02, 0x03, 0x00, 0x00,
    0xd0, 0xf8, 0xff, 0xff, 0xf9, 0xff, 0xff, 0xff, 0xbe, 0x02, 0x00, 0x00,
    0x5a, 0xe7, 0xff, 0xff, 0x04, 0x00, 0x00, 0x00, 0x00, 0x01, 0x00, 0x00,
    0x37, 0xb1, 0x5d, 0x71, 0x51, 0x73, 0x7f, 0xee, 0x5b, 0x81, 0x59, 0x2f,
    0x6d, 0x47, 0x93, 0xa4, 0x9d, 0x4a, 0x07, 0x99, 0xc5, 0x99, 0xdd, 0x1b,
    0x66, 0xe6, 0x81, 0x6c, 0x6a, 0xa1, 0x16, 0x62, 0x8a, 0x04, 0xe2, 0x03,
    0x66, 0x81, 0x14, 0x3f, 0xaa, 0x50, 0xeb, 0xbd, 0x57, 0x1e, 0x46, 0xf5,
    0x28, 0x8c, 0x4c, 0x60, 0xf1, 0xe0, 0x5e, 0xaf, 0x81, 0x6b, 0x82, 0xdd,
    0x09, 0xe0, 0xcf, 0xd9, 0xc0, 0x32, 0x47, 0x03, 0x81, 0xa8, 0x82, 0x3f,
    0x7d, 0x5b, 0xa2, 0xa5, 0xee, 0xbb, 0x92, 0x23, 0xe0, 0xa9, 0xda, 0xee,
    0x22, 0x81, 0xe9, 0x56, 0xc6, 0xfe, 0xaf, 0xfa, 0x2a, 0xe7, 0x4e, 0x77,
    0x24, 0x1b, 0x8b, 0x4b, 0x35, 0x44, 0xdc, 0x6c, 0x99, 0xfe, 0xf9, 0x74,
    0x95, 0x30, 0x7f, 0x50, 0x02, 0x2e, 0x7f, 0x45, 0x4a, 0x11, 0x46, 0x02,
    0x32, 0xfa, 0xaf, 0xb0, 0x04, 0x3f, 0xd2, 0x3c, 0xd8, 0x58, 0x7f, 0xe4,
    0xe4, 0x4e, 0x7a, 0x61, 0x71, 0x04, 0x8e, 0x14, 0x0f, 0x79, 0xfa, 0x6c,
    0x40, 0xbc, 0x59, 0xf0, 0xf9, 0x7f, 0xb8, 0x18, 0x10, 0xe9, 0xdf, 0xb8,
    0x4a, 0x5c, 0xd6, 0xc4, 0x9c, 0xcb, 0xc9, 0xfd, 0xcd, 0x27, 0x24, 0x59,
    0x1d, 0x5c, 0x81, 0x0b, 0x5e, 0x4d, 0x78, 0xb7, 0x67, 0x2a, 0x4d, 0x7e,
    0x4b, 0x6c, 0xfb, 0x6d, 0xe5, 0xcd, 0x7f, 0xcd, 0xbc, 0xc9, 0x42, 0xa8,
    0x0a, 0x5c, 0x14, 0x0a, 0xd4, 0xe0, 0x1d, 0xfb, 0xf7, 0x46, 0x00, 0x6e,
    0x16, 0x7f, 0x02, 0x34, 0xb9, 0x5c, 0x63, 0x00, 0x69, 0xa9, 0x09, 0x28,
    0xc9, 0xcb, 0xbd, 0x62, 0xc5, 0xec, 0x7f, 0x22, 0x70, 0x8c, 0x1f, 0xdd,
    0xb9, 0x0f, 0x81, 0xdb, 0x41, 0x06, 0xd1, 0x28, 0xf3, 0x4e, 0x93, 0x75,
    0xb6, 0xbf, 0x95, 0xf9, 0xcf, 0xd0, 0x65, 0xd9, 0xab, 0x04, 0xf4, 0xc6,
    0x7f, 0x40, 0x14, 0x4f, 0x66, 0xe8, 0xff, 0xff, 0x04, 0x00, 0x00, 0x00,
    0x40, 0x00, 0x00, 0x00, 0x4a, 0xee, 0xff, 0xff, 0x23, 0x07, 0x00, 0x00,
    0xba, 0xff, 0xff, 0xff, 0xc6, 0x04, 0x00, 0x00, 0x62, 0x08, 0x00, 0x00,
    0xc3, 0x04, 0x00, 0x00, 0x0c, 0xf8, 0xff, 0xff, 0xbc, 0xf3, 0xff, 0xff,
    0x63, 0xee, 0xff, 0xff, 0x83, 0xfb, 0xff, 0xff, 0xfc, 0xfc, 0xff, 0xff,
    0x8b, 0xf0, 0xff, 0xff, 0xdb, 0xf4, 0xff, 0xff, 0x0f, 0xfd, 0xff, 0xff,
    0x70, 0x01, 0x00, 0x00, 0xd8, 0x03, 0x00, 0x00, 0xb2, 0xe8, 0xff, 0xff,
    0x04, 0x00, 0x00, 0x00, 0x00, 0x09, 0x00, 0x00, 0xe3, 0x30, 0xb8, 0xf0,
    0x35, 0x47, 0xa5, 0xf2, 0xe9, 0x6d, 0xbd, 0x2a, 0x5c, 0xfc, 0xb7, 0x1e,
    0x4b, 0x0f, 0x8d, 0xb7, 0xcf, 0xd2, 0x2e, 0x37, 0x50, 0xd6, 0xa4, 0xe5,
    0x33, 0x0c, 0xc9, 0x15, 0xf7, 0xc0, 0xdc, 0xc6, 0x49, 0xb7, 0xae, 0x69,
    0x1f, 0xd3, 0x24, 0x40, 0xaa, 0xad, 0xdd, 0xcd, 0xe2, 0x1a, 0xb2, 0xd3,
    0xb5, 0x96, 0x15, 0xfd, 0x0a, 0x5c, 0xba, 0x27, 0x0b, 0xf0, 0x1b, 0x8e,
    0xeb, 0xa4, 0xb6, 0xb8, 0x32, 0xbc, 0x10, 0xf1, 0x4b, 0x37, 0xe2, 0x5a,
    0xd5, 0xc4, 0x1c, 0x4a, 0x32, 0xf6, 0x4b, 0x1d, 0x60, 0xab, 0xc7, 0xe2,
    0x96, 0xf1, 0x06, 0xfa, 0xf1, 0x81, 0x78, 0x42, 0xda, 0x2a, 0x11, 0x18,
    0x09, 0x62, 0xb0, 0x3a, 0x21, 0xf2, 0x23, 0xf7, 0x3c, 0x32, 0x16, 0xd2,
    0x12, 0xb5, 0xc1, 0xe5, 0x31, 0xfc, 0x9e, 0x0a, 0x5f, 0xf2, 0xe1, 0xb3,
    0xaa, 0xf3, 0x11, 0x70, 0xdf, 0x07, 0x87, 0xc6, 0x26, 0xeb, 0xc1, 0x3d,
    0xef, 0xb1, 0x21, 0x20, 0xe5, 0x31, 0xc9, 0x01, 0xae, 0x44, 0xf3, 0xb3,
    0xfc, 0xf5, 0xd3, 0xe4, 0x34, 0xc5, 0xde, 0xd1, 0x01, 0xad, 0x12, 0x60,
    0xc3, 0x20, 0x49, 0xe6, 0xe1, 0x13, 0x26, 0x39, 0x2f, 0xcd, 0x23, 0xd3,
    0x42, 0xe9, 0x48, 0x08, 0xc2, 0x23, 0xfc, 0xce, 0x5a, 0x3e, 0x14, 0x1d,
    0xf3, 0x01, 0x28, 0xe8, 0xfc, 0x1a, 0x22, 0xd2, 0xde, 0x48, 0x3d, 0x0e,
    0x4f, 0x0f, 0xd0, 0xbb, 0xe2, 0xe7, 0xef, 0x43, 0x56, 0x16, 0x25, 0x23,
    0xdf, 0xe4, 0x11, 0xc4, 0x60, 0x07, 0xcb, 0x50, 0x4d, 0x2c, 0xf0, 0xa5,
    0xe2, 0x1c, 0xee, 0xb8, 0x1f, 0x54, 0x40, 0xee, 0x47, 0xc4, 0x95, 0xc8,
    0x6e, 0xc6, 0xee, 0x15, 0x2c, 0xcf, 0x51, 0xad, 0xcc, 0x29, 0x66, 0x1f,
    0xf3, 0xc5, 0xf0, 0xed, 0xad, 0xba, 0x7f, 0x38, 0xea, 0x22, 0xd1, 0x00,
    0xd5, 0x1a, 0xce, 0x19, 0x3a, 0x0b, 0xcf, 0xe2, 0xee, 0xe1, 0xec, 0x55,
    0x3f, 0x0f, 0x9a, 0x3a, 0xf7, 0xf1, 0xdf, 0xd1, 0xec, 0xed, 0x2f, 0x0b,
    0xf1, 0x00, 0xe2, 0x27, 0x1e, 0xf4, 0x44, 0x14, 0x2e, 0xdd, 0xfb, 0x29,
    0x55, 0xc4, 0x15, 0x3e, 0xc0, 0xe4, 0xfc, 0x28, 0x69, 0xd8, 0x0b, 0x62,
    0xb4, 0xb3, 0xc0, 0x37, 0xd7, 0x59, 0xb8, 0x9b, 0xa0, 0x30, 0x88, 0xaf,
    0xde, 0xa6, 0xd0, 0xe3, 0x47, 0xeb, 0xf8, 0xfa, 0xd0, 0x14, 0x9e, 0x2d,
    0xb7, 0x37, 0x0b, 0x10, 0x10, 0x25, 0x4b, 0xb7, 0xe8, 0xf1, 0xc2, 0x5a,
    0x7d, 0xb8, 0x05, 0xf9, 0xf3, 0x73, 0x0c, 0xcb, 0xb4, 0x2e, 0x58, 0xc3,
    0x4b, 0xc5, 0xde, 0x54, 0x54, 0x9e, 0x93, 0x4a, 0x01, 0xf1, 0x2f, 0xbb,
    0x08, 0x2f, 0xd2, 0xf0, 0x54, 0x50, 0xb1, 0xda, 0x02, 0xa2, 0x24, 0xa2,
    0x09, 0xdc, 0xf9, 0xe5, 0x3a, 0xcf, 0xce, 0x34, 0xd4, 0x3b, 0xbe, 0x39,
    0x50, 0xee, 0x13, 0xd5, 0xe7, 0x56, 0x96, 0x21, 0x33, 0x04, 0x74, 0xc5,
    0xb4, 0x45, 0x2d, 0xe0, 0xc1, 0xe9, 0x3b, 0x5a, 0xc2, 0x11, 0x81, 0xd8,
    0x2b, 0x25, 0x51, 0xd4, 0xf2, 0x62, 0x21, 0x18, 0x01, 0x79, 0xfb, 0x24,
    0xe3, 0x14, 0x95, 0xfe, 0x41, 0x98, 0x10, 0x02, 0x1c, 0x2d, 0xcd, 0x45,
    0x55, 0xbc, 0xd9, 0xcb, 0x18, 0x1b, 0x0e, 0x1b, 0xfe, 0x01, 0x47, 0x1f,
    0x9b, 0xba, 0x93, 0x2b, 0x17, 0xbc, 0x10, 0x68, 0xb1, 0x1c, 0xd9, 0x15,
    0x48, 0xd2, 0x09, 0xd4, 0xdf, 0x11, 0x27, 0xa4, 0xc5, 0xd1, 0xf5, 0x11,
    0x06, 0x2f, 0xdc, 0x30, 0x48, 0x25, 0xd6, 0xd9, 0xd1, 0x39, 0x2e, 0xf6,
    0x49, 0xb2, 0x0b, 0x17, 0xf4, 0x5d, 0xbf, 0x42, 0xcf, 0xc6, 0xc6, 0x45,
    0x5e, 0xeb, 0xf8, 0xe1, 0x46, 0xb4, 0x3f, 0x31, 0x9a, 0xcd, 0xa7, 0x6e,
    0x5a, 0x87, 0x53, 0x20, 0x3c, 0x94, 0xd5, 0xc9, 0x45, 0xab, 0xa9, 0xf4,
    0x33, 0xad, 0x03, 0xb9, 0x0d, 0xac, 0x60, 0x26, 0xe2, 0xc1, 0xd4, 0x21,
    0x61, 0x36, 0x0b, 0x66, 0x4d, 0x23, 0x9e, 0xb6, 0xe9, 0x51, 0xf6, 0x2a,
    0x12, 0xe0, 0x98, 0xda, 0xac, 0x43, 0xd9, 0x28, 0xa5, 0x0e, 0xb3, 0xa2,
    0x50, 0x2f, 0xbf, 0x4d, 0xf8, 0xd9, 0x9c, 0x4b, 0xed, 0x7f, 0xca, 0x4d,
    0x67, 0x35, 0xcf, 0x2c, 0xdb, 0x07, 0x63, 0x0f, 0x60, 0x10, 0x93, 0x59,
    0x3a, 0x3f, 0x44, 0xcc, 0x67, 0x13, 0xe6, 0x3c, 0x10, 0x1c, 0x02, 0xb4,
    0xe8, 0xe7, 0xf1, 0xe0, 0x19, 0xff, 0xf1, 0xf6, 0x2d, 0x3e, 0x81, 0xd5,
    0xaa, 0xd1, 0x3d, 0x29, 0x15, 0x28, 0x47, 0x5b, 0xc5, 0xcd, 0x09, 0x49,
    0xb7, 0xf4, 0x05, 0x6d, 0xf1, 0xed, 0x69, 0x2c, 0x4b, 0xf1, 0x0e, 0x8c,
    0x5e, 0x4a, 0x2c, 0x5f, 0xd2, 0x44, 0x2a, 0x45, 0x1d, 0xcf, 0x64, 0xc9,
    0x46, 0x21, 0xc1, 0x1d, 0xe8, 0xab, 0x22, 0x03, 0x24, 0xf4, 0xcf, 0x59,
    0x03, 0xea, 0x65, 0x22, 0x40, 0xb6, 0xd6, 0x3b, 0x60, 0xa9, 0xa2, 0x21,
    0xdd, 0x10, 0xc6, 0xa9, 0xc1, 0x3b, 0x70, 0xe1, 0x4a, 0xe3, 0x11, 0xe1,
    0x2a, 0x61, 0xf4, 0xb4, 0x01, 0x28, 0x2d, 0x57, 0xa0, 0xf6, 0x35, 0xd2,
    0x42, 0xc5, 0x0d, 0x11, 0x54, 0x1d, 0xd0, 0x3c, 0xfc, 0xec, 0xae, 0xb8,
    0xf9, 0x40, 0x60, 0xba, 0x97, 0xd5, 0x4b, 0x0d, 0x8d, 0xb1, 0x57, 0xbd,
    0x35, 0xf3, 0xf4, 0xc8, 0x49, 0x1b, 0x05, 0xd7, 0x50, 0xfd, 0x9e, 0xeb,
    0x3d, 0xd2, 0x04, 0xc8, 0xdd, 0xc5, 0x30, 0x2f, 0xe8, 0x12, 0xf1, 0x1e,
    0xba, 0x8b, 0x10, 0xde, 0x1d, 0x2c, 0xac, 0x54, 0x16, 0xe9, 0x12, 0x19,
    0x57, 0x4f, 0xfd, 0x1b, 0xa6, 0xa6, 0x29, 0x20, 0x27, 0xaf, 0x40, 0xff,
    0x5a, 0xf6, 0x93, 0x15, 0x13, 0xaf, 0x6a, 0x2a, 0xb0, 0xb0, 0x12, 0xf3,
    0xfa, 0xfc, 0x9b, 0x1f, 0xc4, 0x6d, 0xd2, 0xcd, 0xc9, 0x0e, 0xc3, 0xc0,
    0xd9, 0xd1, 0x92, 0x75, 0xe4, 0xea, 0x8f, 0x49, 0xc2, 0xd4, 0xfa, 0xbe,
    0xe4, 0xad, 0xbf, 0xb1, 0xe5, 0x33, 0x4b, 0x10, 0x2b, 0x12, 0x03, 0x29,
    0x1b, 0x4e, 0xc3, 0x10, 0x8c, 0x12, 0x0f, 0x81, 0x28, 0x2e, 0xb6, 0xbf,
    0x4f, 0x2d, 0x14, 0x29, 0x1a, 0x00, 0xa8, 0xa6, 0x55, 0xac, 0x44, 0xc6,
    0xf6, 0x4a, 0xb9, 0xe8, 0x23, 0xde, 0x95, 0x67, 0xde, 0xc1, 0xc6, 0xa2,
    0xd5, 0x1b, 0x6c, 0xf9, 0x11, 0x3b, 0x96, 0xd0, 0x1d, 0xf3, 0xd5, 0xdc,
    0x3f, 0xe4, 0x8c, 0x26, 0x0d, 0x0f, 0x4f, 0xf5, 0x17, 0x53, 0x39, 0x93,
    0x12, 0x05, 0x07, 0xf3, 0xbd, 0xb2, 0x3e, 0x90, 0xbf, 0xe3, 0x0c, 0xe5,
    0x20, 0xcd, 0x3f, 0x25, 0xdb, 0x37, 0xe9, 0xdc, 0xf9, 0xaf, 0x2b, 0xb9,
    0xfa, 0x77, 0xe7, 0xf7, 0x40, 0x60, 0xee, 0x16, 0x56, 0x79, 0x0d, 0xff,
    0xc7, 0xa4, 0xd4, 0xc7, 0xe8, 0xbc, 0xbf, 0x27, 0xbc, 0xf6, 0xd7, 0xa4,
    0xdc, 0xea, 0x04, 0x14, 0xc6, 0xcf, 0x46, 0x14, 0xae, 0xe6, 0xea, 0x38,
    0x22, 0xf1, 0x48, 0xf5, 0x13, 0x13, 0x46, 0x26, 0xb6, 0xaa, 0xcd, 0xb9,
    0x32, 0x4a, 0xe6, 0xe2, 0x81, 0x4c, 0x48, 0xfb, 0xda, 0xf0, 0x2d, 0xe2,
    0xcb, 0xa4, 0x38, 0xc9, 0xff, 0x29, 0xf2, 0xbe, 0xc5, 0x0f, 0x0e, 0x3d,
    0x69, 0xd7, 0xc7, 0x29, 0xec, 0xc2, 0xf1, 0xf2, 0x85, 0x37, 0xcb, 0xa2,
    0xf5, 0x42, 0x21, 0xad, 0x27, 0x2b, 0xe4, 0xe3, 0xe4, 0xca, 0x33, 0x4b,
    0xf5, 0xc8, 0x26, 0xb6, 0x96, 0x45, 0x45, 0xde, 0x46, 0x42, 0x3c, 0x23,
    0x24, 0x2e, 0x29, 0xb2, 0x1c, 0xfc, 0x08, 0x0c, 0xfe, 0x36, 0x18, 0x00,
    0x21, 0xdf, 0xb4, 0xbf, 0x01, 0x58, 0x5e, 0xa0, 0xd6, 0x39, 0xf2, 0xc8,
    0xaf, 0xef, 0x06, 0x39, 0xe5, 0xf0, 0x1a, 0xfb, 0x27, 0xce, 0xfe, 0xef,
    0xa6, 0x0e, 0xd8, 0x0e, 0x35, 0x1a, 0xe9, 0xe8, 0xce, 0xed, 0x21, 0xe8,
    0xe4, 0xce, 0x08, 0x29, 0xb0, 0x1c, 0xc5, 0x1e, 0x39, 0x1a, 0x41, 0x20,
    0x9e, 0x4e, 0x52, 0xd7, 0x38, 0xf7, 0xeb, 0xe5, 0x1e, 0xc8, 0xf1, 0x46,
    0x9e, 0x03, 0x04, 0x3b, 0xfc, 0x03, 0x1d, 0xfa, 0xe0, 0x30, 0xdc, 0xce,
    0x69, 0x37, 0xaf, 0x7f, 0x12, 0x48, 0x0c, 0xf7, 0x3a, 0xf5, 0x2c, 0xf6,
    0xeb, 0xd0, 0x19, 0xf8, 0xe1, 0x5e, 0x24, 0x0e, 0x24, 0xfe, 0xd5, 0xd7,
    0x33, 0xcf, 0x19, 0xb7, 0xde, 0xf4, 0x03, 0x25, 0xd8, 0xf1, 0xec, 0x5f,
    0xce, 0xc7, 0x2e, 0x3d, 0x10, 0xe7, 0xd4, 0x20, 0x28, 0x00, 0x66, 0xed,
    0x19, 0xf2, 0xc1, 0xf6, 0xaf, 0x23, 0x23, 0x37, 0x02, 0x31, 0xce, 0xc1,
    0x19, 0x06, 0xdd, 0x3b, 0xea, 0xc4, 0xb0, 0xee, 0xb9, 0x48, 0x02, 0x4b,
    0xf6, 0x41, 0x51, 0x2d, 0xd5, 0xdb, 0x0c, 0x38, 0x15, 0x7f, 0xee, 0x0b,
    0xea, 0xf3, 0x6c, 0x18, 0x45, 0xe1, 0xc6, 0x24, 0xc2, 0x85, 0x0e, 0xf8,
    0xb5, 0x13, 0xcc, 0x8f, 0x31, 0x7e, 0xce, 0xbf, 0x49, 0x1d, 0xd0, 0xbd,
    0xce, 0x02, 0xcc, 0x5d, 0xad, 0xf0, 0x9d, 0xf2, 0x05, 0x34, 0xd8, 0x19,
    0x09, 0x57, 0x17, 0xde, 0xeb, 0xcb, 0xfd, 0xb4, 0x4b, 0xe7, 0x8f, 0xf9,
    0x11, 0x1b, 0x12, 0x03, 0xe6, 0x22, 0x2f, 0x0e, 0x1e, 0x39, 0x53, 0x21,
    0x3c, 0x0e, 0xab, 0x35, 0xa3, 0x35, 0xff, 0x03, 0x43, 0xc0, 0x42, 0x2b,
    0x44, 0xf5, 0xe2, 0x55, 0xdb, 0x23, 0xd1, 0xdc, 0xc5, 0xd6, 0xf3, 0xcc,
    0x22, 0x88, 0xa0, 0x2a, 0xb7, 0x24, 0xf6, 0xb7, 0x53, 0x02, 0xf7, 0xa9,
    0x18, 0xda, 0xce, 0xc4, 0xe2, 0xbc, 0x40, 0xa5, 0xa3, 0xdd, 0xf2, 0xc0,
    0xb6, 0x23, 0xdf, 0x1e, 0x26, 0xfd, 0x1a, 0x1d, 0x69, 0x26, 0x13, 0xcc,
    0x46, 0xf5, 0x12, 0x46, 0xe0, 0xea, 0xbe, 0xfc, 0x34, 0x3a, 0x9e, 0x0a,
    0x39, 0x5e, 0x9f, 0x38, 0x81, 0xf5, 0x0b, 0xcf, 0xdd, 0x24, 0x1d, 0xdb,
    0x1a, 0xc8, 0x36, 0x5e, 0x28, 0xf8, 0xe9, 0xbe, 0x2e, 0xa6, 0x5d, 0xd3,
    0xd1, 0xcd, 0x14, 0x55, 0xb1, 0x15, 0x30, 0x24, 0x4c, 0xdd, 0xa7, 0x59,
    0x56, 0xc2, 0x08, 0x48, 0xd1, 0x47, 0xb0, 0x4f, 0xf3, 0xc4, 0xda, 0x14,
    0x46, 0xd7, 0xf6, 0x0d, 0xb4, 0xd6, 0xc4, 0xc1, 0x9b, 0x4d, 0xea, 0x9f,
    0xf0, 0xe7, 0xd2, 0xf7, 0xd3, 0xda, 0x09, 0xb6, 0xaa, 0x61, 0xfe, 0xc1,
    0x2b, 0x90, 0x60, 0x45, 0xe4, 0xd9, 0x1b, 0x43, 0x09, 0xe1, 0x28, 0xff,
    0xd2, 0xae, 0x31, 0x0f, 0x1d, 0xa6, 0x08, 0xc2, 0x3e, 0xe1, 0xbd, 0x06,
    0xe1, 0x4b, 0xe8, 0xe6, 0xfe, 0x49, 0x1e, 0xe9, 0xf7, 0x46, 0xf5, 0x22,
    0x39, 0xca, 0x09, 0x38, 0x04, 0x3e, 0x55, 0x37, 0xeb, 0x0a, 0x71, 0x57,
    0x24, 0x1b, 0x6e, 0xf9, 0xe9, 0x59, 0x4e, 0x9c, 0xad, 0x51, 0xd3, 0xfb,
    0xc6, 0xee, 0xcc, 0x97, 0x4d, 0x11, 0x40, 0x12, 0xd2, 0xc9, 0x6f, 0x9f,
    0xab, 0xcf, 0x56, 0x03, 0x33, 0x0f, 0x03, 0xc5, 0xcc, 0x18, 0xec, 0x26,
    0x30, 0xd6, 0x6e, 0xc2, 0xbe, 0xc4, 0x57, 0xdc, 0x00, 0x1b, 0xf8, 0x1f,
    0x0c, 0xd2, 0x12, 0xaa, 0x20, 0xdd, 0x08, 0xf5, 0x14, 0xfd, 0xe2, 0xc4,
    0x1c, 0xea, 0xd1, 0xa8, 0xc8, 0x5b, 0xaf, 0xc1, 0x44, 0xc2, 0xf4, 0xc3,
    0x00, 0x69, 0x18, 0xd4, 0x39, 0xde, 0xfd, 0xa1, 0xd0, 0x62, 0x32, 0x54,
    0xe0, 0xcb, 0x1d, 0xf9, 0x4c, 0x38, 0x63, 0x29, 0xab, 0xbc, 0xe6, 0x0b,
    0x67, 0x21, 0xf8, 0x1c, 0xa6, 0xd5, 0x37, 0x5f, 0x9d, 0x0c, 0x62, 0x27,
    0xfd, 0x26, 0x02, 0xed, 0x1d, 0xb7, 0xce, 0x4e, 0xae, 0x68, 0xe1, 0x30,
    0xe3, 0xea, 0xe7, 0x36, 0xf9, 0xa2, 0x71, 0xc2, 0x78, 0x16, 0x05, 0xbe,
    0xba, 0xe4, 0xd1, 0x20, 0x83, 0xd6, 0xc4, 0x51, 0xb0, 0x21, 0xbe, 0xf2,
    0xca, 0xf3, 0xaa, 0x7f, 0xaa, 0x39, 0xff, 0x4b, 0xae, 0x62, 0xc3, 0x19,
    0xde, 0xa4, 0xbe, 0x3f, 0x02, 0xd1, 0x8f, 0xcd, 0x36, 0x31, 0x21, 0x5c,
    0x39, 0x1d, 0xf6, 0xcb, 0x23, 0xbe, 0x43, 0x97, 0xaf, 0x07, 0xc5, 0xe8,
    0x60, 0x2c, 0x30, 0x0f, 0xd9, 0x21, 0x04, 0x55, 0xf7, 0xdb, 0x31, 0xff,
    0xe3, 0x17, 0x68, 0x3a, 0x16, 0xa1, 0xa9, 0x75, 0xeb, 0x2b, 0x09, 0x38,
    0xd0, 0xce, 0x16, 0xc8, 0xa4, 0x01, 0xeb, 0xbf, 0xbb, 0x35, 0xcf, 0x1f,
    0x16, 0x1f, 0x03, 0xd6, 0x9a, 0xb8, 0x46, 0xac, 0x27, 0x38, 0xd9, 0x82,
    0xf6, 0xe4, 0xf8, 0xf9, 0x32, 0x9e, 0xcf, 0xef, 0xbf, 0x4e, 0xf1, 0x94,
    0x61, 0xd8, 0xb7, 0xb3, 0xa2, 0xc0, 0x46, 0xca, 0x5d, 0xcf, 0x4d, 0x1d,
    0x53, 0xc6, 0xee, 0xcd, 0xc1, 0xc7, 0xd5, 0x1a, 0xb0, 0x98, 0x04, 0x2f,
    0xc3, 0x2d, 0x86, 0xc2, 0xe4, 0x41, 0xf1, 0xdb, 0x81, 0x22, 0xcd, 0x08,
    0x33, 0xb2, 0xa6, 0x72, 0x3e, 0x9c, 0x9f, 0x45, 0xc0, 0xd4, 0xb0, 0x9c,
    0x4a, 0x25, 0x1b, 0x40, 0xd7, 0xcb, 0x16, 0x2e, 0xbf, 0xdd, 0xd0, 0xe0,
    0xeb, 0x58, 0x9d, 0xfa, 0x3c, 0x9f, 0x09, 0x23, 0x52, 0xc8, 0xe2, 0x2b,
    0xe9, 0xeb, 0x0e, 0xd1, 0xb5, 0x3a, 0x7e, 0xd0, 0xff, 0x00, 0x17, 0xb0,
    0xee, 0x34, 0x41, 0x2d, 0xa7, 0x10, 0xbf, 0xf6, 0xe9, 0x3d, 0xcf, 0xf5,
    0x98, 0x6d, 0xc3, 0xf9, 0xb1, 0x06, 0x53, 0x11, 0xe8, 0x53, 0xde, 0x61,
    0xdb, 0xfe, 0x7f, 0x99, 0x09, 0xae, 0xe0, 0xd7, 0xe2, 0xfd, 0x2b, 0x0d,
    0x27, 0x22, 0xa7, 0xac, 0xdc, 0xcc, 0x3e, 0x97, 0x19, 0xe3, 0x22, 0xff,
    0xbf, 0x47, 0x33, 0x11, 0x54, 0xb2, 0xfd, 0xed, 0xe0, 0xdf, 0x47, 0x11,
    0x12, 0x70, 0x2b, 0xbd, 0x35, 0x3a, 0x48, 0x60, 0x6e, 0x7e, 0x4f, 0xd8,
    0x38, 0x07, 0xf7, 0x03, 0x32, 0x5c, 0x94, 0x15, 0x1b, 0x38, 0xa2, 0xff,
    0x74, 0xa3, 0x08, 0x14, 0x45, 0x68, 0x72, 0x48, 0xe0, 0xcc, 0x3a, 0x2c,
    0x31, 0x12, 0xd8, 0x10, 0xf4, 0x10, 0xc7, 0x09, 0xb5, 0x59, 0xdb, 0xd6,
    0xe7, 0x3a, 0xf0, 0xea, 0xec, 0xc4, 0x16, 0x05, 0xed, 0xd5, 0xc7, 0xe5,
    0x20, 0x50, 0xb1, 0xa0, 0x0f, 0x5b, 0xe3, 0xae, 0x51, 0x4a, 0x1b, 0x05,
    0x2f, 0x22, 0x00, 0xcb, 0x06, 0xc5, 0xd8, 0xe6, 0xb1, 0x63, 0xc2, 0x0c,
    0xaa, 0x3a, 0xd1, 0x56, 0x2d, 0xd8, 0x4c, 0xd6, 0x02, 0xb5, 0x62, 0x20,
    0xb1, 0x08, 0x07, 0xfd, 0xbe, 0xf2, 0x5f, 0x01, 0x53, 0x48, 0xfe, 0x9b,
    0x0b, 0xbf, 0x6c, 0x48, 0x11, 0x0d, 0x1a, 0xde, 0xba, 0xd8, 0x50, 0x5e,
    0xc7, 0xbc, 0xd7, 0xc9, 0x08, 0xf2, 0x7f, 0x25, 0x3b, 0x21, 0x32, 0xdf,
    0xbf, 0x1e, 0xda, 0xd7, 0x00, 0x5e, 0x30, 0xc8, 0x10, 0xfa, 0xc0, 0xa0,
    0x07, 0xc7, 0x37, 0x68, 0x14, 0x1b, 0x4a, 0x41, 0x39, 0x00, 0xd8, 0x3d,
    0x02, 0xef, 0xd8, 0xf5, 0x1e, 0xf3, 0xe2, 0x5e, 0x4c, 0x3f, 0x0b, 0x23,
    0x5b, 0x09, 0x05, 0xdd, 0x16, 0x53, 0xf0, 0x18, 0xeb, 0xda, 0xd2, 0xef,
    0xde, 0x58, 0xf9, 0xf0, 0xc3, 0x20, 0x9c, 0x3d, 0x1c, 0x27, 0xf6, 0x36,
    0xe9, 0xeb, 0xcf, 0x45, 0xbc, 0xbb, 0x0e, 0x3e, 0x16, 0xaf, 0xcc, 0xb0,
    0x4e, 0x34, 0x53, 0xbf, 0xf9, 0x24, 0xe9, 0xc9, 0xf1, 0xc8, 0xcb, 0xd4,
    0xe9, 0x5f, 0x3e, 0x0a, 0x31, 0x7f, 0xb4, 0x15, 0x72, 0xf3, 0xf5, 0x61,
    0xf5, 0x28, 0xda, 0x24, 0xf3, 0x3d, 0x12, 0x25, 0xbb, 0x47, 0xa3, 0xe6,
    0x25, 0xcc, 0x24, 0xf7, 0xe2, 0x20, 0xf3, 0x10, 0xf3, 0x0f, 0xc4, 0xb1,
    0x25, 0xe5, 0xf8, 0xf4, 0x84, 0xdb, 0x09, 0xb7, 0x2c, 0x30, 0x44, 0xd5,
    0x56, 0xd2, 0xb0, 0xd0, 0xde, 0xba, 0x35, 0x1a, 0x68, 0xf5, 0x4b, 0xd3,
    0x31, 0xe8, 0xd1, 0x3d, 0x41, 0x46, 0x36, 0x13, 0x20, 0x07, 0x12, 0x2f,
    0x37, 0xf6, 0xf2, 0xef, 0xb2, 0xe8, 0x16, 0xba, 0x4a, 0xbc, 0xa1, 0xb2,
    0x3b, 0x64, 0x13, 0x10, 0xda, 0x9a, 0xd4, 0xdf, 0x06, 0xc3, 0x23, 0x07,
    0x4f, 0x5f, 0x10, 0xe2, 0xc8, 0xc6, 0xd2, 0x98, 0x2e, 0xf3, 0xf5, 0x4a,
    0xbb, 0xe2, 0xd9, 0xf5, 0xdf, 0x44, 0x25, 0xe0, 0x31, 0x07, 0xe7, 0xa0,
    0x31, 0x06, 0x46, 0xfd, 0x45, 0xd6, 0xca, 0x3b, 0x57, 0xec, 0x50, 0x98,
    0xe9, 0xf6, 0x19, 0x39, 0xe6, 0xd6, 0x28, 0x63, 0xbc, 0xc2, 0xba, 0x5c,
    0x62, 0xf2, 0xe3, 0xbf, 0x4a, 0xd7, 0x20, 0xd5, 0xd7, 0xa0, 0x33, 0xff,
    0x4d, 0x34, 0x07, 0x67, 0xc1, 0x2a, 0xbb, 0xac, 0x0e, 0xd8, 0xdc, 0xb2,
    0xf2, 0xb1, 0x47, 0xf8, 0x09, 0xc6, 0xea, 0xdb, 0xb8, 0xb6, 0xab, 0xec,
    0xbe, 0x29, 0x41, 0x28, 0x01, 0x2d, 0x05, 0x56, 0x34, 0x4c, 0x0d, 0x06,
    0xe0, 0xcc, 0x81, 0x1d, 0x1d, 0x4c, 0xc8, 0x41, 0xdd, 0x95, 0x4a, 0x0c,
    0x40, 0x9e, 0x13, 0xae, 0x57, 0xb4, 0xc1, 0x3f, 0xc5, 0xb5, 0x27, 0xbd,
    0xa7, 0xc9, 0x4e, 0xb0, 0xbb, 0x2d, 0xc5, 0xd9, 0x58, 0xf6, 0x2b, 0x2f,
    0x2e, 0xca, 0xb6, 0xaf, 0x2f, 0x8d, 0x31, 0xcd, 0xa0, 0xd7, 0x4d, 0x05,
    0xde, 0xec, 0xf6, 0x0e, 0xd3, 0x18, 0xfe, 0xe3, 0xde, 0xa7, 0xaa, 0xf0,
    0x26, 0xc5, 0x99, 0x01, 0x2a, 0xe3, 0xcd, 0xc5, 0xc7, 0x9b, 0x0c, 0x1c,
    0xbe, 0xba, 0x5b, 0xc8, 0xf6, 0xfa, 0x05, 0xfc, 0x3f, 0x4a, 0x3c, 0xe6,
    0x25, 0xa6, 0x06, 0x16, 0x1d, 0xaa, 0xf2, 0x06, 0xbe, 0xf1, 0xff, 0xff,
    0x04, 0x00, 0x00, 0x00, 0x40, 0x00, 0x00, 0x00, 0xad, 0x00, 0x00, 0x00,
    0x54, 0xfe, 0xff, 0xff, 0x34, 0x00, 0x00, 0x00, 0x65, 0xff, 0xff, 0xff,
    0x86, 0xfc, 0xff, 0xff, 0xaf, 0x00, 0x00, 0x00, 0x14, 0x0b, 0x00, 0x00,
    0x66, 0x06, 0x00, 0x00, 0x11, 0x03, 0x00, 0x00, 0xdc, 0xf9, 0xff, 0xff,
    0x20, 0x04, 0x00, 0x00, 0xa4, 0x04, 0x00, 0x00, 0x05, 0x0b, 0x00, 0x00,
    0xb2, 0x01, 0x00, 0x00, 0xb8, 0xfe, 0xff, 0xff, 0x3d, 0x01, 0x00, 0x00,
    0x0a, 0xf2, 0xff, 0xff, 0x04, 0x00, 0x00, 0x00, 0x90, 0x00, 0x00, 0x00,
    0x81, 0x81, 0x18, 0xd1, 0xae, 0x46, 0x64, 0xd0, 0x11, 0x7f, 0x45, 0x19,
    0x2c, 0x3a, 0xbf, 0x13, 0xfd, 0x92, 0xdb, 0x05, 0x10, 0xc5, 0xb5, 0x3a,
    0x28, 0xf6, 0xf0, 0x41, 0x3d, 0xd1, 0x9e, 0xdc, 0xc3, 0xd1, 0x7f, 0x90,
    0xcc, 0xe8, 0x1e, 0xc6, 0xe7, 0x57, 0xb1, 0x99, 0x5c, 0x64, 0x23, 0x33,
    0x04, 0x1a, 0x39, 0xad, 0xd4, 0x5d, 0x7f, 0x97, 0xe2, 0xc3, 0xd9, 0x6d,
    0x61, 0xcb, 0x65, 0xb6, 0x8e, 0x31, 0x99, 0x81, 0xa8, 0xe9, 0xe3, 0x9e,
    0x46, 0x3f, 0x84, 0x81, 0x81, 0x5d, 0x7f, 0x1c, 0xc6, 0xab, 0x5e, 0x3d,
    0xb5, 0x7f, 0x65, 0xac, 0x3b, 0xf2, 0x5b, 0x3a, 0x63, 0xdc, 0xb6, 0x7f,
    0xde, 0x48, 0xbb, 0x36, 0xb2, 0x45, 0x0d, 0x81, 0x8c, 0xb6, 0xf3, 0x21,
    0x4a, 0x81, 0x98, 0x95, 0x03, 0x1d, 0x6d, 0xa7, 0x95, 0xfd, 0x5d, 0x86,
    0x81, 0x46, 0x81, 0xd5, 0x23, 0x63, 0xee, 0xff, 0xbb, 0x0c, 0x9d, 0x27,
    0x81, 0xef, 0x62, 0xdc, 0x0c, 0x42, 0xab, 0x11, 0x49, 0xf2, 0x62, 0x47,
    0xa6, 0xf2, 0xff, 0xff, 0x04, 0x00, 0x00, 0x00, 0x40, 0x00, 0x00, 0x00,
    0xf1, 0x07, 0x00, 0x00, 0x70, 0x02, 0x00, 0x00, 0xa6, 0xfd, 0xff, 0xff,
    0x47, 0x06, 0x00, 0x00, 0x4e, 0x0c, 0x00, 0x00, 0x52, 0xfc, 0xff, 0xff,
    0x45, 0xf9, 0xff, 0xff, 0x29, 0x0b, 0x00, 0x00, 0xec, 0x00, 0x00, 0x00,
    0x01, 0xfe, 0xff, 0xff, 0x59, 0x06, 0x00, 0x00, 0x3a, 0x00, 0x00, 0x00,
    0xf4, 0xf8, 0xff, 0xff, 0x93, 0xfd, 0xff, 0xff, 0xfc, 0xfd, 0xff, 0xff,
    0x0f, 0xfc, 0xff, 0xff, 0xf2, 0xf2, 0xff, 0xff, 0x04, 0x00, 0x00, 0x00,
    0x00, 0x01, 0x00, 0x00, 0x06, 0xe3, 0xab, 0x0d, 0x7f, 0x3f, 0xfb, 0x8a,
    0x08, 0xa7, 0xc0, 0xc8, 0xac, 0x61, 0xb6, 0x2b, 0x16, 0x1c, 0xd1, 0xa4,
    0x7f, 0x45, 0x4d, 0xd9, 0x54, 0xb7, 0x5c, 0x8c, 0x7e, 0x43, 0x89, 0x50,
    0x14, 0x9e, 0x4c, 0xdf, 0xf3, 0x8f, 0x6d, 0xf1, 0xce, 0x4f, 0x95, 0xf7,
    0x4c, 0x7f, 0xe0, 0xd8, 0x34, 0x7f, 0x35, 0x95, 0x92, 0x68, 0xb8, 0x26,
    0xdc, 0xd9, 0xb9, 0x3d, 0x60, 0x0e, 0x7d, 0xab, 0xc2, 0xce, 0x0c, 0x8f,
    0x01, 0x4c, 0x06, 0xb0, 0x0a, 0x97, 0x0b, 0xe3, 0x87, 0xe1, 0x44, 0x7f,
    0x81, 0x42, 0xd6, 0xbc, 0xee, 0xe2, 0x67, 0x37, 0x18, 0xf1, 0x1d, 0x20,
    0x9e, 0x22, 0xde, 0x3b, 0x68, 0xa3, 0xa2, 0xdb, 0x6c, 0xcd, 0xb8, 0x81,
    0xac, 0xb2, 0xb5, 0xf0, 0xcc, 0xf9, 0x14, 0x8c, 0xea, 0xde, 0x16, 0x81,
    0x89, 0x5c, 0x39, 0x20, 0x1f, 0x40, 0xd4, 0xe4, 0x9f, 0x2f, 0x2e, 0x40,
    0x7f, 0xe1, 0xae, 0x22, 0x6b, 0xe6, 0xb8, 0x0b, 0xca, 0xb4, 0x2a, 0x1e,
    0x32, 0xb9, 0xbc, 0xff, 0x4f, 0x04, 0x53, 0x3c, 0x7f, 0x0a, 0x0b, 0x89,
    0xe2, 0x41, 0x34, 0x47, 0xb2, 0x7c, 0xf6, 0xfd, 0xdb, 0x03, 0xcf, 0x00,
    0xb3, 0xf0, 0x06, 0x7f, 0xa0, 0xfe, 0x3e, 0x23, 0x94, 0xaf, 0x39, 0x1a,
    0x48, 0x7f, 0x56, 0x90, 0xf5, 0x45, 0xf6, 0x76, 0xfc, 0x0d, 0x78, 0xfc,
    0xde, 0x38, 0xa5, 0x5d, 0xf2, 0x7f, 0x32, 0xc0, 0x24, 0xd0, 0xe0, 0x21,
    0x97, 0x03, 0x70, 0xd2, 0xef, 0x31, 0xce, 0x39, 0xc6, 0xd9, 0x4e, 0x69,
    0x86, 0x7f, 0xe0, 0xdb, 0xb1, 0xf2, 0x5c, 0x05, 0x14, 0xbc, 0x36, 0x15,
    0x81, 0xa4, 0xfd, 0x01, 0xc4, 0x29, 0xf5, 0x65, 0x4d, 0x48, 0xb0, 0xa5,
    0x97, 0x33, 0x10, 0x11, 0x10, 0xa6, 0x36, 0x81, 0xa6, 0x57, 0xd8, 0x92,
    0xc9, 0x41, 0x43, 0x4b, 0xc7, 0x96, 0x01, 0x4c, 0xfe, 0xf3, 0xff, 0xff,
    0x04, 0x00, 0x00, 0x00, 0x40, 0x00, 0x00, 0x00, 0x21, 0x0b, 0x00, 0x00,
    0x72, 0xf4, 0xff, 0xff, 0x92, 0x00, 0x00, 0x00, 0xbb, 0xfb, 0xff, 0xff,
    0xa1, 0x0e, 0x00, 0x00, 0x52, 0x04, 0x00, 0x00, 0x27, 0x1e, 0x00, 0x00,
    0x63, 0x02, 0x00, 0x00, 0x83, 0xfe, 0xff, 0xff, 0xd1, 0xe9, 0xff, 0xff,
    0x61, 0x04, 0x00, 0x00, 0xf4, 0xe8, 0xff, 0xff, 0x91, 0xfb, 0xff, 0xff,
    0xb2, 0xfb, 0xff, 0xff, 0x97, 0x09, 0x00, 0x00, 0x0d, 0x0b, 0x00, 0x00,
    0x4a, 0xf4, 0xff, 0xff, 0x04, 0x00, 0x00, 0x00, 0x00, 0x08, 0x00, 0x00,
    0xd4, 0xa4, 0xb3, 0xd7, 0xcf, 0x5c, 0xd3, 0x4b, 0xe0, 0xcb, 0xc2, 0x4f,
    0xc4, 0x69, 0xd3, 0xf1, 0xd8, 0x14, 0x52, 0x74, 0x23, 0x3b, 0xb5, 0xce,
    0xe0, 0x3e, 0x40, 0x50, 0xcb, 0xde, 0xec, 0x49, 0xff, 0xc5, 0x9e, 0xb3,
    0xac, 0xe4, 0xeb, 0x39, 0xc1, 0x0d, 0x40, 0x5f, 0x29, 0xd9, 0x0a, 0x3b,
    0x0b, 0x9e, 0xe0, 0x65, 0x71, 0x75, 0xd0, 0x2f, 0x0d, 0xf4, 0xb4, 0x76,
    0x3f, 0x6f, 0xb9, 0xe8, 0x75, 0x5c, 0x16, 0xc7, 0x89, 0xbc, 0xd5, 0xcd,
    0x68, 0xd2, 0x06, 0xd3, 0xb8, 0xf6, 0x88, 0xa7, 0x8c, 0xe9, 0xc5, 0x0d,
    0x16, 0x23, 0xf1, 0x22, 0x48, 0x99, 0x4d, 0xdc, 0xd2, 0x5a, 0xf5, 0xbc,
    0x03, 0x16, 0x5a, 0xca, 0xe3, 0x00, 0xf5, 0x20, 0x14, 0xde, 0xfc, 0xc1,
    0x03, 0xf0, 0xc1, 0x11, 0xfa, 0xd2, 0x28, 0xd0, 0xb6, 0x3d, 0x59, 0xe7,
    0x43, 0xc1, 0xe9, 0xca, 0x46, 0xac, 0x03, 0xb2, 0xf0, 0xba, 0xbc, 0x04,
    0xf5, 0xde, 0xc2, 0xb2, 0x0e, 0xe3, 0x48, 0x2f, 0x65, 0x7c, 0x72, 0xc1,
    0x3b, 0x95, 0xfa, 0x12, 0x34, 0xb3, 0xf9, 0x67, 0xf8, 0xbd, 0x33, 0xf6,
    0x0d, 0x28, 0x64, 0xb1, 0x4d, 0x1d, 0xa1, 0xaa, 0xe7, 0x43, 0xbe, 0x0a,
    0xf4, 0xa3, 0x5f, 0x10, 0x3d, 0xbf, 0x31, 0x24, 0xe0, 0x3d, 0x38, 0x8c,
    0xf5, 0xe1, 0xe2, 0xb3, 0xb2, 0xdf, 0xfa, 0xaa, 0x05, 0xec, 0xb7, 0xbf,
    0x9b, 0x36, 0xda, 0x27, 0x3f, 0xf7, 0x49, 0xea, 0xf5, 0x1f, 0x64, 0x71,
    0x67, 0x4a, 0xf3, 0x7a, 0xfb, 0x31, 0x33, 0x6a, 0x2c, 0x60, 0x31, 0x43,
    0xbf, 0x9f, 0xc6, 0x57, 0x20, 0xfd, 0x3e, 0xe2, 0x93, 0x94, 0xdc, 0x51,
    0x30, 0x5b, 0xed, 0xca, 0x18, 0x3c, 0x0f, 0x1a, 0xda, 0x2e, 0xd6, 0xf7,
    0xc9, 0x4b, 0xc7, 0xb1, 0xbe, 0x03, 0x64, 0x40, 0x11, 0x4a, 0xc7, 0xc9,
    0x9a, 0xcf, 0x90, 0x54, 0xe9, 0x4b, 0x3d, 0x42, 0x45, 0x0b, 0x20, 0x11,
    0xbd, 0x43, 0xd5, 0x1c, 0x46, 0x05, 0xf6, 0xf7, 0xeb, 0x9c, 0xa8, 0xd2,
    0xfa, 0x45, 0x9d, 0x24, 0xf0, 0xb0, 0x11, 0x68, 0x5d, 0xd6, 0x58, 0xa8,
    0x45, 0xd6, 0x10, 0xea, 0x47, 0xcf, 0xcf, 0xc4, 0x2e, 0x56, 0x47, 0xc7,
    0xe9, 0xac, 0x4c, 0xce, 0xd9, 0x9c, 0xe0, 0xee, 0x37, 0x44, 0x46, 0xec,
    0xc4, 0xd5, 0xef, 0x75, 0x54, 0xc9, 0xae, 0x6e, 0xd2, 0xcc, 0x14, 0xe7,
    0x10, 0x24, 0x55, 0xd0, 0x06, 0x25, 0x9a, 0x35, 0xcf, 0xc4, 0xb9, 0xe8,
    0xe9, 0x52, 0xea, 0xc2, 0x45, 0x05, 0xe8, 0x09, 0x69, 0xc6, 0x01, 0xfc,
    0x1e, 0x9a, 0xcb, 0xd4, 0x4e, 0x04, 0x08, 0xab, 0x88, 0x13, 0xc0, 0x33,
    0x71, 0x43, 0x25, 0xa2, 0x82, 0xf2, 0xed, 0x0d, 0xc3, 0xf8, 0xbd, 0xbf,
    0x29, 0xa9, 0x48, 0xff, 0x30, 0x95, 0x18, 0x55, 0xba, 0x2a, 0x04, 0x15,
    0xf4, 0xca, 0x26, 0x6c, 0xc1, 0x71, 0xab, 0xc1, 0x9b, 0x36, 0x5a, 0x57,
    0x50, 0x66, 0xbc, 0x5a, 0x0d, 0x9b, 0xc4, 0xc0, 0x72, 0x2b, 0xee, 0x65,
    0x93, 0xa8, 0xdc, 0x59, 0x6d, 0x2a, 0xed, 0xbc, 0x50, 0xc7, 0x2c, 0x77,
    0xcc, 0x70, 0xad, 0xf2, 0xdf, 0xa7, 0x2c, 0x37, 0x0d, 0x44, 0x56, 0x32,
    0x79, 0x56, 0xfc, 0xc7, 0x99, 0x4b, 0x37, 0x58, 0xb0, 0x4c, 0x30, 0xae,
    0x86, 0xe8, 0xd3, 0x9c, 0x55, 0xf7, 0x32, 0xad, 0x91, 0xf8, 0x30, 0xc7,
    0x56, 0x00, 0xaf, 0xd7, 0x01, 0x2a, 0x43, 0x3d, 0xdc, 0x4d, 0xfe, 0x2d,
    0xdd, 0x1e, 0x6a, 0xc0, 0x02, 0x57, 0x8e, 0xf4, 0xa2, 0x0a, 0xec, 0xc8,
    0xc3, 0x1e, 0x16, 0xc6, 0x32, 0x19, 0xe7, 0x43, 0x28, 0xeb, 0x1e, 0x11,
    0x51, 0x1b, 0x3a, 0xea, 0x9b, 0x0a, 0xad, 0xe9, 0x65, 0x58, 0x21, 0xdf,
    0xdd, 0xad, 0xb8, 0x12, 0xb9, 0xc2, 0xfa, 0x26, 0xae, 0x6c, 0x59, 0xb9,
    0x9f, 0xe3, 0x0a, 0xd3, 0x33, 0x71, 0x40, 0x4b, 0x8d, 0x96, 0x3a, 0xd0,
    0x9c, 0xd7, 0x28, 0xd4, 0x00, 0xe0, 0x0e, 0xf3, 0xe6, 0xff, 0xad, 0x67,
    0x66, 0x54, 0x44, 0x46, 0x2e, 0x22, 0x40, 0x08, 0x30, 0x57, 0xbb, 0x58,
    0xde, 0xe6, 0xc1, 0x45, 0x2b, 0xa3, 0x13, 0x49, 0xe5, 0xde, 0xdc, 0xe1,
    0xd7, 0x33, 0x8d, 0xd4, 0x52, 0x49, 0x67, 0x3a, 0xf9, 0x64, 0x1e, 0x2b,
    0xa8, 0x49, 0x90, 0xe8, 0x05, 0x37, 0x31, 0xe0, 0x58, 0xb5, 0xb6, 0x47,
    0x49, 0x3f, 0xf8, 0x0e, 0x16, 0x0b, 0x38, 0xba, 0xd0, 0xc8, 0xdb, 0x6e,
    0x98, 0x3c, 0x07, 0x6f, 0xec, 0x1a, 0xc0, 0xe6, 0xf9, 0x75, 0x2c, 0x3c,
    0xa8, 0x1f, 0x00, 0xb1, 0x47, 0x60, 0x10, 0x08, 0xb2, 0xa9, 0x8f, 0xe9,
    0xcb, 0xaa, 0xa2, 0xd7, 0x61, 0xbb, 0x1e, 0x61, 0xdb, 0xf1, 0xae, 0x33,
    0xc3, 0x42, 0xd1, 0x22, 0x24, 0x04, 0x8e, 0x60, 0xd2, 0xbb, 0xe4, 0x1b,
    0xcf, 0xad, 0x6f, 0x64, 0xed, 0xe5, 0x77, 0x11, 0xae, 0xc2, 0xf0, 0xfa,
    0xe0, 0xd5, 0x1e, 0x99, 0xf4, 0x54, 0xd8, 0xe5, 0xfa, 0x9b, 0xd6, 0xb1,
    0xff, 0xe4, 0xa2, 0x39, 0xb7, 0xd7, 0xed, 0xd4, 0xb9, 0x88, 0x04, 0x19,
    0xdb, 0x52, 0x19, 0x59, 0xdd, 0xa7, 0x29, 0xf1, 0x1d, 0x43, 0xe3, 0x6f,
    0x9b, 0xa9, 0x2a, 0xbc, 0xf6, 0xe6, 0x38, 0xab, 0xca, 0xd0, 0x51, 0x4a,
    0x94, 0x55, 0xbb, 0xa5, 0xb2, 0x2a, 0x40, 0xea, 0xdd, 0x1b, 0x21, 0xd0,
    0x15, 0x36, 0x04, 0xf7, 0xa9, 0x53, 0x27, 0x95, 0x3c, 0x70, 0x4f, 0xb2,
    0xae, 0x8e, 0xee, 0xb0, 0xe5, 0x35, 0x21, 0x3c, 0x16, 0x3b, 0xed, 0x0c,
    0xed, 0xef, 0x25, 0x3c, 0x76, 0x3c, 0x71, 0xce, 0xdb, 0x26, 0xbe, 0x52,
    0x12, 0x6e, 0x08, 0x35, 0xdb, 0xd2, 0xf6, 0x34, 0x34, 0xec, 0x3f, 0x0a,
    0x0c, 0xa1, 0x14, 0x0d, 0x6d, 0xef, 0xba, 0x6b, 0xd1, 0x3f, 0x6c, 0x2d,
    0xce, 0xdf, 0xf5, 0x14, 0x56, 0x3a, 0xad, 0x32, 0x9b, 0xc4, 0xa7, 0xaf,
    0xc1, 0x41, 0x2a, 0x35, 0x27, 0x52, 0xe8, 0xa2, 0x58, 0x4b, 0xc6, 0xed,
    0x47, 0xc5, 0x19, 0x8f, 0x1c, 0x72, 0x97, 0x14, 0xfb, 0x8e, 0xcc, 0xa7,
    0x25, 0x00, 0x2f, 0xbe, 0x0f, 0xf6, 0x5b, 0xb9, 0x14, 0xdb, 0x97, 0x8b,
    0x03, 0xb6, 0xca, 0x06, 0x36, 0xcc, 0x76, 0x0d, 0x46, 0xf8, 0x74, 0x9c,
    0xbf, 0x6b, 0x0d, 0xc9, 0x88, 0xc8, 0x90, 0x43, 0xbf, 0x02, 0x27, 0xec,
    0xab, 0x47, 0x0e, 0x55, 0xd6, 0x17, 0x4e, 0x22, 0x48, 0xb4, 0xa2, 0x48,
    0x57, 0x4a, 0xc4, 0xf2, 0x94, 0xf8, 0xe0, 0x00, 0xc1, 0xe7, 0xaf, 0xce,
    0xbb, 0xc0, 0xad, 0x8a, 0x49, 0xdf, 0x0f, 0x0e, 0xe5, 0x21, 0xb7, 0x53,
    0xee, 0xd1, 0x5d, 0xb8, 0x4a, 0x28, 0xbf, 0x26, 0xdd, 0xf6, 0x74, 0x98,
    0xfb, 0x37, 0xd9, 0xd8, 0xc9, 0x43, 0x8e, 0x47, 0xad, 0x91, 0x0b, 0x30,
    0x26, 0xbf, 0xf9, 0x4d, 0xee, 0x52, 0xf6, 0x20, 0x15, 0x51, 0x1e, 0x1f,
    0x7a, 0x58, 0xf5, 0x36, 0xfd, 0x55, 0x04, 0x4d, 0x3f, 0x0c, 0x00, 0xa8,
    0x1f, 0x13, 0x74, 0x29, 0x42, 0x6d, 0x4c, 0x34, 0x94, 0x2e, 0xac, 0x54,
    0x52, 0x51, 0x8f, 0x65, 0xb0, 0x52, 0xde, 0xe8, 0xf1, 0x56, 0x4b, 0xb5,
    0xc7, 0xff, 0xc3, 0x17, 0xd3, 0x1c, 0x24, 0x16, 0x09, 0xdb, 0xf1, 0xd4,
    0x34, 0x02, 0x4d, 0x28, 0xd2, 0xfb, 0xca, 0xaa, 0xd1, 0x0d, 0xda, 0x4e,
    0xbc, 0x48, 0xea, 0x4a, 0xf6, 0xdd, 0xd0, 0x18, 0x9a, 0x0d, 0x93, 0x4d,
    0x2c, 0xe6, 0xe6, 0xa7, 0xbe, 0xab, 0xce, 0x22, 0xdb, 0x3e, 0x33, 0x34,
    0x18, 0xb5, 0x9a, 0xbc, 0x44, 0x35, 0x48, 0xe1, 0xfc, 0xd3, 0x32, 0xe2,
    0x2d, 0xcb, 0xbc, 0x1f, 0x34, 0x88, 0xba, 0xf5, 0x41, 0x49, 0xf9, 0x12,
    0x3f, 0x8c, 0x32, 0xba, 0xbd, 0x22, 0xd8, 0xc1, 0xdd, 0xb1, 0xb1, 0x29,
    0xd3, 0x76, 0xd0, 0xc0, 0xd0, 0xf6, 0x60, 0x29, 0x71, 0xcf, 0x2f, 0x27,
    0xd4, 0x20, 0xec, 0x9c, 0x53, 0xb9, 0xf4, 0xb4, 0x7a, 0x21, 0x00, 0xb9,
    0xd4, 0xf4, 0x11, 0x8e, 0xf8, 0x6e, 0xc6, 0xb3, 0x87, 0x53, 0xf6, 0x31,
    0x74, 0x0b, 0xa6, 0x93, 0xd6, 0x20, 0x0f, 0xc8, 0x03, 0x54, 0xfe, 0x6c,
    0x5c, 0x65, 0xac, 0x24, 0x33, 0xbd, 0x4d, 0x43, 0x29, 0x2e, 0x26, 0x4c,
    0xb3, 0xb9, 0xc8, 0x59, 0x5d, 0x48, 0xc5, 0xdf, 0xa2, 0x45, 0xaa, 0x57,
    0x0a, 0xf7, 0xdc, 0x0a, 0xe8, 0x46, 0x51, 0x27, 0x42, 0x09, 0x23, 0xf0,
    0xc7, 0xdd, 0x56, 0x04, 0x3e, 0xf7, 0x12, 0xbd, 0xe8, 0x16, 0xc3, 0x5f,
    0xf7, 0x31, 0x52, 0x66, 0xe7, 0xc0, 0x60, 0xea, 0x24, 0xd8, 0xbc, 0x34,
    0xfe, 0x28, 0x55, 0x0f, 0xd0, 0xdc, 0xe2, 0x51, 0xfd, 0x57, 0x32, 0x49,
    0xc3, 0x46, 0x44, 0x5a, 0xbd, 0xa5, 0xac, 0x0f, 0x50, 0xac, 0xcc, 0xf1,
    0xb0, 0xd7, 0x22, 0xd5, 0xbe, 0x5f, 0xf3, 0xf1, 0x48, 0x47, 0x79, 0x44,
    0x02, 0x2a, 0xd8, 0xd1, 0x20, 0x1e, 0x4e, 0xf3, 0xe6, 0x81, 0xc6, 0x86,
    0xf9, 0xc9, 0x00, 0x58, 0x37, 0xe5, 0x26, 0xd1, 0x07, 0xaa, 0xf8, 0xcd,
    0x15, 0x1d, 0xdb, 0x65, 0x64, 0x7b, 0x3b, 0x11, 0x03, 0xe7, 0x7e, 0xae,
    0xd7, 0x54, 0xee, 0xda, 0xba, 0x1d, 0xb6, 0x4b, 0x61, 0x41, 0xaa, 0x8c,
    0x0e, 0xf6, 0xcc, 0x90, 0xb7, 0xc4, 0xf5, 0xb4, 0xd5, 0xc8, 0x9f, 0x93,
    0x9c, 0x46, 0x27, 0x28, 0xcf, 0xa7, 0xc2, 0x16, 0xe9, 0x04, 0xc8, 0xda,
    0x27, 0x0a, 0x55, 0x17, 0x49, 0xc6, 0xe5, 0xc5, 0x4f, 0xbb, 0xf0, 0x26,
    0x58, 0xd9, 0xa3, 0xf7, 0x99, 0x98, 0x2a, 0x15, 0x77, 0xa6, 0xfb, 0x2a,
    0x41, 0x1b, 0x07, 0x23, 0x54, 0x35, 0xe9, 0xf8, 0x8d, 0xb1, 0x0d, 0x2e,
    0x06, 0x3e, 0xb1, 0xfc, 0xa4, 0x8e, 0x75, 0xdb, 0xf2, 0x44, 0x37, 0xf4,
    0x28, 0xa5, 0xae, 0xca, 0x52, 0xa1, 0x5c, 0x61, 0xcc, 0x51, 0x1f, 0x0e,
    0x3d, 0x92, 0x28, 0xc7, 0x5f, 0xe8, 0xb7, 0xea, 0x08, 0x07, 0xb9, 0xac,
    0x15, 0x17, 0x04, 0x4a, 0xfe, 0x21, 0xcd, 0x07, 0x14, 0x95, 0xc4, 0xa8,
    0xb6, 0xa8, 0x71, 0x9f, 0xa5, 0xfe, 0xd6, 0xc3, 0x0e, 0x44, 0xe3, 0xa6,
    0xa3, 0x54, 0x55, 0xd6, 0xa2, 0x55, 0x3e, 0x1b, 0x5a, 0xa8, 0xb2, 0x2a,
    0x97, 0x08, 0x52, 0xab, 0x4a, 0x3f, 0xaa, 0x6d, 0xd2, 0x12, 0xb8, 0x8c,
    0x93, 0xbd, 0x68, 0xa8, 0x00, 0x5d, 0x9c, 0x35, 0x89, 0x2f, 0xce, 0xee,
    0xad, 0x0b, 0x1e, 0x3f, 0xdf, 0xa3, 0xa0, 0x0d, 0xac, 0xa3, 0x25, 0xb4,
    0x18, 0xf2, 0xbf, 0x47, 0xe7, 0xfb, 0xcd, 0xc9, 0x6e, 0x24, 0x57, 0x3a,
    0xbf, 0x2d, 0x4a, 0x33, 0x39, 0x3a, 0xc7, 0x04, 0xe1, 0x2f, 0x97, 0x1e,
    0xa5, 0xc7, 0x0a, 0xfa, 0x53, 0xc6, 0xd5, 0xbb, 0xd8, 0x2f, 0x19, 0x70,
    0x50, 0x32, 0xd0, 0x8e, 0xc6, 0x20, 0x3f, 0xd2, 0x62, 0xd2, 0x91, 0x99,
    0x12, 0x1f, 0xe1, 0xf7, 0x5e, 0xc1, 0x15, 0xb2, 0xf5, 0x09, 0x1b, 0xff,
    0xca, 0x1a, 0xb1, 0x62, 0x13, 0xd2, 0xad, 0x18, 0xcd, 0x4e, 0x0a, 0xd9,
    0xd9, 0x04, 0x97, 0x3f, 0xed, 0x36, 0xac, 0x74, 0xbf, 0x1b, 0x0b, 0x33,
    0x7b, 0x0c, 0x05, 0x22, 0x97, 0x3e, 0x28, 0xcc, 0x44, 0x22, 0x14, 0xc7,
    0xe3, 0xb2, 0xf1, 0xa1, 0x14, 0x9e, 0xe3, 0x25, 0x34, 0xb9, 0x4c, 0xff,
    0xd5, 0xe1, 0x3f, 0x1c, 0x98, 0x2c, 0xe8, 0x27, 0xad, 0xdd, 0x6e, 0xdb,
    0x4f, 0x99, 0x19, 0x19, 0xdc, 0x30, 0xd2, 0xf4, 0xe0, 0xe6, 0x50, 0xce,
    0x17, 0xe8, 0x8b, 0x26, 0x36, 0x4c, 0x17, 0x75, 0x29, 0x11, 0x0b, 0xce,
    0xea, 0xc3, 0x68, 0x0a, 0x5d, 0xa5, 0x99, 0xfc, 0xa4, 0xfc, 0x13, 0x38,
    0x55, 0x62, 0xf4, 0xb6, 0xca, 0x28, 0x57, 0xa9, 0x88, 0x0b, 0x09, 0x74,
    0xc8, 0xcf, 0xef, 0xca, 0x93, 0x01, 0x77, 0x3e, 0x51, 0x79, 0x2b, 0x30,
    0xf7, 0x12, 0x51, 0x2b, 0xc9, 0x2d, 0xf6, 0xff, 0xf9, 0x6b, 0x57, 0xbc,
    0xe4, 0x0d, 0xa9, 0x30, 0xa6, 0xe9, 0x32, 0x38, 0x21, 0x55, 0x3f, 0x42,
    0xf2, 0x05, 0x0d, 0x54, 0x1a, 0x1b, 0xae, 0x45, 0x4e, 0xe8, 0x08, 0x20,
    0x09, 0x27, 0xcd, 0x0b, 0x2b, 0x2e, 0xfc, 0x6f, 0xc8, 0x4a, 0x4b, 0x2f,
    0x18, 0x91, 0xee, 0x2b, 0x2c, 0x26, 0x9c, 0xe3, 0x17, 0xd1, 0x60, 0x5c,
    0xd8, 0xe1, 0xab, 0x1b, 0xb5, 0xa8, 0x98, 0x72, 0x4a, 0xe1, 0x98, 0xb1,
    0xcd, 0x1c, 0x10, 0x73, 0xbe, 0x03, 0x01, 0x02, 0xf9, 0xab, 0xf4, 0xc8,
    0x5f, 0x5c, 0xcf, 0x2b, 0xf6, 0x0e, 0x27, 0x2e, 0x5d, 0xa8, 0xf8, 0xfe,
    0xfa, 0xcb, 0x3d, 0xb9, 0xe8, 0x4e, 0x74, 0xbe, 0x29, 0x10, 0xb7, 0xdf,
    0x81, 0xa2, 0x9d, 0xe0, 0x03, 0xc8, 0xdd, 0xac, 0xf0, 0x5f, 0xba, 0x55,
    0xde, 0xc6, 0x11, 0x44, 0x76, 0x30, 0x3c, 0x3e, 0xf6, 0xd6, 0xea, 0x1a,
    0x32, 0xc9, 0xcf, 0x5a, 0xe5, 0x47, 0x51, 0x48, 0xd6, 0xf3, 0x05, 0x16,
    0x23, 0x24, 0x3d, 0xa6, 0xe3, 0xde, 0xe6, 0x1d, 0xc8, 0x16, 0x8d, 0x38,
    0x27, 0xf0, 0x07, 0xf8, 0x93, 0xb1, 0xa7, 0x02, 0x73, 0x07, 0xc1, 0x61,
    0xd8, 0xa9, 0x68, 0x5b, 0x0b, 0x3b, 0xc6, 0x3b, 0x9e, 0xad, 0x28, 0xfa,
    0x66, 0x05, 0xde, 0xf7, 0xc2, 0xdd, 0xfe, 0x48, 0x36, 0xcb, 0x54, 0xf1,
    0xb4, 0xae, 0x50, 0x40, 0xbf, 0xb3, 0xe9, 0x37, 0x15, 0xee, 0x56, 0x2d,
    0xb6, 0xd7, 0xed, 0x76, 0x1b, 0xfd, 0x53, 0xa2, 0x09, 0xbb, 0x0b, 0xd4,
    0xd8, 0xca, 0xf3, 0x05, 0xcf, 0xe1, 0xc2, 0x5b, 0xa3, 0xf9, 0x56, 0xdd,
    0xab, 0x23, 0xf6, 0xee, 0x0c, 0x2c, 0x1a, 0x61, 0x2b, 0x50, 0x6a, 0xbb,
    0xce, 0x57, 0x5f, 0xce, 0x29, 0x9d, 0xc4, 0xa9, 0x0a, 0x6d, 0xcb, 0xb1,
    0x0d, 0x23, 0x45, 0x56, 0xde, 0x17, 0xa4, 0xb9, 0xe3, 0xf7, 0x17, 0xeb,
    0x8e, 0xe1, 0x2e, 0xcc, 0xc6, 0x3c, 0x30, 0x5e, 0x95, 0xe3, 0x32, 0x1f,
    0x4d, 0x0e, 0xd2, 0xb8, 0x02, 0xeb, 0x42, 0x69, 0xde, 0xd2, 0x67, 0x39,
    0xf8, 0xf7, 0x49, 0x4a, 0x30, 0xbb, 0xc8, 0x1b, 0x43, 0x61, 0xfc, 0x5b,
    0x51, 0x1c, 0x50, 0xfd, 0x9c, 0xf8, 0x3b, 0x34, 0x4e, 0xe0, 0x3e, 0xb4,
    0x58, 0xd2, 0xd8, 0xba, 0x54, 0xf9, 0x5d, 0x06, 0x0a, 0x35, 0xd7, 0x00,
    0xe0, 0xa4, 0x55, 0xbd, 0xd4, 0x23, 0x08, 0xe2, 0x30, 0x86, 0x9c, 0x10,
    0xe8, 0x2a, 0x5c, 0x38, 0xb2, 0xba, 0xe4, 0xf1, 0x33, 0x29, 0x40, 0x45,
    0x33, 0x16, 0xa8, 0x03, 0xaf, 0xc6, 0xa4, 0xc7, 0x67, 0x2e, 0xd8, 0xf6,
    0xc0, 0xca, 0xc9, 0x54, 0xf5, 0xf1, 0x48, 0x54, 0x74, 0x60, 0x4b, 0x23,
    0xf6, 0xac, 0x37, 0xcf, 0x15, 0x59, 0xc1, 0x2c, 0xdf, 0x3c, 0x15, 0x38,
    0x39, 0x25, 0x1e, 0x55, 0xa7, 0x1d, 0x2e, 0x52, 0x51, 0xce, 0x08, 0xff,
    0xde, 0x2d, 0x08, 0x3b, 0xcf, 0x2f, 0xe0, 0xc4, 0xfe, 0x54, 0xbe, 0x34,
    0xf2, 0x9c, 0xc6, 0xfd, 0x28, 0xe3, 0x7a, 0x2c, 0x26, 0x1f, 0x32, 0x96,
    0xb4, 0xe1, 0x09, 0x18, 0x1a, 0x70, 0x46, 0xc0, 0x43, 0xe0, 0xd7, 0x50,
    0x1b, 0xdf, 0xff, 0xc9, 0xdc, 0xa4, 0x54, 0xe1, 0xbc, 0xc9, 0x32, 0xd9,
    0x50, 0x39, 0xc4, 0xdd, 0xcd, 0xd6, 0xc1, 0x5f, 0x78, 0xae, 0xda, 0x4c,
    0x05, 0x21, 0xf0, 0x2b, 0x5b, 0x26, 0xc2, 0xb7, 0x56, 0xfc, 0xff, 0xff,
    0x04, 0x00, 0x00, 0x00, 0x00, 0x02, 0x00, 0x00, 0xaf, 0xf8, 0xff, 0xff,
    0x2b, 0xf7, 0xff, 0xff, 0xf3, 0x0b, 0x00, 0x00, 0x7e, 0x0b, 0x00, 0x00,
    0x36, 0xf3, 0xff, 0xff, 0x56, 0x0f, 0x00, 0x00, 0xdb, 0x14, 0x00, 0x00,
    0x61, 0xfd, 0xff, 0xff, 0xbf, 0x06, 0x00, 0x00, 0xdd, 0x04, 0x00, 0x00,
    0xf7, 0x10, 0x00, 0x00, 0x14, 0x10, 0x00, 0x00, 0xfb, 0x09, 0x00, 0x00,
    0xa2, 0xf1, 0xff, 0xff, 0xce, 0xfe, 0xff, 0xff, 0x56, 0x13, 0x00, 0x00,
    0x6c, 0xfa, 0xff, 0xff, 0xd2, 0x04, 0x00, 0x00, 0x0e, 0xfb, 0xff, 0xff,
    0xe6, 0x11, 0x00, 0x00, 0x19, 0x15, 0x00, 0x00, 0x40, 0x0e, 0x00, 0x00,
    0x2c, 0x16, 0x00, 0x00, 0x36, 0xf1, 0xff, 0xff, 0x96, 0x0f, 0x00, 0x00,
    0xe7, 0x03, 0x00, 0x00, 0x00, 0x00, 0x00, 0x00, 0x49, 0x12, 0x00, 0x00,
    0x7c, 0x01, 0x00, 0x00, 0x62, 0xfd, 0xff, 0xff, 0x50, 0x0f, 0x00, 0x00,
    0xd7, 0x10, 0x00, 0x00, 0x80, 0xfb, 0xff, 0xff, 0xb4, 0xfb, 0xff, 0xff,
    0xa2, 0x01, 0x00, 0x00, 0xc3, 0x03, 0x00, 0x00, 0x4e, 0x04, 0x00, 0x00,
    0x0c, 0x0f, 0x00, 0x00, 0x19, 0x11, 0x00, 0x00, 0x40, 0x09, 0x00, 0x00,
    0xfe, 0x03, 0x00, 0x00, 0x1d, 0x04, 0x00, 0x00, 0x1a, 0x00, 0x00, 0x00,
    0xf5, 0xf0, 0xff, 0xff, 0x3a, 0x04, 0x00, 0x00, 0x3e, 0xf6, 0xff, 0xff,
    0xb9, 0x02, 0x00, 0x00, 0x6e, 0xfa, 0xff, 0xff, 0x26, 0xf7, 0xff, 0xff,
    0xc2, 0xf6, 0xff, 0xff, 0x7a, 0xf1, 0xff, 0xff, 0x48, 0xfa, 0xff, 0xff,
    0x56, 0x0b, 0x00, 0x00, 0xb0, 0x04, 0x00, 0x00, 0xa8, 0x05, 0x00, 0x00,
    0x14, 0x05, 0x00, 0x00, 0xb7, 0xf2, 0xff, 0xff, 0x1b, 0x02, 0x00, 0x00,
    0xe5, 0xf9, 0xff, 0xff, 0xca, 0xf0, 0xff, 0xff, 0x24, 0xef, 0xff, 0xff,
    0x7a, 0x0a, 0x00, 0x00, 0x90, 0x13, 0x00, 0x00, 0xcc, 0x08, 0x00, 0x00,
    0xcf, 0x11, 0x00, 0x00, 0x0b, 0xfa, 0xff, 0xff, 0x5c, 0x13, 0x00, 0x00,
    0x9e, 0x00, 0x00, 0x00, 0x54, 0xf9, 0xff, 0xff, 0xdf, 0x01, 0x00, 0x00,
    0x2f, 0xfd, 0xff, 0xff, 0xcd, 0xfc, 0xff, 0xff, 0x9f, 0xf4, 0xff, 0xff,
    0xec, 0xfd, 0xff, 0xff, 0x6b, 0xf4, 0xff, 0xff, 0x4e, 0xf6, 0xff, 0xff,
    0x49, 0x0f, 0x00, 0x00, 0x64, 0xf9, 0xff, 0xff, 0x8f, 0xfd, 0xff, 0xff,
    0x21, 0x13, 0x00, 0x00, 0xe9, 0xf6, 0xff, 0xff, 0x40, 0x0b, 0x00, 0x00,
    0xaa, 0xf9, 0xff, 0xff, 0x09, 0x00, 0x00, 0x00, 0xda, 0xfc, 0xff, 0xff,
    0xfc, 0x10, 0x00, 0x00, 0x7a, 0xf6, 0xff, 0xff, 0x59, 0xed, 0xff, 0xff,
    0x32, 0x00, 0x00, 0x00, 0x90, 0x0d, 0x00, 0x00, 0xc1, 0xfc, 0xff, 0xff,
    0x61, 0xf0, 0xff, 0xff, 0x32, 0xec, 0xff, 0xff, 0x43, 0x14, 0x00, 0x00,
    0xa2, 0xfd, 0xff, 0xff, 0x7a, 0x0c, 0x00, 0x00, 0x97, 0x03, 0x00, 0x00,
    0x0d, 0xf5, 0xff, 0xff, 0x23, 0x07, 0x00, 0x00, 0x17, 0x05, 0x00, 0x00,
    0x4b, 0xfb, 0xff, 0xff, 0x57, 0x04, 0x00, 0x00, 0x14, 0x00, 0x00, 0x00,
    0xaf, 0xfa, 0xff, 0xff, 0x0f, 0xf9, 0xff, 0xff, 0x95, 0xf3, 0xff, 0xff,
    0x88, 0x0f, 0x00, 0x00, 0x94, 0x02, 0x00, 0x00, 0x84, 0x14, 0x00, 0x00,
    0xf3, 0x0e, 0x00, 0x00, 0x89, 0xf6, 0xff, 0xff, 0xb9, 0xf4, 0xff, 0xff,
    0xeb, 0xf1, 0xff, 0xff, 0x86, 0xf0, 0xff, 0xff, 0xd0, 0x03, 0x00, 0x00,
    0x48, 0x00, 0x00, 0x00, 0x97, 0x02, 0x00, 0x00, 0x01, 0x0f, 0x00, 0x00,
    0xc4, 0x03, 0x00, 0x00, 0xbd, 0xf7, 0xff, 0xff, 0xe0, 0xee, 0xff, 0xff,
    0x5b, 0x0e, 0x00, 0x00, 0x3e, 0x0f, 0x00, 0x00, 0x48, 0xf5, 0xff, 0xff,
    0xbe, 0x0a, 0x00, 0x00, 0x6d, 0x09, 0x00, 0x00, 0xa4, 0xf2, 0xff, 0xff,
    0xcf, 0x06, 0x00, 0x00, 0x62, 0xfe, 0xff, 0xff, 0x04, 0x00, 0x00, 0x00,
    0x00, 0x01, 0x00, 0x00, 0x5b, 0x30, 0x42, 0x25, 0xbe, 0x1e, 0x9f, 0x98,
    0xfb, 0x49, 0x70, 0xa5, 0x42, 0x18, 0x5d, 0xcd, 0xe7, 0xf9, 0xbc, 0x70,
    0x8a, 0xd6, 0xfb, 0x11, 0x24, 0x74, 0x63, 0xca, 0x8c, 0xa8, 0x35, 0x60,
    0xbd, 0x1c, 0x0c, 0x29, 0x6a, 0x20, 0x92, 0x4f, 0x48, 0xaf, 0x3d, 0x6e,
    0xae, 0xb5, 0x55, 0x63, 0x48, 0xb7, 0xd7, 0xac, 0xcb, 0xe0, 0xc2, 0x3c,
    0xad, 0x7f, 0x3b, 0x10, 0x42, 0xe1, 0x59, 0x32, 0x17, 0x37, 0x00, 0xd1,
    0x37, 0x60, 0x0e, 0x47, 0xed, 0x5a, 0xbf, 0x4f, 0xed, 0xe1, 0x22, 0x12,
    0x16, 0xb3, 0x29, 0x84, 0xa1, 0x69, 0xff, 0xf8, 0x70, 0x1a, 0xaa, 0x25,
    0x4a, 0xbe, 0xd7, 0xd6, 0x39, 0xf4, 0x15, 0xe9, 0x3d, 0x53, 0x18, 0x61,
    0x79, 0x8f, 0x41, 0xed, 0xd3, 0x36, 0x31, 0xfb, 0xe8, 0x30, 0x9a, 0x72,
    0xec, 0x38, 0xdc, 0xb2, 0x00, 0x54, 0xcf, 0x34, 0x40, 0xfc, 0xd5, 0x28,
    0xef, 0x9b, 0xdf, 0xc0, 0x3f, 0xb4, 0x1d, 0xe5, 0x9d, 0xed, 0xd5, 0x63,
    0x04, 0xc3, 0xbd, 0x48, 0xde, 0xcd, 0x2a, 0xd3, 0xe0, 0x41, 0x5a, 0xc4,
    0xd6, 0xec, 0xf7, 0x50, 0xe8, 0x57, 0x9d, 0xa9, 0x23, 0xc4, 0xed, 0xa0,
    0xcf, 0x09, 0x56, 0x12, 0xba, 0x2c, 0xf8, 0x86, 0xb9, 0x5c, 0xac, 0x8d,
    0xcf, 0xfe, 0x45, 0x6f, 0x2a, 0x01, 0x20, 0x9d, 0x3f, 0x1c, 0xaa, 0xca,
    0xde, 0xfc, 0x9b, 0xd4, 0xec, 0xca, 0x43, 0x17, 0xbe, 0xcd, 0x16, 0xcb,
    0x07, 0xae, 0x05, 0xbe, 0x3e, 0x50, 0xdd, 0x4f, 0x34, 0x70, 0xf9, 0xf4,
    0x26, 0xdd, 0x2f, 0x02, 0x0f, 0xf7, 0x13, 0x31, 0x0b, 0x65, 0xd3, 0x50,
    0xd4, 0x12, 0xb1, 0x48, 0x9f, 0xd6, 0xec, 0x91, 0x8f, 0xe6, 0xb3, 0xe9,
    0x0f, 0xfd, 0xa1, 0xc2, 0xfa, 0x1a, 0xe2, 0x03, 0x9a, 0x2b, 0xda, 0x10,
    0xd7, 0x8d, 0x6d, 0xd6, 0xd4, 0x54, 0xd5, 0xc7, 0x6e, 0xff, 0xff, 0xff,
    0x04, 0x00, 0x00, 0x00, 0x08, 0x00, 0x00, 0x00, 0x81, 0x0c, 0x00, 0x00,
    0xda, 0xfa, 0xff, 0xff, 0x82, 0xff, 0xff, 0xff, 0x04, 0x00, 0x00, 0x00,
    0x08, 0x00, 0x00, 0x00, 0x01, 0x00, 0x00, 0x00, 0x10, 0x00, 0x00, 0x00,
    0x96, 0xff, 0xff, 0xff, 0x04, 0x00, 0x00, 0x00, 0x08, 0x00, 0x00, 0x00,
    0x02, 0x00, 0x00, 0x00, 0x03, 0x00, 0x00, 0x00, 0xaa, 0xff, 0xff, 0xff,
    0x04, 0x00, 0x00, 0x00, 0x10, 0x00, 0x00, 0x00, 0x00, 0x00, 0x00, 0x00,
    0x02, 0x00, 0x00, 0x00, 0x03, 0x00, 0x00, 0x00, 0x01, 0x00, 0x00, 0x00,
    0xc6, 0xff, 0xff, 0xff, 0x04, 0x00, 0x00, 0x00, 0x10, 0x00, 0x00, 0x00,
    0x00, 0x00, 0x00, 0x00, 0x03, 0x00, 0x00, 0x00, 0x01, 0x00, 0x00, 0x00,
    0x02, 0x00, 0x00, 0x00, 0xe2, 0xff, 0xff, 0xff, 0x04, 0x00, 0x00, 0x00,
    0x10, 0x00, 0x00, 0x00, 0x01, 0x00, 0x00, 0x00, 0x2a, 0x00, 0x00, 0x00,
    0x1c, 0x00, 0x00, 0x00, 0x01, 0x00, 0x00, 0x00, 0x00, 0x00, 0x06, 0x00,
    0x08, 0x00, 0x04, 0x00, 0x06, 0x00, 0x00, 0x00, 0x04, 0x00, 0x00, 0x00,
    0x20, 0x00, 0x00, 0x00, 0x00, 0x00, 0x00, 0x00, 0x00, 0x00, 0x00, 0x00,
    0x00, 0x00, 0x00, 0x00, 0x00, 0x00, 0x00, 0x00, 0x01, 0x00, 0x00, 0x00,
    0x01, 0x00, 0x00, 0x00, 0x01, 0x00, 0x00, 0x00, 0x01, 0x00, 0x00, 0x00,
    0x54, 0xd0, 0xff, 0xff, 0x58, 0xd0, 0xff, 0xff, 0x0f, 0x00, 0x00, 0x00,
    0x4d, 0x4c, 0x49, 0x52, 0x20, 0x43, 0x6f, 0x6e, 0x76, 0x65, 0x72, 0x74,
    0x65, 0x64, 0x2e, 0x00, 0x01, 0x00, 0x00, 0x00, 0x14, 0x00, 0x00, 0x00,
    0x00, 0x00, 0x0e, 0x00, 0x18, 0x00, 0x14, 0x00, 0x10, 0x00, 0x0c, 0x00,
    0x08, 0x00, 0x04, 0x00, 0x0e, 0x00, 0x00, 0x00, 0x14, 0x00, 0x00, 0x00,
    0x1c, 0x00, 0x00, 0x00, 0xc0, 0x08, 0x00, 0x00, 0xc4, 0x08, 0x00, 0x00,
    0xc8, 0x08, 0x00, 0x00, 0x04, 0x00, 0x00, 0x00, 0x6d, 0x61, 0x69, 0x6e,
    0x00, 0x00, 0x00, 0x00, 0x2b, 0x00, 0x00, 0x00, 0x88, 0x08, 0x00, 0x00,
    0x48, 0x08, 0x00, 0x00, 0x10, 0x08, 0x00, 0x00, 0xb4, 0x07, 0x00, 0x00,
    0x8c, 0x07, 0x00, 0x00, 0x58, 0x07, 0x00, 0x00, 0x24, 0x07, 0x00, 0x00,
    0xfc, 0x06, 0x00, 0x00, 0xd8, 0x06, 0x00, 0x00, 0xa4, 0x06, 0x00, 0x00,
    0x70, 0x06, 0x00, 0x00, 0x48, 0x06, 0x00, 0x00, 0xf4, 0x05, 0x00, 0x00,
    0xcc, 0x05, 0x00, 0x00, 0x98, 0x05, 0x00, 0x00, 0x70, 0x05, 0x00, 0x00,
    0x14, 0x05, 0x00, 0x00, 0xd0, 0x04, 0x00, 0x00, 0xa8, 0x04, 0x00, 0x00,
    0x74, 0x04, 0x00, 0x00, 0x4c, 0x04, 0x00, 0x00, 0x08, 0x04, 0x00, 0x00,
    0xe0, 0x03, 0x00, 0x00, 0xac, 0x03, 0x00, 0x00, 0x78, 0x03, 0x00, 0x00,
    0x50, 0x03, 0x00, 0x00, 0x2c, 0x03, 0x00, 0x00, 0xf8, 0x02, 0x00, 0x00,
    0xc4, 0x02, 0x00, 0x00, 0x9c, 0x02, 0x00, 0x00, 0x50, 0x02, 0x00, 0x00,
    0x0c, 0x02, 0x00, 0x00, 0xe4, 0x01, 0x00, 0x00, 0xa4, 0x01, 0x00, 0x00,
    0x7c, 0x01, 0x00, 0x00, 0x44, 0x01, 0x00, 0x00, 0x10, 0x01, 0x00, 0x00,
    0xdc, 0x00, 0x00, 0x00, 0xb4, 0x00, 0x00, 0x00, 0x90, 0x00, 0x00, 0x00,
    0x5c, 0x00, 0x00, 0x00, 0x24, 0x00, 0x00, 0x00, 0x04, 0x00, 0x00, 0x00,
    0x2e, 0xf8, 0xff, 0xff, 0x08, 0x00, 0x00, 0x00, 0x0c, 0x00, 0x00, 0x00,
    0x01, 0x00, 0x00, 0x00, 0x48, 0x00, 0x00, 0x00, 0x01, 0x00, 0x00, 0x00,
    0x47, 0x00, 0x00, 0x00, 0x8a, 0xf8, 0xff, 0xff, 0x14, 0x00, 0x00, 0x00,
    0x00, 0x00, 0x00, 0x08, 0x10, 0x00, 0x00, 0x00, 0x14, 0x00, 0x00, 0x00,
    0x0b, 0x00, 0x00, 0x00, 0x90, 0xd1, 0xff, 0xff, 0x01, 0x00, 0x00, 0x00,
    0x47, 0x00, 0x00, 0x00, 0x03, 0x00, 0x00, 0x00, 0x46, 0x00, 0x00, 0x00,
    0x08, 0x00, 0x00, 0x00, 0x07, 0x00, 0x00, 0x00, 0xbe, 0xf8, 0xff, 0xff,
    0x14, 0x00, 0x00, 0x00, 0x00, 0x00, 0x00, 0x15, 0x10, 0x00, 0x00, 0x00,
    0x14, 0x00, 0x00, 0x00, 0x05, 0x00, 0x00, 0x00, 0xc4, 0xd1, 0xff, 0xff,
    0x01, 0x00, 0x00, 0x00, 0x46, 0x00, 0x00, 0x00, 0x02, 0x00, 0x00, 0x00,
    0x41, 0x00, 0x00, 0x00, 0x45, 0x00, 0x00, 0x00, 0x1e, 0xf9, 0xff, 0xff,
    0x0c, 0x00, 0x00, 0x00, 0x10, 0x00, 0x00, 0x00, 0x08, 0x00, 0x00, 0x00,
    0x01, 0x00, 0x00, 0x00, 0x45, 0x00, 0x00, 0x00, 0x01, 0x00, 0x00, 0x00,
    0x44, 0x00, 0x00, 0x00, 0x3e, 0xf9, 0xff, 0xff, 0x0c, 0x00, 0x00, 0x00,
    0x10, 0x00, 0x00, 0x00, 0x07, 0x00, 0x00, 0x00, 0x01, 0x00, 0x00, 0x00,
    0x44, 0x00, 0x00, 0x00, 0x02, 0x00, 0x00, 0x00, 0x43, 0x00, 0x00, 0x00,
    0x19, 0x00, 0x00, 0x00, 0x32, 0xf9, 0xff, 0xff, 0x14, 0x00, 0x00, 0x00,
    0x00, 0x00, 0x00, 0x0b, 0x10, 0x00, 0x00, 0x00, 0x14, 0x00, 0x00, 0x00,
    0x06, 0x00, 0x00, 0x00, 0x38, 0xd2, 0xff, 0xff, 0x01, 0x00, 0x00, 0x00,
    0x43, 0x00, 0x00, 0x00, 0x02, 0x00, 0x00, 0x00, 0x42, 0x00, 0x00, 0x00,
    0x1a, 0x00, 0x00, 0x00, 0x62, 0xf9, 0xff, 0xff, 0x14, 0x00, 0x00, 0x00,
    0x00, 0x00, 0x00, 0x15, 0x10, 0x00, 0x00, 0x00, 0x14, 0x00, 0x00, 0x00,
    0x05, 0x00, 0x00, 0x00, 0x68, 0xd2, 0xff, 0xff, 0x01, 0x00, 0x00, 0x00,
    0x42, 0x00, 0x00, 0x00, 0x02, 0x00, 0x00, 0x00, 0x41, 0x00, 0x00, 0x00,
    0x1b, 0x00, 0x00, 0x00, 0x92, 0xf9, 0xff, 0xff, 0x14, 0x00, 0x00, 0x00,
    0x00, 0x00, 0x00, 0x08, 0x10, 0x00, 0x00, 0x00, 0x14, 0x00, 0x00, 0x00,
    0x0b, 0x00, 0x00, 0x00, 0x98, 0xd2, 0xff, 0xff, 0x01, 0x00, 0x00, 0x00,
    0x41, 0x00, 0x00, 0x00, 0x03, 0x00, 0x00, 0x00, 0x40, 0x00, 0x00, 0x00,
    0x0a, 0x00, 0x00, 0x00, 0x09, 0x00, 0x00, 0x00, 0xf6, 0xf9, 0xff, 0xff,
    0x0c, 0x00, 0x00, 0x00, 0x10, 0x00, 0x00, 0x00, 0x02, 0x00, 0x00, 0x00,
    0x01, 0x00, 0x00, 0x00, 0x40, 0x00, 0x00, 0x00, 0x02, 0x00, 0x00, 0x00,
    0x3f, 0x00, 0x00, 0x00, 0x06, 0x00, 0x00, 0x00, 0xea, 0xf9, 0xff, 0xff,
    0x1c, 0x00, 0x00, 0x00, 0x00, 0x00, 0x00, 0x1b, 0x1c, 0x00, 0x00, 0x00,
    0x20, 0x00, 0x00, 0x00, 0x0a, 0x00, 0x00, 0x00, 0x00, 0x00, 0x06, 0x00,
    0x08, 0x00, 0x07, 0x00, 0x06, 0x00, 0x00, 0x00, 0x00, 0x00, 0x00, 0x01,
    0x01, 0x00, 0x00, 0x00, 0x3f, 0x00, 0x00, 0x00, 0x02, 0x00, 0x00, 0x00,
    0x3e, 0x00, 0x00, 0x00, 0x05, 0x00, 0x00, 0x00, 0x56, 0xfa, 0xff, 0xff,
    0x0c, 0x00, 0x00, 0x00, 0x10, 0x00, 0x00, 0x00, 0x04, 0x00, 0x00, 0x00,
    0x01, 0x00, 0x00, 0x00, 0x3e, 0x00, 0x00, 0x00, 0x02, 0x00, 0x00, 0x00,
    0x3d, 0x00, 0x00, 0x00, 0x03, 0x00, 0x00, 0x00, 0x4a, 0xfa, 0xff, 0xff,
    0x14, 0x00, 0x00, 0x00, 0x00, 0x00, 0x00, 0x01, 0x1c, 0x00, 0x00, 0x00,
    0x20, 0x00, 0x00, 0x00, 0x03, 0x00, 0x00, 0x00, 0xc6, 0xfa, 0xff, 0xff,
    0x01, 0x00, 0x00, 0x00, 0x01, 0x00, 0x00, 0x00, 0x00, 0x00, 0x00, 0x01,
    0x01, 0x00, 0x00, 0x00, 0x3d, 0x00, 0x00, 0x00, 0x03, 0x00, 0x00, 0x00,
    0x3c, 0x00, 0x00, 0x00, 0x0c, 0x00, 0x00, 0x00, 0x0b, 0x00, 0x00, 0x00,
    0x8a, 0xfa, 0xff, 0xff, 0x14, 0x00, 0x00, 0x00, 0x00, 0x00, 0x00, 0x02,
    0x24, 0x00, 0x00, 0x00, 0x28, 0x00, 0x00, 0x00, 0x09, 0x00, 0x00, 0x00,
    0x72, 0xfd, 0xff, 0xff, 0x00, 0x00, 0x00, 0x01, 0x01, 0x00, 0x00, 0x00,
    0x01, 0x00, 0x00, 0x00, 0x01, 0x00, 0x00, 0x00, 0x00, 0x00, 0x00, 0x01,
    0x01, 0x00, 0x00, 0x00, 0x3c, 0x00, 0x00, 0x00, 0x03, 0x00, 0x00, 0x00,
    0x3b, 0x00, 0x00, 0x00, 0x0e, 0x00, 0x00, 0x00, 0x0d, 0x00, 0x00, 0x00,
    0x02, 0xfb, 0xff, 0xff, 0x0c, 0x00, 0x00, 0x00, 0x10, 0x00, 0x00, 0x00,
    0x04, 0x00, 0x00, 0x00, 0x01, 0x00, 0x00, 0x00, 0x3b, 0x00, 0x00, 0x00,
    0x02, 0x00, 0x00, 0x00, 0x3a, 0x00, 0x00, 0x00, 0x04, 0x00, 0x00, 0x00,
    0xf6, 0xfa, 0xff, 0xff, 0x14, 0x00, 0x00, 0x00, 0x00, 0x00, 0x00, 0x16,
    0x10, 0x00, 0x00, 0x00, 0x14, 0x00, 0x00, 0x00, 0x01, 0x00, 0x00, 0x00,
    0xfc, 0xd3, 0xff, 0xff, 0x01, 0x00, 0x00, 0x00, 0x3a, 0x00, 0x00, 0x00,
    0x02, 0x00, 0x00, 0x00, 0x39, 0x00, 0x00, 0x00, 0x01, 0x00, 0x00, 0x00,
    0x26, 0xfb, 0xff, 0xff, 0x14, 0x00, 0x00, 0x00, 0x00, 0x00, 0x00, 0x15,
    0x10, 0x00, 0x00, 0x00, 0x14, 0x00, 0x00, 0x00, 0x05, 0x00, 0x00, 0x00,
    0x2c, 0xd4, 0xff, 0xff, 0x01, 0x00, 0x00, 0x00, 0x39, 0x00, 0x00, 0x00,
    0x02, 0x00, 0x00, 0x00, 0x34, 0x00, 0x00, 0x00, 0x38, 0x00, 0x00, 0x00,
    0x86, 0xfb, 0xff, 0xff, 0x0c, 0x00, 0x00, 0x00, 0x10, 0x00, 0x00, 0x00,
    0x08, 0x00, 0x00, 0x00, 0x01, 0x00, 0x00, 0x00, 0x38, 0x00, 0x00, 0x00,
    0x01, 0x00, 0x00, 0x00, 0x37, 0x00, 0x00, 0x00, 0xa6, 0xfb, 0xff, 0xff,
    0x0c, 0x00, 0x00, 0x00, 0x10, 0x00, 0x00, 0x00, 0x07, 0x00, 0x00, 0x00,
    0x01, 0x00, 0x00, 0x00, 0x37, 0x00, 0x00, 0x00, 0x02, 0x00, 0x00, 0x00,
    0x36, 0x00, 0x00, 0x00, 0x18, 0x00, 0x00, 0x00, 0x9a, 0xfb, 0xff, 0xff,
    0x14, 0x00, 0x00, 0x00, 0x00, 0x00, 0x00, 0x0b, 0x10, 0x00, 0x00, 0x00,
    0x14, 0x00, 0x00, 0x00, 0x06, 0x00, 0x00, 0x00, 0xa0, 0xd4, 0xff, 0xff,
    0x01, 0x00, 0x00, 0x00, 0x36, 0x00, 0x00, 0x00, 0x02, 0x00, 0x00, 0x00,
    0x35, 0x00, 0x00, 0x00, 0x1a, 0x00, 0x00, 0x00, 0xca, 0xfb, 0xff, 0xff,
    0x14, 0x00, 0x00, 0x00, 0x00, 0x00, 0x00, 0x15, 0x10, 0x00, 0x00, 0x00,
    0x14, 0x00, 0x00, 0x00, 0x05, 0x00, 0x00, 0x00, 0xd0, 0xd4, 0xff, 0xff,
    0x01, 0x00, 0x00, 0x00, 0x35, 0x00, 0x00, 0x00, 0x02, 0x00, 0x00, 0x00,
    0x34, 0x00, 0x00, 0x00, 0x1b, 0x00, 0x00, 0x00, 0x2a, 0xfc, 0xff, 0xff,
    0x0c, 0x00, 0x00, 0x00, 0x10, 0x00, 0x00, 0x00, 0x04, 0x00, 0x00, 0x00,
    0x01, 0x00, 0x00, 0x00, 0x34, 0x00, 0x00, 0x00, 0x02, 0x00, 0x00, 0x00,
    0x33, 0x00, 0x00, 0x00, 0x03, 0x00, 0x00, 0x00, 0x1e, 0xfc, 0xff, 0xff,
    0x14, 0x00, 0x00, 0x00, 0x00, 0x00, 0x00, 0x01, 0x1c, 0x00, 0x00, 0x00,
    0x20, 0x00, 0x00, 0x00, 0x03, 0x00, 0x00, 0x00, 0x9a, 0xfc, 0xff, 0xff,
    0x02, 0x00, 0x00, 0x00, 0x02, 0x00, 0x00, 0x00, 0x00, 0x00, 0x00, 0x01,
    0x01, 0x00, 0x00, 0x00, 0x33, 0x00, 0x00, 0x00, 0x03, 0x00, 0x00, 0x00,
    0x32, 0x00, 0x00, 0x00, 0x10, 0x00, 0x00, 0x00, 0x0f, 0x00, 0x00, 0x00,
    0x8e, 0xfc, 0xff, 0xff, 0x0c, 0x00, 0x00, 0x00, 0x10, 0x00, 0x00, 0x00,
    0x04, 0x00, 0x00, 0x00, 0x01, 0x00, 0x00, 0x00, 0x32, 0x00, 0x00, 0x00,
    0x02, 0x00, 0x00, 0x00, 0x31, 0x00, 0x00, 0x00, 0x04, 0x00, 0x00, 0x00,
    0x82, 0xfc, 0xff, 0xff, 0x14, 0x00, 0x00, 0x00, 0x00, 0x00, 0x00, 0x16,
    0x10, 0x00, 0x00, 0x00, 0x14, 0x00, 0x00, 0x00, 0x01, 0x00, 0x00, 0x00,
    0x88, 0xd5, 0xff, 0xff, 0x01, 0x00, 0x00, 0x00, 0x31, 0x00, 0x00, 0x00,
    0x02, 0x00, 0x00, 0x00, 0x30, 0x00, 0x00, 0x00, 0x01, 0x00, 0x00, 0x00,
    0xe2, 0xfc, 0xff, 0xff, 0x0c, 0x00, 0x00, 0x00, 0x10, 0x00, 0x00, 0x00,
    0x04, 0x00, 0x00, 0x00, 0x01, 0x00, 0x00, 0x00, 0x30, 0x00, 0x00, 0x00,
    0x02, 0x00, 0x00, 0x00, 0x2f, 0x00, 0x00, 0x00, 0x03, 0x00, 0x00, 0x00,
    0xd6, 0xfc, 0xff, 0xff, 0x14, 0x00, 0x00, 0x00, 0x00, 0x00, 0x00, 0x01,
    0x1c, 0x00, 0x00, 0x00, 0x20, 0x00, 0x00, 0x00, 0x03, 0x00, 0x00, 0x00,
    0x52, 0xfd, 0xff, 0xff, 0x01, 0x00, 0x00, 0x00, 0x01, 0x00, 0x00, 0x00,
    0x00, 0x00, 0x00, 0x01, 0x01, 0x00, 0x00, 0x00, 0x2f, 0x00, 0x00, 0x00,
    0x03, 0x00, 0x00, 0x00, 0x2e, 0x00, 0x00, 0x00, 0x12, 0x00, 0x00, 0x00,
    0x11, 0x00, 0x00, 0x00, 0x16, 0xfd, 0xff, 0xff, 0x24, 0x00, 0x00, 0x00,
    0x00, 0x00, 0x00, 0x02, 0x34, 0x00, 0x00, 0x00, 0x38, 0x00, 0x00, 0x00,
    0x09, 0x00, 0x00, 0x00, 0x00, 0x00, 0x0e, 0x00, 0x18, 0x00, 0x17, 0x00,
    0x10, 0x00, 0x0c, 0x00, 0x08, 0x00, 0x07, 0x00, 0x0e, 0x00, 0x00, 0x00,
    0x00, 0x00, 0x00, 0x01, 0x01, 0x00, 0x00, 0x00, 0x01, 0x00, 0x00, 0x00,
    0x01, 0x00, 0x00, 0x00, 0x00, 0x00, 0x00, 0x01, 0x01, 0x00, 0x00, 0x00,
    0x2e, 0x00, 0x00, 0x00, 0x03, 0x00, 0x00, 0x00, 0x2d, 0x00, 0x00, 0x00,
    0x14, 0x00, 0x00, 0x00, 0x13, 0x00, 0x00, 0x00, 0x9e, 0xfd, 0xff, 0xff,
    0x0c, 0x00, 0x00, 0x00, 0x10, 0x00, 0x00, 0x00, 0x04, 0x00, 0x00, 0x00,
    0x01, 0x00, 0x00, 0x00, 0x2d, 0x00, 0x00, 0x00, 0x02, 0x00, 0x00, 0x00,
    0x2c, 0x00, 0x00, 0x00, 0x04, 0x00, 0x00, 0x00, 0x92, 0xfd, 0xff, 0xff,
    0x14, 0x00, 0x00, 0x00, 0x00, 0x00, 0x00, 0x16, 0x10, 0x00, 0x00, 0x00,
    0x14, 0x00, 0x00, 0x00, 0x01, 0x00, 0x00, 0x00, 0x98, 0xd6, 0xff, 0xff,
    0x01, 0x00, 0x00, 0x00, 0x2c, 0x00, 0x00, 0x00, 0x02, 0x00, 0x00, 0x00,
    0x2b, 0x00, 0x00, 0x00, 0x01, 0x00, 0x00, 0x00, 0xf2, 0xfd, 0xff, 0xff,
    0x0c, 0x00, 0x00, 0x00, 0x10, 0x00, 0x00, 0x00, 0x04, 0x00, 0x00, 0x00,
    0x01, 0x00, 0x00, 0x00, 0x2b, 0x00, 0x00, 0x00, 0x02, 0x00, 0x00, 0x00,
    0x2a, 0x00, 0x00, 0x00, 0x03, 0x00, 0x00, 0x00, 0xe6, 0xfd, 0xff, 0xff,
    0x20, 0x00, 0x00, 0x00, 0x00, 0x00, 0x00, 0x01, 0x2c, 0x00, 0x00, 0x00,
    0x30, 0x00, 0x00, 0x00, 0x03, 0x00, 0x00, 0x00, 0x0c, 0x00, 0x14, 0x00,
    0x13, 0x00, 0x0c, 0x00, 0x08, 0x00, 0x07, 0x00, 0x0c, 0x00, 0x00, 0x00,
    0x00, 0x00, 0x00, 0x01, 0x02, 0x00, 0x00, 0x00, 0x02, 0x00, 0x00, 0x00,
    0x00, 0x00, 0x00, 0x01, 0x01, 0x00, 0x00, 0x00, 0x2a, 0x00, 0x00, 0x00,
    0x03, 0x00, 0x00, 0x00, 0x29, 0x00, 0x00, 0x00, 0x16, 0x00, 0x00, 0x00,
    0x15, 0x00, 0x00, 0x00, 0x66, 0xfe, 0xff, 0xff, 0x0c, 0x00, 0x00, 0x00,
    0x10, 0x00, 0x00, 0x00, 0x04, 0x00, 0x00, 0x00, 0x01, 0x00, 0x00, 0x00,
    0x29, 0x00, 0x00, 0x00, 0x02, 0x00, 0x00, 0x00, 0x28, 0x00, 0x00, 0x00,
    0x04, 0x00, 0x00, 0x00, 0x5a, 0xfe, 0xff, 0xff, 0x14, 0x00, 0x00, 0x00,
    0x00, 0x00, 0x00, 0x16, 0x10, 0x00, 0x00, 0x00, 0x14, 0x00, 0x00, 0x00,
    0x01, 0x00, 0x00, 0x00, 0x60, 0xd7, 0xff, 0xff, 0x01, 0x00, 0x00, 0x00,
    0x28, 0x00, 0x00, 0x00, 0x02, 0x00, 0x00, 0x00, 0x27, 0x00, 0x00, 0x00,
    0x01, 0x00, 0x00, 0x00, 0x8a, 0xfe, 0xff, 0xff, 0x14, 0x00, 0x00, 0x00,
    0x00, 0x00, 0x00, 0x15, 0x10, 0x00, 0x00, 0x00, 0x14, 0x00, 0x00, 0x00,
    0x05, 0x00, 0x00, 0x00, 0x90, 0xd7, 0xff, 0xff, 0x01, 0x00, 0x00, 0x00,
    0x27, 0x00, 0x00, 0x00, 0x02, 0x00, 0x00, 0x00, 0x22, 0x00, 0x00, 0x00,
    0x26, 0x00, 0x00, 0x00, 0xea, 0xfe, 0xff, 0xff, 0x0c, 0x00, 0x00, 0x00,
    0x10, 0x00, 0x00, 0x00, 0x08, 0x00, 0x00, 0x00, 0x01, 0x00, 0x00, 0x00,
    0x26, 0x00, 0x00, 0x00, 0x01, 0x00, 0x00, 0x00, 0x25, 0x00, 0x00, 0x00,
    0x0a, 0xff, 0xff, 0xff, 0x0c, 0x00, 0x00, 0x00, 0x10, 0x00, 0x00, 0x00,
    0x07, 0x00, 0x00, 0x00, 0x01, 0x00, 0x00, 0x00, 0x25, 0x00, 0x00, 0x00,
    0x02, 0x00, 0x00, 0x00, 0x24, 0x00, 0x00, 0x00, 0x17, 0x00, 0x00, 0x00,
    0xfe, 0xfe, 0xff, 0xff, 0x14, 0x00, 0x00, 0x00, 0x00, 0x00, 0x00, 0x0b,
    0x10, 0x00, 0x00, 0x00, 0x14, 0x00, 0x00, 0x00, 0x06, 0x00, 0x00, 0x00,
    0x04, 0xd8, 0xff, 0xff, 0x01, 0x00, 0x00, 0x00, 0x24, 0x00, 0x00, 0x00,
    0x02, 0x00, 0x00, 0x00, 0x23, 0x00, 0x00, 0x00, 0x1a, 0x00, 0x00, 0x00,
    0x2e, 0xff, 0xff, 0xff, 0x14, 0x00, 0x00, 0x00, 0x00, 0x00, 0x00, 0x15,
    0x10, 0x00, 0x00, 0x00, 0x14, 0x00, 0x00, 0x00, 0x05, 0x00, 0x00, 0x00,
    0x34, 0xd8, 0xff, 0xff, 0x01, 0x00, 0x00, 0x00, 0x23, 0x00, 0x00, 0x00,
    0x02, 0x00, 0x00, 0x00, 0x22, 0x00, 0x00, 0x00, 0x1b, 0x00, 0x00, 0x00,
    0x8e, 0xff, 0xff, 0xff, 0x0c, 0x00, 0x00, 0x00, 0x10, 0x00, 0x00, 0x00,
    0x04, 0x00, 0x00, 0x00, 0x01, 0x00, 0x00, 0x00, 0x22, 0x00, 0x00, 0x00,
    0x02, 0x00, 0x00, 0x00, 0x21, 0x00, 0x00, 0x00, 0x03, 0x00, 0x00, 0x00,
    0x82, 0xff, 0xff, 0xff, 0x20, 0x00, 0x00, 0x00, 0x00, 0x00, 0x00, 0x01,
    0x28, 0x00, 0x00, 0x00, 0x2c, 0x00, 0x00, 0x00, 0x03, 0x00, 0x00, 0x00,
    0x00, 0x00, 0x0a, 0x00, 0x10, 0x00, 0x0f, 0x00, 0x08, 0x00, 0x04, 0x00,
    0x0a, 0x00, 0x00, 0x00, 0x02, 0x00, 0x00, 0x00, 0x02, 0x00, 0x00, 0x00,
    0x00, 0x00, 0x00, 0x01, 0x01, 0x00, 0x00, 0x00, 0x21, 0x00, 0x00, 0x00,
    0x03, 0x00, 0x00, 0x00, 0x20, 0x00, 0x00, 0x00, 0x1d, 0x00, 0x00, 0x00,
    0x1c, 0x00, 0x00, 0x00, 0x00, 0x00, 0x0a, 0x00, 0x10, 0x00, 0x0c, 0x00,
    0x08, 0x00, 0x04, 0x00, 0x0a, 0x00, 0x00, 0x00, 0x0c, 0x00, 0x00, 0x00,
    0x10, 0x00, 0x00, 0x00, 0x02, 0x00, 0x00, 0x00, 0x01, 0x00, 0x00, 0x00,
    0x20, 0x00, 0x00, 0x00, 0x02, 0x00, 0x00, 0x00, 0x1f, 0x00, 0x00, 0x00,
    0x02, 0x00, 0x00, 0x00, 0x00, 0x00, 0x0e, 0x00, 0x18, 0x00, 0x14, 0x00,
    0x10, 0x00, 0x0c, 0x00, 0x0b, 0x00, 0x04, 0x00, 0x0e, 0x00, 0x00, 0x00,
    0x14, 0x00, 0x00, 0x00, 0x00, 0x00, 0x00, 0x16, 0x10, 0x00, 0x00, 0x00,
    0x14, 0x00, 0x00, 0x00, 0x01, 0x00, 0x00, 0x00, 0x14, 0xd9, 0xff, 0xff,
    0x01, 0x00, 0x00, 0x00, 0x1f, 0x00, 0x00, 0x00, 0x02, 0x00, 0x00, 0x00,
    0x1e, 0x00, 0x00, 0x00, 0x01, 0x00, 0x00, 0x00, 0x00, 0x00, 0x0a, 0x00,
    0x0c, 0x00, 0x00, 0x00, 0x08, 0x00, 0x04, 0x00, 0x0a, 0x00, 0x00, 0x00,
    0x08, 0x00, 0x00, 0x00, 0x0c, 0x00, 0x00, 0x00, 0x01, 0x00, 0x00, 0x00,
    0x1e, 0x00, 0x00, 0x00, 0x01, 0x00, 0x00, 0x00, 0x00, 0x00, 0x00, 0x00,
    0x01, 0x00, 0x00, 0x00, 0x48, 0x00, 0x00, 0x00, 0x01, 0x00, 0x00, 0x00,
    0x00, 0x00, 0x00, 0x00, 0x49, 0x00, 0x00, 0x00, 0xd8, 0x26, 0x00, 0x00,
    0x78, 0x26, 0x00, 0x00, 0x38, 0x26, 0x00, 0x00, 0xf8, 0x25, 0x00, 0x00,
    0xb8, 0x25, 0x00, 0x00, 0x78, 0x25, 0x00, 0x00, 0x38, 0x25, 0x00, 0x00,
    0xd8, 0x24, 0x00, 0x00, 0x74, 0x24, 0x00, 0x00, 0x10, 0x24, 0x00, 0x00,
    0xac, 0x23, 0x00, 0x00, 0x98, 0x22, 0x00, 0x00, 0x74, 0x21, 0x00, 0x00,
    0x60, 0x20, 0x00, 0x00, 0x24, 0x1f, 0x00, 0x00, 0x10, 0x1e, 0x00, 0x00,
    0xec, 0x1c, 0x00, 0x00, 0xd8, 0x1b, 0x00, 0x00, 0xb4, 0x1a, 0x00, 0x00,
    0xa0, 0x19, 0x00, 0x00, 0x78, 0x18, 0x00, 0x00, 0x60, 0x17, 0x00, 0x00,
    0x3c, 0x16, 0x00, 0x00, 0xe0, 0x15, 0x00, 0x00, 0x84, 0x15, 0x00, 0x00,
    0x28, 0x15, 0x00, 0x00, 0xcc, 0x14, 0x00, 0x00, 0x70, 0x14, 0x00, 0x00,
    0x5c, 0x13, 0x00, 0x00, 0x38, 0x12, 0x00, 0x00, 0xcc, 0x11, 0x00, 0x00,
    0x70, 0x11, 0x00, 0x00, 0x0c, 0x11, 0x00, 0x00, 0x98, 0x10, 0x00, 0x00,
    0x34, 0x10, 0x00, 0x00, 0xd8, 0x0f, 0x00, 0x00, 0x74, 0x0f, 0x00, 0x00,
    0x00, 0x0f, 0x00, 0x00, 0x94, 0x0e, 0x00, 0x00, 0x18, 0x0e, 0x00, 0x00,
    0xb4, 0x0d, 0x00, 0x00, 0x50, 0x0d, 0x00, 0x00, 0xcc, 0x0c, 0x00, 0x00,
    0x68, 0x0c, 0x00, 0x00, 0x04, 0x0c, 0x00, 0x00, 0xa0, 0x0b, 0x00, 0x00,
    0x04, 0x0b, 0x00, 0x00, 0x90, 0x0a, 0x00, 0x00, 0x24, 0x0a, 0x00, 0x00,
    0xc0, 0x09, 0x00, 0x00, 0x54, 0x09, 0x00, 0x00, 0xe0, 0x08, 0x00, 0x00,
    0x74, 0x08, 0x00, 0x00, 0x10, 0x08, 0x00, 0x00, 0xac, 0x07, 0x00, 0x00,
    0x38, 0x07, 0x00, 0x00, 0xcc, 0x06, 0x00, 0x00, 0x50, 0x06, 0x00, 0x00,
    0xec, 0x05, 0x00, 0x00, 0x80, 0x05, 0x00, 0x00, 0xe4, 0x04, 0x00, 0x00,
    0x68, 0x04, 0x00, 0x00, 0xfc, 0x03, 0x00, 0x00, 0x98, 0x03, 0x00, 0x00,
    0x3c, 0x03, 0x00, 0x00, 0xd8, 0x02, 0x00, 0x00, 0x7c, 0x02, 0x00, 0x00,
    0x20, 0x02, 0x00, 0x00, 0xb4, 0x01, 0x00, 0x00, 0x50, 0x01, 0x00, 0x00,
    0xcc, 0x00, 0x00, 0x00, 0x68, 0x00, 0x00, 0x00, 0x04, 0x00, 0x00, 0x00,
    0x62, 0xda, 0xff, 0xff, 0x00, 0x00, 0x00, 0x01, 0x14, 0x00, 0x00, 0x00,
    0x34, 0x00, 0x00, 0x00, 0x49, 0x00, 0x00, 0x00, 0x00, 0x00, 0x00, 0x03,
    0x3c, 0x00, 0x00, 0x00, 0x4c, 0xda, 0xff, 0xff, 0x08, 0x00, 0x00, 0x00,
    0x14, 0x00, 0x00, 0x00, 0x01, 0x00, 0x00, 0x00, 0x81, 0x00, 0x00, 0x00,
    0x00, 0x00, 0x00, 0x00, 0x00, 0x00, 0x00, 0x00, 0x01, 0x00, 0x00, 0x00,
    0xc8, 0x2f, 0x1b, 0x3d, 0x0f, 0x00, 0x00, 0x00, 0x50, 0x61, 0x72, 0x74,
    0x69, 0x74, 0x69, 0x6f, 0x6e, 0x65, 0x64, 0x43, 0x61, 0x6c, 0x6c, 0x00,
    0x02, 0x00, 0x00, 0x00, 0x01, 0x00, 0x00, 0x00, 0x02, 0x00, 0x00, 0x00,
    0xc2, 0xda, 0xff, 0xff, 0x00, 0x00, 0x00, 0x01, 0x14, 0x00, 0x00, 0x00,
    0x30, 0x00, 0x00, 0x00, 0x48, 0x00, 0x00, 0x00, 0x00, 0x00, 0x00, 0x09,
    0x3c, 0x00, 0x00, 0x00, 0xac, 0xda, 0xff, 0xff, 0x08, 0x00, 0x00, 0x00,
    0x10, 0x00, 0x00, 0x00, 0x01, 0x00, 0x00, 0x00, 0x01, 0x00, 0x00, 0x00,
    0x00, 0x00, 0x00, 0x00, 0x01, 0x00, 0x00, 0x00, 0xc8, 0x2f, 0x1b, 0x3d,
    0x10, 0x00, 0x00, 0x00, 0x50, 0x61, 0x72, 0x74, 0x69, 0x74, 0x69, 0x6f,
    0x6e, 0x65, 0x64, 0x43, 0x61, 0x6c, 0x6c, 0x31, 0x00, 0x00, 0x00, 0x00,
    0x02, 0x00, 0x00, 0x00, 0x01, 0x00, 0x00, 0x00, 0x02, 0x00, 0x00, 0x00,
    0x22, 0xdb, 0xff, 0xff, 0x00, 0x00, 0x00, 0x01, 0x14, 0x00, 0x00, 0x00,
    0x30, 0x00, 0x00, 0x00, 0x47, 0x00, 0x00, 0x00, 0x00, 0x00, 0x00, 0x09,
    0x5c, 0x00, 0x00, 0x00, 0x0c, 0xdb, 0xff, 0xff, 0x08, 0x00, 0x00, 0x00,
    0x10, 0x00, 0x00, 0x00, 0x01, 0x00, 0x00, 0x00, 0x9c, 0xff, 0xff, 0xff,
    0xff, 0xff, 0xff, 0xff, 0x01, 0x00, 0x00, 0x00, 0xbe, 0xfe, 0x59, 0x3c,
    0x31, 0x00, 0x00, 0x00, 0x6f, 0x6e, 0x6e, 0x78, 0x5f, 0x74, 0x66, 0x5f,
    0x70, 0x72, 0x65, 0x66, 0x69, 0x78, 0x5f, 0x2f, 0x63, 0x6c, 0x61, 0x73,
    0x73, 0x69, 0x66, 0x5f, 0x62, 0x6c, 0x6f, 0x63, 0x6b, 0x2f, 0x63, 0x6c,
    0x61, 0x73, 0x73, 0x69, 0x66, 0x5f, 0x62, 0x6c, 0x6f, 0x63, 0x6b, 0x2e,
    0x31, 0x2f, 0x4d, 0x75, 0x6c, 0x00, 0x00, 0x00, 0x02, 0x00, 0x00, 0x00,
    0x01, 0x00, 0x00, 0x00, 0x80, 0x00, 0x00, 0x00, 0xa2, 0xdb, 0xff, 0xff,
    0x00, 0x00, 0x00, 0x01, 0x14, 0x00, 0x00, 0x00, 0x34, 0x00, 0x00, 0x00,
    0x46, 0x00, 0x00, 0x00, 0x00, 0x00, 0x00, 0x09, 0x3c, 0x00, 0x00, 0x00,
    0x8c, 0xdb, 0xff, 0xff, 0x08, 0x00, 0x00, 0x00, 0x14, 0x00, 0x00, 0x00,
    0x01, 0x00, 0x00, 0x00, 0x9c, 0xff, 0xff, 0xff, 0xff, 0xff, 0xff, 0xff,
    0x00, 0x00, 0x00, 0x00, 0x01, 0x00, 0x00, 0x00, 0xbe, 0xfe, 0x59, 0x3c,
    0x0f, 0x00, 0x00, 0x00, 0x63, 0x6c, 0x69, 0x70, 0x5f, 0x62, 0x79, 0x5f,
    0x76, 0x61, 0x6c, 0x75, 0x65, 0x5f, 0x32, 0x00, 0x02, 0x00, 0x00, 0x00,
    0x01, 0x00, 0x00, 0x00, 0x80, 0x00, 0x00, 0x00, 0x02, 0xdc, 0xff, 0xff,
    0x00, 0x00, 0x00, 0x01, 0x14, 0x00, 0x00, 0x00, 0x34, 0x00, 0x00, 0x00,
    0x45, 0x00, 0x00, 0x00, 0x00, 0x00, 0x00, 0x09, 0x44, 0x00, 0x00, 0x00,
    0xec, 0xdb, 0xff, 0xff, 0x08, 0x00, 0x00, 0x00, 0x14, 0x00, 0x00, 0x00,
    0x01, 0x00, 0x00, 0x00, 0x80, 0xff, 0xff, 0xff, 0xff, 0xff, 0xff, 0xff,
    0x00, 0x00, 0x00, 0x00, 0x01, 0x00, 0x00, 0x00, 0xa6, 0x9e, 0x80, 0x3b,
    0x17, 0x00, 0x00, 0x00, 0x63, 0x6c, 0x69, 0x70, 0x5f, 0x62, 0x79, 0x5f,
    0x76, 0x61, 0x6c, 0x75, 0x65, 0x5f, 0x32, 0x2f, 0x4d, 0x69, 0x6e, 0x69,
    0x6d, 0x75, 0x6d, 0x00, 0x02, 0x00, 0x00, 0x00, 0x01, 0x00, 0x00, 0x00,
    0x80, 0x00, 0x00, 0x00, 0x6a, 0xdc, 0xff, 0xff, 0x00, 0x00, 0x00, 0x01,
    0x14, 0x00, 0x00, 0x00, 0x34, 0x00, 0x00, 0x00, 0x44, 0x00, 0x00, 0x00,
    0x00, 0x00, 0x00, 0x09, 0x34, 0x00, 0x00, 0x00, 0x54, 0xdc, 0xff, 0xff,
    0x08, 0x00, 0x00, 0x00, 0x14, 0x00, 0x00, 0x00, 0x01, 0x00, 0x00, 0x00,
    0x80, 0xff, 0xff, 0xff, 0xff, 0xff, 0xff, 0xff, 0x00, 0x00, 0x00, 0x00,
    0x01, 0x00, 0x00, 0x00, 0xa6, 0x9e, 0x80, 0x3b, 0x05, 0x00, 0x00, 0x00,
    0x61, 0x64, 0x64, 0x5f, 0x39, 0x00, 0x00, 0x00, 0x02, 0x00, 0x00, 0x00,
    0x01, 0x00, 0x00, 0x00, 0x80, 0x00, 0x00, 0x00, 0xc2, 0xdc, 0xff, 0xff,
    0x00, 0x00, 0x00, 0x01, 0x14, 0x00, 0x00, 0x00, 0x34, 0x00, 0x00, 0x00,
    0x43, 0x00, 0x00, 0x00, 0x00, 0x00, 0x00, 0x09, 0x34, 0x00, 0x00, 0x00,
    0xac, 0xdc, 0xff, 0xff, 0x08, 0x00, 0x00, 0x00, 0x14, 0x00, 0x00, 0x00,
    0x01, 0x00, 0x00, 0x00, 0xd5, 0xff, 0xff, 0xff, 0xff, 0xff, 0xff, 0xff,
    0x00, 0x00, 0x00, 0x00, 0x01, 0x00, 0x00, 0x00, 0xdd, 0x40, 0xc1, 0x3b,
    0x05, 0x00, 0x00, 0x00, 0x6d, 0x75, 0x6c, 0x5f, 0x34, 0x00, 0x00, 0x00,
    0x02, 0x00, 0x00, 0x00, 0x01, 0x00, 0x00, 0x00, 0x80, 0x00, 0x00, 0x00,
    0x1a, 0xdd, 0xff, 0xff, 0x00, 0x00, 0x00, 0x01, 0x14, 0x00, 0x00, 0x00,
    0x34, 0x00, 0x00, 0x00, 0x42, 0x00, 0x00, 0x00, 0x00, 0x00, 0x00, 0x09,
    0x3c, 0x00, 0x00, 0x00, 0x04, 0xdd, 0xff, 0xff, 0x08, 0x00, 0x00, 0x00,
    0x14, 0x00, 0x00, 0x00, 0x01, 0x00, 0x00, 0x00, 0xff, 0xff, 0xff, 0xff,
    0xff, 0xff, 0xff, 0xff, 0x00, 0x00, 0x00, 0x00, 0x01, 0x00, 0x00, 0x00,
    0xeb, 0x80, 0xc1, 0x3c, 0x0c, 0x00, 0x00, 0x00, 0x4d, 0x61, 0x74, 0x4d,
    0x75, 0x6c, 0x3b, 0x61, 0x64, 0x64, 0x5f, 0x38, 0x00, 0x00, 0x00, 0x00,
    0x02, 0x00, 0x00, 0x00, 0x01, 0x00, 0x00, 0x00, 0x80, 0x00, 0x00, 0x00,
    0x7a, 0xdd, 0xff, 0xff, 0x00, 0x00, 0x00, 0x01, 0x14, 0x00, 0x00, 0x00,
    0x30, 0x00, 0x00, 0x00, 0x41, 0x00, 0x00, 0x00, 0x00, 0x00, 0x00, 0x09,
    0x34, 0x00, 0x00, 0x00, 0x64, 0xdd, 0xff, 0xff, 0x08, 0x00, 0x00, 0x00,
    0x10, 0x00, 0x00, 0x00, 0x01, 0x00, 0x00, 0x00, 0xe8, 0xff, 0xff, 0xff,
    0xff, 0xff, 0xff, 0xff, 0x01, 0x00, 0x00, 0x00, 0x92, 0xc2, 0xaf, 0x3c,
    0x09, 0x00, 0x00, 0x00, 0x52, 0x65, 0x73, 0x68, 0x61, 0x70, 0x65, 0x5f,
    0x32, 0x00, 0x00, 0x00, 0x02, 0x00, 0x00, 0x00, 0x01, 0x00, 0x00, 0x00,
    0x10, 0x00, 0x00, 0x00, 0xd2, 0xdd, 0xff, 0xff, 0x00, 0x00, 0x00, 0x01,
    0x14, 0x00, 0x00, 0x00, 0x34, 0x00, 0x00, 0x00, 0x40, 0x00, 0x00, 0x00,
    0x00, 0x00, 0x00, 0x09, 0x34, 0x00, 0x00, 0x00, 0xbc, 0xdd, 0xff, 0xff,
    0x08, 0x00, 0x00, 0x00, 0x14, 0x00, 0x00, 0x00, 0x01, 0x00, 0x00, 0x00,
    0xe8, 0xff, 0xff, 0xff, 0xff, 0xff, 0xff, 0xff, 0x00, 0x00, 0x00, 0x00,
    0x01, 0x00, 0x00, 0x00, 0x92, 0xc2, 0xaf, 0x3c, 0x04, 0x00, 0x00, 0x00,
    0x4d, 0x65, 0x61, 0x6e, 0x00, 0x00, 0x00, 0x00, 0x04, 0x00, 0x00, 0x00,
    0x01, 0x00, 0x00, 0x00, 0x10, 0x00, 0x00, 0x00, 0x01, 0x00, 0x00, 0x00,
    0x01, 0x00, 0x00, 0x00, 0x32, 0xde, 0xff, 0xff, 0x00, 0x00, 0x00, 0x01,
    0x14, 0x00, 0x00, 0x00, 0x34, 0x00, 0x00, 0x00, 0x3f, 0x00, 0x00, 0x00,
    0x00, 0x00, 0x00, 0x09, 0x3c, 0x00, 0x00, 0x00, 0x1c, 0xde, 0xff, 0xff,
    0x08, 0x00, 0x00, 0x00, 0x14, 0x00, 0x00, 0x00, 0x01, 0x00, 0x00, 0x00,
    0xed, 0xff, 0xff, 0xff, 0xff, 0xff, 0xff, 0xff, 0x00, 0x00, 0x00, 0x00,
    0x01, 0x00, 0x00, 0x00, 0x6c, 0x9e, 0x89, 0x3d, 0x0c, 0x00, 0x00, 0x00,
    0x74, 0x72, 0x61, 0x6e, 0x73, 0x70, 0x6f, 0x73, 0x65, 0x5f, 0x32, 0x30,
    0x00, 0x00, 0x00, 0x00, 0x04, 0x00, 0x00, 0x00, 0x01, 0x00, 0x00, 0x00,
    0x10, 0x00, 0x00, 0x00, 0x05, 0x00, 0x00, 0x00, 0x04, 0x00, 0x00, 0x00,
    0x9a, 0xde, 0xff, 0xff, 0x00, 0x00, 0x00, 0x01, 0x14, 0x00, 0x00, 0x00,
    0x34, 0x00, 0x00, 0x00, 0x3e, 0x00, 0x00, 0x00, 0x00, 0x00, 0x00, 0x09,
    0x4c, 0x00, 0x00, 0x00, 0x84, 0xde, 0xff, 0xff, 0x08, 0x00, 0x00, 0x00,
    0x14, 0x00, 0x00, 0x00, 0x01, 0x00, 0x00, 0x00, 0xed, 0xff, 0xff, 0xff,
    0xff, 0xff, 0xff, 0xff, 0x00, 0x00, 0x00, 0x00, 0x01, 0x00, 0x00, 0x00,
    0x6c, 0x9e, 0x89, 0x3d, 0x1c, 0x00, 0x00, 0x00, 0x41, 0x64, 0x64, 0x5f,
    0x37, 0x3b, 0x63, 0x6f, 0x6e, 0x76, 0x6f, 0x6c, 0x75, 0x74, 0x69, 0x6f,
    0x6e, 0x5f, 0x34, 0x3b, 0x43, 0x6f, 0x6e, 0x73, 0x74, 0x5f, 0x31, 0x32,
    0x00, 0x00, 0x00, 0x00, 0x04, 0x00, 0x00, 0x00, 0x01, 0x00, 0x00, 0x00,
    0x05, 0x00, 0x00, 0x00, 0x04, 0x00, 0x00, 0x00, 0x10, 0x00, 0x00, 0x00,
    0x12, 0xdf, 0xff, 0xff, 0x00, 0x00, 0x00, 0x01, 0x14, 0x00, 0x00, 0x00,
    0x34, 0x00, 0x00, 0x00, 0x3d, 0x00, 0x00, 0x00, 0x00, 0x00, 0x00, 0x09,
    0x6c, 0x00, 0x00, 0x00, 0xfc, 0xde, 0xff, 0xff, 0x08, 0x00, 0x00, 0x00,
    0x14, 0x00, 0x00, 0x00, 0x01, 0x00, 0x00, 0x00, 0x80, 0xff, 0xff, 0xff,
    0xff, 0xff, 0xff, 0xff, 0x00, 0x00, 0x00, 0x00, 0x01, 0x00, 0x00, 0x00,
    0xfa, 0xfe, 0xfb, 0x3c, 0x3f, 0x00, 0x00, 0x00, 0x6f, 0x6e, 0x6e, 0x78,
    0x5f, 0x74, 0x66, 0x5f, 0x70, 0x72, 0x65, 0x66, 0x69, 0x78, 0x5f, 0x2f,
    0x62, 0x6c, 0x6f, 0x63, 0x6b, 0x32, 0x2f, 0x62, 0x6c, 0x6f, 0x63, 0x6b,
    0x32, 0x2e, 0x32, 0x2f, 0x52, 0x65, 0x6c, 0x75, 0x3b, 0x41, 0x64, 0x64,
    0x5f, 0x36, 0x3b, 0x64, 0x65, 0x70, 0x74, 0x68, 0x77, 0x69, 0x73, 0x65,
    0x5f, 0x31, 0x3b, 0x43, 0x6f, 0x6e, 0x73, 0x74, 0x5f, 0x31, 0x30, 0x00,
    0x04, 0x00, 0x00, 0x00, 0x01, 0x00, 0x00, 0x00, 0x05, 0x00, 0x00, 0x00,
    0x04, 0x00, 0x00, 0x00, 0x10, 0x00, 0x00, 0x00, 0xaa, 0xdf, 0xff, 0xff,
    0x00, 0x00, 0x00, 0x01, 0x14, 0x00, 0x00, 0x00, 0x34, 0x00, 0x00, 0x00,
    0x3c, 0x00, 0x00, 0x00, 0x00, 0x00, 0x00, 0x09, 0x3c, 0x00, 0x00, 0x00,
    0x94, 0xdf, 0xff, 0xff, 0x08, 0x00, 0x00, 0x00, 0x14, 0x00, 0x00, 0x00,
    0x01, 0x00, 0x00, 0x00, 0x8d, 0xff, 0xff, 0xff, 0xff, 0xff, 0xff, 0xff,
    0x00, 0x00, 0x00, 0x00, 0x01, 0x00, 0x00, 0x00, 0x85, 0x97, 0xed, 0x3c,
    0x0c, 0x00, 0x00, 0x00, 0x74, 0x72, 0x61, 0x6e, 0x73, 0x70, 0x6f, 0x73,
    0x65, 0x5f, 0x31, 0x36, 0x00, 0x00, 0x00, 0x00, 0x04, 0x00, 0x00, 0x00,
    0x01, 0x00, 0x00, 0x00, 0x07, 0x00, 0x00, 0x00, 0x06, 0x00, 0x00, 0x00,
    0x10, 0x00, 0x00, 0x00, 0x12, 0xe0, 0xff, 0xff, 0x00, 0x00, 0x00, 0x01,
    0x14, 0x00, 0x00, 0x00, 0x34, 0x00, 0x00, 0x00, 0x3b, 0x00, 0x00, 0x00,
    0x00, 0x00, 0x00, 0x09, 0x34, 0x00, 0x00, 0x00, 0xfc, 0xdf, 0xff, 0xff,
    0x08, 0x00, 0x00, 0x00, 0x14, 0x00, 0x00, 0x00, 0x01, 0x00, 0x00, 0x00,
    0x8d, 0xff, 0xff, 0xff, 0xff, 0xff, 0xff, 0xff, 0x00, 0x00, 0x00, 0x00,
    0x01, 0x00, 0x00, 0x00, 0x85, 0x97, 0xed, 0x3c, 0x05, 0x00, 0x00, 0x00,
    0x50, 0x61, 0x64, 0x5f, 0x34, 0x00, 0x00, 0x00, 0x04, 0x00, 0x00, 0x00,
    0x01, 0x00, 0x00, 0x00, 0x10, 0x00, 0x00, 0x00, 0x07, 0x00, 0x00, 0x00,
    0x06, 0x00, 0x00, 0x00, 0x72, 0xe0, 0xff, 0xff, 0x00, 0x00, 0x00, 0x01,
    0x14, 0x00, 0x00, 0x00, 0x34, 0x00, 0x00, 0x00, 0x3a, 0x00, 0x00, 0x00,
    0x00, 0x00, 0x00, 0x09, 0x4c, 0x00, 0x00, 0x00, 0x5c, 0xe0, 0xff, 0xff,
    0x08, 0x00, 0x00, 0x00, 0x14, 0x00, 0x00, 0x00, 0x01, 0x00, 0x00, 0x00,
    0x8d, 0xff, 0xff, 0xff, 0xff, 0xff, 0xff, 0xff, 0x00, 0x00, 0x00, 0x00,
    0x01, 0x00, 0x00, 0x00, 0x85, 0x97, 0xed, 0x3c, 0x1f, 0x00, 0x00, 0x00,
    0x6f, 0x6e, 0x6e, 0x78, 0x5f, 0x74, 0x66, 0x5f, 0x70, 0x72, 0x65, 0x66,
    0x69, 0x78, 0x5f, 0x2f, 0x68, 0x61, 0x72, 0x64, 0x73, 0x77, 0x69, 0x73,
    0x68, 0x5f, 0x31, 0x2f, 0x4d, 0x75, 0x6c, 0x00, 0x04, 0x00, 0x00, 0x00,
    0x01, 0x00, 0x00, 0x00, 0x10, 0x00, 0x00, 0x00, 0x05, 0x00, 0x00, 0x00,
    0x04, 0x00, 0x00, 0x00, 0xea, 0xe0, 0xff, 0xff, 0x00, 0x00, 0x00, 0x01,
    0x14, 0x00, 0x00, 0x00, 0x34, 0x00, 0x00, 0x00, 0x39, 0x00, 0x00, 0x00,
    0x00, 0x00, 0x00, 0x09, 0x3c, 0x00, 0x00, 0x00, 0xd4, 0xe0, 0xff, 0xff,
    0x08, 0x00, 0x00, 0x00, 0x14, 0x00, 0x00, 0x00, 0x01, 0x00, 0x00, 0x00,
    0x8d, 0xff, 0xff, 0xff, 0xff, 0xff, 0xff, 0xff, 0x00, 0x00, 0x00, 0x00,
    0x01, 0x00, 0x00, 0x00, 0x85, 0x97, 0xed, 0x3c, 0x0f, 0x00, 0x00, 0x00,
    0x63, 0x6c, 0x69, 0x70, 0x5f, 0x62, 0x79, 0x5f, 0x76, 0x61, 0x6c, 0x75,
    0x65, 0x5f, 0x31, 0x00, 0x04, 0x00, 0x00, 0x00, 0x01, 0x00, 0x00, 0x00,
    0x10, 0x00, 0x00, 0x00, 0x05, 0x00, 0x00, 0x00, 0x04, 0x00, 0x00, 0x00,
    0x52, 0xe1, 0xff, 0xff, 0x00, 0x00, 0x00, 0x01, 0x14, 0x00, 0x00, 0x00,
    0x34, 0x00, 0x00, 0x00, 0x38, 0x00, 0x00, 0x00, 0x00, 0x00, 0x00, 0x09,
    0x44, 0x00, 0x00, 0x00, 0x3c, 0xe1, 0xff, 0xff, 0x08, 0x00, 0x00, 0x00,
    0x14, 0x00, 0x00, 0x00, 0x01, 0x00, 0x00, 0x00, 0x09, 0x00, 0x00, 0x00,
    0x00, 0x00, 0x00, 0x00, 0x00, 0x00, 0x00, 0x00, 0x01, 0x00, 0x00, 0x00,
    0x33, 0x71, 0x0a, 0x3c, 0x17, 0x00, 0x00, 0x00, 0x63, 0x6c, 0x69, 0x70,
    0x5f, 0x62, 0x79, 0x5f, 0x76, 0x61, 0x6c, 0x75, 0x65, 0x5f, 0x31, 0x2f,
    0x4d, 0x69, 0x6e, 0x69, 0x6d, 0x75, 0x6d, 0x00, 0x04, 0x00, 0x00, 0x00,
    0x01, 0x00, 0x00, 0x00, 0x10, 0x00, 0x00, 0x00, 0x05, 0x00, 0x00, 0x00,
    0x04, 0x00, 0x00, 0x00, 0xc2, 0xe1, 0xff, 0xff, 0x00, 0x00, 0x00, 0x01,
    0x14, 0x00, 0x00, 0x00, 0x34, 0x00, 0x00, 0x00, 0x37, 0x00, 0x00, 0x00,
    0x00, 0x00, 0x00, 0x09, 0x34, 0x00, 0x00, 0x00, 0xac, 0xe1, 0xff, 0xff,
    0x08, 0x00, 0x00, 0x00, 0x14, 0x00, 0x00, 0x00, 0x01, 0x00, 0x00, 0x00,
    0x09, 0x00, 0x00, 0x00, 0x00, 0x00, 0x00, 0x00, 0x00, 0x00, 0x00, 0x00,
    0x01, 0x00, 0x00, 0x00, 0x33, 0x71, 0x0a, 0x3c, 0x05, 0x00, 0x00, 0x00,
    0x61, 0x64, 0x64, 0x5f, 0x35, 0x00, 0x00, 0x00, 0x04, 0x00, 0x00, 0x00,
    0x01, 0x00, 0x00, 0x00, 0x10, 0x00, 0x00, 0x00, 0x05, 0x00, 0x00, 0x00,
    0x04, 0x00, 0x00, 0x00, 0x22, 0xe2, 0xff, 0xff, 0x00, 0x00, 0x00, 0x01,
    0x14, 0x00, 0x00, 0x00, 0x34, 0x00, 0x00, 0x00, 0x36, 0x00, 0x00, 0x00,
    0x00, 0x00, 0x00, 0x09, 0x34, 0x00, 0x00, 0x00, 0x0c, 0xe2, 0xff, 0xff,
    0x08, 0x00, 0x00, 0x00, 0x14, 0x00, 0x00, 0x00, 0x01, 0x00, 0x00, 0x00,
    0xff, 0xff, 0xff, 0xff, 0xff, 0xff, 0xff, 0xff, 0x00, 0x00, 0x00, 0x00,
    0x01, 0x00, 0x00, 0x00, 0xb1, 0x9f, 0x55, 0x3c, 0x05, 0x00, 0x00, 0x00,
    0x6d, 0x75, 0x6c, 0x5f, 0x31, 0x00, 0x00, 0x00, 0x04, 0x00, 0x00, 0x00,
    0x01, 0x00, 0x00, 0x00, 0x10, 0x00, 0x00, 0x00, 0x05, 0x00, 0x00, 0x00,
    0x04, 0x00, 0x00, 0x00, 0x82, 0xe2, 0xff, 0xff, 0x00, 0x00, 0x00, 0x01,
    0x14, 0x00, 0x00, 0x00, 0x34, 0x00, 0x00, 0x00, 0x35, 0x00, 0x00, 0x00,
    0x00, 0x00, 0x00, 0x09, 0x3c, 0x00, 0x00, 0x00, 0x6c, 0xe2, 0xff, 0xff,
    0x08, 0x00, 0x00, 0x00, 0x14, 0x00, 0x00, 0x00, 0x01, 0x00, 0x00, 0x00,
    0x15, 0x00, 0x00, 0x00, 0x00, 0x00, 0x00, 0x00, 0x00, 0x00, 0x00, 0x00,
    0x01, 0x00, 0x00, 0x00, 0xad, 0x1f, 0x88, 0x3d, 0x0c, 0x00, 0x00, 0x00,
    0x74, 0x72, 0x61, 0x6e, 0x73, 0x70, 0x6f, 0x73, 0x65, 0x5f, 0x31, 0x34,
    0x00, 0x00, 0x00, 0x00, 0x04, 0x00, 0x00, 0x00, 0x01, 0x00, 0x00, 0x00,
    0x10, 0x00, 0x00, 0x00, 0x05, 0x00, 0x00, 0x00, 0x04, 0x00, 0x00, 0x00,
    0xea, 0xe2, 0xff, 0xff, 0x00, 0x00, 0x00, 0x01, 0x14, 0x00, 0x00, 0x00,
    0x30, 0x00, 0x00, 0x00, 0x34, 0x00, 0x00, 0x00, 0x00, 0x00, 0x00, 0x09,
    0x44, 0x00, 0x00, 0x00, 0xd4, 0xe2, 0xff, 0xff, 0x08, 0x00, 0x00, 0x00,
    0x10, 0x00, 0x00, 0x00, 0x01, 0x00, 0x00, 0x00, 0x15, 0x00, 0x00, 0x00,
    0x00, 0x00, 0x00, 0x00, 0x01, 0x00, 0x00, 0x00, 0xad, 0x1f, 0x88, 0x3d,
    0x1b, 0x00, 0x00, 0x00, 0x41, 0x64, 0x64, 0x5f, 0x34, 0x3b, 0x63, 0x6f,
    0x6e, 0x76, 0x6f, 0x6c, 0x75, 0x74, 0x69, 0x6f, 0x6e, 0x5f, 0x33, 0x3b,
    0x43, 0x6f, 0x6e, 0x73, 0x74, 0x5f, 0x38, 0x00, 0x04, 0x00, 0x00, 0x00,
    0x01, 0x00, 0x00, 0x00, 0x05, 0x00, 0x00, 0x00, 0x04, 0x00, 0x00, 0x00,
    0x10, 0x00, 0x00, 0x00, 0x5a, 0xe3, 0xff, 0xff, 0x00, 0x00, 0x00, 0x01,
    0x14, 0x00, 0x00, 0x00, 0x34, 0x00, 0x00, 0x00, 0x33, 0x00, 0x00, 0x00,
    0x00, 0x00, 0x00, 0x09, 0x3c, 0x00, 0x00, 0x00, 0x44, 0xe3, 0xff, 0xff,
    0x08, 0x00, 0x00, 0x00, 0x14, 0x00, 0x00, 0x00, 0x01, 0x00, 0x00, 0x00,
    0xfc, 0xff, 0xff, 0xff, 0xff, 0xff, 0xff, 0xff, 0x00, 0x00, 0x00, 0x00,
    0x01, 0x00, 0x00, 0x00, 0x97, 0x6a, 0xa8, 0x3d, 0x0c, 0x00, 0x00, 0x00,
    0x74, 0x72, 0x61, 0x6e, 0x73, 0x70, 0x6f, 0x73, 0x65, 0x5f, 0x31, 0x33,
    0x00, 0x00, 0x00, 0x00, 0x04, 0x00, 0x00, 0x00, 0x01, 0x00, 0x00, 0x00,
    0x0c, 0x00, 0x00, 0x00, 0x09, 0x00, 0x00, 0x00, 0x10, 0x00, 0x00, 0x00,
    0xc2, 0xe3, 0xff, 0xff, 0x00, 0x00, 0x00, 0x01, 0x14, 0x00, 0x00, 0x00,
    0x34, 0x00, 0x00, 0x00, 0x32, 0x00, 0x00, 0x00, 0x00, 0x00, 0x00, 0x09,
    0x34, 0x00, 0x00, 0x00, 0xac, 0xe3, 0xff, 0xff, 0x08, 0x00, 0x00, 0x00,
    0x14, 0x00, 0x00, 0x00, 0x01, 0x00, 0x00, 0x00, 0xfc, 0xff, 0xff, 0xff,
    0xff, 0xff, 0xff, 0xff, 0x00, 0x00, 0x00, 0x00, 0x01, 0x00, 0x00, 0x00,
    0x97, 0x6a, 0xa8, 0x3d, 0x05, 0x00, 0x00, 0x00, 0x50, 0x61, 0x64, 0x5f,
    0x33, 0x00, 0x00, 0x00, 0x04, 0x00, 0x00, 0x00, 0x01, 0x00, 0x00, 0x00,
    0x10, 0x00, 0x00, 0x00, 0x0c, 0x00, 0x00, 0x00, 0x09, 0x00, 0x00, 0x00,
    0x22, 0xe4, 0xff, 0xff, 0x00, 0x00, 0x00, 0x01, 0x14, 0x00, 0x00, 0x00,
    0x34, 0x00, 0x00, 0x00, 0x31, 0x00, 0x00, 0x00, 0x00, 0x00, 0x00, 0x09,
    0x3c, 0x00, 0x00, 0x00, 0x0c, 0xe4, 0xff, 0xff, 0x08, 0x00, 0x00, 0x00,
    0x14, 0x00, 0x00, 0x00, 0x01, 0x00, 0x00, 0x00, 0xfc, 0xff, 0xff, 0xff,
    0xff, 0xff, 0xff, 0xff, 0x00, 0x00, 0x00, 0x00, 0x01, 0x00, 0x00, 0x00,
    0x97, 0x6a, 0xa8, 0x3d, 0x0c, 0x00, 0x00, 0x00, 0x74, 0x72, 0x61, 0x6e,
    0x73, 0x70, 0x6f, 0x73, 0x65, 0x5f, 0x31, 0x31, 0x00, 0x00, 0x00, 0x00,
    0x04, 0x00, 0x00, 0x00, 0x01, 0x00, 0x00, 0x00, 0x10, 0x00, 0x00, 0x00,
    0x0a, 0x00, 0x00, 0x00, 0x07, 0x00, 0x00, 0x00, 0x8a, 0xe4, 0xff, 0xff,
    0x00, 0x00, 0x00, 0x01, 0x14, 0x00, 0x00, 0x00, 0x30, 0x00, 0x00, 0x00,
    0x30, 0x00, 0x00, 0x00, 0x00, 0x00, 0x00, 0x09, 0x44, 0x00, 0x00, 0x00,
    0x74, 0xe4, 0xff, 0xff, 0x08, 0x00, 0x00, 0x00, 0x10, 0x00, 0x00, 0x00,
    0x01, 0x00, 0x00, 0x00, 0xfc, 0xff, 0xff, 0xff, 0xff, 0xff, 0xff, 0xff,
    0x01, 0x00, 0x00, 0x00, 0x97, 0x6a, 0xa8, 0x3d, 0x1b, 0x00, 0x00, 0x00,
    0x41, 0x64, 0x64, 0x5f, 0x33, 0x3b, 0x63, 0x6f, 0x6e, 0x76, 0x6f, 0x6c,
    0x75, 0x74, 0x69, 0x6f, 0x6e, 0x5f, 0x32, 0x3b, 0x43, 0x6f, 0x6e, 0x73,
    0x74, 0x5f, 0x36, 0x00, 0x04, 0x00, 0x00, 0x00, 0x01, 0x00, 0x00, 0x00,
    0x0a, 0x00, 0x00, 0x00, 0x07, 0x00, 0x00, 0x00, 0x10, 0x00, 0x00, 0x00,
    0xfa, 0xe4, 0xff, 0xff, 0x00, 0x00, 0x00, 0x01, 0x14, 0x00, 0x00, 0x00,
    0x34, 0x00, 0x00, 0x00, 0x2f, 0x00, 0x00, 0x00, 0x00, 0x00, 0x00, 0x09,
    0x6c, 0x00, 0x00, 0x00, 0xe4, 0xe4, 0xff, 0xff, 0x08, 0x00, 0x00, 0x00,
    0x14, 0x00, 0x00, 0x00, 0x01, 0x00, 0x00, 0x00, 0x80, 0xff, 0xff, 0xff,
    0xff, 0xff, 0xff, 0xff, 0x00, 0x00, 0x00, 0x00, 0x01, 0x00, 0x00, 0x00,
    0xf2, 0xa6, 0x45, 0x3d, 0x3c, 0x00, 0x00, 0x00, 0x6f, 0x6e, 0x6e, 0x78,
    0x5f, 0x74, 0x66, 0x5f, 0x70, 0x72, 0x65, 0x66, 0x69, 0x78, 0x5f, 0x2f,
    0x62, 0x6c, 0x6f, 0x63, 0x6b, 0x31, 0x2f, 0x62, 0x6c, 0x6f, 0x63, 0x6b,
    0x31, 0x2e, 0x32, 0x2f, 0x52, 0x65, 0x6c, 0x75, 0x3b, 0x41, 0x64, 0x64,
    0x5f, 0x32, 0x3b, 0x64, 0x65, 0x70, 0x74, 0x68, 0x77, 0x69, 0x73, 0x65,
    0x3b, 0x43, 0x6f, 0x6e, 0x73, 0x74, 0x5f, 0x34, 0x00, 0x00, 0x00, 0x00,
    0x04, 0x00, 0x00, 0x00, 0x01, 0x00, 0x00, 0x00, 0x0a, 0x00, 0x00, 0x00,
    0x07, 0x00, 0x00, 0x00, 0x10, 0x00, 0x00, 0x00, 0x92, 0xe5, 0xff, 0xff,
    0x00, 0x00, 0x00, 0x01, 0x14, 0x00, 0x00, 0x00, 0x30, 0x00, 0x00, 0x00,
    0x2e, 0x00, 0x00, 0x00, 0x00, 0x00, 0x00, 0x09, 0x34, 0x00, 0x00, 0x00,
    0x7c, 0xe5, 0xff, 0xff, 0x08, 0x00, 0x00, 0x00, 0x10, 0x00, 0x00, 0x00,
    0x01, 0x00, 0x00, 0x00, 0x80, 0xff, 0xff, 0xff, 0xff, 0xff, 0xff, 0xff,
    0x01, 0x00, 0x00, 0x00, 0x9f, 0x8b, 0x71, 0x3c, 0x0b, 0x00, 0x00, 0x00,
    0x74, 0x72, 0x61, 0x6e, 0x73, 0x70, 0x6f, 0x73, 0x65, 0x5f, 0x37, 0x00,
    0x04, 0x00, 0x00, 0x00, 0x01, 0x00, 0x00, 0x00, 0x0c, 0x00, 0x00, 0x00,
    0x09, 0x00, 0x00, 0x00, 0x10, 0x00, 0x00, 0x00, 0xf2, 0xe5, 0xff, 0xff,
    0x00, 0x00, 0x00, 0x01, 0x14, 0x00, 0x00, 0x00, 0x34, 0x00, 0x00, 0x00,
    0x2d, 0x00, 0x00, 0x00, 0x00, 0x00, 0x00, 0x09, 0x34, 0x00, 0x00, 0x00,
    0xdc, 0xe5, 0xff, 0xff, 0x08, 0x00, 0x00, 0x00, 0x14, 0x00, 0x00, 0x00,
    0x01, 0x00, 0x00, 0x00, 0x80, 0xff, 0xff, 0xff, 0xff, 0xff, 0xff, 0xff,
    0x00, 0x00, 0x00, 0x00, 0x01, 0x00, 0x00, 0x00, 0x9f, 0x8b, 0x71, 0x3c,
    0x05, 0x00, 0x00, 0x00, 0x50, 0x61, 0x64, 0x5f, 0x32, 0x00, 0x00, 0x00,
    0x04, 0x00, 0x00, 0x00, 0x01, 0x00, 0x00, 0x00, 0x10, 0x00, 0x00, 0x00,
    0x0c, 0x00, 0x00, 0x00, 0x09, 0x00, 0x00, 0x00, 0x52, 0xe6, 0xff, 0xff,
    0x00, 0x00, 0x00, 0x01, 0x14, 0x00, 0x00, 0x00, 0x30, 0x00, 0x00, 0x00,
    0x2c, 0x00, 0x00, 0x00, 0x00, 0x00, 0x00, 0x09, 0x34, 0x00, 0x00, 0x00,
