#ifndef GENERAL_H
#define GENERAL_H

unsigned int general_len = 22728;
unsigned char general_model[] = {
    0x1c, 0x00, 0x00, 0x00, 0x54, 0x46, 0x4c, 0x33, 0x14, 0x00, 0x20, 0x00,
    0x1c, 0x00, 0x18, 0x00, 0x14, 0x00, 0x10, 0x00, 0x0c, 0x00, 0x00, 0x00,
    0x08, 0x00, 0x04, 0x00, 0x14, 0x00, 0x00, 0x00, 0x1c, 0x00, 0x00, 0x00,
    0x1c, 0x00, 0x00, 0x00, 0x9c, 0x00, 0x00, 0x00, 0x30, 0x27, 0x00, 0x00,
    0x40, 0x27, 0x00, 0x00, 0x84, 0x57, 0x00, 0x00, 0x03, 0x00, 0x00, 0x00,
    0x00, 0x00, 0x00, 0x00, 0x03, 0x00, 0x00, 0x00, 0x5c, 0x00, 0x00, 0x00,
    0x2c, 0x00, 0x00, 0x00, 0x04, 0x00, 0x00, 0x00, 0xb8, 0xff, 0xff, 0xff,
    0x4c, 0x00, 0x00, 0x00, 0x04, 0x00, 0x00, 0x00, 0x13, 0x00, 0x00, 0x00,
    0x43, 0x4f, 0x4e, 0x56, 0x45, 0x52, 0x53, 0x49, 0x4f, 0x4e, 0x5f, 0x4d,
    0x45, 0x54, 0x41, 0x44, 0x41, 0x54, 0x41, 0x00, 0xdc, 0xff, 0xff, 0xff,
    0x4b, 0x00, 0x00, 0x00, 0x04, 0x00, 0x00, 0x00, 0x13, 0x00, 0x00, 0x00,
    0x6d, 0x69, 0x6e, 0x5f, 0x72, 0x75, 0x6e, 0x74, 0x69, 0x6d, 0x65, 0x5f,
    0x76, 0x65, 0x72, 0x73, 0x69, 0x6f, 0x6e, 0x00, 0x08, 0x00, 0x0c, 0x00,
    0x08, 0x00, 0x04, 0x00, 0x08, 0x00, 0x00, 0x00, 0x4a, 0x00, 0x00, 0x00,
    0x04, 0x00, 0x00, 0x00, 0x13, 0x00, 0x00, 0x00, 0x6d, 0x69, 0x6e, 0x5f,
    0x72, 0x75, 0x6e, 0x74, 0x69, 0x6d, 0x65, 0x5f, 0x76, 0x65, 0x72, 0x73,
    0x69, 0x6f, 0x6e, 0x00, 0x4d, 0x00, 0x00, 0x00, 0x90, 0x26, 0x00, 0x00,
    0x88, 0x26, 0x00, 0x00, 0x58, 0x26, 0x00, 0x00, 0x30, 0x26, 0x00, 0x00,
    0x10, 0x26, 0x00, 0x00, 0xf0, 0x25, 0x00, 0x00, 0xd8, 0x25, 0x00, 0x00,
    0xc0, 0x25, 0x00, 0x00, 0xa8, 0x25, 0x00, 0x00, 0x98, 0x24, 0x00, 0x00,
    0x88, 0x22, 0x00, 0x00, 0x78, 0x1a, 0x00, 0x00, 0x28, 0x1a, 0x00, 0x00,
    0x18, 0x19, 0x00, 0x00, 0xc8, 0x18, 0x00, 0x00, 0x28, 0x18, 0x00, 0x00,
    0xd8, 0x17, 0x00, 0x00, 0xc8, 0x0e, 0x00, 0x00, 0x78, 0x0e, 0x00, 0x00,
    0x68, 0x0d, 0x00, 0x00, 0x18, 0x0d, 0x00, 0x00, 0x78, 0x0c, 0x00, 0x00,
    0x28, 0x0c, 0x00, 0x00, 0x18, 0x03, 0x00, 0x00, 0x04, 0x03, 0x00, 0x00,
    0xfc, 0x02, 0x00, 0x00, 0xf4, 0x02, 0x00, 0x00, 0xec, 0x02, 0x00, 0x00,
    0xe4, 0x02, 0x00, 0x00, 0x94, 0x02, 0x00, 0x00, 0xf4, 0x01, 0x00, 0x00,
    0xec, 0x01, 0x00, 0x00, 0xe4, 0x01, 0x00, 0x00, 0xdc, 0x01, 0x00, 0x00,
    0xd4, 0x01, 0x00, 0x00, 0xcc, 0x01, 0x00, 0x00, 0xc4, 0x01, 0x00, 0x00,
    0xbc, 0x01, 0x00, 0x00, 0xb4, 0x01, 0x00, 0x00, 0xac, 0x01, 0x00, 0x00,
    0xa4, 0x01, 0x00, 0x00, 0x9c, 0x01, 0x00, 0x00, 0x94, 0x01, 0x00, 0x00,
    0x8c, 0x01, 0x00, 0x00, 0x84, 0x01, 0x00, 0x00, 0x7c, 0x01, 0x00, 0x00,
    0x74, 0x01, 0x00, 0x00, 0x6c, 0x01, 0x00, 0x00, 0x64, 0x01, 0x00, 0x00,
    0x5c, 0x01, 0x00, 0x00, 0x54, 0x01, 0x00, 0x00, 0x4c, 0x01, 0x00, 0x00,
    0x44, 0x01, 0x00, 0x00, 0x3c, 0x01, 0x00, 0x00, 0x34, 0x01, 0x00, 0x00,
    0x2c, 0x01, 0x00, 0x00, 0x24, 0x01, 0x00, 0x00, 0x1c, 0x01, 0x00, 0x00,
    0x14, 0x01, 0x00, 0x00, 0x0c, 0x01, 0x00, 0x00, 0x04, 0x01, 0x00, 0x00,
    0xfc, 0x00, 0x00, 0x00, 0xf4, 0x00, 0x00, 0x00, 0xec, 0x00, 0x00, 0x00,
    0xe4, 0x00, 0x00, 0x00, 0xdc, 0x00, 0x00, 0x00, 0xd4, 0x00, 0x00, 0x00,
    0xcc, 0x00, 0x00, 0x00, 0xc4, 0x00, 0x00, 0x00, 0xbc, 0x00, 0x00, 0x00,
    0xb4, 0x00, 0x00, 0x00, 0xac, 0x00, 0x00, 0x00, 0xa4, 0x00, 0x00, 0x00,
    0x9c, 0x00, 0x00, 0x00, 0x7c, 0x00, 0x00, 0x00, 0x5c, 0x00, 0x00, 0x00,
    0x04, 0x00, 0x00, 0x00, 0xda, 0xda, 0xff, 0xff, 0x04, 0x00, 0x00, 0x00,
    0x48, 0x00, 0x00, 0x00, 0x04, 0x00, 0x00, 0x00, 0xdc, 0xff, 0xff, 0xff,
    0x10, 0x00, 0x00, 0x00, 0x24, 0x00, 0x00, 0x00, 0x00, 0x00, 0x06, 0x00,
    0x08, 0x00, 0x04, 0x00, 0x06, 0x00, 0x00, 0x00, 0x04, 0x00, 0x00, 0x00,
    0x01, 0x00, 0x00, 0x00, 0xeb, 0x03, 0x00, 0x00, 0x08, 0x00, 0x0c, 0x00,
    0x08, 0x00, 0x04, 0x00, 0x08, 0x00, 0x00, 0x00, 0x01, 0x00, 0x00, 0x00,
    0x04, 0x00, 0x00, 0x00, 0x06, 0x00, 0x00, 0x00, 0x32, 0x2e, 0x31, 0x36,
    0x2e, 0x31, 0x00, 0x00, 0x2e, 0xdb, 0xff, 0xff, 0x04, 0x00, 0x00, 0x00,
    0x10, 0x00, 0x00, 0x00, 0x00, 0x00, 0x00, 0x00, 0x00, 0x00, 0x00, 0x00,
    0x00, 0x00, 0x00, 0x00, 0x00, 0x00, 0x00, 0x00, 0x4a, 0xdb, 0xff, 0xff,
    0x04, 0x00, 0x00, 0x00, 0x10, 0x00, 0x00, 0x00, 0x32, 0x2e, 0x31, 0x2e,
    0x30, 0x00, 0x00, 0x00, 0x00, 0x00, 0x00, 0x00, 0x00, 0x00, 0x00, 0x00,
    0x88, 0xab, 0xff, 0xff, 0x8c, 0xab, 0xff, 0xff, 0x90, 0xab, 0xff, 0xff,
    0x94, 0xab, 0xff, 0xff, 0x98, 0xab, 0xff, 0xff, 0x9c, 0xab, 0xff, 0xff,
    0xa0, 0xab, 0xff, 0xff, 0xa4, 0xab, 0xff, 0xff, 0xa8, 0xab, 0xff, 0xff,
    0xac, 0xab, 0xff, 0xff, 0xb0, 0xab, 0xff, 0xff, 0xb4, 0xab, 0xff, 0xff,
    0xb8, 0xab, 0xff, 0xff, 0xbc, 0xab, 0xff, 0xff, 0xc0, 0xab, 0xff, 0xff,
    0xc4, 0xab, 0xff, 0xff, 0xc8, 0xab, 0xff, 0xff, 0xcc, 0xab, 0xff, 0xff,
    0xd0, 0xab, 0xff, 0xff, 0xd4, 0xab, 0xff, 0xff, 0xd8, 0xab, 0xff, 0xff,
    0xdc, 0xab, 0xff, 0xff, 0xe0, 0xab, 0xff, 0xff, 0xe4, 0xab, 0xff, 0xff,
    0xe8, 0xab, 0xff, 0xff, 0xec, 0xab, 0xff, 0xff, 0xf0, 0xab, 0xff, 0xff,
    0xf4, 0xab, 0xff, 0xff, 0xf8, 0xab, 0xff, 0xff, 0xfc, 0xab, 0xff, 0xff,
    0x00, 0xac, 0xff, 0xff, 0x04, 0xac, 0xff, 0xff, 0x08, 0xac, 0xff, 0xff,
    0x0c, 0xac, 0xff, 0xff, 0x10, 0xac, 0xff, 0xff, 0x14, 0xac, 0xff, 0xff,
    0x18, 0xac, 0xff, 0xff, 0x1c, 0xac, 0xff, 0xff, 0x20, 0xac, 0xff, 0xff,
    0x24, 0xac, 0xff, 0xff, 0x28, 0xac, 0xff, 0xff, 0x2c, 0xac, 0xff, 0xff,
    0x30, 0xac, 0xff, 0xff, 0x12, 0xdc, 0xff, 0xff, 0x04, 0x00, 0x00, 0x00,
    0x90, 0x00, 0x00, 0x00, 0x33, 0x81, 0x17, 0x24, 0x82, 0x23, 0x34, 0x37,
    0x5c, 0x42, 0x7f, 0x33, 0x08, 0x7c, 0x4a, 0xcf, 0x47, 0x59, 0x81, 0xc2,
    0x45, 0x72, 0xa1, 0xde, 0xc0, 0xa7, 0x25, 0x48, 0x6d, 0x4b, 0x23, 0x7f,
    0x0d, 0x1f, 0x3f, 0xad, 0x7f, 0x88, 0xa8, 0x03, 0xb8, 0xca, 0x4a, 0xfd,
    0x4f, 0x81, 0xa7, 0x5a, 0x52, 0x73, 0xee, 0x8a, 0xc2, 0x0f, 0x7f, 0x52,
    0x59, 0x51, 0xf2, 0xa0, 0x16, 0xd8, 0xc5, 0x3d, 0xc4, 0x7f, 0x55, 0x8b,
    0xa5, 0xce, 0x69, 0xa0, 0x2f, 0x1e, 0x68, 0x4c, 0x5d, 0xba, 0x81, 0x07,
    0x38, 0xb3, 0x8e, 0x7f, 0x85, 0x6e, 0xb0, 0x68, 0xf7, 0x8e, 0xe6, 0x5a,
    0xa6, 0x5c, 0x73, 0xe4, 0x63, 0xcf, 0x7f, 0x81, 0x98, 0x53, 0x33, 0x94,
    0xb6, 0x5d, 0x96, 0x5c, 0x93, 0x07, 0x65, 0x7f, 0xa4, 0xad, 0x6c, 0x94,
    0xf5, 0x33, 0x98, 0x5f, 0xbf, 0x81, 0x79, 0xf9, 0x0d, 0xbe, 0xc2, 0x4f,
    0x75, 0x76, 0xc8, 0xc1, 0x54, 0x7f, 0xd8, 0xf7, 0x30, 0x5f, 0x33, 0x10,
    0xfe, 0xcd, 0x3f, 0x7f, 0xae, 0xdc, 0xff, 0xff, 0x04, 0x00, 0x00, 0x00,
    0x40, 0x00, 0x00, 0x00, 0x74, 0xb5, 0xff, 0xff, 0xa5, 0x10, 0xfe, 0xff,
    0xc9, 0xd6, 0x00, 0x00, 0x19, 0x8a, 0xfe, 0xff, 0x24, 0x3b, 0x00, 0x00,
    0xbb, 0x53, 0x00, 0x00, 0xe5, 0x6f, 0xff, 0xff, 0x4f, 0x2e, 0x00, 0x00,
    0xc2, 0x47, 0xff, 0xff, 0x3a, 0x94, 0x00, 0x00, 0x46, 0xe3, 0xfe, 0xff,
    0x4b, 0xad, 0x00, 0x00, 0x51, 0x3f, 0x00, 0x00, 0x5b, 0x52, 0x00, 0x00,
    0x70, 0xfe, 0xfe, 0xff, 0x82, 0xd5, 0xfe, 0xff, 0x1c, 0xad, 0xff, 0xff,
    0x20, 0xad, 0xff, 0xff, 0x24, 0xad, 0xff, 0xff, 0x28, 0xad, 0xff, 0xff,
    0x0a, 0xdd, 0xff, 0xff, 0x04, 0x00, 0x00, 0x00, 0x01, 0x00, 0x00, 0x00,
    0x7f, 0x00, 0x00, 0x00, 0x1a, 0xdd, 0xff, 0xff, 0x04, 0x00, 0x00, 0x00,
    0x00, 0x09, 0x00, 0x00, 0xc8, 0xf1, 0xa2, 0x37, 0x01, 0xb6, 0x3d, 0xfd,
    0xcd, 0xa5, 0x69, 0xb7, 0xe2, 0xcf, 0x0c, 0x7c, 0x1a, 0x59, 0x57, 0x64,
    0x8c, 0x09, 0xc6, 0xd8, 0x29, 0x07, 0xeb, 0x44, 0xdf, 0x16, 0x1a, 0x46,
    0xdd, 0x3a, 0xc7, 0xb2, 0xcb, 0xe7, 0x5e, 0xc8, 0x76, 0xe6, 0x5c, 0xe2,
    0x8c, 0xcf, 0x12, 0xe8, 0x94, 0x0f, 0x56, 0x21, 0xa8, 0xae, 0x65, 0x2d,
    0xaf, 0x87, 0x06, 0xb3, 0x87, 0x07, 0x01, 0xad, 0x3f, 0x99, 0xb6, 0x37,
    0x81, 0xbc, 0xcb, 0x38, 0x2a, 0x11, 0xd0, 0xd6, 0xbe, 0xee, 0x55, 0xf1,
    0xe8, 0x8f, 0x97, 0x53, 0xf8, 0x47, 0x1a, 0x9e, 0xc2, 0x47, 0x0e, 0x94,
    0x3b, 0x0f, 0x5a, 0xa8, 0x09, 0x9c, 0xbb, 0x98, 0x16, 0xc3, 0xff, 0x29,
    0x9c, 0xa2, 0xe9, 0xc2, 0x00, 0xee, 0xa0, 0xdc, 0xc6, 0xe1, 0x12, 0x90,
    0x10, 0x12, 0xb3, 0xcc, 0xdc, 0x45, 0xf8, 0x26, 0xae, 0x44, 0xc0, 0x45,
    0xdf, 0x41, 0x9b, 0xed, 0x09, 0xda, 0xc9, 0xaa, 0xbd, 0xe3, 0xe0, 0x4f,
    0x15, 0xaa, 0x8c, 0x9a, 0x1b, 0x5d, 0xa8, 0xbe, 0x96, 0xdb, 0xe6, 0xe8,
    0xfd, 0x30, 0x53, 0xea, 0x1c, 0xa6, 0x64, 0xea, 0xbe, 0xbc, 0x3c, 0x18,
    0xc9, 0xf7, 0x44, 0xac, 0xfe, 0xf9, 0x99, 0x94, 0xdb, 0xc7, 0x4c, 0x12,
    0xfe, 0xf7, 0x26, 0x22, 0xe3, 0xdc, 0x17, 0x3d, 0xf1, 0x48, 0x10, 0x47,
    0xa0, 0x3a, 0xc5, 0xca, 0xed, 0xd9, 0xe8, 0x00, 0x2a, 0x19, 0x96, 0xe6,
    0xf5, 0xfd, 0x48, 0x23, 0x34, 0xbf, 0x29, 0xee, 0xc4, 0xad, 0xb9, 0xab,
    0xa3, 0xb1, 0x9d, 0xb9, 0xa3, 0xce, 0x29, 0x12, 0x9d, 0x41, 0x01, 0x18,
    0x25, 0xbb, 0xcf, 0xf1, 0xfe, 0x30, 0x46, 0x04, 0x32, 0x1f, 0x2b, 0x81,
    0x2d, 0x07, 0x03, 0x96, 0x1b, 0x06, 0x9f, 0x11, 0xd0, 0xef, 0xda, 0xbb,
    0xa3, 0x1d, 0xd1, 0x99, 0x32, 0x26, 0xa3, 0x52, 0xb5, 0x04, 0x01, 0x29,
    0x24, 0x97, 0xf3, 0xda, 0x3c, 0xc8, 0x13, 0xe4, 0xf1, 0xe2, 0xc5, 0x56,
    0x1f, 0x55, 0x1b, 0xe6, 0x11, 0xe4, 0xae, 0xa2, 0x44, 0xa2, 0x61, 0x38,
    0x9c, 0xa0, 0xdf, 0xe5, 0x18, 0x18, 0x2c, 0xdd, 0x15, 0x31, 0x26, 0xb5,
    0x52, 0x22, 0xa2, 0x13, 0xd9, 0x23, 0x29, 0x58, 0x9c, 0xc1, 0xd8, 0x01,
    0x47, 0x52, 0x3c, 0x26, 0x58, 0x29, 0xb0, 0x46, 0xe7, 0x3b, 0xc6, 0x3b,
    0xc0, 0x46, 0xdf, 0x37, 0xec, 0xfb, 0xc6, 0xd9, 0x3b, 0xc7, 0xc3, 0x2a,
    0x49, 0xb3, 0x2d, 0x09, 0x37, 0x33, 0x5e, 0xdd, 0x3a, 0x20, 0x42, 0x30,
    0x90, 0xc7, 0xad, 0x29, 0xc6, 0xe1, 0x16, 0x2a, 0x1c, 0x23, 0xf2, 0x18,
    0xbf, 0xb0, 0xf2, 0xc0, 0x4e, 0xef, 0xdd, 0x48, 0xf8, 0xe5, 0xab, 0xf5,
    0xaa, 0x4f, 0xe6, 0x69, 0xfa, 0x32, 0xd4, 0x05, 0xf0, 0xca, 0x9c, 0xb9,
    0xa2, 0xc8, 0xae, 0xb4, 0x2b, 0x14, 0x25, 0x11, 0xb4, 0x13, 0xc5, 0xcb,
    0xb6, 0xea, 0xb5, 0x2a, 0xf5, 0x2a, 0x36, 0xc8, 0xed, 0x0a, 0xb0, 0xcc,
    0xf2, 0xcc, 0x97, 0xd6, 0x15, 0xb6, 0x38, 0xc3, 0xb7, 0x56, 0x03, 0x3b,
    0xa2, 0x1d, 0xe5, 0xce, 0x81, 0xee, 0xb3, 0x2e, 0xc9, 0xbe, 0xd9, 0xbf,
    0x25, 0xd5, 0xd4, 0x6c, 0x1e, 0x23, 0x31, 0xce, 0xc3, 0xe7, 0xab, 0xdc,
    0xe6, 0xd6, 0x6a, 0xff, 0xc8, 0xa9, 0x3c, 0x27, 0xab, 0x1b, 0xb6, 0x50,
    0xaa, 0x5b, 0xb4, 0x5f, 0xfa, 0xc2, 0x00, 0x08, 0xbd, 0xe9, 0xeb, 0xab,
    0x46, 0xee, 0x48, 0x58, 0xd3, 0x1d, 0xad, 0xa4, 0x4d, 0xfe, 0xdf, 0x43,
    0xa4, 0x8a, 0xa9, 0x96, 0x2c, 0xe7, 0xdf, 0x6e, 0x9f, 0x06, 0x30, 0x9a,
    0xe4, 0x25, 0x3d, 0xa0, 0xa5, 0xb7, 0xd1, 0xea, 0x13, 0xb8, 0x0d, 0xff,
    0xa6, 0xf5, 0xdd, 0x18, 0x23, 0x44, 0x01, 0x91, 0xa0, 0x3c, 0xed, 0x24,
    0x99, 0xf7, 0x5b, 0xcf, 0xe2, 0xa2, 0xce, 0xd3, 0x40, 0x63, 0xce, 0xb7,
    0x89, 0xaa, 0x2d, 0xd9, 0x19, 0x4d, 0xdd, 0xcd, 0x20, 0xc6, 0xe1, 0xad,
    0xbd, 0x38, 0x2c, 0xb4, 0xab, 0x33, 0xf2, 0x7a, 0x04, 0xfe, 0xf3, 0xb8,
    0xd5, 0x05, 0x55, 0x12, 0x42, 0x96, 0xb6, 0x3e, 0x81, 0xf0, 0xda, 0x49,
    0x48, 0xd6, 0x10, 0xe8, 0x9b, 0xee, 0x2a, 0xc6, 0xfa, 0x43, 0xa4, 0xcb,
    0xa0, 0x29, 0x4f, 0xb2, 0xe1, 0xfe, 0xf5, 0xd2, 0x18, 0x3e, 0x19, 0x5a,
    0x28, 0xcb, 0x0e, 0x42, 0xb3, 0xfe, 0xa4, 0x5a, 0xb6, 0x0d, 0xb1, 0x1b,
    0x34, 0xb3, 0x7f, 0xf0, 0x03, 0xe7, 0x26, 0xba, 0xe6, 0xbd, 0x08, 0x62,
    0x11, 0xdf, 0xc0, 0x1b, 0x31, 0xe6, 0xfa, 0x0b, 0x67, 0xd3, 0x40, 0xd7,
    0xd7, 0x51, 0x3f, 0x40, 0x42, 0x2d, 0x41, 0x26, 0x4c, 0x5d, 0x3f, 0x33,
    0x46, 0xe9, 0x6e, 0xfa, 0x4b, 0x2e, 0x0c, 0x3a, 0x05, 0x45, 0x10, 0xd9,
    0xc3, 0x29, 0x0b, 0x2e, 0x34, 0xe4, 0x61, 0xbf, 0x4f, 0xcf, 0x2b, 0xc0,
    0xc5, 0x1e, 0x03, 0x47, 0x2f, 0x79, 0xce, 0x8e, 0x5b, 0x36, 0xd5, 0xf0,
    0x45, 0xd5, 0x18, 0x32, 0x64, 0x6f, 0x11, 0xfc, 0xec, 0xca, 0x5a, 0x3d,
    0xc4, 0xda, 0x7b, 0x51, 0x20, 0xf6, 0xb6, 0xe0, 0x1f, 0x0c, 0xe3, 0x27,
    0xd9, 0xed, 0x60, 0xc7, 0xe8, 0x89, 0x50, 0x23, 0x42, 0x9b, 0xe0, 0xff,
    0x27, 0xbd, 0x49, 0xda, 0x4d, 0x97, 0x9c, 0x34, 0x4b, 0xd8, 0xdd, 0xc2,
    0x00, 0x03, 0xbf, 0xe0, 0xea, 0xec, 0xe7, 0x61, 0x96, 0xb1, 0x2d, 0xf0,
    0x5b, 0x25, 0xf0, 0x0f, 0x16, 0x56, 0xec, 0xd6, 0x39, 0xe7, 0x1b, 0x36,
    0xe2, 0x76, 0x28, 0xc3, 0xc3, 0xc6, 0x2c, 0xb7, 0x47, 0x3f, 0x50, 0xde,
    0xeb, 0x23, 0xe9, 0x2f, 0x52, 0x99, 0xf5, 0x03, 0x64, 0x58, 0x25, 0x81,
    0xe2, 0x04, 0xd9, 0x54, 0x3b, 0x76, 0x21, 0x28, 0xdb, 0x38, 0x30, 0x52,
    0x04, 0xc3, 0x4c, 0xcc, 0xb8, 0x3a, 0xb8, 0x1f, 0xef, 0xff, 0xb7, 0xdb,
    0x3b, 0xb5, 0xc6, 0xc9, 0xd9, 0x77, 0x2c, 0x3a, 0x34, 0x3d, 0x3f, 0xc3,
    0x59, 0x21, 0x55, 0xbe, 0x04, 0xf8, 0xc6, 0x5b, 0x02, 0xe6, 0xd8, 0xf0,
    0xe9, 0xad, 0x2b, 0xaa, 0x0f, 0xbe, 0xbf, 0xd7, 0xc9, 0x8c, 0xd4, 0x96,
    0xd5, 0x22, 0x14, 0xcd, 0x21, 0x90, 0xec, 0xdd, 0x50, 0xa5, 0x0c, 0xf2,
    0xe6, 0x00, 0xdd, 0xa3, 0x03, 0x0b, 0xc8, 0x2f, 0xa0, 0x55, 0x93, 0x8a,
    0x0f, 0x9d, 0x00, 0xb7, 0x33, 0xb1, 0x11, 0x51, 0xeb, 0xa3, 0x85, 0xf0,
    0x07, 0x2d, 0x57, 0x04, 0xed, 0x24, 0x90, 0x01, 0xce, 0xe0, 0xd0, 0xe5,
    0xfa, 0xb3, 0x11, 0x2a, 0x20, 0x4a, 0xdb, 0x37, 0xdf, 0xb0, 0xd3, 0x2c,
    0xbf, 0x02, 0x3e, 0x2b, 0x02, 0x0d, 0xd5, 0x41, 0xc3, 0xfa, 0xb3, 0xe7,
    0x97, 0x6a, 0xe1, 0x18, 0x85, 0xb8, 0xc0, 0x11, 0x1b, 0x56, 0xfd, 0x07,
    0xa9, 0x02, 0xfb, 0xe5, 0xfe, 0x07, 0xd8, 0x29, 0x09, 0xef, 0xb4, 0x38,
    0xc8, 0xd3, 0x3f, 0x84, 0x44, 0xdc, 0xf6, 0xd3, 0x35, 0xe5, 0xd0, 0xb9,
    0x3b, 0x29, 0xed, 0x29, 0xc4, 0xab, 0x56, 0xe4, 0xb7, 0xd2, 0x5c, 0x01,
    0x36, 0xf4, 0xb3, 0xfa, 0x1e, 0x2a, 0xd6, 0xf8, 0xf5, 0xed, 0xac, 0x81,
    0x8a, 0xd3, 0xaa, 0xce, 0xc8, 0xfb, 0xda, 0xc5, 0x21, 0xa1, 0xb3, 0x97,
    0xe6, 0xed, 0xe7, 0x4b, 0x0e, 0x3d, 0x1e, 0xf1, 0x18, 0xdc, 0xb1, 0xcc,
    0x46, 0xf7, 0x96, 0x02, 0x1e, 0xab, 0x46, 0x46, 0xac, 0xb2, 0x4d, 0x13,
    0x16, 0xc9, 0x28, 0xc6, 0x2a, 0xa3, 0x02, 0xc7, 0xcc, 0xb4, 0x53, 0xe1,
    0xd2, 0xd5, 0xc8, 0x64, 0x1c, 0xfd, 0x0e, 0xfb, 0x4d, 0x1e, 0x1b, 0xa2,
    0xd5, 0xa0, 0x2c, 0xf6, 0x0a, 0x0a, 0xe4, 0x31, 0xcc, 0xdd, 0x14, 0xf7,
    0xba, 0xbf, 0xe7, 0xd4, 0xf5, 0xe5, 0xd9, 0x62, 0x3f, 0xe0, 0xd6, 0xa1,
    0x0d, 0xe3, 0x90, 0x10, 0x04, 0x0e, 0xa5, 0x89, 0x25, 0x37, 0x50, 0xdf,
    0x9f, 0xfd, 0x11, 0x0a, 0x67, 0xa3, 0x17, 0x25, 0x3f, 0x26, 0xa2, 0x4a,
    0xfb, 0x32, 0xff, 0x35, 0x00, 0xc1, 0x45, 0x0f, 0x2a, 0x9b, 0xf1, 0xc4,
    0xcd, 0x4a, 0x56, 0x03, 0x2a, 0x5c, 0xae, 0xb5, 0xad, 0xd5, 0x41, 0x9d,
    0xc2, 0x45, 0x4b, 0xea, 0xd0, 0xfa, 0xd0, 0x81, 0x4f, 0x60, 0x07, 0x10,
    0xb2, 0xef, 0x0e, 0x6b, 0xfe, 0xdb, 0x9a, 0xf9, 0xa4, 0xac, 0x21, 0x0a,
    0xbb, 0x26, 0x02, 0xd1, 0x4e, 0x4f, 0x33, 0x65, 0x63, 0x1f, 0x07, 0xdd,
    0x64, 0x24, 0x66, 0xb2, 0xf9, 0x3f, 0x64, 0x09, 0x07, 0x4e, 0xe3, 0xcb,
    0x96, 0x5a, 0xd4, 0xef, 0xac, 0x98, 0xbc, 0xbb, 0x15, 0xca, 0x0a, 0x36,
    0x30, 0x00, 0x11, 0x68, 0x4f, 0x8f, 0x32, 0xb2, 0xce, 0xeb, 0xcc, 0x50,
    0xf3, 0x36, 0xcd, 0x43, 0xbb, 0xf5, 0xd2, 0x4e, 0xd0, 0xa6, 0x99, 0xec,
    0x17, 0x2a, 0xba, 0xf0, 0xe8, 0xe4, 0x20, 0x1c, 0xd0, 0xc6, 0x68, 0x60,
    0x0f, 0x02, 0xf7, 0x1a, 0xcf, 0x95, 0x94, 0x3e, 0xbc, 0x98, 0x12, 0xc2,
    0x94, 0x04, 0xa8, 0x5e, 0xbf, 0xdb, 0x2d, 0xe2, 0xcf, 0xc4, 0xc8, 0xf0,
    0xce, 0x06, 0x81, 0x11, 0x74, 0x2e, 0xab, 0x2f, 0x0c, 0x33, 0x4a, 0x18,
    0x01, 0x3a, 0x54, 0x4a, 0x4a, 0x4b, 0x67, 0x2c, 0x4c, 0x0f, 0x43, 0xc7,
    0xd5, 0x0e, 0xbe, 0x67, 0x90, 0x33, 0x4f, 0x4a, 0x57, 0x43, 0xff, 0xe4,
    0x50, 0xdc, 0x32, 0x2f, 0xf8, 0xa9, 0xb4, 0xb6, 0xd8, 0x36, 0xc2, 0xb4,
    0xfb, 0x26, 0x3f, 0x32, 0x1e, 0xee, 0x6b, 0xb3, 0x0a, 0x11, 0x29, 0x2b,
    0x4a, 0xa8, 0x36, 0x79, 0xc7, 0x0b, 0x27, 0xec, 0x65, 0xe9, 0xfa, 0x62,
    0xf4, 0x18, 0x91, 0xb7, 0xee, 0xc8, 0x56, 0xec, 0x66, 0x41, 0xfd, 0xe3,
    0xef, 0xad, 0x76, 0xfb, 0x30, 0x7a, 0x15, 0x69, 0xbc, 0xe0, 0x21, 0xd7,
    0x0e, 0x20, 0x9e, 0x41, 0xf6, 0xd7, 0x4c, 0xc0, 0xa6, 0x0c, 0x26, 0xbc,
    0x2a, 0x11, 0xf0, 0x3b, 0x33, 0x9a, 0x6b, 0x44, 0xff, 0xdd, 0xd7, 0x11,
    0xae, 0xba, 0x24, 0x9d, 0x64, 0xc7, 0x12, 0xfe, 0x53, 0xb8, 0x9c, 0xbf,
    0xd9, 0xd9, 0xb6, 0xf3, 0xda, 0xa9, 0xa3, 0xf5, 0xbe, 0x59, 0xf5, 0x92,
    0x94, 0xf3, 0x26, 0xe7, 0xb4, 0xb2, 0x12, 0x49, 0x0d, 0x55, 0x28, 0xa7,
    0x7f, 0xf0, 0xf4, 0x2a, 0x4b, 0xc9, 0x39, 0x64, 0xf9, 0x45, 0x38, 0x5e,
    0xa5, 0xa8, 0xea, 0x20, 0xb8, 0x0a, 0x48, 0x4b, 0x34, 0x7c, 0xd8, 0x9e,
    0xef, 0xcd, 0x90, 0x3c, 0x2e, 0x47, 0xbb, 0xa9, 0x1e, 0x49, 0x5d, 0xd1,
    0x20, 0x05, 0x1a, 0xdb, 0x19, 0x4d, 0xfc, 0xf7, 0xe8, 0xf5, 0x34, 0xab,
    0x3b, 0x41, 0x1e, 0x25, 0x9c, 0x32, 0x62, 0x39, 0xb3, 0xcf, 0xb5, 0x2a,
    0xdd, 0x27, 0xfa, 0x3f, 0xdd, 0xe3, 0xa9, 0xad, 0xff, 0xda, 0x1a, 0xa4,
    0x9a, 0xee, 0x25, 0x23, 0xe7, 0x89, 0xe0, 0xc4, 0x41, 0x90, 0x0e, 0xf0,
    0xb8, 0xec, 0x31, 0x24, 0xbb, 0x36, 0x24, 0x8e, 0x81, 0xe5, 0xdd, 0x51,
    0xca, 0x1a, 0x35, 0x43, 0xcb, 0x23, 0x46, 0x2a, 0xa0, 0xe3, 0xea, 0xde,
    0x81, 0xb3, 0x50, 0xe7, 0x82, 0xd2, 0x3a, 0xd3, 0xcf, 0xda, 0xc1, 0xdf,
    0x09, 0xe9, 0x19, 0xcd, 0x43, 0x38, 0xf5, 0xb0, 0xe9, 0xe1, 0x05, 0x25,
    0xf8, 0x0c, 0xd5, 0xce, 0xb9, 0xe6, 0x1d, 0x55, 0xc5, 0x27, 0x54, 0xba,
    0xf3, 0x3f, 0x39, 0x35, 0x2d, 0x41, 0xd2, 0xb5, 0xea, 0xdd, 0xbf, 0x0f,
    0x7b, 0xb6, 0xb0, 0xd1, 0x4e, 0x5a, 0x87, 0x4e, 0x60, 0xcb, 0xa4, 0xce,
    0xa6, 0xfb, 0x3a, 0x24, 0x65, 0xda, 0xce, 0x1d, 0xf5, 0x2e, 0x22, 0xec,
    0x24, 0x98, 0xef, 0xe5, 0x46, 0xe5, 0x1b, 0xcc, 0xc2, 0xa3, 0x0f, 0xea,
    0x2d, 0x9e, 0xb4, 0x11, 0x60, 0x96, 0x24, 0x3e, 0x54, 0xef, 0x51, 0x36,
    0x89, 0x32, 0x4b, 0x72, 0x3d, 0x56, 0xdf, 0xc0, 0xae, 0x8a, 0x20, 0x8e,
    0x27, 0xdd, 0x65, 0xd8, 0x36, 0xae, 0x20, 0x23, 0xb6, 0xb4, 0xc5, 0x33,
    0x6e, 0x51, 0xcc, 0xfa, 0x0b, 0x1b, 0xaf, 0x1c, 0x15, 0x42, 0xb3, 0x31,
    0x18, 0x2d, 0x3b, 0x03, 0x25, 0xb5, 0xbb, 0x2c, 0xe1, 0xa1, 0xd4, 0x55,
    0x9f, 0xc6, 0x2d, 0xfd, 0x81, 0x18, 0x0c, 0xf2, 0x48, 0x3a, 0x40, 0xc6,
    0xbb, 0xbd, 0x0d, 0x1b, 0xd1, 0xb3, 0xc6, 0x5c, 0x3d, 0x1d, 0x4c, 0xfb,
    0x63, 0x58, 0x26, 0xfc, 0x49, 0x0a, 0x56, 0x0c, 0x0d, 0x68, 0xce, 0xe9,
    0xb9, 0x3c, 0x33, 0xc5, 0xc6, 0xf2, 0x9b, 0xc8, 0xec, 0xa3, 0xdc, 0x4a,
    0xe7, 0xc9, 0x3f, 0x98, 0x5a, 0x06, 0xd0, 0xc3, 0xe7, 0xba, 0xc2, 0xa4,
    0x22, 0x0e, 0x90, 0x05, 0x2d, 0x37, 0xe4, 0xaa, 0xaf, 0xc5, 0xe1, 0x6c,
    0xa6, 0x41, 0xc8, 0x9b, 0x49, 0x0f, 0x13, 0x1f, 0x53, 0xd5, 0xe1, 0xfa,
    0xac, 0x56, 0xd9, 0x1e, 0x35, 0x02, 0x49, 0x5c, 0xf1, 0xb2, 0xa2, 0xed,
    0x12, 0x3c, 0x44, 0x49, 0xff, 0xe5, 0x15, 0x3a, 0xa7, 0xa6, 0xed, 0x31,
    0xd7, 0x32, 0xdc, 0xdd, 0xe1, 0x5a, 0xa5, 0xbd, 0x64, 0xd7, 0x1a, 0xa5,
    0x34, 0xfe, 0x3d, 0xd1, 0x2b, 0xe7, 0x1c, 0x31, 0xe7, 0xf6, 0x3b, 0x2e,
    0x4a, 0xeb, 0xb9, 0xf5, 0xec, 0xf0, 0xa3, 0xb0, 0x0f, 0xb6, 0x65, 0xae,
    0x27, 0xaa, 0x97, 0x41, 0xe2, 0x43, 0x99, 0xa6, 0x1c, 0xa6, 0xef, 0x2b,
    0xe5, 0x81, 0x54, 0x07, 0x0a, 0xb5, 0xe2, 0x26, 0x33, 0xf8, 0x22, 0x26,
    0x91, 0x01, 0xbd, 0x16, 0x09, 0xc1, 0x42, 0x36, 0xc4, 0xcb, 0xd1, 0x10,
    0x71, 0xf3, 0x56, 0xbe, 0x04, 0xef, 0xb6, 0x53, 0x15, 0xfd, 0x5d, 0x4a,
    0x5b, 0xaf, 0x90, 0x33, 0x41, 0xeb, 0xc8, 0xb2, 0xdf, 0x25, 0xea, 0x12,
    0x4f, 0x49, 0xf3, 0x46, 0xf0, 0xd4, 0x52, 0x0a, 0xeb, 0x5b, 0x31, 0xbc,
    0x60, 0x3e, 0x65, 0x3c, 0xee, 0x35, 0xac, 0xca, 0x73, 0x64, 0xc6, 0xc2,
    0xc7, 0x45, 0xfa, 0xf1, 0x1f, 0x40, 0x5f, 0x15, 0x00, 0xe8, 0x26, 0xe9,
    0x0a, 0x98, 0x38, 0xa9, 0x32, 0xfc, 0xef, 0xc9, 0x3c, 0x2e, 0xfc, 0xc0,
    0x16, 0xcf, 0xfe, 0x66, 0xef, 0x60, 0xa7, 0xfd, 0x11, 0x31, 0x2b, 0x8a,
    0xb1, 0x14, 0x1d, 0x0d, 0xaf, 0x9e, 0xef, 0x65, 0x06, 0xec, 0xea, 0xd8,
    0x19, 0xcf, 0x18, 0x05, 0xd8, 0xaf, 0xe9, 0x29, 0x1b, 0xd7, 0x15, 0x23,
    0x98, 0x40, 0x2a, 0xbd, 0x33, 0x2b, 0xfb, 0xfd, 0xe1, 0x0b, 0xc5, 0x18,
    0xeb, 0xa2, 0x30, 0x40, 0xcb, 0x31, 0xca, 0x44, 0xe6, 0x13, 0x02, 0xf8,
    0xea, 0xc1, 0xf9, 0xb2, 0xf6, 0xef, 0x4b, 0xcc, 0x0e, 0xd4, 0x06, 0xd6,
    0x1f, 0xe3, 0x36, 0xac, 0xd7, 0x0e, 0x26, 0x28, 0xe0, 0xed, 0x35, 0x2e,
    0xec, 0xdf, 0xf0, 0xf6, 0xf8, 0xdf, 0x32, 0xe3, 0xae, 0xd3, 0x2d, 0x18,
    0x31, 0xbc, 0x36, 0x27, 0xd1, 0x37, 0x5f, 0xf2, 0xab, 0xdb, 0x25, 0xa0,
    0xf4, 0xe6, 0xf7, 0xd0, 0x81, 0xee, 0xbe, 0x0b, 0x23, 0x04, 0x21, 0xc5,
    0x25, 0xf5, 0xc7, 0x0f, 0xb8, 0x0f, 0xb7, 0x25, 0xd7, 0xb0, 0x25, 0x52,
    0xd1, 0xf8, 0x04, 0xcf, 0x15, 0xc6, 0xce, 0x1f, 0x38, 0x24, 0xe2, 0x06,
    0x2b, 0xaf, 0xe5, 0xf0, 0xc3, 0x52, 0x3b, 0x2e, 0xa5, 0xb2, 0xe6, 0x98,
    0xe6, 0xcd, 0xa1, 0x36, 0xeb, 0xd6, 0xfc, 0x69, 0x37, 0x09, 0xb9, 0x66,
    0x51, 0xec, 0xc6, 0x9a, 0xb8, 0xa6, 0xe2, 0x3f, 0x4e, 0xcd, 0x31, 0x7a,
    0x31, 0xd4, 0xb0, 0x26, 0x2c, 0x06, 0xa8, 0x2b, 0x3d, 0x33, 0x49, 0x2d,
    0x6a, 0xde, 0x16, 0x6b, 0x81, 0xf1, 0x51, 0xe4, 0xda, 0xe0, 0x0a, 0x91,
    0x1c, 0x18, 0x27, 0x4f, 0x76, 0xc8, 0x1c, 0x92, 0x16, 0x3f, 0x95, 0x59,
    0x6e, 0x09, 0x0b, 0xba, 0xb1, 0xcf, 0xac, 0xa9, 0x5c, 0x9f, 0x9b, 0x09,
    0xc4, 0xb9, 0xd8, 0xfc, 0x93, 0x81, 0xda, 0xf0, 0x0b, 0x3c, 0xb0, 0x02,
    0x26, 0x3c, 0x41, 0x31, 0xdf, 0x0a, 0xa4, 0xa0, 0x26, 0xd5, 0xa4, 0xa9,
    0x9d, 0x2f, 0xe1, 0xb9, 0xb9, 0xc7, 0x5b, 0xce, 0x42, 0x08, 0x06, 0xbe,
    0xc4, 0x0b, 0xfb, 0xda, 0x2b, 0x09, 0x2f, 0x56, 0x2e, 0xd4, 0x63, 0x34,
    0xeb, 0xa6, 0x14, 0x4e, 0xf9, 0x08, 0x1d, 0xfe, 0xfd, 0x0d, 0xd2, 0x99,
    0xed, 0x54, 0xad, 0xb7, 0xca, 0xc3, 0xe4, 0x11, 0x69, 0xb8, 0xe8, 0x0e,
    0xf7, 0x48, 0x01, 0x6f, 0xb2, 0xc5, 0xfb, 0xb3, 0x05, 0x53, 0xb8, 0xcd,
    0x3a, 0x9d, 0x10, 0x2c, 0x9f, 0xdc, 0x6c, 0xf4, 0xa2, 0x11, 0x1c, 0x35,
    0x3c, 0x14, 0x4d, 0xb7, 0x01, 0xf7, 0xb1, 0xca, 0xed, 0x3c, 0xfe, 0x0a,
    0x19, 0x03, 0xbd, 0x30, 0xfd, 0x20, 0x04, 0x2b, 0xdc, 0x6a, 0x04, 0x27,
    0x28, 0xce, 0x3d, 0xb4, 0x17, 0x3b, 0xc7, 0xe6, 0x16, 0xde, 0x05, 0xdf,
    0x3b, 0x45, 0x04, 0xef, 0xdf, 0x1e, 0xf8, 0x6b, 0x07, 0xe8, 0x04, 0x11,
    0x28, 0x25, 0xe9, 0x48, 0x7f, 0xbd, 0x41, 0xd2, 0xd6, 0xfd, 0x13, 0x22,
    0x32, 0x12, 0xd2, 0xb7, 0x35, 0xae, 0x02, 0x40, 0xde, 0xff, 0x12, 0x39,
    0x28, 0xe1, 0xcd, 0xd3, 0xe0, 0x06, 0x33, 0xd6, 0x77, 0x03, 0x18, 0xd8,
    0xd9, 0x9c, 0xf5, 0xd7, 0x49, 0x38, 0x01, 0x21, 0xd7, 0x2d, 0xd9, 0x38,
    0xf3, 0x21, 0x34, 0x1e, 0x30, 0xf1, 0xf6, 0xf5, 0xde, 0x4a, 0xbe, 0xfd,
    0x42, 0xf7, 0x13, 0x56, 0x26, 0xe6, 0xff, 0xff, 0x04, 0x00, 0x00, 0x00,
    0x40, 0x00, 0x00, 0x00, 0x00, 0x00, 0x00, 0x00, 0x00, 0x00, 0x00, 0x00,
    0x00, 0x00, 0x00, 0x00, 0x00, 0x00, 0x00, 0x00, 0x00, 0x00, 0x00, 0x00,
    0x00, 0x00, 0x00, 0x00, 0x00, 0x00, 0x00, 0x00, 0x00, 0x00, 0x00, 0x00,
    0x00, 0x00, 0x00, 0x00, 0x00, 0x00, 0x00, 0x00, 0x00, 0x00, 0x00, 0x00,
    0x00, 0x00, 0x00, 0x00, 0x00, 0x00, 0x00, 0x00, 0x00, 0x00, 0x00, 0x00,
    0x00, 0x00, 0x00, 0x00, 0x00, 0x00, 0x00, 0x00, 0x72, 0xe6, 0xff, 0xff,
    0x04, 0x00, 0x00, 0x00, 0x90, 0x00, 0x00, 0x00, 0xdd, 0x22, 0x81, 0x66,
    0x01, 0x7a, 0x6d, 0x7e, 0x38, 0x7b, 0x7c, 0x0f, 0x64, 0x50, 0x57, 0x93,
    0x5e, 0xaf, 0x9a, 0xd9, 0x90, 0x38, 0x2a, 0xbc, 0xe2, 0x2e, 0x7f, 0x9a,
    0x7a, 0x64, 0x16, 0x29, 0x4f, 0x81, 0xdb, 0xb4, 0x72, 0x0a, 0x14, 0x0f,
    0xce, 0xe1, 0xd7, 0x81, 0xb4, 0x7f, 0xa1, 0xe1, 0xf6, 0x2f, 0x6e, 0x00,
    0xbd, 0x7f, 0xf4, 0x58, 0x5f, 0x67, 0x0c, 0xeb, 0x07, 0xb4, 0x7f, 0x6e,
    0x81, 0xf1, 0x2f, 0xb1, 0x1f, 0x17, 0x2b, 0xec, 0x7f, 0xc8, 0xa9, 0x6e,
    0x7f, 0x65, 0x8c, 0xb6, 0xd3, 0x6a, 0xee, 0x77, 0xf9, 0xcc, 0x3a, 0x42,
    0x94, 0x81, 0xb8, 0x9a, 0xcc, 0x3a, 0xc1, 0x81, 0x2b, 0xbe, 0x39, 0xf0,
    0x81, 0x27, 0x66, 0xcf, 0x41, 0x9c, 0x06, 0xf8, 0xd3, 0xf7, 0xff, 0x8f,
    0x4f, 0x53, 0x24, 0x5a, 0x25, 0xc6, 0x21, 0x54, 0x62, 0x17, 0x8f, 0x0b,
    0x81, 0x3c, 0x21, 0x6a, 0x27, 0x47, 0xeb, 0x7f, 0x66, 0x60, 0x81, 0x7f,
    0x2c, 0x48, 0xde, 0x27, 0x1d, 0x6f, 0x64, 0x10, 0x0e, 0xe7, 0xff, 0xff,
    0x04, 0x00, 0x00, 0x00, 0x40, 0x00, 0x00, 0x00, 0x3e, 0xff, 0xff, 0xff,
    0xd9, 0xff, 0xff, 0xff, 0x9f, 0x00, 0x00, 0x00, 0x42, 0xff, 0xff, 0xff,
    0xcc, 0x00, 0x00, 0x00, 0x7b, 0xf9, 0xff, 0xff, 0x7a, 0xff, 0xff, 0xff,
    0xa4, 0xf9, 0xff, 0xff, 0xad, 0xf3, 0xff, 0xff, 0xd6, 0xff, 0xff, 0xff,
    0x7a, 0x00, 0x00, 0x00, 0x91, 0x01, 0x00, 0x00, 0xa7, 0xfc, 0xff, 0xff,
    0xf3, 0xfa, 0xff, 0xff, 0x74, 0xff, 0xff, 0xff, 0x9d, 0x07, 0x00, 0x00,
    0x5a, 0xe7, 0xff, 0xff, 0x04, 0x00, 0x00, 0x00, 0x00, 0x01, 0x00, 0x00,
    0xc7, 0x7f, 0x2b, 0x31, 0xe9, 0x1a, 0x23, 0x88, 0x3a, 0x49, 0x48, 0x88,
    0x62, 0xcf, 0xc3, 0xec, 0xce, 0x17, 0xed, 0xc2, 0x7f, 0x64, 0x63, 0xf2,
    0xb5, 0x9f, 0xdd, 0x37, 0x4e, 0x78, 0x9a, 0xe1, 0x81, 0x10, 0x82, 0xe7,
    0x8b, 0xbb, 0x4e, 0x11, 0x19, 0xe3, 0x83, 0x00, 0x30, 0x44, 0x93, 0xa3,
    0xba, 0xb9, 0x60, 0x7f, 0x5f, 0xd6, 0x2a, 0xd3, 0x07, 0xac, 0x83, 0x66,
    0x3d, 0xcf, 0xfc, 0x02, 0x5c, 0x0c, 0xb8, 0x4d, 0x9f, 0x7f, 0xf6, 0x34,
    0xd4, 0xe3, 0x16, 0xee, 0x5c, 0x21, 0x37, 0x3a, 0x2d, 0x26, 0xe4, 0x17,
    0x15, 0xc3, 0x05, 0xa4, 0xf2, 0xcf, 0x26, 0x81, 0x21, 0x98, 0x09, 0x2d,
    0x11, 0xb0, 0xcc, 0x5e, 0x36, 0x0c, 0xb3, 0x88, 0xf1, 0xe9, 0x55, 0x8c,
    0xf7, 0xb1, 0x81, 0x36, 0x55, 0x5f, 0xf6, 0xaf, 0x1e, 0x7e, 0x7b, 0xc4,
    0x9a, 0x8f, 0xcd, 0x7f, 0x39, 0xf2, 0x2a, 0x75, 0xe6, 0x84, 0x09, 0x2e,
    0x57, 0xab, 0x46, 0xd8, 0x38, 0xac, 0x79, 0x64, 0x81, 0x13, 0x8e, 0x94,
    0x00, 0x65, 0xb2, 0xbe, 0xed, 0x7a, 0x6f, 0xa6, 0x81, 0x7a, 0x8e, 0x9b,
    0x0a, 0xe0, 0x24, 0x78, 0x63, 0x9d, 0x2a, 0xdf, 0x51, 0xa8, 0x16, 0x34,
    0x2d, 0x5c, 0x7f, 0x60, 0x04, 0xfd, 0x35, 0x41, 0xe8, 0x33, 0xd7, 0x58,
    0x0b, 0xdb, 0x75, 0x4b, 0x37, 0x39, 0x4a, 0x81, 0xc9, 0xa7, 0xda, 0xc5,
    0xfc, 0x6d, 0x2d, 0x18, 0xcb, 0xb1, 0x67, 0x46, 0x11, 0xf8, 0x3f, 0x81,
    0x4d, 0xf2, 0x9d, 0x28, 0x81, 0x00, 0x5e, 0x45, 0x0e, 0xfe, 0x57, 0xea,
    0x2c, 0xd8, 0xcb, 0xad, 0x89, 0x16, 0x89, 0x47, 0x3e, 0x25, 0x0e, 0x7f,
    0xd3, 0xf8, 0x3d, 0x5e, 0x95, 0xcc, 0x16, 0x90, 0xfc, 0x42, 0x8b, 0xda,
    0xeb, 0xa3, 0xe3, 0x00, 0xbb, 0xcd, 0xef, 0x39, 0xfc, 0xd6, 0x9b, 0x4c,
    0xc7, 0x72, 0xb2, 0x81, 0x66, 0xe8, 0xff, 0xff, 0x04, 0x00, 0x00, 0x00,
    0x40, 0x00, 0x00, 0x00, 0x20, 0x01, 0x00, 0x00, 0x84, 0xfa, 0xff, 0xff,
    0x46, 0x09, 0x00, 0x00, 0x70, 0xfd, 0xff, 0xff, 0x92, 0xfa, 0xff, 0xff,
    0x90, 0x05, 0x00, 0x00, 0xbd, 0x05, 0x00, 0x00, 0xbf, 0xf9, 0xff, 0xff,
    0x6c, 0x03, 0x00, 0x00, 0x2c, 0x02, 0x00, 0x00, 0x04, 0xf6, 0xff, 0xff,
    0x2d, 0x02, 0x00, 0x00, 0xae, 0xff, 0xff, 0xff, 0xcf, 0x01, 0x00, 0x00,
    0x34, 0x02, 0x00, 0x00, 0xf2, 0x05, 0x00, 0x00, 0xb2, 0xe8, 0xff, 0xff,
    0x04, 0x00, 0x00, 0x00, 0x00, 0x09, 0x00, 0x00, 0xc8, 0xc7, 0x49, 0x27,
    0x16, 0xeb, 0x51, 0x58, 0x34, 0xdb, 0x04, 0xc3, 0x4e, 0xbd, 0x62, 0xa5,
    0x3d, 0x45, 0x05, 0xbb, 0xf3, 0xb7, 0xc5, 0x3d, 0x22, 0x56, 0xc2, 0xf2,
    0x03, 0x16, 0x13, 0xe6, 0x27, 0xdf, 0x47, 0xd0, 0xf1, 0x47, 0xc5, 0x4b,
    0x38, 0x25, 0xc6, 0xf9, 0xff, 0x3b, 0xfa, 0xe8, 0xe8, 0x29, 0x13, 0xcc,
    0x51, 0x43, 0xaf, 0xfc, 0x0c, 0x55, 0x3f, 0x34, 0x59, 0x1b, 0xc7, 0x31,
    0x51, 0xc2, 0x1a, 0x0e, 0xd0, 0x38, 0x1f, 0x08, 0x3a, 0x1c, 0x7f, 0xb9,
    0xf6, 0xd9, 0x16, 0x16, 0x09, 0xa8, 0x05, 0xa9, 0x1d, 0x3d, 0x18, 0x6c,
    0xdf, 0xcd, 0x06, 0xf8, 0xe0, 0x21, 0xdd, 0x95, 0xb9, 0x35, 0x29, 0x1e,
    0x0d, 0xb9, 0x0e, 0x5a, 0xd0, 0x23, 0x5c, 0xf6, 0x4e, 0x1b, 0xe3, 0xcd,
    0xca, 0xda, 0x2f, 0xa7, 0x09, 0x34, 0x26, 0x6e, 0x26, 0x55, 0xe8, 0xb1,
    0xdd, 0xa2, 0xbc, 0xd9, 0x20, 0x04, 0xd2, 0xee, 0xe3, 0x21, 0xb0, 0xbc,
    0x99, 0x05, 0x99, 0xd1, 0xc8, 0xf3, 0xda, 0x02, 0xb6, 0x1a, 0x4a, 0x22,
    0xc5, 0x9a, 0x00, 0x91, 0xf4, 0xea, 0x32, 0xe6, 0x40, 0x03, 0x22, 0xb9,
    0xcd, 0x31, 0xda, 0x27, 0x97, 0x37, 0x06, 0xd8, 0x0e, 0xb8, 0xdb, 0x1a,
    0xd2, 0x4b, 0x10, 0xdc, 0x3c, 0xf1, 0xbb, 0x5f, 0xc7, 0xe6, 0xf1, 0x00,
    0x2d, 0xfa, 0x01, 0x49, 0x99, 0xc9, 0xf9, 0x36, 0x39, 0x3d, 0x27, 0x3d,
    0xbd, 0x93, 0x23, 0xc6, 0xc3, 0xd2, 0x42, 0x9b, 0x0d, 0xe1, 0x5f, 0xf6,
    0xc9, 0xba, 0x63, 0x3a, 0x07, 0x1d, 0x13, 0xaa, 0x0b, 0x20, 0xa0, 0x12,
    0xab, 0x3b, 0x22, 0x53, 0x5d, 0xdb, 0x0e, 0xd6, 0xc9, 0x8c, 0xc0, 0xcf,
    0x5b, 0xc8, 0xdc, 0x9b, 0x81, 0x4f, 0x2e, 0x01, 0x28, 0xc4, 0xf4, 0xea,
    0xba, 0xba, 0x4c, 0x99, 0xec, 0xf5, 0x32, 0x38, 0xcd, 0xd5, 0xf3, 0x04,
    0x10, 0xa9, 0xfc, 0x25, 0x00, 0xcc, 0x15, 0x0d, 0xe9, 0xd4, 0x37, 0xf0,
    0x0c, 0xb4, 0x52, 0xc9, 0xe6, 0x0e, 0xc5, 0xab, 0xfa, 0xca, 0xd5, 0x2b,
    0x13, 0xb2, 0x41, 0xd5, 0xf1, 0xc5, 0x4d, 0xe6, 0xfc, 0xe3, 0xb2, 0x33,
    0x22, 0x6e, 0x04, 0xb4, 0x92, 0x49, 0x5c, 0x4e, 0x2d, 0xdf, 0x39, 0x0c,
    0x4e, 0x0a, 0xeb, 0x17, 0x48, 0xc2, 0x92, 0xda, 0xa0, 0xef, 0x04, 0x25,
    0xbd, 0xcb, 0x24, 0xfc, 0xe0, 0x6f, 0xf2, 0xe2, 0x7d, 0x17, 0x30, 0xd7,
    0xd8, 0x46, 0xdb, 0x32, 0xb5, 0x29, 0x0a, 0xc4, 0x21, 0xf4, 0xef, 0xbd,
    0x08, 0xe6, 0x46, 0x9c, 0x49, 0xe5, 0x6a, 0x61, 0xc8, 0x16, 0x30, 0xcf,
    0x3c, 0x06, 0x07, 0xab, 0x1d, 0x3c, 0xe8, 0x5a, 0xe4, 0xb1, 0x0b, 0x0b,
    0x15, 0xc2, 0x2e, 0x06, 0xaf, 0x03, 0xee, 0x20, 0x1a, 0x4e, 0x31, 0xda,
    0xe6, 0xcb, 0x82, 0x14, 0xfb, 0x2b, 0xe0, 0xd2, 0x09, 0xac, 0x44, 0x10,
    0x30, 0x6e, 0x06, 0x4f, 0xd4, 0xd4, 0xfa, 0xe5, 0xd4, 0x5d, 0xb4, 0x1a,
    0x1c, 0x06, 0x78, 0xe1, 0xd6, 0x29, 0x2f, 0x9d, 0x30, 0xc3, 0xd7, 0x9d,
    0xd9, 0x36, 0x21, 0xb4, 0x12, 0x37, 0x0c, 0x7f, 0xff, 0xc3, 0xe7, 0x59,
    0x36, 0x58, 0xb9, 0x4b, 0xf7, 0xd2, 0x13, 0xed, 0xbf, 0x3d, 0x1b, 0xe5,
    0xf6, 0x32, 0xe2, 0xc2, 0x1d, 0xc4, 0x21, 0xf5, 0xfb, 0x22, 0xbe, 0xe3,
    0x09, 0x34, 0x2d, 0x2d, 0xc2, 0xe9, 0x5a, 0xfd, 0x0b, 0x8f, 0xfb, 0x33,
    0xa6, 0x27, 0xff, 0xfa, 0xae, 0x0c, 0x1c, 0x0e, 0x1f, 0x3f, 0xe9, 0x99,
    0xda, 0x15, 0xcc, 0x13, 0xea, 0xe5, 0xce, 0x63, 0xbe, 0xe8, 0x32, 0xe8,
    0x81, 0x15, 0x3b, 0x1f, 0xe9, 0x25, 0xa9, 0xff, 0xee, 0x53, 0xe7, 0x15,
    0xbb, 0xf2, 0x1d, 0x2f, 0x03, 0xcd, 0x43, 0xab, 0x08, 0xe9, 0x19, 0x1b,
    0x2f, 0x1f, 0xf4, 0x58, 0xdb, 0x07, 0x3f, 0x15, 0xfc, 0xe3, 0x10, 0x0b,
    0x15, 0x0f, 0xe9, 0xc4, 0xbc, 0x6a, 0x1c, 0x4a, 0xd2, 0xc2, 0x3e, 0xdf,
    0x2a, 0xcc, 0x3e, 0x1f, 0x61, 0xde, 0x34, 0xf0, 0xff, 0xf3, 0x05, 0x4e,
    0x35, 0x4a, 0xc7, 0x0d, 0xed, 0xff, 0x1f, 0xf4, 0xde, 0x82, 0xe2, 0xb1,
    0xcf, 0xdd, 0xf0, 0x3f, 0x39, 0x20, 0x4a, 0x0d, 0xa6, 0xcd, 0xe8, 0x22,
    0x58, 0xa0, 0xb6, 0xf2, 0x17, 0x47, 0x29, 0x28, 0xe9, 0x2a, 0x12, 0x27,
    0x45, 0xe9, 0x4f, 0xa8, 0x67, 0x25, 0x24, 0xff, 0x2e, 0x5c, 0x06, 0xc9,
    0xe2, 0x4b, 0x52, 0xcc, 0x98, 0xd4, 0x57, 0x91, 0x26, 0xe6, 0x02, 0xde,
    0xd6, 0xea, 0x3a, 0x09, 0x44, 0xb1, 0xca, 0xbf, 0xa5, 0x13, 0x25, 0xf7,
    0xdc, 0x24, 0xbb, 0xb7, 0x3d, 0x2b, 0x3f, 0x19, 0xd2, 0x0e, 0x54, 0x33,
    0xc0, 0x02, 0xed, 0x47, 0xdd, 0xb4, 0x12, 0x29, 0xc4, 0xec, 0x25, 0xbd,
    0x43, 0xbd, 0xbc, 0x29, 0x68, 0x8b, 0x1c, 0x3a, 0x6c, 0xf0, 0xc8, 0x95,
    0xba, 0x6d, 0x20, 0x6d, 0x47, 0xa7, 0xcc, 0x4c, 0x1f, 0xa2, 0x63, 0x12,
    0x1a, 0x9c, 0x31, 0x25, 0xa4, 0xcc, 0x62, 0x78, 0x1f, 0x73, 0xd9, 0xfb,
    0xd1, 0xf8, 0x1b, 0x30, 0x37, 0x9c, 0x39, 0xc9, 0xc7, 0x16, 0xc0, 0x16,
    0x99, 0x5a, 0x2d, 0xbf, 0x9c, 0x27, 0xa3, 0xfb, 0x23, 0x1d, 0x47, 0x2f,
    0xee, 0x67, 0xf3, 0xe4, 0x67, 0xb2, 0x7f, 0xcf, 0x4a, 0xae, 0x2c, 0x33,
    0x59, 0xb8, 0x1f, 0x9e, 0xaa, 0x1c, 0x40, 0x51, 0x0d, 0xcf, 0x15, 0xcc,
    0x35, 0xe1, 0x29, 0x06, 0x5e, 0x3b, 0x8b, 0x86, 0x31, 0x0a, 0x0b, 0xbe,
    0x01, 0x10, 0xd5, 0x98, 0xac, 0x14, 0x01, 0x6f, 0x0b, 0xee, 0x26, 0x6e,
    0x2c, 0xc7, 0xeb, 0xa7, 0x4d, 0xb0, 0x04, 0x1b, 0x74, 0x41, 0x0c, 0x15,
    0x1f, 0x39, 0x43, 0xec, 0x02, 0xca, 0x5a, 0x97, 0xdb, 0x38, 0xf0, 0xd7,
    0x2c, 0x1a, 0x44, 0xc5, 0xd1, 0x1b, 0x2c, 0xce, 0x66, 0x11, 0x59, 0xca,
    0x1f, 0x17, 0x33, 0xe3, 0xbe, 0x7b, 0xd9, 0x7f, 0xe1, 0x24, 0xec, 0x5e,
    0x13, 0x11, 0x40, 0x04, 0xd3, 0xac, 0x44, 0xb1, 0x27, 0x3f, 0xed, 0xe8,
    0xe9, 0x5d, 0x22, 0x2b, 0xd3, 0xcd, 0x1d, 0xfc, 0x1c, 0x2b, 0x36, 0xa5,
    0xe3, 0x0a, 0xdd, 0x27, 0x19, 0xff, 0x93, 0x69, 0xb0, 0xdf, 0xca, 0xaf,
    0x0c, 0x07, 0x59, 0xb0, 0x19, 0x1d, 0xe6, 0x11, 0x05, 0x57, 0x1a, 0x43,
    0x2a, 0x29, 0x6e, 0xef, 0x4e, 0xb2, 0xae, 0xef, 0x48, 0x34, 0x4c, 0xf1,
    0xc2, 0xf0, 0x93, 0xd7, 0xf7, 0xdc, 0xb8, 0x9a, 0xf0, 0x09, 0xf0, 0x1d,
    0x46, 0x53, 0x25, 0x23, 0x0c, 0x33, 0xed, 0xa4, 0xb8, 0x00, 0x4f, 0xeb,
    0xb1, 0x89, 0x3e, 0x15, 0xfe, 0x60, 0xc9, 0xb5, 0x24, 0xab, 0xfe, 0xf4,
    0xff, 0x51, 0x56, 0xf4, 0x37, 0xb1, 0xe6, 0x70, 0xab, 0x42, 0x3b, 0xd2,
    0x1c, 0x38, 0xc3, 0x32, 0x36, 0x45, 0x51, 0x33, 0x30, 0x51, 0xc2, 0x9b,
    0x6b, 0xfc, 0x39, 0xf4, 0x45, 0x2a, 0x3f, 0x2a, 0x17, 0xf9, 0xc2, 0xc4,
    0x42, 0xec, 0x38, 0xf5, 0x36, 0x19, 0x0c, 0x12, 0x92, 0x1f, 0x55, 0x20,
    0x54, 0x39, 0xd3, 0xad, 0x13, 0xcf, 0xc8, 0x26, 0xa5, 0xac, 0x18, 0x48,
    0x91, 0xad, 0xb5, 0xdf, 0x69, 0xd1, 0xe0, 0x41, 0x53, 0x54, 0x10, 0x56,
    0x38, 0x49, 0xb0, 0x55, 0xc2, 0x35, 0xbc, 0x68, 0xa9, 0xb3, 0x06, 0x4e,
    0x4a, 0xcb, 0xa2, 0xac, 0x54, 0x18, 0x8f, 0xcf, 0xeb, 0x06, 0x11, 0xd3,
    0x29, 0xc0, 0x1f, 0x81, 0x1d, 0x20, 0xd4, 0x11, 0x01, 0xc3, 0x23, 0x33,
    0xfe, 0x43, 0xff, 0x50, 0xbe, 0x48, 0x1a, 0x0c, 0x65, 0x11, 0x0a, 0x16,
    0xab, 0xe2, 0x37, 0x7f, 0x78, 0x78, 0x59, 0x2a, 0xeb, 0xe4, 0x09, 0xaf,
    0x8e, 0xad, 0x63, 0x5a, 0xe8, 0x5f, 0x26, 0x50, 0xca, 0xda, 0x4a, 0xac,
    0xf8, 0xc8, 0x24, 0x9e, 0xcd, 0x03, 0x01, 0xb6, 0xe4, 0xe8, 0x33, 0x0d,
    0x19, 0x6c, 0xe5, 0x1d, 0x73, 0x0d, 0x4b, 0x65, 0x8e, 0xc8, 0xcd, 0xd7,
    0xf0, 0xd4, 0xc2, 0xca, 0xb9, 0xa5, 0xe7, 0xcf, 0x99, 0xd5, 0xa9, 0x5e,
    0xe6, 0x97, 0x5c, 0xa9, 0xcf, 0x36, 0xd4, 0x2b, 0xda, 0x37, 0x62, 0x50,
    0x19, 0x41, 0x52, 0xe8, 0xdd, 0x14, 0x49, 0x4d, 0x11, 0x65, 0xae, 0xad,
    0xd6, 0x10, 0xb6, 0xde, 0x4e, 0x9f, 0xd7, 0x39, 0x29, 0xc8, 0xe0, 0xcb,
    0x35, 0x1b, 0x4f, 0xe5, 0x03, 0x3a, 0x33, 0x45, 0x49, 0x35, 0xb2, 0xd7,
    0xbf, 0x3d, 0x3c, 0xaa, 0x43, 0x56, 0x98, 0x11, 0xdc, 0x7f, 0x26, 0xda,
    0xd4, 0x69, 0x1e, 0xdf, 0xf0, 0x78, 0xc4, 0xb4, 0x3e, 0x48, 0x40, 0xa9,
    0xd0, 0x4c, 0x13, 0x11, 0xe6, 0xca, 0x22, 0x0e, 0xdc, 0x4d, 0x4e, 0xc8,
    0x2a, 0x4d, 0xf3, 0x09, 0x04, 0xcf, 0x19, 0xfc, 0x50, 0x4a, 0x2f, 0x37,
    0xe8, 0xa4, 0x0b, 0x4c, 0xc0, 0x3b, 0x2a, 0x43, 0x1e, 0x3b, 0xa4, 0xef,
    0xeb, 0x31, 0x56, 0xeb, 0xe2, 0x32, 0x57, 0xc9, 0xc8, 0xc0, 0x0a, 0x57,
    0x84, 0x17, 0x37, 0x10, 0xdf, 0x81, 0xe9, 0xde, 0x3c, 0xd9, 0xdd, 0xe6,
    0x1b, 0xed, 0x1b, 0x36, 0xe0, 0x31, 0xbe, 0xb0, 0x1b, 0x10, 0x49, 0xb7,
    0xc1, 0x1c, 0xf8, 0x1f, 0xf7, 0xc9, 0x45, 0x36, 0xfe, 0xb0, 0xba, 0x49,
    0x2f, 0x20, 0xef, 0xd3, 0xfb, 0xa7, 0x96, 0xdd, 0xb3, 0x62, 0x44, 0xe4,
    0x39, 0xd6, 0xcf, 0x18, 0xfb, 0xb0, 0x48, 0x17, 0xf8, 0xf3, 0xcc, 0xc4,
    0xa7, 0x54, 0x15, 0xcc, 0x0e, 0x47, 0xd9, 0x06, 0x23, 0x21, 0xbd, 0x3d,
    0xd5, 0xda, 0xf1, 0xb9, 0xc7, 0xf9, 0x22, 0xc5, 0x57, 0x4b, 0xec, 0xf2,
    0x0f, 0x5a, 0x2d, 0x02, 0xb2, 0xb7, 0xf1, 0x10, 0x1b, 0x4b, 0xc2, 0xbc,
    0x0a, 0x0f, 0xc6, 0xac, 0x28, 0xfd, 0xd7, 0x66, 0x40, 0xb5, 0xc9, 0xe3,
    0x53, 0xf8, 0x67, 0xf8, 0x33, 0x2b, 0x14, 0x0b, 0xe3, 0x06, 0xb4, 0x2a,
    0x2b, 0xeb, 0x19, 0xf9, 0xde, 0x0d, 0x60, 0x1c, 0x22, 0x70, 0xbe, 0x01,
    0x5b, 0x8a, 0x6f, 0x1c, 0xdc, 0x02, 0x51, 0x5e, 0xf8, 0x07, 0x00, 0x65,
    0xf5, 0x0d, 0x81, 0x31, 0xc2, 0xca, 0xf9, 0x5e, 0x6c, 0xb1, 0x07, 0x34,
    0x87, 0x63, 0x79, 0x3e, 0xad, 0xb2, 0x51, 0xc2, 0x17, 0xe2, 0xc5, 0x56,
    0x05, 0x95, 0x38, 0xb4, 0x27, 0xc8, 0x4b, 0x2f, 0xc2, 0x48, 0x1d, 0x65,
    0x05, 0x7a, 0x01, 0xdc, 0xfd, 0x9b, 0x08, 0x2c, 0xf4, 0xdb, 0x6f, 0x35,
    0x01, 0xc8, 0xf2, 0x1b, 0xc8, 0x19, 0xfa, 0xb6, 0x3b, 0x09, 0xf8, 0x1d,
    0xbf, 0x0a, 0xc8, 0xa5, 0x53, 0xf3, 0x91, 0x21, 0xef, 0x1c, 0x28, 0xcb,
    0xa3, 0x5f, 0xe6, 0xaf, 0x12, 0x69, 0xb7, 0x44, 0x57, 0xd3, 0xea, 0x2b,
    0x28, 0x3e, 0xc2, 0xdf, 0x06, 0x57, 0xde, 0xd1, 0x88, 0x65, 0x04, 0x44,
    0x5e, 0x5c, 0x8e, 0x89, 0xbb, 0x00, 0xce, 0x58, 0x4b, 0x03, 0xc2, 0xda,
    0xb0, 0x08, 0x3f, 0xfa, 0xe1, 0x1b, 0xb2, 0x3c, 0x28, 0x3e, 0x13, 0xa8,
    0xce, 0x39, 0xf5, 0xc0, 0x74, 0xc8, 0xdd, 0xb5, 0xc8, 0xd8, 0x35, 0x2c,
    0xed, 0x84, 0xcd, 0x01, 0xac, 0xc2, 0x5a, 0x6b, 0x3a, 0x39, 0x9c, 0xdb,
    0x96, 0xea, 0x0f, 0xb5, 0x02, 0x9e, 0x44, 0xe3, 0xc6, 0xef, 0xb6, 0x9c,
    0xa2, 0xca, 0x30, 0x2f, 0xd1, 0x2d, 0x4e, 0x54, 0xeb, 0x5b, 0xc3, 0xf5,
    0xbf, 0xc2, 0x51, 0x01, 0xb2, 0x3b, 0x3a, 0xc3, 0xdd, 0x49, 0xb8, 0xbf,
    0xf7, 0xd8, 0x13, 0xa0, 0xda, 0x42, 0xd6, 0xea, 0xa2, 0x2b, 0x09, 0x06,
    0x25, 0x34, 0xc9, 0x5b, 0x59, 0xb3, 0x64, 0x16, 0x9b, 0xfd, 0xe0, 0x32,
    0x81, 0xac, 0x3b, 0x2b, 0xfb, 0xdd, 0xa8, 0x09, 0x0f, 0x11, 0x63, 0xc4,
    0x9b, 0xd7, 0x54, 0x55, 0xff, 0x4e, 0x36, 0x37, 0x0d, 0x1a, 0x08, 0xec,
    0x55, 0x55, 0x67, 0x4e, 0x12, 0xb5, 0x71, 0x66, 0xc5, 0x17, 0xda, 0xc4,
    0x01, 0xfd, 0x06, 0xe5, 0xff, 0x3e, 0x0a, 0x0c, 0x42, 0x4f, 0x2b, 0x00,
    0x97, 0xa8, 0xed, 0x06, 0x65, 0x10, 0x1b, 0x32, 0xba, 0x10, 0x0f, 0xdf,
    0x3a, 0xbf, 0x28, 0x18, 0x28, 0x15, 0x05, 0xe2, 0x59, 0x23, 0x6a, 0xf5,
    0xf4, 0x0b, 0x36, 0x45, 0x2e, 0x25, 0xb6, 0xde, 0xc0, 0xa7, 0x23, 0x27,
    0x7e, 0xcf, 0x0e, 0x9c, 0x90, 0x08, 0xcc, 0xe8, 0x05, 0xde, 0x16, 0xee,
    0xb0, 0x39, 0xc6, 0x0a, 0xf2, 0xcc, 0x2b, 0xd7, 0x2d, 0x2c, 0x43, 0x33,
    0x2b, 0x34, 0xe2, 0x0e, 0x2e, 0xc1, 0x47, 0xc9, 0x59, 0x4c, 0xf1, 0xfd,
    0xf7, 0x39, 0x29, 0x5b, 0x07, 0x7f, 0x28, 0x3b, 0xab, 0x43, 0xc8, 0xa9,
    0x06, 0x46, 0xc7, 0xca, 0xc8, 0x46, 0xfb, 0x26, 0x27, 0x1a, 0x18, 0x30,
    0x3b, 0x33, 0x10, 0xf8, 0xf2, 0xbb, 0x78, 0xe6, 0xc3, 0xc8, 0x33, 0x23,
    0x19, 0x55, 0x23, 0x5b, 0x38, 0x06, 0xe5, 0xd4, 0x69, 0x2e, 0x30, 0xeb,
    0xcd, 0x10, 0x2d, 0xe9, 0xfe, 0x15, 0xeb, 0x5c, 0xf1, 0x97, 0xcd, 0xa0,
    0x6b, 0xd3, 0xea, 0x01, 0x41, 0xcb, 0xbe, 0xc8, 0xe7, 0x1b, 0x03, 0x2c,
    0xe1, 0xf4, 0x4d, 0xd7, 0xee, 0x81, 0xec, 0x31, 0xf4, 0xf8, 0x25, 0x4e,
    0x9b, 0x2d, 0x8b, 0x13, 0xdb, 0xf1, 0xf2, 0x2f, 0x51, 0xc2, 0x15, 0xfe,
    0xa2, 0x71, 0xaf, 0xca, 0x36, 0x50, 0xfa, 0x3e, 0x8a, 0xe0, 0xe9, 0x9e,
    0x5f, 0x41, 0x06, 0xc9, 0xec, 0x10, 0x4d, 0x3d, 0x02, 0x1e, 0x0a, 0xbd,
    0xc9, 0xec, 0xcd, 0x24, 0x6a, 0x95, 0x29, 0xbd, 0xcb, 0xc3, 0x37, 0x52,
    0xe1, 0x0d, 0x3f, 0x33, 0x9d, 0x8c, 0x5d, 0xec, 0x17, 0x27, 0xd8, 0x44,
    0xd5, 0x1a, 0xe7, 0x4c, 0x1e, 0x04, 0xb8, 0x31, 0xba, 0x94, 0x4a, 0xeb,
    0x2e, 0x10, 0x3e, 0x05, 0x42, 0x73, 0x0c, 0xe2, 0x36, 0x42, 0x35, 0x3a,
    0x14, 0xb9, 0x37, 0xe4, 0x66, 0x93, 0x13, 0x0f, 0xb3, 0xaf, 0x16, 0xdd,
    0xb7, 0xc3, 0x1d, 0x6c, 0xac, 0x25, 0x4b, 0x2b, 0x03, 0xc7, 0x5b, 0x11,
    0x2d, 0xe0, 0xf6, 0x24, 0x91, 0xb1, 0x38, 0xf3, 0xc3, 0xc8, 0xc0, 0xee,
    0xf3, 0xa0, 0x18, 0x13, 0x29, 0xe0, 0xdc, 0x3c, 0x25, 0xc7, 0x15, 0x75,
    0x31, 0x05, 0xeb, 0xa6, 0x47, 0xd3, 0x35, 0xb4, 0x0b, 0x32, 0xde, 0xe6,
    0x1d, 0xc2, 0xea, 0x64, 0x1e, 0x3e, 0xef, 0xf2, 0x1e, 0x9e, 0x30, 0x3a,
    0xdc, 0x0b, 0x57, 0xd3, 0xd0, 0x05, 0xf1, 0x51, 0xe3, 0xf5, 0xd9, 0x95,
    0xe3, 0xea, 0x23, 0xa2, 0xd3, 0x6a, 0x36, 0xef, 0xe9, 0x2a, 0xfd, 0x43,
    0x95, 0x02, 0x43, 0x3a, 0x27, 0x21, 0xa2, 0x0f, 0x3b, 0x19, 0x28, 0x42,
    0xfe, 0xcb, 0x36, 0x2f, 0xee, 0x58, 0xcd, 0xa0, 0x2c, 0x9f, 0xc3, 0xee,
    0xb1, 0xfc, 0x39, 0x4a, 0xcb, 0x46, 0x7f, 0x6c, 0x02, 0x09, 0x6b, 0x18,
    0x63, 0xc8, 0xe2, 0x0e, 0xe0, 0x0c, 0xba, 0x15, 0x47, 0x0f, 0x56, 0x4b,
    0x0e, 0xb7, 0x34, 0x15, 0x14, 0xae, 0x3c, 0xf9, 0xfc, 0x61, 0xd2, 0x65,
    0x2f, 0x33, 0xee, 0x17, 0xf3, 0xc5, 0x52, 0x0e, 0x03, 0xf1, 0x23, 0xf1,
    0x04, 0x12, 0xf7, 0x73, 0xf8, 0xf0, 0x0f, 0x46, 0xd3, 0x34, 0xcc, 0x8b,
    0x41, 0x11, 0x1a, 0x27, 0x28, 0xea, 0x45, 0xc7, 0xde, 0xf6, 0x4c, 0x61,
    0xb2, 0xcc, 0xe0, 0x54, 0x34, 0xd8, 0xed, 0x0d, 0xdd, 0xd5, 0xb2, 0x3b,
    0xe4, 0x48, 0x44, 0xec, 0xf8, 0xcc, 0x4b, 0xb3, 0x7f, 0xf8, 0x37, 0xd8,
    0x2c, 0x41, 0x06, 0xcc, 0xf9, 0xc4, 0xcd, 0x31, 0x24, 0xb5, 0x1c, 0xcf,
    0x50, 0x0b, 0x15, 0xd3, 0xee, 0x72, 0x23, 0x24, 0xe6, 0x38, 0x35, 0xdc,
    0xe3, 0x35, 0xd9, 0xd2, 0x1d, 0xc6, 0x2d, 0xfc, 0xf2, 0x12, 0x47, 0x17,
    0x16, 0x6d, 0x53, 0xeb, 0xc1, 0xa6, 0x20, 0xcd, 0xe9, 0x55, 0xe1, 0x39,
    0x27, 0xd1, 0x36, 0xe6, 0xde, 0xc9, 0x37, 0x38, 0x08, 0xdc, 0xf3, 0x3d,
    0xc3, 0x51, 0x28, 0xb7, 0x5a, 0x23, 0x19, 0xcb, 0xd8, 0x35, 0x13, 0x10,
    0x19, 0xb5, 0x17, 0xa0, 0x5c, 0xbf, 0xd8, 0xfd, 0x5a, 0x51, 0x1c, 0xdc,
    0xca, 0x1d, 0xf5, 0x2c, 0x0d, 0x19, 0xef, 0xe7, 0x1a, 0x14, 0x39, 0xb3,
    0x5b, 0x25, 0x50, 0x5f, 0xc7, 0x31, 0x02, 0xd4, 0x1a, 0x36, 0x08, 0xd8,
    0xd9, 0xe8, 0x35, 0xe4, 0x51, 0xad, 0xc1, 0xdf, 0x0b, 0xc2, 0x5a, 0xe2,
    0xe3, 0x3b, 0x12, 0x40, 0x1c, 0x51, 0x2b, 0x63, 0xdd, 0xbc, 0xf8, 0x97,
    0xdc, 0x6f, 0x15, 0x63, 0x28, 0x27, 0x10, 0x39, 0xa4, 0x59, 0x10, 0xd5,
    0x3a, 0x9f, 0x53, 0xf4, 0xdf, 0x62, 0xa6, 0xd3, 0x49, 0x34, 0xbb, 0xde,
    0xad, 0x00, 0xe4, 0x4a, 0x3e, 0xfb, 0x16, 0x49, 0xd0, 0xdd, 0x81, 0xc8,
    0xf8, 0x0e, 0xf0, 0xf4, 0xec, 0xb7, 0x33, 0x1a, 0x1e, 0x5e, 0xd4, 0x37,
    0x9f, 0xab, 0x1b, 0xb1, 0x11, 0x02, 0xd9, 0xba, 0xc4, 0x6e, 0x0c, 0xe0,
    0x2f, 0xcf, 0xf2, 0x08, 0x24, 0x15, 0x02, 0xec, 0x32, 0x4d, 0x6a, 0x21,
    0xee, 0xde, 0x69, 0xcf, 0x21, 0xde, 0xd5, 0x0c, 0x17, 0x1b, 0x76, 0x4b,
    0xef, 0x0c, 0x70, 0xba, 0xc7, 0x24, 0xf6, 0x15, 0xe6, 0x1e, 0xf1, 0x52,
    0xbb, 0x19, 0xfe, 0xf3, 0xb5, 0x4c, 0xe4, 0xc6, 0x63, 0xdf, 0x2d, 0xb8,
    0x0a, 0x3c, 0x17, 0x6a, 0xe1, 0x2e, 0x7c, 0x08, 0xde, 0xd3, 0x23, 0x3b,
    0x41, 0xa8, 0xa7, 0xc7, 0x2a, 0xb6, 0x6f, 0xfd, 0xbe, 0xf1, 0xff, 0xff,
    0x04, 0x00, 0x00, 0x00, 0x40, 0x00, 0x00, 0x00, 0x85, 0xfd, 0xff, 0xff,
    0x45, 0xfe, 0xff, 0xff, 0x42, 0xff, 0xff, 0xff, 0x92, 0xff, 0xff, 0xff,
    0x04, 0x01, 0x00, 0x00, 0x06, 0xfe, 0xff, 0xff, 0x1a, 0x00, 0x00, 0x00,
    0x6f, 0xfc, 0xff, 0xff, 0xf4, 0x01, 0x00, 0x00, 0xe4, 0x03, 0x00, 0x00,
    0xd5, 0x01, 0x00, 0x00, 0xf7, 0x02, 0x00, 0x00, 0xd2, 0xfd, 0xff, 0xff,
    0x41, 0x03, 0x00, 0x00, 0xa1, 0x04, 0x00, 0x00, 0x70, 0x00, 0x00, 0x00,
    0x0a, 0xf2, 0xff, 0xff, 0x04, 0x00, 0x00, 0x00, 0x90, 0x00, 0x00, 0x00,
    0x81, 0xdf, 0xbd, 0x6a, 0x72, 0x72, 0xa6, 0x83, 0x81, 0xff, 0x74, 0xe8,
    0xa5, 0x91, 0x85, 0x4e, 0xab, 0x81, 0x7f, 0x4f, 0xc0, 0x28, 0x16, 0x7f,
    0x7c, 0xb1, 0x8b, 0x98, 0xad, 0x7c, 0x44, 0x56, 0x9e, 0x85, 0x1e, 0x3a,
    0xf5, 0x15, 0x81, 0x24, 0x2a, 0x66, 0x5b, 0xeb, 0x38, 0x7f, 0x57, 0x60,
    0xd4, 0xec, 0xe7, 0xce, 0x5d, 0x3c, 0x4f, 0xda, 0x23, 0x7f, 0x51, 0xc1,
    0x28, 0x13, 0x4e, 0x81, 0x8b, 0x54, 0x9e, 0x07, 0x81, 0x2b, 0xe9, 0x86,
    0xb9, 0x7c, 0x49, 0xcc, 0x81, 0x38, 0x81, 0x4e, 0xcf, 0xa4, 0x01, 0xed,
    0x19, 0xab, 0x5a, 0x4a, 0x30, 0x1f, 0x7f, 0xeb, 0xc3, 0x2c, 0xd7, 0xcd,
    0x67, 0xb8, 0x47, 0x7f, 0x0c, 0x8b, 0xa4, 0x1f, 0x60, 0x19, 0x50, 0xb9,
    0x8e, 0xe1, 0xfe, 0x56, 0xd0, 0xe4, 0x75, 0xb2, 0x6c, 0x7f, 0x26, 0x04,
    0x6b, 0xf1, 0x59, 0xef, 0xc3, 0x7b, 0x10, 0xb1, 0x36, 0x95, 0x8d, 0x4d,
    0xa1, 0x6d, 0x3f, 0x20, 0x04, 0x65, 0x0a, 0x81, 0x4d, 0x35, 0xcb, 0xf0,
    0xa6, 0xf2, 0xff, 0xff, 0x04, 0x00, 0x00, 0x00, 0x40, 0x00, 0x00, 0x00,
    0x34, 0x05, 0x00, 0x00, 0xb2, 0x03, 0x00, 0x00, 0x7b, 0xff, 0xff, 0xff,
    0x88, 0xfd, 0xff, 0xff, 0x62, 0xfe, 0xff, 0xff, 0x9b, 0xfb, 0xff, 0xff,
    0x84, 0xff, 0xff, 0xff, 0x12, 0x00, 0x00, 0x00, 0xc0, 0xfc, 0xff, 0xff,
    0xc2, 0xfb, 0xff, 0xff, 0xd5, 0xf7, 0xff, 0xff, 0x44, 0x04, 0x00, 0x00,
    0xde, 0x04, 0x00, 0x00, 0xe9, 0xfb, 0xff, 0xff, 0xd8, 0x00, 0x00, 0x00,
    0x31, 0xfe, 0xff, 0xff, 0xf2, 0xf2, 0xff, 0xff, 0x04, 0x00, 0x00, 0x00,
    0x00, 0x01, 0x00, 0x00, 0x81, 0xf8, 0x44, 0xf3, 0x43, 0xb7, 0xd9, 0x4c,
    0x52, 0x4b, 0x1d, 0x70, 0x22, 0xf5, 0xd0, 0xfb, 0xe9, 0x5b, 0xa6, 0xdd,
    0xdc, 0x5d, 0x95, 0x88, 0x90, 0xc9, 0xd4, 0x29, 0xdb, 0x7f, 0x04, 0xe3,
    0x7f, 0x1b, 0xb9, 0x62, 0x59, 0x08, 0x2a, 0x33, 0x9f, 0xa9, 0x2a, 0x97,
    0x08, 0x74, 0x02, 0x97, 0x5f, 0x4d, 0xa9, 0x81, 0xed, 0xd6, 0xe1, 0x2b,
    0xee, 0xfb, 0xa2, 0x7c, 0x75, 0xcf, 0x06, 0x7c, 0x43, 0x05, 0xc0, 0x0b,
    0x31, 0x21, 0xa6, 0x8a, 0x81, 0xba, 0x9c, 0xe3, 0x45, 0x75, 0xf7, 0xe9,
    0xe5, 0x1b, 0xf3, 0xea, 0x0c, 0x00, 0xd7, 0x7e, 0x25, 0x7f, 0xa8, 0x32,
    0x0c, 0x00, 0x43, 0x67, 0xe8, 0x83, 0xc4, 0x06, 0x05, 0xc4, 0x4b, 0xe5,
    0x28, 0x49, 0xd1, 0xc3, 0x35, 0xcd, 0x81, 0x94, 0x49, 0x64, 0x4f, 0x13,
    0xa3, 0x32, 0x67, 0x07, 0x51, 0x36, 0x7f, 0xc4, 0x77, 0x13, 0xc7, 0x59,
    0x68, 0xb9, 0x44, 0x7a, 0x0d, 0x38, 0xb6, 0x1d, 0xba, 0xd3, 0xb8, 0x02,
    0x2d, 0x7f, 0xd4, 0xf4, 0x5b, 0x5c, 0x93, 0x35, 0x00, 0x81, 0xe9, 0xd0,
    0xa6, 0x5f, 0xdc, 0xff, 0xa1, 0x1d, 0x09, 0x52, 0x20, 0x75, 0x3d, 0xc7,
    0x9c, 0xdf, 0x2d, 0x27, 0x26, 0x24, 0xf5, 0xa8, 0x7f, 0xb2, 0x3f, 0xdf,
    0x2b, 0xbd, 0xeb, 0x21, 0x69, 0xee, 0x81, 0x98, 0x3e, 0xc7, 0x83, 0xb0,
    0x35, 0x16, 0x63, 0x4a, 0x02, 0x13, 0x64, 0x95, 0x26, 0xa5, 0x20, 0x6e,
    0x0a, 0x65, 0x6e, 0x7f, 0x25, 0x2c, 0x34, 0x61, 0x56, 0xce, 0x9b, 0x49,
    0x28, 0xaf, 0x96, 0x0a, 0x5e, 0x18, 0x19, 0xc5, 0x81, 0xd2, 0xee, 0xe1,
    0x5e, 0x10, 0x97, 0xed, 0xc6, 0xb8, 0x40, 0xa1, 0xc0, 0x2f, 0xca, 0xaa,
    0xea, 0x7f, 0xbf, 0x8d, 0x7f, 0xcf, 0x0b, 0xf0, 0x5b, 0x2a, 0xcf, 0x25,
    0xc6, 0x18, 0x95, 0x31, 0x92, 0xed, 0xb5, 0xf9, 0xfe, 0xf3, 0xff, 0xff,
    0x04, 0x00, 0x00, 0x00, 0x40, 0x00, 0x00, 0x00, 0x62, 0xf9, 0xff, 0xff,
    0x87, 0x06, 0x00, 0x00, 0x5a, 0xf9, 0xff, 0xff, 0xbc, 0xfc, 0xff, 0xff,
    0xc4, 0x04, 0x00, 0x00, 0x39, 0xf6, 0xff, 0xff, 0x0c, 0x0c, 0x00, 0x00,
    0x80, 0xec, 0xff, 0xff, 0xcd, 0xf7, 0xff, 0xff, 0x2a, 0x00, 0x00, 0x00,
    0x79, 0xfd, 0xff, 0xff, 0xc3, 0x01, 0x00, 0x00, 0x1a, 0xee, 0xff, 0xff,
    0x59, 0x06, 0x00, 0x00, 0x5d, 0x09, 0x00, 0x00, 0x14, 0x03, 0x00, 0x00,
    0x4a, 0xf4, 0xff, 0xff, 0x04, 0x00, 0x00, 0x00, 0x00, 0x08, 0x00, 0x00,
    0xb5, 0x39, 0x11, 0xd8, 0xf7, 0xb8, 0xf7, 0x2e, 0x11, 0x58, 0x93, 0xad,
    0xcd, 0x0d, 0xbd, 0x54, 0x49, 0x49, 0x6a, 0x2e, 0x57, 0xd8, 0x22, 0x9a,
    0xcf, 0xfb, 0x90, 0x13, 0xdb, 0x00, 0x24, 0xdb, 0x68, 0x84, 0xb1, 0x30,
    0xf2, 0x20, 0x88, 0x6f, 0x8a, 0x82, 0x59, 0xa1, 0xea, 0x49, 0x52, 0x30,
    0x75, 0x4a, 0xa3, 0x43, 0xe7, 0xb7, 0x2d, 0x58, 0x0a, 0xaa, 0x19, 0xf7,
    0x2f, 0xb0, 0xea, 0xf5, 0xaa, 0x58, 0x5f, 0xe4, 0x23, 0xdc, 0x02, 0xa9,
    0x6b, 0x51, 0x18, 0xf8, 0x5a, 0xff, 0x55, 0xc8, 0x4f, 0x03, 0x02, 0xf2,
    0x66, 0xc1, 0x3a, 0xe3, 0x5d, 0xe6, 0xb0, 0x68, 0xe6, 0x6e, 0xce, 0x32,
    0x8f, 0x04, 0xa7, 0x0e, 0x19, 0x52, 0x20, 0x23, 0xfa, 0xc8, 0x04, 0xdf,
    0xe4, 0x21, 0x55, 0x64, 0x5c, 0xa9, 0x53, 0x63, 0x1d, 0xc9, 0x3a, 0xfb,
    0x84, 0xc8, 0xef, 0x92, 0x67, 0xb8, 0xe4, 0x3f, 0x0a, 0x13, 0xf3, 0x4c,
    0x15, 0x43, 0xcd, 0x04, 0xd6, 0x50, 0x6b, 0xb4, 0x05, 0xeb, 0x3f, 0xdc,
    0x45, 0xb6, 0xf9, 0xf9, 0x3f, 0xbd, 0x47, 0x57, 0x68, 0x77, 0xb0, 0x35,
    0x93, 0xc6, 0x4e, 0x6a, 0xcd, 0xb0, 0xe1, 0x3d, 0xf1, 0x2d, 0xf7, 0x4a,
    0x39, 0x41, 0x7d, 0xb7, 0x2e, 0xcc, 0xa6, 0xfe, 0x4b, 0xbc, 0x11, 0xf1,
    0xb6, 0xd3, 0xd7, 0x6d, 0x34, 0xb9, 0x65, 0xe4, 0x32, 0x08, 0x4b, 0x3b,
    0x4d, 0xde, 0xd3, 0x05, 0x95, 0x4f, 0x14, 0x1d, 0x4d, 0xf6, 0xef, 0xb1,
    0xd5, 0xe8, 0xc9, 0xcc, 0x2c, 0xe2, 0x2b, 0x3d, 0xdc, 0xc4, 0x8f, 0x5f,
    0x01, 0x46, 0x53, 0xd0, 0x09, 0x49, 0x01, 0xcf, 0xdc, 0xcc, 0xb1, 0x77,
    0xae, 0x65, 0x01, 0xfb, 0x4c, 0x21, 0x54, 0x29, 0xef, 0xa3, 0xb9, 0x9a,
    0x38, 0xd4, 0xb7, 0xd9, 0xb7, 0x43, 0xce, 0xad, 0xda, 0xfc, 0x3d, 0xf5,
    0x29, 0x04, 0x4f, 0x15, 0xa0, 0x2c, 0x60, 0x40, 0x13, 0x28, 0xac, 0x5c,
    0xe3, 0x17, 0x2f, 0x53, 0xa4, 0xe7, 0xfa, 0xc6, 0x91, 0xfa, 0xc8, 0xb1,
    0x62, 0xd5, 0xf3, 0x3d, 0x74, 0x45, 0x05, 0x0b, 0xc6, 0x60, 0xd4, 0xb7,
    0x55, 0x3f, 0x73, 0xe1, 0x5c, 0xf1, 0x6c, 0xdf, 0x6e, 0x3d, 0x4d, 0x36,
    0xf1, 0xbc, 0xed, 0xc2, 0x64, 0x24, 0xad, 0xaa, 0xf5, 0xfa, 0xd3, 0x2a,
    0x23, 0x04, 0xc7, 0x05, 0xf7, 0xfd, 0xab, 0xa1, 0xd5, 0x18, 0x9c, 0xea,
    0xc8, 0xfc, 0xce, 0x17, 0x10, 0x89, 0x5a, 0xd8, 0x00, 0x4c, 0xfe, 0x8f,
    0xbe, 0x09, 0x15, 0x95, 0xbf, 0xb8, 0xab, 0x40, 0x5d, 0x25, 0x2d, 0x0e,
    0x36, 0x62, 0x5d, 0xc9, 0xbd, 0x54, 0x18, 0x93, 0x72, 0x4b, 0xff, 0x48,
    0x36, 0x64, 0x4c, 0x00, 0xb4, 0x2a, 0xc1, 0xd3, 0xf4, 0xbd, 0xc6, 0x60,
    0xd4, 0x00, 0xcb, 0x24, 0xcf, 0xd9, 0x5a, 0x15, 0xeb, 0x22, 0x2d, 0x52,
    0x1e, 0x42, 0xcd, 0xbe, 0xaf, 0x4a, 0x26, 0x64, 0xd0, 0x56, 0xf4, 0x2c,
    0x5b, 0xd5, 0x8d, 0x95, 0x52, 0x39, 0x51, 0xe7, 0xb3, 0x58, 0xcf, 0xe1,
    0xb9, 0x24, 0x37, 0xf9, 0x19, 0x14, 0xa9, 0xfa, 0xe4, 0xf8, 0x44, 0xc8,
    0x0a, 0x64, 0xd9, 0xfd, 0x81, 0x9e, 0x47, 0x1e, 0x08, 0xae, 0x92, 0xf6,
    0x3b, 0xe0, 0xff, 0xd4, 0x4a, 0x21, 0xee, 0x3f, 0xfb, 0x1a, 0x59, 0x01,
    0x3e, 0x02, 0xfb, 0x5e, 0xaa, 0x4e, 0x6c, 0xad, 0x67, 0xb9, 0xd8, 0xef,
    0x7d, 0xcf, 0xa0, 0xbb, 0xfb, 0x2a, 0x73, 0x6b, 0x6e, 0x82, 0x96, 0x17,
    0x23, 0xf2, 0xc5, 0x31, 0xbe, 0x07, 0x57, 0x1a, 0xaf, 0xd2, 0x4b, 0x40,
    0xe9, 0xdc, 0x46, 0xc0, 0xa7, 0xd7, 0xbd, 0x0d, 0x3b, 0xc0, 0x3b, 0x4b,
    0xcc, 0x9f, 0xac, 0xb6, 0x13, 0x19, 0xc5, 0x34, 0x97, 0x6b, 0xe6, 0x59,
    0x45, 0xe6, 0xc3, 0xf3, 0x38, 0x50, 0x41, 0x47, 0xc7, 0x19, 0xa6, 0x3f,
    0xb3, 0x6d, 0x14, 0x7a, 0xcb, 0xcd, 0xdf, 0x87, 0xc2, 0xf5, 0x45, 0xa6,
    0x01, 0xe2, 0xdf, 0x09, 0x0a, 0x34, 0x4f, 0x4c, 0x52, 0xe7, 0x27, 0xb9,
    0x71, 0x1c, 0xb4, 0xcb, 0x55, 0xc6, 0x0f, 0x94, 0x3d, 0xfd, 0x6c, 0x24,
    0x10, 0x52, 0xed, 0x1f, 0xc1, 0x2d, 0x76, 0x1c, 0x2a, 0xf2, 0x68, 0x0b,
    0x12, 0x4e, 0x1b, 0xbe, 0x0b, 0x21, 0x9d, 0x2a, 0x96, 0xe4, 0xcb, 0xd0,
    0xad, 0x3f, 0x16, 0xff, 0x70, 0xa2, 0x73, 0x95, 0xe7, 0x0a, 0x55, 0xe4,
    0xed, 0x5b, 0x43, 0x35, 0x11, 0xd7, 0x52, 0xed, 0x34, 0xc3, 0x5a, 0x08,
    0x22, 0x34, 0xe7, 0x59, 0x12, 0xff, 0x18, 0x78, 0xb7, 0x94, 0xa9, 0xd0,
    0x14, 0x32, 0x91, 0x48, 0x3d, 0xd1, 0x5f, 0x4e, 0x59, 0xb5, 0xd4, 0x2c,
    0xf5, 0xf7, 0xc3, 0x25, 0xb1, 0xd5, 0xd5, 0x6c, 0xfa, 0xcb, 0xd6, 0xed,
    0xe8, 0xf0, 0x9c, 0xb7, 0xfb, 0x24, 0x1f, 0xee, 0x06, 0x3c, 0x10, 0xa4,
    0xe7, 0x5b, 0x0c, 0x0e, 0x0b, 0x6d, 0x04, 0x5b, 0x3d, 0xef, 0xc4, 0xc9,
    0xc5, 0x44, 0xb5, 0xf7, 0xc2, 0xee, 0x3c, 0x3a, 0x33, 0x35, 0x66, 0xa4,
    0x62, 0x99, 0xf4, 0xb6, 0x92, 0x17, 0x05, 0xde, 0xec, 0xbb, 0x2b, 0xa8,
    0xd3, 0xbb, 0x11, 0x50, 0xb5, 0x41, 0xe7, 0x1e, 0xb8, 0x3e, 0xaf, 0x55,
    0x22, 0x0a, 0x09, 0xe7, 0xb3, 0x4e, 0x9e, 0x40, 0x09, 0xfe, 0x9f, 0x78,
    0x8a, 0xcf, 0x9e, 0x5d, 0x17, 0xf1, 0xb7, 0xc8, 0x34, 0xee, 0xf4, 0x39,
    0xb8, 0xbf, 0x55, 0x21, 0x6a, 0x14, 0xc8, 0xda, 0x23, 0xce, 0xa1, 0x09,
    0xa6, 0x75, 0xc8, 0x08, 0xc7, 0xd8, 0x9d, 0xca, 0xbc, 0x25, 0x8a, 0x16,
    0x21, 0xdb, 0x52, 0xf1, 0x37, 0x19, 0x47, 0x97, 0x29, 0x1b, 0x19, 0xcd,
    0x37, 0x7c, 0x81, 0xf9, 0x84, 0xe9, 0x1b, 0xf8, 0x48, 0xdb, 0xd5, 0x07,
    0xeb, 0x2b, 0xe5, 0x1c, 0xd9, 0xc6, 0x64, 0xa1, 0x78, 0x14, 0x1c, 0x6e,
    0x3b, 0xad, 0x14, 0x76, 0xdf, 0x27, 0xf1, 0x5e, 0xce, 0xaa, 0x6d, 0x03,
    0xe7, 0xb6, 0xb4, 0xd0, 0x25, 0x07, 0xe1, 0xb6, 0x3c, 0xbb, 0x4b, 0xac,
    0xb4, 0x11, 0xc1, 0x39, 0x16, 0xa7, 0xae, 0x14, 0xba, 0xa9, 0xf8, 0x89,
    0xbd, 0xed, 0xda, 0x9d, 0x26, 0x40, 0xc2, 0xe6, 0x11, 0xb9, 0xb6, 0xba,
    0x33, 0x31, 0x1f, 0x23, 0x46, 0x30, 0xb0, 0x2e, 0xaf, 0x3f, 0x3c, 0xee,
    0xbc, 0xed, 0x9f, 0x17, 0x30, 0x12, 0xd8, 0x14, 0xef, 0x2c, 0xaa, 0x05,
    0xbc, 0x17, 0x0e, 0x26, 0xc7, 0x2b, 0x37, 0x49, 0xfc, 0xd7, 0x32, 0x3d,
    0x23, 0x33, 0x42, 0x2b, 0xb1, 0x8c, 0xa8, 0xd9, 0xb4, 0xfe, 0xb3, 0x3c,
    0x8e, 0xfc, 0x2f, 0xe5, 0x25, 0x47, 0x25, 0x2f, 0xb5, 0xcb, 0xe4, 0x38,
    0xab, 0x33, 0xaf, 0x0b, 0xc6, 0xde, 0x69, 0x16, 0x96, 0x23, 0x32, 0xb6,
    0xff, 0x93, 0x71, 0x2f, 0xbd, 0x01, 0x1a, 0x5c, 0xec, 0xee, 0x5e, 0x39,
    0x1a, 0x61, 0x54, 0xfa, 0xac, 0xf3, 0xea, 0x46, 0x37, 0x28, 0x43, 0xf6,
    0x33, 0x11, 0xd1, 0x34, 0x6d, 0xff, 0x89, 0x54, 0xc6, 0xfe, 0xc1, 0xbd,
    0xb9, 0xa1, 0x13, 0x08, 0xd8, 0xb6, 0x2a, 0x40, 0xbe, 0xbf, 0xfa, 0xd7,
    0x33, 0x99, 0x31, 0x5b, 0x12, 0x3d, 0xe7, 0x68, 0xf8, 0x54, 0x0b, 0x22,
    0x4d, 0x02, 0x0e, 0x14, 0xac, 0x5a, 0x26, 0xaa, 0x10, 0xb4, 0xc9, 0x9a,
    0x35, 0x97, 0xee, 0x2e, 0xec, 0xe4, 0x52, 0xc1, 0xe9, 0xee, 0xe9, 0xc0,
    0xc1, 0x3d, 0x10, 0xd4, 0xec, 0x54, 0xdc, 0x75, 0x23, 0xd8, 0xb8, 0xe5,
    0xf0, 0xd2, 0x17, 0x1e, 0xc1, 0xd7, 0x21, 0xc2, 0x62, 0x46, 0x3c, 0x2e,
    0x1a, 0x28, 0x38, 0x07, 0x25, 0x3b, 0x1a, 0xec, 0x1c, 0x48, 0xf6, 0x5a,
    0xf5, 0x15, 0x0d, 0x2c, 0x37, 0xec, 0x76, 0xe3, 0xc0, 0x9c, 0xc3, 0xfe,
    0x31, 0x2a, 0xa8, 0xea, 0x22, 0xff, 0x46, 0x05, 0x6f, 0xf1, 0xff, 0x60,
    0x0e, 0x70, 0x86, 0x72, 0xf1, 0xdc, 0x3b, 0xd9, 0xbb, 0x14, 0xa6, 0xc2,
    0xcf, 0xf0, 0x41, 0xa2, 0x4e, 0x52, 0x73, 0xf5, 0xc4, 0xbc, 0xe5, 0x28,
    0xfa, 0xde, 0x6d, 0x30, 0x11, 0xdd, 0x88, 0x7b, 0xea, 0xab, 0x89, 0x49,
    0x31, 0xf6, 0x40, 0x51, 0x54, 0x94, 0x15, 0xf8, 0xc6, 0xb8, 0xc8, 0xfb,
    0x02, 0x03, 0x26, 0x45, 0x9c, 0xe8, 0x73, 0xda, 0x36, 0x41, 0xb2, 0x28,
    0x59, 0x54, 0x0a, 0x31, 0x57, 0x4d, 0x43, 0x2c, 0x0d, 0x18, 0xaa, 0xe5,
    0xf8, 0x53, 0xbf, 0xd1, 0x43, 0x17, 0xb0, 0xd7, 0xd8, 0xbb, 0xa1, 0xdc,
    0xfa, 0x18, 0xaa, 0xef, 0xab, 0x3a, 0x2f, 0x95, 0x3c, 0xbd, 0x03, 0xf8,
    0xf4, 0x12, 0xc0, 0xa1, 0x58, 0xc5, 0x20, 0xdb, 0xb0, 0x52, 0xf8, 0x7b,
    0xd6, 0x0d, 0x29, 0x03, 0x14, 0x25, 0x3a, 0x55, 0x3f, 0x5e, 0xca, 0xf3,
    0xfe, 0xd1, 0x15, 0xea, 0x4d, 0xd9, 0xc2, 0xe7, 0xd0, 0xdc, 0x2d, 0x26,
    0x01, 0x37, 0x56, 0xa4, 0x3b, 0x19, 0x0b, 0xc7, 0x38, 0x3c, 0x11, 0x00,
    0xa4, 0xf1, 0x0b, 0x68, 0xc3, 0x39, 0x54, 0x19, 0x03, 0x30, 0xb8, 0x30,
    0x3e, 0x5a, 0xb6, 0x51, 0x1d, 0x9c, 0x2a, 0xbc, 0x3e, 0xea, 0x29, 0x49,
    0x5d, 0xfa, 0xb3, 0x35, 0xcb, 0x94, 0x10, 0xb5, 0x14, 0x2c, 0x96, 0x31,
    0xb0, 0xe0, 0x6c, 0x94, 0xfa, 0x4e, 0x35, 0xb5, 0x01, 0xdd, 0x49, 0x3d,
    0xf5, 0x42, 0xea, 0xb7, 0x41, 0x40, 0xa1, 0xb4, 0x99, 0x4d, 0x41, 0x61,
    0x56, 0xca, 0xda, 0x40, 0x4a, 0x4c, 0x55, 0xbd, 0xb9, 0x1c, 0x49, 0xbe,
    0xaf, 0x96, 0xd8, 0x9c, 0x8d, 0x74, 0x6b, 0x9c, 0xdd, 0xa0, 0x1e, 0x32,
    0x7a, 0x0c, 0x2a, 0x17, 0x22, 0xce, 0xb8, 0x04, 0xf5, 0x8e, 0xd4, 0xfc,
    0x9c, 0xd4, 0x52, 0x1a, 0x3e, 0xcb, 0xfb, 0xfa, 0x61, 0x48, 0xad, 0x50,
    0xb9, 0x1f, 0xca, 0x33, 0x17, 0xe6, 0x5b, 0xdb, 0x5b, 0x24, 0xc9, 0x0b,
    0xf9, 0x02, 0x5d, 0x5c, 0xf9, 0x70, 0x56, 0xe0, 0x31, 0xae, 0x59, 0xe7,
    0x2b, 0x12, 0x8a, 0x36, 0xc1, 0x24, 0x32, 0xce, 0x0b, 0x04, 0x27, 0x2f,
    0x09, 0x0b, 0xdb, 0x4f, 0x86, 0x52, 0x09, 0x28, 0x1f, 0x03, 0x8b, 0xc5,
    0xcb, 0xb7, 0xb5, 0xa7, 0xff, 0xd8, 0xf3, 0xb6, 0xe0, 0xd1, 0x15, 0x45,
    0xf2, 0x6d, 0x73, 0x73, 0xe1, 0x18, 0xa7, 0x74, 0xc0, 0xf5, 0x00, 0xbf,
    0xad, 0x89, 0xc6, 0x18, 0xe3, 0xdb, 0xae, 0x9a, 0xc7, 0xf2, 0xcf, 0x08,
    0xff, 0x3a, 0xe8, 0xd9, 0xde, 0x3b, 0x63, 0x44, 0x32, 0xc7, 0xa8, 0xe4,
    0x46, 0x94, 0x41, 0xce, 0x58, 0x71, 0x92, 0xf3, 0x17, 0x9d, 0x31, 0xde,
    0x21, 0xf8, 0xfe, 0xc0, 0xb1, 0x89, 0xcb, 0xf4, 0x29, 0xcf, 0x08, 0x44,
    0xf4, 0x12, 0x2a, 0xc9, 0x38, 0xd7, 0x03, 0xa2, 0x0a, 0x41, 0x20, 0x19,
    0x71, 0x24, 0xd4, 0xf5, 0xdb, 0x1a, 0xf4, 0xf9, 0x35, 0x5e, 0xc9, 0xf1,
    0xab, 0x6c, 0x43, 0x07, 0xed, 0xa5, 0xcd, 0x1d, 0x30, 0xcf, 0xf5, 0xe3,
    0xaf, 0x14, 0x5d, 0xc8, 0x5a, 0xa9, 0x68, 0x3c, 0x46, 0x0c, 0x01, 0x51,
    0xea, 0xbe, 0xe7, 0x53, 0xcb, 0xe7, 0x2f, 0x42, 0x39, 0xd3, 0xd5, 0xdd,
    0x07, 0xa8, 0xd5, 0x48, 0xdf, 0x06, 0x0e, 0x03, 0xaf, 0x21, 0xfe, 0x40,
    0xe9, 0x2c, 0x2f, 0x12, 0xac, 0x5a, 0xb8, 0xce, 0xaa, 0xf6, 0x2f, 0xed,
    0x0b, 0xb0, 0x35, 0x0b, 0x6d, 0x38, 0xa2, 0x5a, 0x4c, 0x6d, 0x30, 0x5f,
    0xbe, 0x98, 0xf1, 0xa7, 0x54, 0xcd, 0x36, 0x45, 0xfc, 0xd9, 0x91, 0x6a,
    0x16, 0xa7, 0xc8, 0xfd, 0x2a, 0x09, 0x59, 0xb6, 0x6c, 0xf7, 0xe2, 0x13,
    0x20, 0xba, 0x1d, 0x8e, 0xc4, 0xea, 0x75, 0xd5, 0x15, 0x3c, 0x17, 0x0e,
    0x8e, 0x62, 0x2e, 0x61, 0x50, 0x48, 0xc2, 0xa6, 0xf3, 0x2f, 0x8c, 0xc2,
    0xa9, 0xe7, 0x04, 0xcb, 0x70, 0x15, 0xf9, 0xe8, 0xd4, 0x9d, 0x45, 0x1c,
    0xa2, 0x3d, 0xa7, 0xf6, 0x8e, 0xda, 0x12, 0xc6, 0x2f, 0x25, 0xce, 0xfd,
    0x53, 0x2c, 0xbf, 0xff, 0xaf, 0x18, 0xe8, 0x52, 0xb9, 0xe8, 0xfe, 0xcc,
    0x0a, 0xc0, 0x4b, 0x27, 0x38, 0xc6, 0x61, 0x8f, 0x53, 0x05, 0x10, 0x44,
    0x5f, 0xd4, 0x1c, 0x02, 0x47, 0x0b, 0x69, 0x77, 0xa1, 0x16, 0xf5, 0x5b,
    0xa6, 0xb5, 0x2c, 0xfb, 0xc6, 0x54, 0x26, 0x28, 0x32, 0xf7, 0x41, 0x61,
    0xef, 0x3e, 0xb3, 0x55, 0x1e, 0x42, 0x3f, 0xef, 0x31, 0x5a, 0x8e, 0xc7,
    0x10, 0x2d, 0xbb, 0x2c, 0xe1, 0xc2, 0xf9, 0x56, 0x1b, 0x70, 0xe1, 0x06,
    0x82, 0x40, 0xb4, 0xbf, 0x6e, 0x83, 0x1f, 0x04, 0xf7, 0x22, 0x29, 0x99,
    0x11, 0xe9, 0x63, 0xd6, 0x58, 0xb4, 0x0a, 0x0c, 0x50, 0x1d, 0x3b, 0x49,
    0x02, 0xa3, 0x1e, 0xe2, 0x98, 0xc0, 0x56, 0x10, 0x37, 0xf5, 0xf7, 0xa4,
    0xdb, 0x4e, 0x58, 0x2e, 0xf4, 0x3a, 0xf7, 0x4d, 0x1a, 0x3c, 0xc2, 0xb7,
    0x7a, 0xb0, 0xba, 0x59, 0x9c, 0x29, 0xfd, 0xc4, 0x12, 0x2d, 0xae, 0x9e,
    0x3b, 0xdd, 0xb4, 0x3b, 0xc9, 0x07, 0x15, 0x41, 0xb0, 0xb0, 0xe9, 0x0e,
    0x08, 0xd4, 0x0e, 0x5b, 0x0d, 0xf1, 0xe2, 0xa7, 0xd3, 0x29, 0xc8, 0xd0,
    0x09, 0xb6, 0x35, 0x05, 0xc3, 0x0c, 0x56, 0x03, 0x2e, 0x6a, 0xcd, 0x67,
    0xd7, 0x49, 0x2a, 0x9c, 0x36, 0xad, 0x30, 0xda, 0xbc, 0x45, 0x1d, 0x21,
    0xec, 0xc7, 0x2e, 0x98, 0x59, 0x4c, 0xe6, 0xd3, 0xe3, 0x20, 0xab, 0x78,
    0xfe, 0x4c, 0x51, 0x1a, 0x41, 0x22, 0x48, 0xaa, 0xd3, 0x6f, 0xc2, 0x14,
    0x05, 0xb6, 0x55, 0x55, 0xbb, 0xd9, 0x9d, 0x69, 0xdf, 0xa3, 0x2c, 0x28,
    0xf2, 0x16, 0xc1, 0x04, 0xdd, 0xed, 0x2b, 0xa2, 0x93, 0xb5, 0x47, 0xe9,
    0xc7, 0x39, 0x6f, 0x95, 0xd6, 0x4e, 0xac, 0x75, 0x95, 0xe3, 0x1e, 0x1b,
    0xa9, 0xd1, 0x29, 0xc1, 0x54, 0x04, 0x41, 0x34, 0xf1, 0xd7, 0xde, 0x99,
    0x34, 0xbe, 0x3e, 0xc6, 0x20, 0x69, 0x1f, 0x3a, 0x5f, 0x46, 0x21, 0xc8,
    0x03, 0x2b, 0xd9, 0x1c, 0x97, 0xd6, 0xb4, 0xfd, 0x1c, 0x41, 0xbc, 0x5c,
    0xe3, 0x2a, 0x1a, 0x72, 0xad, 0xab, 0xd4, 0x06, 0x14, 0xe7, 0xb6, 0xd4,
    0x1f, 0xd7, 0xba, 0x5d, 0x58, 0x33, 0xd1, 0xe1, 0xf1, 0xa6, 0x52, 0x4b,
    0x47, 0xe8, 0xd3, 0xb9, 0x12, 0xe2, 0xd5, 0x18, 0xa4, 0xc4, 0x30, 0xfc,
    0x8c, 0xc6, 0xf8, 0xd6, 0x46, 0xf7, 0xb6, 0x2d, 0x18, 0xa7, 0xd9, 0xf0,
    0x12, 0xf9, 0xe3, 0xa7, 0xda, 0x4e, 0xb6, 0xf4, 0x52, 0x8f, 0xb0, 0x30,
    0xa6, 0xee, 0xfd, 0x9f, 0xb3, 0x85, 0x66, 0xf8, 0x2e, 0x05, 0xba, 0x14,
    0xd8, 0x02, 0x2d, 0xd9, 0xc8, 0x6f, 0xf3, 0x45, 0x2d, 0xd1, 0xaa, 0x9e,
    0xeb, 0x58, 0xd7, 0x0b, 0xfd, 0xfb, 0x14, 0x2e, 0x00, 0xd5, 0xc6, 0xc8,
    0xd0, 0x07, 0xd1, 0x51, 0x0c, 0x6a, 0xd9, 0x26, 0x42, 0xaa, 0xd0, 0x5f,
    0x6c, 0x51, 0xb6, 0x58, 0x3e, 0x39, 0xca, 0x03, 0x04, 0xf9, 0xd4, 0x91,
    0xf4, 0x85, 0x8d, 0x32, 0x50, 0x3a, 0x02, 0x02, 0xa4, 0xa9, 0x47, 0x15,
    0xa3, 0x2c, 0x51, 0x58, 0x6f, 0xb3, 0xc6, 0x12, 0xb4, 0xac, 0x63, 0xb7,
    0xfe, 0xba, 0xbe, 0xba, 0xef, 0x58, 0xe4, 0xc7, 0xd9, 0x4b, 0x63, 0xb9,
    0x22, 0xba, 0xcf, 0xe2, 0x2d, 0xb0, 0x04, 0x69, 0x20, 0xd5, 0x45, 0x2c,
    0x1d, 0xca, 0xda, 0xc6, 0x6b, 0x07, 0xe1, 0xe6, 0xde, 0x2e, 0x06, 0xc3,
    0xd5, 0xed, 0x16, 0x93, 0x42, 0x20, 0xb1, 0x99, 0x56, 0xfc, 0xff, 0xff,
    0x04, 0x00, 0x00, 0x00, 0x00, 0x02, 0x00, 0x00, 0xf3, 0xf1, 0xff, 0xff,
    0x92, 0xfd, 0xff, 0xff, 0x1f, 0xff, 0xff, 0xff, 0x98, 0x0e, 0x00, 0x00,
    0xae, 0x0a, 0x00, 0x00, 0x53, 0xfa, 0xff, 0xff, 0x10, 0x03, 0x00, 0x00,
    0x6e, 0xf7, 0xff, 0xff, 0x9c, 0xf4, 0xff, 0xff, 0x9b, 0x01, 0x00, 0x00,
    0xe3, 0x10, 0x00, 0x00, 0x70, 0x0d, 0x00, 0x00, 0xbb, 0xfe, 0xff, 0xff,
    0x0d, 0x04, 0x00, 0x00, 0x44, 0x04, 0x00, 0x00, 0xcf, 0x0e, 0x00, 0x00,
    0x3d, 0xff, 0xff, 0xff, 0x63, 0x03, 0x00, 0x00, 0x3f, 0x02, 0x00, 0x00,
    0x72, 0xfc, 0xff, 0xff, 0x6e, 0x04, 0x00, 0x00, 0xd0, 0xf6, 0xff, 0xff,
    0x18, 0x07, 0x00, 0x00, 0xfa, 0x0e, 0x00, 0x00, 0xe5, 0xfd, 0xff, 0xff,
    0x12, 0x05, 0x00, 0x00, 0x4b, 0xf6, 0xff, 0xff, 0x80, 0xff, 0xff, 0xff,
    0xcf, 0xf4, 0xff, 0xff, 0x89, 0x09, 0x00, 0x00, 0x5e, 0xfb, 0xff, 0xff,
    0x6d, 0xfa, 0xff, 0xff, 0xd4, 0x09, 0x00, 0x00, 0x24, 0xfa, 0xff, 0xff,
    0x6f, 0xfa, 0xff, 0xff, 0xad, 0x02, 0x00, 0x00, 0xa6, 0x0e, 0x00, 0x00,
    0x3a, 0x00, 0x00, 0x00, 0x49, 0xf6, 0xff, 0xff, 0x8d, 0x0b, 0x00, 0x00,
    0x55, 0xfe, 0xff, 0xff, 0xa1, 0xff, 0xff, 0xff, 0x8d, 0xff, 0xff, 0xff,
    0x50, 0x0e, 0x00, 0x00, 0xff, 0x10, 0x00, 0x00, 0x24, 0x04, 0x00, 0x00,
    0x46, 0x01, 0x00, 0x00, 0xad, 0x11, 0x00, 0x00, 0x86, 0x0b, 0x00, 0x00,
    0xae, 0xf6, 0xff, 0xff, 0x90, 0xfc, 0xff, 0xff, 0x20, 0xff, 0xff, 0xff,
    0xeb, 0x07, 0x00, 0x00, 0x24, 0xf2, 0xff, 0xff, 0x25, 0xf8, 0xff, 0xff,
    0x10, 0x0d, 0x00, 0x00, 0xf1, 0xf4, 0xff, 0xff, 0x4e, 0x01, 0x00, 0x00,
    0x4b, 0x05, 0x00, 0x00, 0x53, 0x0d, 0x00, 0x00, 0xe1, 0x02, 0x00, 0x00,
    0xe8, 0xf2, 0xff, 0xff, 0xd6, 0x09, 0x00, 0x00, 0x1a, 0xf5, 0xff, 0xff,
    0x1e, 0xf6, 0xff, 0xff, 0x41, 0xf6, 0xff, 0xff, 0xf4, 0x0d, 0x00, 0x00,
    0x32, 0x0f, 0x00, 0x00, 0xb8, 0xf9, 0xff, 0xff, 0x12, 0xfc, 0xff, 0xff,
    0x89, 0xf3, 0xff, 0xff, 0x4d, 0x07, 0x00, 0x00, 0x70, 0xf5, 0xff, 0xff,
    0x19, 0x0d, 0x00, 0x00, 0xca, 0xf7, 0xff, 0xff, 0x44, 0x05, 0x00, 0x00,
    0x12, 0x0f, 0x00, 0x00, 0xde, 0xf2, 0xff, 0xff, 0x87, 0xf6, 0xff, 0xff,
    0xde, 0xf3, 0xff, 0xff, 0x4c, 0xff, 0xff, 0xff, 0x36, 0x01, 0x00, 0x00,
    0xcf, 0x08, 0x00, 0x00, 0x92, 0x00, 0x00, 0x00, 0x96, 0x04, 0x00, 0x00,
    0xf6, 0x07, 0x00, 0x00, 0x0c, 0xf6, 0xff, 0xff, 0x20, 0x00, 0x00, 0x00,
    0x06, 0xff, 0xff, 0xff, 0x30, 0x02, 0x00, 0x00, 0x28, 0x09, 0x00, 0x00,
    0x1a, 0xf0, 0xff, 0xff, 0x10, 0x06, 0x00, 0x00, 0xda, 0x02, 0x00, 0x00,
    0x53, 0x02, 0x00, 0x00, 0xac, 0x0b, 0x00, 0x00, 0xb7, 0xff, 0xff, 0xff,
    0x4b, 0x10, 0x00, 0x00, 0xff, 0x0c, 0x00, 0x00, 0xb5, 0xff, 0xff, 0xff,
    0xb2, 0x04, 0x00, 0x00, 0x3c, 0x02, 0x00, 0x00, 0x1a, 0xf7, 0xff, 0xff,
    0xa7, 0x08, 0x00, 0x00, 0xe6, 0xfb, 0xff, 0xff, 0x26, 0x00, 0x00, 0x00,
    0x8a, 0x03, 0x00, 0x00, 0x07, 0x07, 0x00, 0x00, 0x0b, 0x05, 0x00, 0x00,
    0x69, 0xfc, 0xff, 0xff, 0x09, 0x05, 0x00, 0x00, 0x11, 0x0b, 0x00, 0x00,
    0x41, 0xf5, 0xff, 0xff, 0xfe, 0x08, 0x00, 0x00, 0x12, 0xfb, 0xff, 0xff,
    0x97, 0xff, 0xff, 0xff, 0xef, 0x03, 0x00, 0x00, 0x43, 0x05, 0x00, 0x00,
    0x60, 0x06, 0x00, 0x00, 0xac, 0x05, 0x00, 0x00, 0x6a, 0xf8, 0xff, 0xff,
    0x5d, 0x01, 0x00, 0x00, 0x93, 0x06, 0x00, 0x00, 0xaa, 0x07, 0x00, 0x00,
    0x2f, 0xfb, 0xff, 0xff, 0xa5, 0x0b, 0x00, 0x00, 0x97, 0x10, 0x00, 0x00,
    0xcd, 0xf8, 0xff, 0xff, 0x62, 0xfe, 0xff, 0xff, 0x04, 0x00, 0x00, 0x00,
    0x00, 0x01, 0x00, 0x00, 0x65, 0x42, 0x2a, 0xac, 0x5d, 0x6d, 0x03, 0xba,
    0xc6, 0x76, 0x1d, 0x91, 0x9c, 0xa3, 0xa6, 0xbe, 0x2d, 0x54, 0x47, 0xb2,
    0xb2, 0xd9, 0x27, 0xca, 0x00, 0xb2, 0x2d, 0x3a, 0x6a, 0xc4, 0x23, 0xc1,
    0x07, 0x90, 0x33, 0xed, 0x31, 0x1f, 0xb3, 0xac, 0x7f, 0x06, 0xf0, 0x9b,
    0x02, 0x6d, 0xbd, 0x12, 0x1b, 0x24, 0xe7, 0x25, 0x1f, 0x34, 0x6c, 0x2e,
    0x70, 0xdc, 0xe1, 0x70, 0xdf, 0x4e, 0x9f, 0xfd, 0x25, 0x94, 0x23, 0xd1,
    0xe3, 0x3c, 0xc4, 0x65, 0x45, 0xe8, 0xc9, 0x13, 0xa8, 0x3d, 0x97, 0x12,
    0xeb, 0x52, 0x34, 0xb1, 0x70, 0xba, 0x02, 0x93, 0xb5, 0x39, 0xe1, 0x1a,
    0xf8, 0xb0, 0xaf, 0xc5, 0x70, 0xe6, 0xd9, 0x31, 0x5c, 0x12, 0x23, 0xe6,
    0x4e, 0xf3, 0x60, 0x01, 0x06, 0xca, 0x06, 0xe6, 0x27, 0xfc, 0xe4, 0x3f,
    0x9a, 0xcf, 0xd7, 0x91, 0x74, 0x4d, 0xed, 0xcf, 0xa2, 0x5e, 0xa9, 0x8a,
    0x93, 0xef, 0x7a, 0x73, 0xba, 0x16, 0xd9, 0x21, 0x28, 0xd2, 0x63, 0x63,
    0x19, 0x33, 0x02, 0x5b, 0xdd, 0xa2, 0xd7, 0xf3, 0x0f, 0xb2, 0xc1, 0x78,
    0x72, 0xd9, 0x73, 0x0c, 0x1c, 0x1e, 0x2d, 0x54, 0x61, 0x0f, 0xb7, 0xc2,
    0xc2, 0xb3, 0x63, 0x76, 0x13, 0x0b, 0x6d, 0x35, 0x65, 0xde, 0x49, 0x63,
    0xba, 0x20, 0x19, 0x19, 0x18, 0x37, 0x03, 0x04, 0xff, 0xde, 0x72, 0xb4,
    0x15, 0xb3, 0x18, 0x25, 0xe2, 0xf3, 0x99, 0x18, 0x6f, 0xc9, 0xea, 0x1f,
    0xca, 0x23, 0x71, 0x21, 0x54, 0xd3, 0x45, 0xb7, 0x2a, 0xc0, 0xec, 0x2d,
    0xdc, 0x30, 0x7a, 0xe7, 0x72, 0xca, 0x98, 0xae, 0x01, 0x3d, 0x6a, 0x52,
    0x99, 0x72, 0x79, 0x48, 0xe6, 0xdc, 0xd5, 0x43, 0x95, 0x12, 0x35, 0xed,
    0xe2, 0x42, 0xb1, 0xa5, 0x35, 0xce, 0x36, 0xde, 0xfc, 0x5f, 0x5e, 0x3e,
    0x1a, 0xd4, 0xd5, 0x2c, 0x35, 0x36, 0xe9, 0xec, 0x6e, 0xff, 0xff, 0xff,
    0x04, 0x00, 0x00, 0x00, 0x08, 0x00, 0x00, 0x00, 0x22, 0xf3, 0xff, 0xff,
    0xe9, 0x02, 0x00, 0x00, 0x82, 0xff, 0xff, 0xff, 0x04, 0x00, 0x00, 0x00,
    0x08, 0x00, 0x00, 0x00, 0x01, 0x00, 0x00, 0x00, 0x10, 0x00, 0x00, 0x00,
    0x96, 0xff, 0xff, 0xff, 0x04, 0x00, 0x00, 0x00, 0x08, 0x00, 0x00, 0x00,
    0x02, 0x00, 0x00, 0x00, 0x03, 0x00, 0x00, 0x00, 0xaa, 0xff, 0xff, 0xff,
    0x04, 0x00, 0x00, 0x00, 0x10, 0x00, 0x00, 0x00, 0x00, 0x00, 0x00, 0x00,
    0x02, 0x00, 0x00, 0x00, 0x03, 0x00, 0x00, 0x00, 0x01, 0x00, 0x00, 0x00,
    0xc6, 0xff, 0xff, 0xff, 0x04, 0x00, 0x00, 0x00, 0x10, 0x00, 0x00, 0x00,
    0x00, 0x00, 0x00, 0x00, 0x03, 0x00, 0x00, 0x00, 0x01, 0x00, 0x00, 0x00,
    0x02, 0x00, 0x00, 0x00, 0xe2, 0xff, 0xff, 0xff, 0x04, 0x00, 0x00, 0x00,
    0x10, 0x00, 0x00, 0x00, 0x01, 0x00, 0x00, 0x00, 0x2a, 0x00, 0x00, 0x00,
    0x1c, 0x00, 0x00, 0x00, 0x01, 0x00, 0x00, 0x00, 0x00, 0x00, 0x06, 0x00,
    0x08, 0x00, 0x04, 0x00, 0x06, 0x00, 0x00, 0x00, 0x04, 0x00, 0x00, 0x00,
    0x20, 0x00, 0x00, 0x00, 0x00, 0x00, 0x00, 0x00, 0x00, 0x00, 0x00, 0x00,
    0x00, 0x00, 0x00, 0x00, 0x00, 0x00, 0x00, 0x00, 0x01, 0x00, 0x00, 0x00,
    0x01, 0x00, 0x00, 0x00, 0x01, 0x00, 0x00, 0x00, 0x01, 0x00, 0x00, 0x00,
    0x54, 0xd0, 0xff, 0xff, 0x58, 0xd0, 0xff, 0xff, 0x0f, 0x00, 0x00, 0x00,
    0x4d, 0x4c, 0x49, 0x52, 0x20, 0x43, 0x6f, 0x6e, 0x76, 0x65, 0x72, 0x74,
    0x65, 0x64, 0x2e, 0x00, 0x01, 0x00, 0x00, 0x00, 0x14, 0x00, 0x00, 0x00,
    0x00, 0x00, 0x0e, 0x00, 0x18, 0x00, 0x14, 0x00, 0x10, 0x00, 0x0c, 0x00,
    0x08, 0x00, 0x04, 0x00, 0x0e, 0x00, 0x00, 0x00, 0x14, 0x00, 0x00, 0x00,
    0x1c, 0x00, 0x00, 0x00, 0xc0, 0x08, 0x00, 0x00, 0xc4, 0x08, 0x00, 0x00,
    0xc8, 0x08, 0x00, 0x00, 0x04, 0x00, 0x00, 0x00, 0x6d, 0x61, 0x69, 0x6e,
    0x00, 0x00, 0x00, 0x00, 0x2b, 0x00, 0x00, 0x00, 0x88, 0x08, 0x00, 0x00,
    0x48, 0x08, 0x00, 0x00, 0x10, 0x08, 0x00, 0x00, 0xb4, 0x07, 0x00, 0x00,
    0x8c, 0x07, 0x00, 0x00, 0x58, 0x07, 0x00, 0x00, 0x24, 0x07, 0x00, 0x00,
    0xfc, 0x06, 0x00, 0x00, 0xd8, 0x06, 0x00, 0x00, 0xa4, 0x06, 0x00, 0x00,
    0x70, 0x06, 0x00, 0x00, 0x48, 0x06, 0x00, 0x00, 0xf4, 0x05, 0x00, 0x00,
    0xcc, 0x05, 0x00, 0x00, 0x98, 0x05, 0x00, 0x00, 0x70, 0x05, 0x00, 0x00,
    0x14, 0x05, 0x00, 0x00, 0xd0, 0x04, 0x00, 0x00, 0xa8, 0x04, 0x00, 0x00,
    0x74, 0x04, 0x00, 0x00, 0x4c, 0x04, 0x00, 0x00, 0x08, 0x04, 0x00, 0x00,
    0xe0, 0x03, 0x00, 0x00, 0xac, 0x03, 0x00, 0x00, 0x78, 0x03, 0x00, 0x00,
    0x50, 0x03, 0x00, 0x00, 0x2c, 0x03, 0x00, 0x00, 0xf8, 0x02, 0x00, 0x00,
    0xc4, 0x02, 0x00, 0x00, 0x9c, 0x02, 0x00, 0x00, 0x50, 0x02, 0x00, 0x00,
    0x0c, 0x02, 0x00, 0x00, 0xe4, 0x01, 0x00, 0x00, 0xa4, 0x01, 0x00, 0x00,
    0x7c, 0x01, 0x00, 0x00, 0x44, 0x01, 0x00, 0x00, 0x10, 0x01, 0x00, 0x00,
    0xdc, 0x00, 0x00, 0x00, 0xb4, 0x00, 0x00, 0x00, 0x90, 0x00, 0x00, 0x00,
    0x5c, 0x00, 0x00, 0x00, 0x24, 0x00, 0x00, 0x00, 0x04, 0x00, 0x00, 0x00,
    0x2e, 0xf8, 0xff, 0xff, 0x08, 0x00, 0x00, 0x00, 0x0c, 0x00, 0x00, 0x00,
    0x01, 0x00, 0x00, 0x00, 0x48, 0x00, 0x00, 0x00, 0x01, 0x00, 0x00, 0x00,
    0x47, 0x00, 0x00, 0x00, 0x8a, 0xf8, 0xff, 0xff, 0x14, 0x00, 0x00, 0x00,
    0x00, 0x00, 0x00, 0x08, 0x10, 0x00, 0x00, 0x00, 0x14, 0x00, 0x00, 0x00,
    0x0b, 0x00, 0x00, 0x00, 0x90, 0xd1, 0xff, 0xff, 0x01, 0x00, 0x00, 0x00,
    0x47, 0x00, 0x00, 0x00, 0x03, 0x00, 0x00, 0x00, 0x46, 0x00, 0x00, 0x00,
    0x08, 0x00, 0x00, 0x00, 0x07, 0x00, 0x00, 0x00, 0xbe, 0xf8, 0xff, 0xff,
    0x14, 0x00, 0x00, 0x00, 0x00, 0x00, 0x00, 0x15, 0x10, 0x00, 0x00, 0x00,
    0x14, 0x00, 0x00, 0x00, 0x05, 0x00, 0x00, 0x00, 0xc4, 0xd1, 0xff, 0xff,
    0x01, 0x00, 0x00, 0x00, 0x46, 0x00, 0x00, 0x00, 0x02, 0x00, 0x00, 0x00,
    0x41, 0x00, 0x00, 0x00, 0x45, 0x00, 0x00, 0x00, 0x1e, 0xf9, 0xff, 0xff,
    0x0c, 0x00, 0x00, 0x00, 0x10, 0x00, 0x00, 0x00, 0x08, 0x00, 0x00, 0x00,
    0x01, 0x00, 0x00, 0x00, 0x45, 0x00, 0x00, 0x00, 0x01, 0x00, 0x00, 0x00,
    0x44, 0x00, 0x00, 0x00, 0x3e, 0xf9, 0xff, 0xff, 0x0c, 0x00, 0x00, 0x00,
    0x10, 0x00, 0x00, 0x00, 0x07, 0x00, 0x00, 0x00, 0x01, 0x00, 0x00, 0x00,
    0x44, 0x00, 0x00, 0x00, 0x02, 0x00, 0x00, 0x00, 0x43, 0x00, 0x00, 0x00,
    0x19, 0x00, 0x00, 0x00, 0x32, 0xf9, 0xff, 0xff, 0x14, 0x00, 0x00, 0x00,
    0x00, 0x00, 0x00, 0x0b, 0x10, 0x00, 0x00, 0x00, 0x14, 0x00, 0x00, 0x00,
    0x06, 0x00, 0x00, 0x00, 0x38, 0xd2, 0xff, 0xff, 0x01, 0x00, 0x00, 0x00,
    0x43, 0x00, 0x00, 0x00, 0x02, 0x00, 0x00, 0x00, 0x42, 0x00, 0x00, 0x00,
    0x1a, 0x00, 0x00, 0x00, 0x62, 0xf9, 0xff, 0xff, 0x14, 0x00, 0x00, 0x00,
    0x00, 0x00, 0x00, 0x15, 0x10, 0x00, 0x00, 0x00, 0x14, 0x00, 0x00, 0x00,
    0x05, 0x00, 0x00, 0x00, 0x68, 0xd2, 0xff, 0xff, 0x01, 0x00, 0x00, 0x00,
    0x42, 0x00, 0x00, 0x00, 0x02, 0x00, 0x00, 0x00, 0x41, 0x00, 0x00, 0x00,
    0x1b, 0x00, 0x00, 0x00, 0x92, 0xf9, 0xff, 0xff, 0x14, 0x00, 0x00, 0x00,
    0x00, 0x00, 0x00, 0x08, 0x10, 0x00, 0x00, 0x00, 0x14, 0x00, 0x00, 0x00,
    0x0b, 0x00, 0x00, 0x00, 0x98, 0xd2, 0xff, 0xff, 0x01, 0x00, 0x00, 0x00,
    0x41, 0x00, 0x00, 0x00, 0x03, 0x00, 0x00, 0x00, 0x40, 0x00, 0x00, 0x00,
    0x0a, 0x00, 0x00, 0x00, 0x09, 0x00, 0x00, 0x00, 0xf6, 0xf9, 0xff, 0xff,
    0x0c, 0x00, 0x00, 0x00, 0x10, 0x00, 0x00, 0x00, 0x02, 0x00, 0x00, 0x00,
    0x01, 0x00, 0x00, 0x00, 0x40, 0x00, 0x00, 0x00, 0x02, 0x00, 0x00, 0x00,
    0x3f, 0x00, 0x00, 0x00, 0x06, 0x00, 0x00, 0x00, 0xea, 0xf9, 0xff, 0xff,
    0x1c, 0x00, 0x00, 0x00, 0x00, 0x00, 0x00, 0x1b, 0x1c, 0x00, 0x00, 0x00,
    0x20, 0x00, 0x00, 0x00, 0x0a, 0x00, 0x00, 0x00, 0x00, 0x00, 0x06, 0x00,
    0x08, 0x00, 0x07, 0x00, 0x06, 0x00, 0x00, 0x00, 0x00, 0x00, 0x00, 0x01,
    0x01, 0x00, 0x00, 0x00, 0x3f, 0x00, 0x00, 0x00, 0x02, 0x00, 0x00, 0x00,
    0x3e, 0x00, 0x00, 0x00, 0x05, 0x00, 0x00, 0x00, 0x56, 0xfa, 0xff, 0xff,
    0x0c, 0x00, 0x00, 0x00, 0x10, 0x00, 0x00, 0x00, 0x04, 0x00, 0x00, 0x00,
    0x01, 0x00, 0x00, 0x00, 0x3e, 0x00, 0x00, 0x00, 0x02, 0x00, 0x00, 0x00,
    0x3d, 0x00, 0x00, 0x00, 0x03, 0x00, 0x00, 0x00, 0x4a, 0xfa, 0xff, 0xff,
    0x14, 0x00, 0x00, 0x00, 0x00, 0x00, 0x00, 0x01, 0x1c, 0x00, 0x00, 0x00,
    0x20, 0x00, 0x00, 0x00, 0x03, 0x00, 0x00, 0x00, 0xc6, 0xfa, 0xff, 0xff,
    0x01, 0x00, 0x00, 0x00, 0x01, 0x00, 0x00, 0x00, 0x00, 0x00, 0x00, 0x01,
    0x01, 0x00, 0x00, 0x00, 0x3d, 0x00, 0x00, 0x00, 0x03, 0x00, 0x00, 0x00,
    0x3c, 0x00, 0x00, 0x00, 0x0c, 0x00, 0x00, 0x00, 0x0b, 0x00, 0x00, 0x00,
    0x8a, 0xfa, 0xff, 0xff, 0x14, 0x00, 0x00, 0x00, 0x00, 0x00, 0x00, 0x02,
    0x24, 0x00, 0x00, 0x00, 0x28, 0x00, 0x00, 0x00, 0x09, 0x00, 0x00, 0x00,
    0x72, 0xfd, 0xff, 0xff, 0x00, 0x00, 0x00, 0x01, 0x01, 0x00, 0x00, 0x00,
    0x01, 0x00, 0x00, 0x00, 0x01, 0x00, 0x00, 0x00, 0x00, 0x00, 0x00, 0x01,
    0x01, 0x00, 0x00, 0x00, 0x3c, 0x00, 0x00, 0x00, 0x03, 0x00, 0x00, 0x00,
    0x3b, 0x00, 0x00, 0x00, 0x0e, 0x00, 0x00, 0x00, 0x0d, 0x00, 0x00, 0x00,
    0x02, 0xfb, 0xff, 0xff, 0x0c, 0x00, 0x00, 0x00, 0x10, 0x00, 0x00, 0x00,
    0x04, 0x00, 0x00, 0x00, 0x01, 0x00, 0x00, 0x00, 0x3b, 0x00, 0x00, 0x00,
    0x02, 0x00, 0x00, 0x00, 0x3a, 0x00, 0x00, 0x00, 0x04, 0x00, 0x00, 0x00,
    0xf6, 0xfa, 0xff, 0xff, 0x14, 0x00, 0x00, 0x00, 0x00, 0x00, 0x00, 0x16,
    0x10, 0x00, 0x00, 0x00, 0x14, 0x00, 0x00, 0x00, 0x01, 0x00, 0x00, 0x00,
    0xfc, 0xd3, 0xff, 0xff, 0x01, 0x00, 0x00, 0x00, 0x3a, 0x00, 0x00, 0x00,
    0x02, 0x00, 0x00, 0x00, 0x39, 0x00, 0x00, 0x00, 0x01, 0x00, 0x00, 0x00,
    0x26, 0xfb, 0xff, 0xff, 0x14, 0x00, 0x00, 0x00, 0x00, 0x00, 0x00, 0x15,
    0x10, 0x00, 0x00, 0x00, 0x14, 0x00, 0x00, 0x00, 0x05, 0x00, 0x00, 0x00,
    0x2c, 0xd4, 0xff, 0xff, 0x01, 0x00, 0x00, 0x00, 0x39, 0x00, 0x00, 0x00,
    0x02, 0x00, 0x00, 0x00, 0x34, 0x00, 0x00, 0x00, 0x38, 0x00, 0x00, 0x00,
    0x86, 0xfb, 0xff, 0xff, 0x0c, 0x00, 0x00, 0x00, 0x10, 0x00, 0x00, 0x00,
    0x08, 0x00, 0x00, 0x00, 0x01, 0x00, 0x00, 0x00, 0x38, 0x00, 0x00, 0x00,
    0x01, 0x00, 0x00, 0x00, 0x37, 0x00, 0x00, 0x00, 0xa6, 0xfb, 0xff, 0xff,
    0x0c, 0x00, 0x00, 0x00, 0x10, 0x00, 0x00, 0x00, 0x07, 0x00, 0x00, 0x00,
    0x01, 0x00, 0x00, 0x00, 0x37, 0x00, 0x00, 0x00, 0x02, 0x00, 0x00, 0x00,
    0x36, 0x00, 0x00, 0x00, 0x18, 0x00, 0x00, 0x00, 0x9a, 0xfb, 0xff, 0xff,
    0x14, 0x00, 0x00, 0x00, 0x00, 0x00, 0x00, 0x0b, 0x10, 0x00, 0x00, 0x00,
    0x14, 0x00, 0x00, 0x00, 0x06, 0x00, 0x00, 0x00, 0xa0, 0xd4, 0xff, 0xff,
    0x01, 0x00, 0x00, 0x00, 0x36, 0x00, 0x00, 0x00, 0x02, 0x00, 0x00, 0x00,
    0x35, 0x00, 0x00, 0x00, 0x1a, 0x00, 0x00, 0x00, 0xca, 0xfb, 0xff, 0xff,
    0x14, 0x00, 0x00, 0x00, 0x00, 0x00, 0x00, 0x15, 0x10, 0x00, 0x00, 0x00,
    0x14, 0x00, 0x00, 0x00, 0x05, 0x00, 0x00, 0x00, 0xd0, 0xd4, 0xff, 0xff,
    0x01, 0x00, 0x00, 0x00, 0x35, 0x00, 0x00, 0x00, 0x02, 0x00, 0x00, 0x00,
    0x34, 0x00, 0x00, 0x00, 0x1b, 0x00, 0x00, 0x00, 0x2a, 0xfc, 0xff, 0xff,
    0x0c, 0x00, 0x00, 0x00, 0x10, 0x00, 0x00, 0x00, 0x04, 0x00, 0x00, 0x00,
    0x01, 0x00, 0x00, 0x00, 0x34, 0x00, 0x00, 0x00, 0x02, 0x00, 0x00, 0x00,
    0x33, 0x00, 0x00, 0x00, 0x03, 0x00, 0x00, 0x00, 0x1e, 0xfc, 0xff, 0xff,
    0x14, 0x00, 0x00, 0x00, 0x00, 0x00, 0x00, 0x01, 0x1c, 0x00, 0x00, 0x00,
    0x20, 0x00, 0x00, 0x00, 0x03, 0x00, 0x00, 0x00, 0x9a, 0xfc, 0xff, 0xff,
    0x02, 0x00, 0x00, 0x00, 0x02, 0x00, 0x00, 0x00, 0x00, 0x00, 0x00, 0x01,
    0x01, 0x00, 0x00, 0x00, 0x33, 0x00, 0x00, 0x00, 0x03, 0x00, 0x00, 0x00,
    0x32, 0x00, 0x00, 0x00, 0x10, 0x00, 0x00, 0x00, 0x0f, 0x00, 0x00, 0x00,
    0x8e, 0xfc, 0xff, 0xff, 0x0c, 0x00, 0x00, 0x00, 0x10, 0x00, 0x00, 0x00,
    0x04, 0x00, 0x00, 0x00, 0x01, 0x00, 0x00, 0x00, 0x32, 0x00, 0x00, 0x00,
    0x02, 0x00, 0x00, 0x00, 0x31, 0x00, 0x00, 0x00, 0x04, 0x00, 0x00, 0x00,
    0x82, 0xfc, 0xff, 0xff, 0x14, 0x00, 0x00, 0x00, 0x00, 0x00, 0x00, 0x16,
    0x10, 0x00, 0x00, 0x00, 0x14, 0x00, 0x00, 0x00, 0x01, 0x00, 0x00, 0x00,
    0x88, 0xd5, 0xff, 0xff, 0x01, 0x00, 0x00, 0x00, 0x31, 0x00, 0x00, 0x00,
    0x02, 0x00, 0x00, 0x00, 0x30, 0x00, 0x00, 0x00, 0x01, 0x00, 0x00, 0x00,
    0xe2, 0xfc, 0xff, 0xff, 0x0c, 0x00, 0x00, 0x00, 0x10, 0x00, 0x00, 0x00,
    0x04, 0x00, 0x00, 0x00, 0x01, 0x00, 0x00, 0x00, 0x30, 0x00, 0x00, 0x00,
    0x02, 0x00, 0x00, 0x00, 0x2f, 0x00, 0x00, 0x00, 0x03, 0x00, 0x00, 0x00,
    0xd6, 0xfc, 0xff, 0xff, 0x14, 0x00, 0x00, 0x00, 0x00, 0x00, 0x00, 0x01,
    0x1c, 0x00, 0x00, 0x00, 0x20, 0x00, 0x00, 0x00, 0x03, 0x00, 0x00, 0x00,
    0x52, 0xfd, 0xff, 0xff, 0x01, 0x00, 0x00, 0x00, 0x01, 0x00, 0x00, 0x00,
    0x00, 0x00, 0x00, 0x01, 0x01, 0x00, 0x00, 0x00, 0x2f, 0x00, 0x00, 0x00,
    0x03, 0x00, 0x00, 0x00, 0x2e, 0x00, 0x00, 0x00, 0x12, 0x00, 0x00, 0x00,
    0x11, 0x00, 0x00, 0x00, 0x16, 0xfd, 0xff, 0xff, 0x24, 0x00, 0x00, 0x00,
    0x00, 0x00, 0x00, 0x02, 0x34, 0x00, 0x00, 0x00, 0x38, 0x00, 0x00, 0x00,
    0x09, 0x00, 0x00, 0x00, 0x00, 0x00, 0x0e, 0x00, 0x18, 0x00, 0x17, 0x00,
    0x10, 0x00, 0x0c, 0x00, 0x08, 0x00, 0x07, 0x00, 0x0e, 0x00, 0x00, 0x00,
    0x00, 0x00, 0x00, 0x01, 0x01, 0x00, 0x00, 0x00, 0x01, 0x00, 0x00, 0x00,
    0x01, 0x00, 0x00, 0x00, 0x00, 0x00, 0x00, 0x01, 0x01, 0x00, 0x00, 0x00,
    0x2e, 0x00, 0x00, 0x00, 0x03, 0x00, 0x00, 0x00, 0x2d, 0x00, 0x00, 0x00,
    0x14, 0x00, 0x00, 0x00, 0x13, 0x00, 0x00, 0x00, 0x9e, 0xfd, 0xff, 0xff,
    0x0c, 0x00, 0x00, 0x00, 0x10, 0x00, 0x00, 0x00, 0x04, 0x00, 0x00, 0x00,
    0x01, 0x00, 0x00, 0x00, 0x2d, 0x00, 0x00, 0x00, 0x02, 0x00, 0x00, 0x00,
    0x2c, 0x00, 0x00, 0x00, 0x04, 0x00, 0x00, 0x00, 0x92, 0xfd, 0xff, 0xff,
    0x14, 0x00, 0x00, 0x00, 0x00, 0x00, 0x00, 0x16, 0x10, 0x00, 0x00, 0x00,
    0x14, 0x00, 0x00, 0x00, 0x01, 0x00, 0x00, 0x00, 0x98, 0xd6, 0xff, 0xff,
    0x01, 0x00, 0x00, 0x00, 0x2c, 0x00, 0x00, 0x00, 0x02, 0x00, 0x00, 0x00,
    0x2b, 0x00, 0x00, 0x00, 0x01, 0x00, 0x00, 0x00, 0xf2, 0xfd, 0xff, 0xff,
    0x0c, 0x00, 0x00, 0x00, 0x10, 0x00, 0x00, 0x00, 0x04, 0x00, 0x00, 0x00,
    0x01, 0x00, 0x00, 0x00, 0x2b, 0x00, 0x00, 0x00, 0x02, 0x00, 0x00, 0x00,
    0x2a, 0x00, 0x00, 0x00, 0x03, 0x00, 0x00, 0x00, 0xe6, 0xfd, 0xff, 0xff,
    0x20, 0x00, 0x00, 0x00, 0x00, 0x00, 0x00, 0x01, 0x2c, 0x00, 0x00, 0x00,
    0x30, 0x00, 0x00, 0x00, 0x03, 0x00, 0x00, 0x00, 0x0c, 0x00, 0x14, 0x00,
    0x13, 0x00, 0x0c, 0x00, 0x08, 0x00, 0x07, 0x00, 0x0c, 0x00, 0x00, 0x00,
    0x00, 0x00, 0x00, 0x01, 0x02, 0x00, 0x00, 0x00, 0x02, 0x00, 0x00, 0x00,
    0x00, 0x00, 0x00, 0x01, 0x01, 0x00, 0x00, 0x00, 0x2a, 0x00, 0x00, 0x00,
    0x03, 0x00, 0x00, 0x00, 0x29, 0x00, 0x00, 0x00, 0x16, 0x00, 0x00, 0x00,
    0x15, 0x00, 0x00, 0x00, 0x66, 0xfe, 0xff, 0xff, 0x0c, 0x00, 0x00, 0x00,
    0x10, 0x00, 0x00, 0x00, 0x04, 0x00, 0x00, 0x00, 0x01, 0x00, 0x00, 0x00,
    0x29, 0x00, 0x00, 0x00, 0x02, 0x00, 0x00, 0x00, 0x28, 0x00, 0x00, 0x00,
    0x04, 0x00, 0x00, 0x00, 0x5a, 0xfe, 0xff, 0xff, 0x14, 0x00, 0x00, 0x00,
    0x00, 0x00, 0x00, 0x16, 0x10, 0x00, 0x00, 0x00, 0x14, 0x00, 0x00, 0x00,
    0x01, 0x00, 0x00, 0x00, 0x60, 0xd7, 0xff, 0xff, 0x01, 0x00, 0x00, 0x00,
    0x28, 0x00, 0x00, 0x00, 0x02, 0x00, 0x00, 0x00, 0x27, 0x00, 0x00, 0x00,
    0x01, 0x00, 0x00, 0x00, 0x8a, 0xfe, 0xff, 0xff, 0x14, 0x00, 0x00, 0x00,
    0x00, 0x00, 0x00, 0x15, 0x10, 0x00, 0x00, 0x00, 0x14, 0x00, 0x00, 0x00,
    0x05, 0x00, 0x00, 0x00, 0x90, 0xd7, 0xff, 0xff, 0x01, 0x00, 0x00, 0x00,
    0x27, 0x00, 0x00, 0x00, 0x02, 0x00, 0x00, 0x00, 0x22, 0x00, 0x00, 0x00,
    0x26, 0x00, 0x00, 0x00, 0xea, 0xfe, 0xff, 0xff, 0x0c, 0x00, 0x00, 0x00,
    0x10, 0x00, 0x00, 0x00, 0x08, 0x00, 0x00, 0x00, 0x01, 0x00, 0x00, 0x00,
    0x26, 0x00, 0x00, 0x00, 0x01, 0x00, 0x00, 0x00, 0x25, 0x00, 0x00, 0x00,
    0x0a, 0xff, 0xff, 0xff, 0x0c, 0x00, 0x00, 0x00, 0x10, 0x00, 0x00, 0x00,
    0x07, 0x00, 0x00, 0x00, 0x01, 0x00, 0x00, 0x00, 0x25, 0x00, 0x00, 0x00,
    0x02, 0x00, 0x00, 0x00, 0x24, 0x00, 0x00, 0x00, 0x17, 0x00, 0x00, 0x00,
    0xfe, 0xfe, 0xff, 0xff, 0x14, 0x00, 0x00, 0x00, 0x00, 0x00, 0x00, 0x0b,
    0x10, 0x00, 0x00, 0x00, 0x14, 0x00, 0x00, 0x00, 0x06, 0x00, 0x00, 0x00,
    0x04, 0xd8, 0xff, 0xff, 0x01, 0x00, 0x00, 0x00, 0x24, 0x00, 0x00, 0x00,
    0x02, 0x00, 0x00, 0x00, 0x23, 0x00, 0x00, 0x00, 0x1a, 0x00, 0x00, 0x00,
    0x2e, 0xff, 0xff, 0xff, 0x14, 0x00, 0x00, 0x00, 0x00, 0x00, 0x00, 0x15,
    0x10, 0x00, 0x00, 0x00, 0x14, 0x00, 0x00, 0x00, 0x05, 0x00, 0x00, 0x00,
    0x34, 0xd8, 0xff, 0xff, 0x01, 0x00, 0x00, 0x00, 0x23, 0x00, 0x00, 0x00,
    0x02, 0x00, 0x00, 0x00, 0x22, 0x00, 0x00, 0x00, 0x1b, 0x00, 0x00, 0x00,
    0x8e, 0xff, 0xff, 0xff, 0x0c, 0x00, 0x00, 0x00, 0x10, 0x00, 0x00, 0x00,
    0x04, 0x00, 0x00, 0x00, 0x01, 0x00, 0x00, 0x00, 0x22, 0x00, 0x00, 0x00,
    0x02, 0x00, 0x00, 0x00, 0x21, 0x00, 0x00, 0x00, 0x03, 0x00, 0x00, 0x00,
    0x82, 0xff, 0xff, 0xff, 0x20, 0x00, 0x00, 0x00, 0x00, 0x00, 0x00, 0x01,
    0x28, 0x00, 0x00, 0x00, 0x2c, 0x00, 0x00, 0x00, 0x03, 0x00, 0x00, 0x00,
    0x00, 0x00, 0x0a, 0x00, 0x10, 0x00, 0x0f, 0x00, 0x08, 0x00, 0x04, 0x00,
    0x0a, 0x00, 0x00, 0x00, 0x02, 0x00, 0x00, 0x00, 0x02, 0x00, 0x00, 0x00,
    0x00, 0x00, 0x00, 0x01, 0x01, 0x00, 0x00, 0x00, 0x21, 0x00, 0x00, 0x00,
    0x03, 0x00, 0x00, 0x00, 0x20, 0x00, 0x00, 0x00, 0x1d, 0x00, 0x00, 0x00,
    0x1c, 0x00, 0x00, 0x00, 0x00, 0x00, 0x0a, 0x00, 0x10, 0x00, 0x0c, 0x00,
    0x08, 0x00, 0x04, 0x00, 0x0a, 0x00, 0x00, 0x00, 0x0c, 0x00, 0x00, 0x00,
    0x10, 0x00, 0x00, 0x00, 0x02, 0x00, 0x00, 0x00, 0x01, 0x00, 0x00, 0x00,
    0x20, 0x00, 0x00, 0x00, 0x02, 0x00, 0x00, 0x00, 0x1f, 0x00, 0x00, 0x00,
    0x02, 0x00, 0x00, 0x00, 0x00, 0x00, 0x0e, 0x00, 0x18, 0x00, 0x14, 0x00,
    0x10, 0x00, 0x0c, 0x00, 0x0b, 0x00, 0x04, 0x00, 0x0e, 0x00, 0x00, 0x00,
    0x14, 0x00, 0x00, 0x00, 0x00, 0x00, 0x00, 0x16, 0x10, 0x00, 0x00, 0x00,
    0x14, 0x00, 0x00, 0x00, 0x01, 0x00, 0x00, 0x00, 0x14, 0xd9, 0xff, 0xff,
    0x01, 0x00, 0x00, 0x00, 0x1f, 0x00, 0x00, 0x00, 0x02, 0x00, 0x00, 0x00,
    0x1e, 0x00, 0x00, 0x00, 0x01, 0x00, 0x00, 0x00, 0x00, 0x00, 0x0a, 0x00,
    0x0c, 0x00, 0x00, 0x00, 0x08, 0x00, 0x04, 0x00, 0x0a, 0x00, 0x00, 0x00,
    0x08, 0x00, 0x00, 0x00, 0x0c, 0x00, 0x00, 0x00, 0x01, 0x00, 0x00, 0x00,
    0x1e, 0x00, 0x00, 0x00, 0x01, 0x00, 0x00, 0x00, 0x00, 0x00, 0x00, 0x00,
    0x01, 0x00, 0x00, 0x00, 0x48, 0x00, 0x00, 0x00, 0x01, 0x00, 0x00, 0x00,
    0x00, 0x00, 0x00, 0x00, 0x49, 0x00, 0x00, 0x00, 0xd8, 0x26, 0x00, 0x00,
    0x78, 0x26, 0x00, 0x00, 0x38, 0x26, 0x00, 0x00, 0xf8, 0x25, 0x00, 0x00,
    0xb8, 0x25, 0x00, 0x00, 0x78, 0x25, 0x00, 0x00, 0x38, 0x25, 0x00, 0x00,
    0xd8, 0x24, 0x00, 0x00, 0x74, 0x24, 0x00, 0x00, 0x10, 0x24, 0x00, 0x00,
    0xac, 0x23, 0x00, 0x00, 0x98, 0x22, 0x00, 0x00, 0x74, 0x21, 0x00, 0x00,
    0x60, 0x20, 0x00, 0x00, 0x24, 0x1f, 0x00, 0x00, 0x10, 0x1e, 0x00, 0x00,
    0xec, 0x1c, 0x00, 0x00, 0xd8, 0x1b, 0x00, 0x00, 0xb4, 0x1a, 0x00, 0x00,
    0xa0, 0x19, 0x00, 0x00, 0x78, 0x18, 0x00, 0x00, 0x60, 0x17, 0x00, 0x00,
    0x3c, 0x16, 0x00, 0x00, 0xe0, 0x15, 0x00, 0x00, 0x84, 0x15, 0x00, 0x00,
    0x28, 0x15, 0x00, 0x00, 0xcc, 0x14, 0x00, 0x00, 0x70, 0x14, 0x00, 0x00,
    0x5c, 0x13, 0x00, 0x00, 0x38, 0x12, 0x00, 0x00, 0xcc, 0x11, 0x00, 0x00,
    0x70, 0x11, 0x00, 0x00, 0x0c, 0x11, 0x00, 0x00, 0x98, 0x10, 0x00, 0x00,
    0x34, 0x10, 0x00, 0x00, 0xd8, 0x0f, 0x00, 0x00, 0x74, 0x0f, 0x00, 0x00,
    0x00, 0x0f, 0x00, 0x00, 0x94, 0x0e, 0x00, 0x00, 0x18, 0x0e, 0x00, 0x00,
    0xb4, 0x0d, 0x00, 0x00, 0x50, 0x0d, 0x00, 0x00, 0xcc, 0x0c, 0x00, 0x00,
    0x68, 0x0c, 0x00, 0x00, 0x04, 0x0c, 0x00, 0x00, 0xa0, 0x0b, 0x00, 0x00,
    0x04, 0x0b, 0x00, 0x00, 0x90, 0x0a, 0x00, 0x00, 0x24, 0x0a, 0x00, 0x00,
    0xc0, 0x09, 0x00, 0x00, 0x54, 0x09, 0x00, 0x00, 0xe0, 0x08, 0x00, 0x00,
    0x74, 0x08, 0x00, 0x00, 0x10, 0x08, 0x00, 0x00, 0xac, 0x07, 0x00, 0x00,
    0x38, 0x07, 0x00, 0x00, 0xcc, 0x06, 0x00, 0x00, 0x50, 0x06, 0x00, 0x00,
    0xec, 0x05, 0x00, 0x00, 0x80, 0x05, 0x00, 0x00, 0xe4, 0x04, 0x00, 0x00,
    0x68, 0x04, 0x00, 0x00, 0xfc, 0x03, 0x00, 0x00, 0x98, 0x03, 0x00, 0x00,
    0x3c, 0x03, 0x00, 0x00, 0xd8, 0x02, 0x00, 0x00, 0x7c, 0x02, 0x00, 0x00,
    0x20, 0x02, 0x00, 0x00, 0xb4, 0x01, 0x00, 0x00, 0x50, 0x01, 0x00, 0x00,
    0xcc, 0x00, 0x00, 0x00, 0x68, 0x00, 0x00, 0x00, 0x04, 0x00, 0x00, 0x00,
    0x62, 0xda, 0xff, 0xff, 0x00, 0x00, 0x00, 0x01, 0x14, 0x00, 0x00, 0x00,
    0x34, 0x00, 0x00, 0x00, 0x49, 0x00, 0x00, 0x00, 0x00, 0x00, 0x00, 0x03,
    0x3c, 0x00, 0x00, 0x00, 0x4c, 0xda, 0xff, 0xff, 0x08, 0x00, 0x00, 0x00,
    0x14, 0x00, 0x00, 0x00, 0x01, 0x00, 0x00, 0x00, 0x75, 0x00, 0x00, 0x00,
    0x00, 0x00, 0x00, 0x00, 0x00, 0x00, 0x00, 0x00, 0x01, 0x00, 0x00, 0x00,
    0xec, 0xe2, 0x40, 0x3d, 0x0f, 0x00, 0x00, 0x00, 0x50, 0x61, 0x72, 0x74,
    0x69, 0x74, 0x69, 0x6f, 0x6e, 0x65, 0x64, 0x43, 0x61, 0x6c, 0x6c, 0x00,
    0x02, 0x00, 0x00, 0x00, 0x01, 0x00, 0x00, 0x00, 0x02, 0x00, 0x00, 0x00,
    0xc2, 0xda, 0xff, 0xff, 0x00, 0x00, 0x00, 0x01, 0x14, 0x00, 0x00, 0x00,
    0x30, 0x00, 0x00, 0x00, 0x48, 0x00, 0x00, 0x00, 0x00, 0x00, 0x00, 0x09,
    0x3c, 0x00, 0x00, 0x00, 0xac, 0xda, 0xff, 0xff, 0x08, 0x00, 0x00, 0x00,
    0x10, 0x00, 0x00, 0x00, 0x01, 0x00, 0x00, 0x00, 0xf5, 0xff, 0xff, 0xff,
    0xff, 0xff, 0xff, 0xff, 0x01, 0x00, 0x00, 0x00, 0xec, 0xe2, 0x40, 0x3d,
    0x10, 0x00, 0x00, 0x00, 0x50, 0x61, 0x72, 0x74, 0x69, 0x74, 0x69, 0x6f,
    0x6e, 0x65, 0x64, 0x43, 0x61, 0x6c, 0x6c, 0x31, 0x00, 0x00, 0x00, 0x00,
    0x02, 0x00, 0x00, 0x00, 0x01, 0x00, 0x00, 0x00, 0x02, 0x00, 0x00, 0x00,
    0x22, 0xdb, 0xff, 0xff, 0x00, 0x00, 0x00, 0x01, 0x14, 0x00, 0x00, 0x00,
    0x30, 0x00, 0x00, 0x00, 0x47, 0x00, 0x00, 0x00, 0x00, 0x00, 0x00, 0x09,
    0x5c, 0x00, 0x00, 0x00, 0x0c, 0xdb, 0xff, 0xff, 0x08, 0x00, 0x00, 0x00,
    0x10, 0x00, 0x00, 0x00, 0x01, 0x00, 0x00, 0x00, 0x95, 0xff, 0xff, 0xff,
    0xff, 0xff, 0xff, 0xff, 0x01, 0x00, 0x00, 0x00, 0x44, 0x58, 0x93, 0x3c,
    0x31, 0x00, 0x00, 0x00, 0x6f, 0x6e, 0x6e, 0x78, 0x5f, 0x74, 0x66, 0x5f,
    0x70, 0x72, 0x65, 0x66, 0x69, 0x78, 0x5f, 0x2f, 0x63, 0x6c, 0x61, 0x73,
    0x73, 0x69, 0x66, 0x5f, 0x62, 0x6c, 0x6f, 0x63, 0x6b, 0x2f, 0x63, 0x6c,
    0x61, 0x73, 0x73, 0x69, 0x66, 0x5f, 0x62, 0x6c, 0x6f, 0x63, 0x6b, 0x2e,
    0x31, 0x2f, 0x4d, 0x75, 0x6c, 0x00, 0x00, 0x00, 0x02, 0x00, 0x00, 0x00,
    0x01, 0x00, 0x00, 0x00, 0x80, 0x00, 0x00, 0x00, 0xa2, 0xdb, 0xff, 0xff,
    0x00, 0x00, 0x00, 0x01, 0x14, 0x00, 0x00, 0x00, 0x34, 0x00, 0x00, 0x00,
    0x46, 0x00, 0x00, 0x00, 0x00, 0x00, 0x00, 0x09, 0x3c, 0x00, 0x00, 0x00,
    0x8c, 0xdb, 0xff, 0xff, 0x08, 0x00, 0x00, 0x00, 0x14, 0x00, 0x00, 0x00,
    0x01, 0x00, 0x00, 0x00, 0x95, 0xff, 0xff, 0xff, 0xff, 0xff, 0xff, 0xff,
    0x00, 0x00, 0x00, 0x00, 0x01, 0x00, 0x00, 0x00, 0x44, 0x58, 0x93, 0x3c,
    0x0f, 0x00, 0x00, 0x00, 0x63, 0x6c, 0x69, 0x70, 0x5f, 0x62, 0x79, 0x5f,
    0x76, 0x61, 0x6c, 0x75, 0x65, 0x5f, 0x32, 0x00, 0x02, 0x00, 0x00, 0x00,
    0x01, 0x00, 0x00, 0x00, 0x80, 0x00, 0x00, 0x00, 0x02, 0xdc, 0xff, 0xff,
    0x00, 0x00, 0x00, 0x01, 0x14, 0x00, 0x00, 0x00, 0x34, 0x00, 0x00, 0x00,
    0x45, 0x00, 0x00, 0x00, 0x00, 0x00, 0x00, 0x09, 0x44, 0x00, 0x00, 0x00,
    0xec, 0xdb, 0xff, 0xff, 0x08, 0x00, 0x00, 0x00, 0x14, 0x00, 0x00, 0x00,
    0x01, 0x00, 0x00, 0x00, 0xa9, 0xff, 0xff, 0xff, 0xff, 0xff, 0xff, 0xff,
    0x00, 0x00, 0x00, 0x00, 0x01, 0x00, 0x00, 0x00, 0x6b, 0x35, 0x99, 0x3b,
    0x17, 0x00, 0x00, 0x00, 0x63, 0x6c, 0x69, 0x70, 0x5f, 0x62, 0x79, 0x5f,
    0x76, 0x61, 0x6c, 0x75, 0x65, 0x5f, 0x32, 0x2f, 0x4d, 0x69, 0x6e, 0x69,
    0x6d, 0x75, 0x6d, 0x00, 0x02, 0x00, 0x00, 0x00, 0x01, 0x00, 0x00, 0x00,
    0x80, 0x00, 0x00, 0x00, 0x6a, 0xdc, 0xff, 0xff, 0x00, 0x00, 0x00, 0x01,
    0x14, 0x00, 0x00, 0x00, 0x34, 0x00, 0x00, 0x00, 0x44, 0x00, 0x00, 0x00,
    0x00, 0x00, 0x00, 0x09, 0x34, 0x00, 0x00, 0x00, 0x54, 0xdc, 0xff, 0xff,
    0x08, 0x00, 0x00, 0x00, 0x14, 0x00, 0x00, 0x00, 0x01, 0x00, 0x00, 0x00,
    0xa9, 0xff, 0xff, 0xff, 0xff, 0xff, 0xff, 0xff, 0x00, 0x00, 0x00, 0x00,
    0x01, 0x00, 0x00, 0x00, 0x6b, 0x35, 0x99, 0x3b, 0x05, 0x00, 0x00, 0x00,
    0x61, 0x64, 0x64, 0x5f, 0x39, 0x00, 0x00, 0x00, 0x02, 0x00, 0x00, 0x00,
    0x01, 0x00, 0x00, 0x00, 0x80, 0x00, 0x00, 0x00, 0xc2, 0xdc, 0xff, 0xff,
    0x00, 0x00, 0x00, 0x01, 0x14, 0x00, 0x00, 0x00, 0x34, 0x00, 0x00, 0x00,
    0x43, 0x00, 0x00, 0x00, 0x00, 0x00, 0x00, 0x09, 0x34, 0x00, 0x00, 0x00,
    0xac, 0xdc, 0xff, 0xff, 0x08, 0x00, 0x00, 0x00, 0x14, 0x00, 0x00, 0x00,
    0x01, 0x00, 0x00, 0x00, 0xdd, 0xff, 0xff, 0xff, 0xff, 0xff, 0xff, 0xff,
    0x00, 0x00, 0x00, 0x00, 0x01, 0x00, 0x00, 0x00, 0x3c, 0x68, 0xf3, 0x3b,
    0x05, 0x00, 0x00, 0x00, 0x6d, 0x75, 0x6c, 0x5f, 0x34, 0x00, 0x00, 0x00,
    0x02, 0x00, 0x00, 0x00, 0x01, 0x00, 0x00, 0x00, 0x80, 0x00, 0x00, 0x00,
    0x1a, 0xdd, 0xff, 0xff, 0x00, 0x00, 0x00, 0x01, 0x14, 0x00, 0x00, 0x00,
    0x34, 0x00, 0x00, 0x00, 0x42, 0x00, 0x00, 0x00, 0x00, 0x00, 0x00, 0x09,
    0x3c, 0x00, 0x00, 0x00, 0x04, 0xdd, 0xff, 0xff, 0x08, 0x00, 0x00, 0x00,
    0x14, 0x00, 0x00, 0x00, 0x01, 0x00, 0x00, 0x00, 0xff, 0xff, 0xff, 0xff,
    0xff, 0xff, 0xff, 0xff, 0x00, 0x00, 0x00, 0x00, 0x01, 0x00, 0x00, 0x00,
    0xfc, 0x5d, 0x06, 0x3d, 0x0c, 0x00, 0x00, 0x00, 0x4d, 0x61, 0x74, 0x4d,
    0x75, 0x6c, 0x3b, 0x61, 0x64, 0x64, 0x5f, 0x38, 0x00, 0x00, 0x00, 0x00,
    0x02, 0x00, 0x00, 0x00, 0x01, 0x00, 0x00, 0x00, 0x80, 0x00, 0x00, 0x00,
    0x7a, 0xdd, 0xff, 0xff, 0x00, 0x00, 0x00, 0x01, 0x14, 0x00, 0x00, 0x00,
    0x30, 0x00, 0x00, 0x00, 0x41, 0x00, 0x00, 0x00, 0x00, 0x00, 0x00, 0x09,
    0x34, 0x00, 0x00, 0x00, 0x64, 0xdd, 0xff, 0xff, 0x08, 0x00, 0x00, 0x00,
    0x10, 0x00, 0x00, 0x00, 0x01, 0x00, 0x00, 0x00, 0xf3, 0xff, 0xff, 0xff,
    0xff, 0xff, 0xff, 0xff, 0x01, 0x00, 0x00, 0x00, 0xb9, 0x93, 0xe1, 0x3c,
    0x09, 0x00, 0x00, 0x00, 0x52, 0x65, 0x73, 0x68, 0x61, 0x70, 0x65, 0x5f,
    0x32, 0x00, 0x00, 0x00, 0x02, 0x00, 0x00, 0x00, 0x01, 0x00, 0x00, 0x00,
    0x10, 0x00, 0x00, 0x00, 0xd2, 0xdd, 0xff, 0xff, 0x00, 0x00, 0x00, 0x01,
    0x14, 0x00, 0x00, 0x00, 0x34, 0x00, 0x00, 0x00, 0x40, 0x00, 0x00, 0x00,
    0x00, 0x00, 0x00, 0x09, 0x34, 0x00, 0x00, 0x00, 0xbc, 0xdd, 0xff, 0xff,
    0x08, 0x00, 0x00, 0x00, 0x14, 0x00, 0x00, 0x00, 0x01, 0x00, 0x00, 0x00,
    0xf3, 0xff, 0xff, 0xff, 0xff, 0xff, 0xff, 0xff, 0x00, 0x00, 0x00, 0x00,
    0x01, 0x00, 0x00, 0x00, 0xb9, 0x93, 0xe1, 0x3c, 0x04, 0x00, 0x00, 0x00,
    0x4d, 0x65, 0x61, 0x6e, 0x00, 0x00, 0x00, 0x00, 0x04, 0x00, 0x00, 0x00,
    0x01, 0x00, 0x00, 0x00, 0x10, 0x00, 0x00, 0x00, 0x01, 0x00, 0x00, 0x00,
    0x01, 0x00, 0x00, 0x00, 0x32, 0xde, 0xff, 0xff, 0x00, 0x00, 0x00, 0x01,
    0x14, 0x00, 0x00, 0x00, 0x34, 0x00, 0x00, 0x00, 0x3f, 0x00, 0x00, 0x00,
    0x00, 0x00, 0x00, 0x09, 0x3c, 0x00, 0x00, 0x00, 0x1c, 0xde, 0xff, 0xff,
    0x08, 0x00, 0x00, 0x00, 0x14, 0x00, 0x00, 0x00, 0x01, 0x00, 0x00, 0x00,
    0x01, 0x00, 0x00, 0x00, 0x00, 0x00, 0x00, 0x00, 0x00, 0x00, 0x00, 0x00,
    0x01, 0x00, 0x00, 0x00, 0x18, 0x14, 0xbc, 0x3d, 0x0c, 0x00, 0x00, 0x00,
    0x74, 0x72, 0x61, 0x6e, 0x73, 0x70, 0x6f, 0x73, 0x65, 0x5f, 0x32, 0x30,
    0x00, 0x00, 0x00, 0x00, 0x04, 0x00, 0x00, 0x00, 0x01, 0x00, 0x00, 0x00,
    0x10, 0x00, 0x00, 0x00, 0x05, 0x00, 0x00, 0x00, 0x04, 0x00, 0x00, 0x00,
    0x9a, 0xde, 0xff, 0xff, 0x00, 0x00, 0x00, 0x01, 0x14, 0x00, 0x00, 0x00,
    0x34, 0x00, 0x00, 0x00, 0x3e, 0x00, 0x00, 0x00, 0x00, 0x00, 0x00, 0x09,
    0x4c, 0x00, 0x00, 0x00, 0x84, 0xde, 0xff, 0xff, 0x08, 0x00, 0x00, 0x00,
    0x14, 0x00, 0x00, 0x00, 0x01, 0x00, 0x00, 0x00, 0x01, 0x00, 0x00, 0x00,
    0x00, 0x00, 0x00, 0x00, 0x00, 0x00, 0x00, 0x00, 0x01, 0x00, 0x00, 0x00,
    0x18, 0x14, 0xbc, 0x3d, 0x1c, 0x00, 0x00, 0x00, 0x41, 0x64, 0x64, 0x5f,
    0x37, 0x3b, 0x63, 0x6f, 0x6e, 0x76, 0x6f, 0x6c, 0x75, 0x74, 0x69, 0x6f,
    0x6e, 0x5f, 0x34, 0x3b, 0x43, 0x6f, 0x6e, 0x73, 0x74, 0x5f, 0x31, 0x32,
    0x00, 0x00, 0x00, 0x00, 0x04, 0x00, 0x00, 0x00, 0x01, 0x00, 0x00, 0x00,
    0x05, 0x00, 0x00, 0x00, 0x04, 0x00, 0x00, 0x00, 0x10, 0x00, 0x00, 0x00,
    0x12, 0xdf, 0xff, 0xff, 0x00, 0x00, 0x00, 0x01, 0x14, 0x00, 0x00, 0x00,
    0x34, 0x00, 0x00, 0x00, 0x3d, 0x00, 0x00, 0x00, 0x00, 0x00, 0x00, 0x09,
    0x6c, 0x00, 0x00, 0x00, 0xfc, 0xde, 0xff, 0xff, 0x08, 0x00, 0x00, 0x00,
    0x14, 0x00, 0x00, 0x00, 0x01, 0x00, 0x00, 0x00, 0x80, 0xff, 0xff, 0xff,
    0xff, 0xff, 0xff, 0xff, 0x00, 0x00, 0x00, 0x00, 0x01, 0x00, 0x00, 0x00,
    0x0c, 0x1e, 0x41, 0x3d, 0x3f, 0x00, 0x00, 0x00, 0x6f, 0x6e, 0x6e, 0x78,
    0x5f, 0x74, 0x66, 0x5f, 0x70, 0x72, 0x65, 0x66, 0x69, 0x78, 0x5f, 0x2f,
    0x62, 0x6c, 0x6f, 0x63, 0x6b, 0x32, 0x2f, 0x62, 0x6c, 0x6f, 0x63, 0x6b,
    0x32, 0x2e, 0x32, 0x2f, 0x52, 0x65, 0x6c, 0x75, 0x3b, 0x41, 0x64, 0x64,
    0x5f, 0x36, 0x3b, 0x64, 0x65, 0x70, 0x74, 0x68, 0x77, 0x69, 0x73, 0x65,
    0x5f, 0x31, 0x3b, 0x43, 0x6f, 0x6e, 0x73, 0x74, 0x5f, 0x31, 0x30, 0x00,
    0x04, 0x00, 0x00, 0x00, 0x01, 0x00, 0x00, 0x00, 0x05, 0x00, 0x00, 0x00,
    0x04, 0x00, 0x00, 0x00, 0x10, 0x00, 0x00, 0x00, 0xaa, 0xdf, 0xff, 0xff,
    0x00, 0x00, 0x00, 0x01, 0x14, 0x00, 0x00, 0x00, 0x34, 0x00, 0x00, 0x00,
    0x3c, 0x00, 0x00, 0x00, 0x00, 0x00, 0x00, 0x09, 0x3c, 0x00, 0x00, 0x00,
    0x94, 0xdf, 0xff, 0xff, 0x08, 0x00, 0x00, 0x00, 0x14, 0x00, 0x00, 0x00,
    0x01, 0x00, 0x00, 0x00, 0x89, 0xff, 0xff, 0xff, 0xff, 0xff, 0xff, 0xff,
    0x00, 0x00, 0x00, 0x00, 0x01, 0x00, 0x00, 0x00, 0x30, 0x45, 0x34, 0x3d,
    0x0c, 0x00, 0x00, 0x00, 0x74, 0x72, 0x61, 0x6e, 0x73, 0x70, 0x6f, 0x73,
    0x65, 0x5f, 0x31, 0x36, 0x00, 0x00, 0x00, 0x00, 0x04, 0x00, 0x00, 0x00,
    0x01, 0x00, 0x00, 0x00, 0x07, 0x00, 0x00, 0x00, 0x06, 0x00, 0x00, 0x00,
    0x10, 0x00, 0x00, 0x00, 0x12, 0xe0, 0xff, 0xff, 0x00, 0x00, 0x00, 0x01,
    0x14, 0x00, 0x00, 0x00, 0x34, 0x00, 0x00, 0x00, 0x3b, 0x00, 0x00, 0x00,
    0x00, 0x00, 0x00, 0x09, 0x34, 0x00, 0x00, 0x00, 0xfc, 0xdf, 0xff, 0xff,
    0x08, 0x00, 0x00, 0x00, 0x14, 0x00, 0x00, 0x00, 0x01, 0x00, 0x00, 0x00,
    0x89, 0xff, 0xff, 0xff, 0xff, 0xff, 0xff, 0xff, 0x00, 0x00, 0x00, 0x00,
    0x01, 0x00, 0x00, 0x00, 0x30, 0x45, 0x34, 0x3d, 0x05, 0x00, 0x00, 0x00,
    0x50, 0x61, 0x64, 0x5f, 0x34, 0x00, 0x00, 0x00, 0x04, 0x00, 0x00, 0x00,
    0x01, 0x00, 0x00, 0x00, 0x10, 0x00, 0x00, 0x00, 0x07, 0x00, 0x00, 0x00,
    0x06, 0x00, 0x00, 0x00, 0x72, 0xe0, 0xff, 0xff, 0x00, 0x00, 0x00, 0x01,
    0x14, 0x00, 0x00, 0x00, 0x34, 0x00, 0x00, 0x00, 0x3a, 0x00, 0x00, 0x00,
    0x00, 0x00, 0x00, 0x09, 0x4c, 0x00, 0x00, 0x00, 0x5c, 0xe0, 0xff, 0xff,
    0x08, 0x00, 0x00, 0x00, 0x14, 0x00, 0x00, 0x00, 0x01, 0x00, 0x00, 0x00,
    0x89, 0xff, 0xff, 0xff, 0xff, 0xff, 0xff, 0xff, 0x00, 0x00, 0x00, 0x00,
    0x01, 0x00, 0x00, 0x00, 0x30, 0x45, 0x34, 0x3d, 0x1f, 0x00, 0x00, 0x00,
    0x6f, 0x6e, 0x6e, 0x78, 0x5f, 0x74, 0x66, 0x5f, 0x70, 0x72, 0x65, 0x66,
    0x69, 0x78, 0x5f, 0x2f, 0x68, 0x61, 0x72, 0x64, 0x73, 0x77, 0x69, 0x73,
    0x68, 0x5f, 0x31, 0x2f, 0x4d, 0x75, 0x6c, 0x00, 0x04, 0x00, 0x00, 0x00,
    0x01, 0x00, 0x00, 0x00, 0x10, 0x00, 0x00, 0x00, 0x05, 0x00, 0x00, 0x00,
    0x04, 0x00, 0x00, 0x00, 0xea, 0xe0, 0xff, 0xff, 0x00, 0x00, 0x00, 0x01,
    0x14, 0x00, 0x00, 0x00, 0x34, 0x00, 0x00, 0x00, 0x39, 0x00, 0x00, 0x00,
    0x00, 0x00, 0x00, 0x09, 0x3c, 0x00, 0x00, 0x00, 0xd4, 0xe0, 0xff, 0xff,
    0x08, 0x00, 0x00, 0x00, 0x14, 0x00, 0x00, 0x00, 0x01, 0x00, 0x00, 0x00,
    0x89, 0xff, 0xff, 0xff, 0xff, 0xff, 0xff, 0xff, 0x00, 0x00, 0x00, 0x00,
    0x01, 0x00, 0x00, 0x00, 0x30, 0x45, 0x34, 0x3d, 0x0f, 0x00, 0x00, 0x00,
    0x63, 0x6c, 0x69, 0x70, 0x5f, 0x62, 0x79, 0x5f, 0x76, 0x61, 0x6c, 0x75,
    0x65, 0x5f, 0x31, 0x00, 0x04, 0x00, 0x00, 0x00, 0x01, 0x00, 0x00, 0x00,
    0x10, 0x00, 0x00, 0x00, 0x05, 0x00, 0x00, 0x00, 0x04, 0x00, 0x00, 0x00,
    0x52, 0xe1, 0xff, 0xff, 0x00, 0x00, 0x00, 0x01, 0x14, 0x00, 0x00, 0x00,
    0x34, 0x00, 0x00, 0x00, 0x38, 0x00, 0x00, 0x00, 0x00, 0x00, 0x00, 0x09,
    0x44, 0x00, 0x00, 0x00, 0x3c, 0xe1, 0xff, 0xff, 0x08, 0x00, 0x00, 0x00,
    0x14, 0x00, 0x00, 0x00, 0x01, 0x00, 0x00, 0x00, 0x26, 0x00, 0x00, 0x00,
    0x00, 0x00, 0x00, 0x00, 0x00, 0x00, 0x00, 0x00, 0x01, 0x00, 0x00, 0x00,
    0x97, 0x06, 0x39, 0x3c, 0x17, 0x00, 0x00, 0x00, 0x63, 0x6c, 0x69, 0x70,
    0x5f, 0x62, 0x79, 0x5f, 0x76, 0x61, 0x6c, 0x75, 0x65, 0x5f, 0x31, 0x2f,
    0x4d, 0x69, 0x6e, 0x69, 0x6d, 0x75, 0x6d, 0x00, 0x04, 0x00, 0x00, 0x00,
    0x01, 0x00, 0x00, 0x00, 0x10, 0x00, 0x00, 0x00, 0x05, 0x00, 0x00, 0x00,
    0x04, 0x00, 0x00, 0x00, 0xc2, 0xe1, 0xff, 0xff, 0x00, 0x00, 0x00, 0x01,
    0x14, 0x00, 0x00, 0x00, 0x34, 0x00, 0x00, 0x00, 0x37, 0x00, 0x00, 0x00,
    0x00, 0x00, 0x00, 0x09, 0x34, 0x00, 0x00, 0x00, 0xac, 0xe1, 0xff, 0xff,
    0x08, 0x00, 0x00, 0x00, 0x14, 0x00, 0x00, 0x00, 0x01, 0x00, 0x00, 0x00,
    0x26, 0x00, 0x00, 0x00, 0x00, 0x00, 0x00, 0x00, 0x00, 0x00, 0x00, 0x00,
    0x01, 0x00, 0x00, 0x00, 0x97, 0x06, 0x39, 0x3c, 0x05, 0x00, 0x00, 0x00,
    0x61, 0x64, 0x64, 0x5f, 0x35, 0x00, 0x00, 0x00, 0x04, 0x00, 0x00, 0x00,
    0x01, 0x00, 0x00, 0x00, 0x10, 0x00, 0x00, 0x00, 0x05, 0x00, 0x00, 0x00,
    0x04, 0x00, 0x00, 0x00, 0x22, 0xe2, 0xff, 0xff, 0x00, 0x00, 0x00, 0x01,
    0x14, 0x00, 0x00, 0x00, 0x34, 0x00, 0x00, 0x00, 0x36, 0x00, 0x00, 0x00,
    0x00, 0x00, 0x00, 0x09, 0x34, 0x00, 0x00, 0x00, 0x0c, 0xe2, 0xff, 0xff,
    0x08, 0x00, 0x00, 0x00, 0x14, 0x00, 0x00, 0x00, 0x01, 0x00, 0x00, 0x00,
    0x01, 0x00, 0x00, 0x00, 0x00, 0x00, 0x00, 0x00, 0x00, 0x00, 0x00, 0x00,
    0x01, 0x00, 0x00, 0x00, 0x59, 0x98, 0x96, 0x3c, 0x05, 0x00, 0x00, 0x00,
    0x6d, 0x75, 0x6c, 0x5f, 0x31, 0x00, 0x00, 0x00, 0x04, 0x00, 0x00, 0x00,
    0x01, 0x00, 0x00, 0x00, 0x10, 0x00, 0x00, 0x00, 0x05, 0x00, 0x00, 0x00,
    0x04, 0x00, 0x00, 0x00, 0x82, 0xe2, 0xff, 0xff, 0x00, 0x00, 0x00, 0x01,
    0x14, 0x00, 0x00, 0x00, 0x34, 0x00, 0x00, 0x00, 0x35, 0x00, 0x00, 0x00,
    0x00, 0x00, 0x00, 0x09, 0x3c, 0x00, 0x00, 0x00, 0x6c, 0xe2, 0xff, 0xff,
    0x08, 0x00, 0x00, 0x00, 0x14, 0x00, 0x00, 0x00, 0x01, 0x00, 0x00, 0x00,
    0x11, 0x00, 0x00, 0x00, 0x00, 0x00, 0x00, 0x00, 0x00, 0x00, 0x00, 0x00,
    0x01, 0x00, 0x00, 0x00, 0x6e, 0xcc, 0xc9, 0x3d, 0x0c, 0x00, 0x00, 0x00,
    0x74, 0x72, 0x61, 0x6e, 0x73, 0x70, 0x6f, 0x73, 0x65, 0x5f, 0x31, 0x34,
    0x00, 0x00, 0x00, 0x00, 0x04, 0x00, 0x00, 0x00, 0x01, 0x00, 0x00, 0x00,
    0x10, 0x00, 0x00, 0x00, 0x05, 0x00, 0x00, 0x00, 0x04, 0x00, 0x00, 0x00,
    0xea, 0xe2, 0xff, 0xff, 0x00, 0x00, 0x00, 0x01, 0x14, 0x00, 0x00, 0x00,
    0x30, 0x00, 0x00, 0x00, 0x34, 0x00, 0x00, 0x00, 0x00, 0x00, 0x00, 0x09,
    0x44, 0x00, 0x00, 0x00, 0xd4, 0xe2, 0xff, 0xff, 0x08, 0x00, 0x00, 0x00,
    0x10, 0x00, 0x00, 0x00, 0x01, 0x00, 0x00, 0x00, 0x11, 0x00, 0x00, 0x00,
    0x00, 0x00, 0x00, 0x00, 0x01, 0x00, 0x00, 0x00, 0x6e, 0xcc, 0xc9, 0x3d,
    0x1b, 0x00, 0x00, 0x00, 0x41, 0x64, 0x64, 0x5f, 0x34, 0x3b, 0x63, 0x6f,
    0x6e, 0x76, 0x6f, 0x6c, 0x75, 0x74, 0x69, 0x6f, 0x6e, 0x5f, 0x33, 0x3b,
    0x43, 0x6f, 0x6e, 0x73, 0x74, 0x5f, 0x38, 0x00, 0x04, 0x00, 0x00, 0x00,
    0x01, 0x00, 0x00, 0x00, 0x05, 0x00, 0x00, 0x00, 0x04, 0x00, 0x00, 0x00,
    0x10, 0x00, 0x00, 0x00, 0x5a, 0xe3, 0xff, 0xff, 0x00, 0x00, 0x00, 0x01,
    0x14, 0x00, 0x00, 0x00, 0x34, 0x00, 0x00, 0x00, 0x33, 0x00, 0x00, 0x00,
    0x00, 0x00, 0x00, 0x09, 0x3c, 0x00, 0x00, 0x00, 0x44, 0xe3, 0xff, 0xff,
    0x08, 0x00, 0x00, 0x00, 0x14, 0x00, 0x00, 0x00, 0x01, 0x00, 0x00, 0x00,
    0x00, 0x00, 0x00, 0x00, 0x00, 0x00, 0x00, 0x00, 0x00, 0x00, 0x00, 0x00,
    0x01, 0x00, 0x00, 0x00, 0x4e, 0xb8, 0xeb, 0x3d, 0x0c, 0x00, 0x00, 0x00,
    0x74, 0x72, 0x61, 0x6e, 0x73, 0x70, 0x6f, 0x73, 0x65, 0x5f, 0x31, 0x33,
    0x00, 0x00, 0x00, 0x00, 0x04, 0x00, 0x00, 0x00, 0x01, 0x00, 0x00, 0x00,
    0x0c, 0x00, 0x00, 0x00, 0x09, 0x00, 0x00, 0x00, 0x10, 0x00, 0x00, 0x00,
    0xc2, 0xe3, 0xff, 0xff, 0x00, 0x00, 0x00, 0x01, 0x14, 0x00, 0x00, 0x00,
    0x34, 0x00, 0x00, 0x00, 0x32, 0x00, 0x00, 0x00, 0x00, 0x00, 0x00, 0x09,
    0x34, 0x00, 0x00, 0x00, 0xac, 0xe3, 0xff, 0xff, 0x08, 0x00, 0x00, 0x00,
    0x14, 0x00, 0x00, 0x00, 0x01, 0x00, 0x00, 0x00, 0x00, 0x00, 0x00, 0x00,
    0x00, 0x00, 0x00, 0x00, 0x00, 0x00, 0x00, 0x00, 0x01, 0x00, 0x00, 0x00,
    0x4e, 0xb8, 0xeb, 0x3d, 0x05, 0x00, 0x00, 0x00, 0x50, 0x61, 0x64, 0x5f,
    0x33, 0x00, 0x00, 0x00, 0x04, 0x00, 0x00, 0x00, 0x01, 0x00, 0x00, 0x00,
    0x10, 0x00, 0x00, 0x00, 0x0c, 0x00, 0x00, 0x00, 0x09, 0x00, 0x00, 0x00,
    0x22, 0xe4, 0xff, 0xff, 0x00, 0x00, 0x00, 0x01, 0x14, 0x00, 0x00, 0x00,
    0x34, 0x00, 0x00, 0x00, 0x31, 0x00, 0x00, 0x00, 0x00, 0x00, 0x00, 0x09,
    0x3c, 0x00, 0x00, 0x00, 0x0c, 0xe4, 0xff, 0xff, 0x08, 0x00, 0x00, 0x00,
    0x14, 0x00, 0x00, 0x00, 0x01, 0x00, 0x00, 0x00, 0x00, 0x00, 0x00, 0x00,
    0x00, 0x00, 0x00, 0x00, 0x00, 0x00, 0x00, 0x00, 0x01, 0x00, 0x00, 0x00,
    0x4e, 0xb8, 0xeb, 0x3d, 0x0c, 0x00, 0x00, 0x00, 0x74, 0x72, 0x61, 0x6e,
    0x73, 0x70, 0x6f, 0x73, 0x65, 0x5f, 0x31, 0x31, 0x00, 0x00, 0x00, 0x00,
    0x04, 0x00, 0x00, 0x00, 0x01, 0x00, 0x00, 0x00, 0x10, 0x00, 0x00, 0x00,
    0x0a, 0x00, 0x00, 0x00, 0x07, 0x00, 0x00, 0x00, 0x8a, 0xe4, 0xff, 0xff,
    0x00, 0x00, 0x00, 0x01, 0x14, 0x00, 0x00, 0x00, 0x30, 0x00, 0x00, 0x00,
    0x30, 0x00, 0x00, 0x00, 0x00, 0x00, 0x00, 0x09, 0x44, 0x00, 0x00, 0x00,
    0x74, 0xe4, 0xff, 0xff, 0x08, 0x00, 0x00, 0x00, 0x10, 0x00, 0x00, 0x00,
    0x01, 0x00, 0x00, 0x00, 0x00, 0x00, 0x00, 0x00, 0x00, 0x00, 0x00, 0x00,
    0x01, 0x00, 0x00, 0x00, 0x4e, 0xb8, 0xeb, 0x3d, 0x1b, 0x00, 0x00, 0x00,
    0x41, 0x64, 0x64, 0x5f, 0x33, 0x3b, 0x63, 0x6f, 0x6e, 0x76, 0x6f, 0x6c,
    0x75, 0x74, 0x69, 0x6f, 0x6e, 0x5f, 0x32, 0x3b, 0x43, 0x6f, 0x6e, 0x73,
    0x74, 0x5f, 0x36, 0x00, 0x04, 0x00, 0x00, 0x00, 0x01, 0x00, 0x00, 0x00,
    0x0a, 0x00, 0x00, 0x00, 0x07, 0x00, 0x00, 0x00, 0x10, 0x00, 0x00, 0x00,
    0xfa, 0xe4, 0xff, 0xff, 0x00, 0x00, 0x00, 0x01, 0x14, 0x00, 0x00, 0x00,
    0x34, 0x00, 0x00, 0x00, 0x2f, 0x00, 0x00, 0x00, 0x00, 0x00, 0x00, 0x09,
    0x6c, 0x00, 0x00, 0x00, 0xe4, 0xe4, 0xff, 0xff, 0x08, 0x00, 0x00, 0x00,
    0x14, 0x00, 0x00, 0x00, 0x01, 0x00, 0x00, 0x00, 0x80, 0xff, 0xff, 0xff,
    0xff, 0xff, 0xff, 0xff, 0x00, 0x00, 0x00, 0x00, 0x01, 0x00, 0x00, 0x00,
    0x38, 0xf3, 0x49, 0x3d, 0x3c, 0x00, 0x00, 0x00, 0x6f, 0x6e, 0x6e, 0x78,
    0x5f, 0x74, 0x66, 0x5f, 0x70, 0x72, 0x65, 0x66, 0x69, 0x78, 0x5f, 0x2f,
    0x62, 0x6c, 0x6f, 0x63, 0x6b, 0x31, 0x2f, 0x62, 0x6c, 0x6f, 0x63, 0x6b,
    0x31, 0x2e, 0x32, 0x2f, 0x52, 0x65, 0x6c, 0x75, 0x3b, 0x41, 0x64, 0x64,
    0x5f, 0x32, 0x3b, 0x64, 0x65, 0x70, 0x74, 0x68, 0x77, 0x69, 0x73, 0x65,
    0x3b, 0x43, 0x6f, 0x6e, 0x73, 0x74, 0x5f, 0x34, 0x00, 0x00, 0x00, 0x00,
    0x04, 0x00, 0x00, 0x00, 0x01, 0x00, 0x00, 0x00, 0x0a, 0x00, 0x00, 0x00,
    0x07, 0x00, 0x00, 0x00, 0x10, 0x00, 0x00, 0x00, 0x92, 0xe5, 0xff, 0xff,
    0x00, 0x00, 0x00, 0x01, 0x14, 0x00, 0x00, 0x00, 0x30, 0x00, 0x00, 0x00,
    0x2e, 0x00, 0x00, 0x00, 0x00, 0x00, 0x00, 0x09, 0x34, 0x00, 0x00, 0x00,
    0x7c, 0xe5, 0xff, 0xff, 0x08, 0x00, 0x00, 0x00, 0x10, 0x00, 0x00, 0x00,
    0x01, 0x00, 0x00, 0x00, 0x80, 0xff, 0xff, 0xff, 0xff, 0xff, 0xff, 0xff,
    0x01, 0x00, 0x00, 0x00, 0x56, 0x38, 0x1b, 0x3c, 0x0b, 0x00, 0x00, 0x00,
    0x74, 0x72, 0x61, 0x6e, 0x73, 0x70, 0x6f, 0x73, 0x65, 0x5f, 0x37, 0x00,
    0x04, 0x00, 0x00, 0x00, 0x01, 0x00, 0x00, 0x00, 0x0c, 0x00, 0x00, 0x00,
    0x09, 0x00, 0x00, 0x00, 0x10, 0x00, 0x00, 0x00, 0xf2, 0xe5, 0xff, 0xff,
    0x00, 0x00, 0x00, 0x01, 0x14, 0x00, 0x00, 0x00, 0x34, 0x00, 0x00, 0x00,
    0x2d, 0x00, 0x00, 0x00, 0x00, 0x00, 0x00, 0x09, 0x34, 0x00, 0x00, 0x00,
    0xdc, 0xe5, 0xff, 0xff, 0x08, 0x00, 0x00, 0x00, 0x14, 0x00, 0x00, 0x00,
    0x01, 0x00, 0x00, 0x00, 0x80, 0xff, 0xff, 0xff, 0xff, 0xff, 0xff, 0xff,
    0x00, 0x00, 0x00, 0x00, 0x01, 0x00, 0x00, 0x00, 0x56, 0x38, 0x1b, 0x3c,
    0x05, 0x00, 0x00, 0x00, 0x50, 0x61, 0x64, 0x5f, 0x32, 0x00, 0x00, 0x00,
    0x04, 0x00, 0x00, 0x00, 0x01, 0x00, 0x00, 0x00, 0x10, 0x00, 0x00, 0x00,
    0x0c, 0x00, 0x00, 0x00, 0x09, 0x00, 0x00, 0x00, 0x52, 0xe6, 0xff, 0xff,
    0x00, 0x00, 0x00, 0x01, 0x14, 0x00, 0x00, 0x00, 0x30, 0x00, 0x00, 0x00,
    0x2c, 0x00, 0x00, 0x00, 0x00, 0x00, 0x00, 0x09, 0x34, 0x00, 0x00, 0x00,
